[PAD]
[UNK]
[CLS]
[SEP]
[MASK]
<S>
<T>
!
"
%
&
'
(
)
*
,
-
.
/
0
1
2
3
4
5
6
7
8
9
:
;
=
?
[
]
a
b
c
d
e
f
g
h
i
j
k
l
m
n
o
p
q
r
s
t
u
v
w
x
y
z
§
¬
°
½
ß
æ
ø
–
##u
##l
##d
##b
##ø
##e
##t
##n
##o
##m
##p
##r
##f
##a
##k
##i
##g
##v
##s
##æ
##c
##h
##y
##z
##8
##0
##j
##w
##7
##9
##3
##1
##q
##2
##4
##5
##6
##x
##¬
##½
##ß
##°
##er
##en
##de
##or
##an
##et
##st
##ed
##aa
##ig
##il
##in
og
##el
for
##ar
##es
##nd
##om
##ag
til
den
##te
af
##on
##al
##ing
##re
##ter
at
##ne
##sk
en
##le
##and
##ende
de
##ver
st
be
##am
##id
sk
##ol
##ør
##lig
paa
##se
##at
er
##av
fr
med
##den
der
som
##is
##ste
##it
##og
##ler
ved
det
##ion
##ær
##fter
al
##ning
##sen
##der
##kk
##omm
an
##ge
##ie
hv
##nder
efter
##ske
##ch
##aar
##ri
her
ud
##eg
##us
ind
##li
han
##ur
##dt
##ræ
##ir
##ve
##un
##ct
sam
om
##ien
##des
##elig
##ro
##me
saa
##ber
hav
et
ho
fra
har
##ens
##ent
sig
##ere
under
##øb
##od
##ort
##ad
##det
##ru
over
##ret
##ul
au
##ang
op
##hed
18
##agen
##komm
##ster
##lige
##mel
##øl
##00
##kke
ki
##org
##del
##as
##hol
var
##gi
##ction
##erne
aar
el
kon
##be
##age
ski
##ers
hvor
bli
##ab
##ved
##ige
vil
##dr
##ff
hos
auction
ar
ma
før
have
##else
##ier
eller
##ten
kl
##ind
##ke
##gen
##els
man
kan
##aard
nog
deres
##borg
no
ere
##tet
##mer
da
##ra
ch
##avn
maa
##ven
##gt
ikke
pro
##br
sl
##em
men
##est
kiøb
##ling
##aad
##la
samt
##uus
##land
hr
##vi
##for
##um
##red
by
##ød
mar
hans
alle
se
denne
##kommende
##dagen
ny
samme
bo
##æl
##ger
hø
gi
##mid
##und
17
end
sid
##agt
##ede
##dte
bek
br
##ist
con
##ære
lo
##bo
##ap
##ts
hol
10
##ud
##ut
##enh
skal
bliver
ble
##nes
kong
and
12
##gende
##im
tid
##rist
##øde
##ant
sp
##ene
##eder
vi
bet
##aae
##yn
##øn
##vær
##tte
##ust
re
##enhavn
christ
##læ
lig
la
sin
in
##ft
rd
bes
bort
##ord
##rig
vær
##anske
##elige
ber
##iske
kun
##pp
##ets
##by
stor
##kal
##pr
pr
##gj
##retning
##mand
##ager
le
hvil
##øre
##ation
herved
mand
føl
beh
##to
være
##inger
land
##sel
##ighed
rb
##ele
ham
th
aller
##aarden
reg
##ug
vor
##inde
##æn
##ot
nu
##aden
##iendt
##rem
##dag
dem
eng
##tr
off
##var
##ic
mk
rbd
##huus
co
ret
##stkommende
kiøbenhavn
##ker
ad
##lem
11
sel
dette
dag
sch
jnd
##æt
dit
##til
##ik
afg
##ser
##skab
##yl
##iser
fors
##aget
##ii
##ket
min
sø
mig
##ade
uden
##fte
udi
ha
##isse
##vn
##ost
##iel
##ian
##fal
##yr
##aaende
præ
jeg
tr
##kker
##let
best
am
ly
##ition
gaard
maj
##ken
##orn
havde
bekiendt
alt
gaarden
indkal
##ich
par
kj
##lr
##vet
##ob
##ide
fl
##gaard
##af
##atter
proc
##ener
sog
##med
##deel
dito
li
hen
beg
gj
mel
me
##iss
##ki
skul
blev
formid
##ninger
offent
blive
maatte
ste
##eds
##æst
##uld
181
jn
##ings
frem
borts
førstkommende
christian
##ub
##meldte
comm
182
##ads
go
første
bør
gr
faa
ster
##ha
##ue
sal
he
##ges
nær
inden
##hver
##sdagen
##sens
disse
##ørende
##toir
##berg
ju
god
##riv
##op
##viis
##stem
##øm
bl
##rev
huus
efterretning
14
##nu
15
##igt
ve
##nede
kr
gener
##ine
meg
jo
jun
##old
general
betal
tdr
afd
andre
rdlr
##teg
##før
16
apr
20
noget
april
nye
oct
##os
vid
##delse
##aaer
##saa
##stæ
nogle
sidste
hver
##ndition
##isk
##vbo
##ner
dr
##tes
engel
##vende
fe
tro
or
skifte
lov
##kr
stervbo
vel
##ire
bog
##val
##ammer
dan
hal
##yd
aug
tilh
##dre
sti
##vis
ven
13
enhver
ville
sm
endnu
##mod
##mber
juli
##kom
##art
##iet
offentlig
sep
herred
fag
bev
dec
ex
1ste
##mæ
##bru
mo
mod
##ast
##sp
##ligt
meget
pl
nogen
forl
anden
##hen
kongelige
jan
##die
condition
##ec
##æg
##øres
anmel
cap
##net
180
tillige
##ess
##rige
##bet
byg
##ov
##ande
##ævn
august
sted
##uden
kir
##men
ant
##hold
komm
deel
und
fran
##ia
##yg
søl
##ledes
naar
varsel
hs
24
forn
##pper
##anden
arv
##ningen
gang
##esk
##jen
vedkommende
##elser
saav
aal
##up
lø
##rup
##iend
##ange
bemeldte
mu
selv
dog
##ille
##vig
fal
sølv
ge
form
ogsaa
##læg
##000
##he
bekiendtgi
##omp
##cel
##ah
stra
slet
hof
raad
tilb
dage
kjøb
##rede
##mar
3die
30
##sø
hvilket
##itor
sen
tilhørende
##ass
##ann
##ac
belig
##igst
##erede
tor
22
træ
##ill
octo
vare
##lere
aalborg
store
179
##endes
##lam
majest
##dan
##gers
hel
allern
maan
imod
eiend
un
##ce
ro
##valter
##aade
sogn
gru
nor
##ator
hvad
siden
hoved
25
##ss
følgende
##air
##paa
næ
afdøde
##inden
##ensen
##alt
underteg
##atte
##lag
##ly
##ies
##olgt
bru
vilde
liges
##uar
møl
##stand
##sch
lie
bestem
allernaad
indkaldes
følge
##mellem
beliggende
sæ
##sted
##hand
##ak
##her
fordr
franske
##illing
##han
##mester
des
anmelde
contoir
##holdes
##ern
##som
october
endeel
saaledes
krig
2den
##get
fred
afgang
##ski
pet
mad
26
kal
##led
##yde
3de
forb
##far
eftermid
læ
21
formiddagen
imellem
##komme
##oner
sit
grund
23
str
2de
##gang
amt
mai
##æng
januar
dom
##iden
19
kunde
foret
videre
##end
##gade
hvis
##andet
ske
##yld
##efter
bil
været
##ission
##ræn
##raad
undertegnede
skulle
##tal
##urator
##aaet
cred
##ves
gam
gode
28
strax
##kken
lands
mid
##ykker
boe
faae
##ages
##nem
danske
##terne
fin
##yk
##øden
tal
faaes
##eledes
fuld
stads
##ftet
##sten
to
græ
bar
forvalter
møde
##ærk
flere
res
beviis
##syn
##tede
ligeledes
##esse
##irk
ke
hart
##uset
skib
##ævnte
peder
##teur
##ska
##ain
##øi
##ck
ei
freder
os
proclam
##aab
tien
bed
arvinger
##au
oden
skulde
død
##ister
##ider
odense
lang
sør
ni
##kj
kammer
port
tilbage
##hav
##korn
##len
##deles
ang
febru
##orte
øv
auctions
##værk
februar
kunne
øster
bø
sy
##føl
27
##lade
ingen
##ach
##over
##mere
##eld
formiddag
##værende
hu
bye
post
##inge
rus
##skil
100
ne
borg
##holde
##kket
staden
handel
ag
slag
car
capit
po
on
forhen
ko
comp
##jendt
ugers
stat
lyst
bortsolgt
juni
##øe
##hr
##lighed
##andt
mange
##jer
bef
hartkorn
lade
##kommen
pers
afgangne
rig
##ders
stør
bortsæl
##eret
hele
keiser
ol
bleven
##ingen
##agelig
nr
av
marts
byen
bekiendtgiøres
4de
##omme
##inds
enke
##ole
septe
fol
can
##bye
decem
pri
##under
just
sil
alm
##vend
##asse
##tag
fordre
øn
fore
##gte
kongen
mart
befal
ti
##ring
halv
##ynd
##kl
conditionerne
##ou
col
##holm
##ise
jens
arbe
##tt
nat
navn
hvilken
sn
##ater
##elsen
ander
29
##orp
nove
dags
##skri
fordringer
sag
##ærd
johan
##kt
##fog
melde
bro
forme
side
september
jern
aarhuus
saavel
##gaden
forf
enten
proclama
##les
liv
ig
sidst
##itorer
eg
mind
##orde
december
##datter
ned
##fra
bestaaende
beviislig
inde
sogne
von
sæl
maae
sine
allerede
besk
fort
lin
bel
##holder
niels
##pe
allernaadigst
begge
##holdt
november
ver
stift
bekjendt
##enge
mit
ene
11te
mag
andet
pol
hert
hun
##ution
hvori
##stræ
eftersyn
em
forrige
høi
##rettet
junii
##lie
##præ
adskil
##enter
maaned
##undet
##dende
hvilke
uds
nem
skpr
saadan
procurator
hendes
qv
forinden
##igheder
##att
##mann
sor
søn
tir
##di
kongel
##boe
engelske
##reg
auctionen
tilf
høy
kar
forsk
alb
fri
peter
modt
##mo
prov
mandagen
##sraad
##lø
si
##res
##tra
##ile
dat
##idt
##landt
kn
skri
##aff
aars
178
##uten
##derne
##strup
##anter
skriv
##dede
##skaber
korn
##sb
##igste
julii
nemlig
##aan
22de
##rue
183
afholdes
##ari
igien
boende
gange
arme
fam
fød
##mark
kiøbmand
bekiendtgj
slut
børn
fæ
omtr
høie
bag
##vise
maade
dens
the
far
nærmere
##uds
regim
lovlig
##pl
een
5te
##klæ
hansen
ob
##ogn
##ladt
##aten
thi
##urg
fa
skibe
eier
lar
##mænd
famil
omtrent
behage
##sker
ab
##revne
hæ
ende
##imod
##ykke
6te
godt
commission
fru
lod
##stedet
31
selskab
døden
##vent
kiø
##sl
##trykker
du
##agn
eftermiddagen
hi
ras
kom
erfar
##følge
##edler
kirke
##itet
##rænde
50
dire
##eligt
majestæt
##aal
jac
læst
hens
nord
møller
udgi
pd
##sh
mennes
stervboe
##rer
pla
##træ
døde
##steen
klo
loven
sub
12te
##ona
vore
ligesom
##stue
26de
derfor
##ommen
bind
leg
stadsret
##min
tø
anse
cancel
##øer
mere
alminde
##melse
##ands
dertil
##fr
##orden
kjøbenhavn
tryk
##foged
kiøbenhavns
##veret
hør
##uge
tilligemed
opb
##lagt
per
gl
gods
gammel
got
##gtig
##essen
adskillige
adr
20de
##mus
bekjendtgj
##tter
forlang
onsdagen
sv
red
10de
hj
##bha
justit
hid
præste
jacob
tirsdagen
indf
##landske
##ødes
##lede
##nen
##giøre
borger
bogtrykker
nør
##all
##byg
sept
hin
##bli
tage
##fald
##lands
su
foruden
give
14de
part
##con
##vere
##str
tropper
muur
næst
fd
datter
først
behand
tør
tab
##nings
ben
deb
teg
landet
holdes
##delst
16de
hvoraf
##oc
brand
##bar
skj
dato
##amling
24de
russ
30te
##agte
viborg
##asser
jør
bevilling
all
grev
kob
##melte
lige
di
7de
##kiøb
##orps
##ald
betyde
betale
23de
tyr
niel
øvrige
18de
hust
liebha
##utenant
ri
derom
ober
##tage
##order
begi
##iem
herreds
indtil
##havende
mal
krav
gar
virk
lær
##steds
##vne
15de
9de
bud
##ubli
##ente
prof
13de
##komne
21de
heste
##iget
cat
##mes
##reve
ligesaa
ul
fi
told
bleve
haver
##ph
foran
taget
jord
tiden
dep
##ank
nov
sær
stkr
fredagen
##ment
christiania
formedelst
kap
##vises
capitain
19de
mindre
deels
##tens
regiment
we
opr
adresse
##ahl
kobber
##qve
##per
17de
frederik
##stænd
hvorved
aab
##ommer
28de
##assen
##unden
##væ
##bro
polit
fdkr
##handling
##ledning
pass
næstkommende
læs
##ell
##itter
mat
const
##klæder
177
beret
vand
brænde
##rich
##kost
ka
##ow
##kjøb
norge
kiel
##este
mon
##sat
stedet
udn
40
afdødes
indrettet
ager
nation
spec
skiftet
27de
rand
oven
##ods
rug
guld
aften
##ds
jørgen
auctioner
mang
stæ
bon
skov
##unde
##ppe
##che
lu
##igen
compagn
##co
behagelig
is
derpaa
##hn
oblig
25de
familie
betaling
bi
billig
vest
sognepræ
29de
##bel
boet
fy
paris
##ægt
bekomme
plac
giøre
anledning
bebo
nielsen
stand
##viin
##isen
tyd
septbr
##melig
efterretninger
##essor
derved
torsdagen
##illet
lader
##ctor
hand
saad
martii
dy
offic
##ælde
conditioner
gjort
##midler
komme
rasmus
##egne
konge
avis
bor
##iner
##huset
##øie
##ligen
##mede
##van
deraf
##kommes
##ingsværk
##tid
8de
mellem
##abri
##gjen
folk
##ale
frue
##gelse
saadant
forp
priis
bestaaer
##liggende
##pet
næste
danmark
svar
novbr
omkost
senge
span
løver
jensen
fyr
##ynder
##ugen
##ave
igjen
allene
##mu
erkl
skyld
decbr
##met
offentlige
slags
td
sand
skeer
sønd
forest
##kammer
overe
bu
vester
ass
##lev
000
priv
dam
##sæt
200
kongelig
frider
##ationer
sto
mi
endog
##itt
siel
##tere
behandling
##anten
pre
##ca
gaar
tids
mark
mil
##cher
##ye
randers
oph
##gaarden
##sdag
dets
##teer
sæd
ting
boets
conf
derefter
nød
forløb
##vede
fo
huset
##øv
##stad
as
dennes
fatt
##gjøre
##ung
##seende
steen
let
vort
afgi
ges
##ons
##kkelig
gaden
val
ac
altona
staaer
arre
prinds
##elsom
fæl
##udi
eftermiddag
##idder
##krig
haand
32
tred
smu
##mir
vin
sammesteds
forst
fransk
##ben
##ho
##erer
creditorer
##urder
lond
bindingsværk
##sc
christen
kongens
##fts
ta
##ttet
enk
eiendom
penge
overret
##ærke
plan
##iger
ord
##æring
##cl
gaae
lysthavende
klæ
etage
##chen
saavelsom
die
intet
forord
##heder
værende
bedste
etager
ter
##heden
##uen
uger
wil
##rum
foretaget
##aler
cl
bemelte
tønder
magt
sognepræst
bræ
jl
##mægtig
##øg
##sberg
legit
##løb
morg
##ioner
hertug
ur
see
ba
nyt
##dom
hustrue
##bog
sven
findes
oply
##istr
skipper
##mærk
hauge
##istor
##færd
beviisliggiøre
kron
bortsælges
stervboet
rbdlr
indfinde
hinanden
bevise
givet
##miral
vorde
person
##sning
kaldet
største
##cteur
bestemt
##ui
##ma
bygning
##ans
sælges
##ilde
stad
dagen
værelser
majestæ
##ørelse
staaende
##rigt
minister
hvem
##usi
##ante
tvende
frederich
søe
især
##eldt
tils
befaling
##inder
krigs
so
##viisning
##ander
fast
##burg
fornævnte
auctionsstedet
##ømmer
atter
##aars
##kkel
bogtrykkeriet
##yer
ring
vurder
alts
aarlig
sedler
vegne
haa
faaet
##itz
##handler
qvar
gamle
##bydende
##iir
##blandt
sorter
gu
hertil
london
cor
allernaadigste
henseende
legitim
lande
ty
engelsk
##ødt
grøn
cit
hvorefter
cancelli
ifølge
maji
orden
##vid
omkostninger
leie
jur
##ængde
tre
handels
cir
preus
bergen
##iller
##ænd
##mager
arbeide
gro
##pt
samtlige
hor
løs
##bek
##lad
colle
##agne
febr
##tlig
vigt
mich
##ix
carl
##vers
foren
mor
rom
anders
aaret
høit
##urs
anne
do
##ortil
klokken
havre
alen
##pd
##vaan
allerunder
skade
kort
begyn
##ild
tra
overeens
##værd
nørre
ankom
stifts
eiendomme
kiøbs
regier
raadstue
liebhaber
gien
armee
lund
hvortil
##kning
ønske
bal
altsaa
sort
sr
udlæg
fald
freg
besæt
personer
russiske
##sol
##lut
##apiir
##sm
##ult
mer
emb
forand
egen
derimod
søren
vind
##ført
gud
holm
beski
regjer
##ys
admiral
forhold
##avne
bevil
##pel
##qvem
bekommes
priser
##ident
vogn
tredie
holsteen
venner
stærk
gives
tilkjøb
havende
zu
publi
brug
eieren
formene
erholde
allerunderdan
thom
ganske
dron
##stede
agter
holdt
##gar
sum
##vare
danne
cons
##toiret
##førte
sko
udstæ
erfares
norske
østerrig
##jel
hiør
##fordr
##teret
##midlertid
ans
ellers
ole
##ure
vorder
tiltal
lars
##hl
sikker
majestæts
60
##skabet
mine
reise
##verne
særdeles
berg
##esten
##gr
tilkjøbs
afs
##ctionen
nærværende
##othe
##na
forretning
overeensstem
##ane
##haanden
prem
##telse
##dens
bekiendtgjort
vedkommendes
##yst
##par
##kiende
frugt
um
##ette
hidtil
tar
underretning
##agtet
##søg
bygninger
brev
##ader
arrest
lille
indkaldede
beqvem
dansk
kielder
sædvan
ph
natur
nylig
liden
1817
christensen
##bragt
major
##æd
##ations
næsten
morgen
kand
##ef
januarii
stem
bestemte
finde
middel
##tegn
hels
##reb
##gaards
##arium
gjøre
##ame
fabri
eiendommen
kone
contra
hende
##comm
vores
omstænd
stort
perpet
##anger
giver
arveret
beslut
løverdagen
foresk
##kon
##int
ryg
lad
##befal
##iv
mølle
##ammen
ophold
allerunderdanigst
##ættes
ladet
frie
bier
##sborg
pa
huj
fordeel
##herre
svend
fæst
høist
hamborg
sol
skole
bir
gaards
lidet
fle
31te
##leds
aldeles
endelig
##oph
commiss
art
##ænge
skifter
blandt
meere
udnævn
ær
præcl
tieneste
gik
##øy
sønder
rette
##bl
##avær
provst
##hu
tran
tilst
circa
fuldmægtig
sku
mess
angaaende
300
skibet
justitsraad
stillet
##eraad
frankrig
stats
baade
breve
ridder
##elses
##gods
anst
steder
indb
anvises
kund
##entii
pedersen
##ode
##ovne
helsing
erholdes
tidender
placaten
spr
absol
fremkomme
##bydes
beviisliggjøre
tøn
##ions
kra
sold
marie
andersen
opf
dermed
syg
##if
lever
tilla
naade
lieutenant
hermed
##skriver
perpetui
rol
henvende
##ønd
dræ
holde
##ron
sec
##give
løb
fælleds
##ulde
byens
væ
##sn
##man
petersen
##egaard
##alen
hvid
ønsker
rente
mun
forsyn
##eneste
arve
brændeviin
bekjendtgjøres
##igede
##iets
##lund
##astor
foranst
broder
fisk
sa
jorder
professor
tyrk
##ørn
fravær
viin
##hel
##istri
36
synes
deri
mill
havt
hed
##qu
hiem
##ina
##vist
##ins
arving
jnf
##stre
##itorerne
debitorer
hertugen
trykte
##ubler
kiøbenhavnske
følger
grænd
##lo
amer
eff
##lægge
act
##ial
bom
##taget
tru
keiseren
sammen
oberst
medlem
legitimere
ban
nok
hvorpaa
##leden
##stræde
##ena
##ilighed
sund
indkalde
cla
stu
contoiret
##ømte
pastor
præclusi
kakkel
tilfælde
##urer
##lever
##ødne
##lse
##ører
milit
berling
forh
##retair
kanoner
##lænder
fader
##shavn
##ydende
underhaanden
##ætte
spanien
##xt
##ogne
skeet
##ren
snart
##olution
ost
##kkelige
histor
opraab
##ium
fyen
birk
cont
herrer
tj
octbr
bortsælge
##ital
##elt
##ærer
silentii
dig
døds
##ønne
mis
friderich
ap
##ids
gen
efterat
betydelig
byes
samling
##zen
bred
##agtning
bryg
skol
test
aviser
fornødne
##ærket
kam
forts
ligger
##ard
##ip
##søe
madame
eneste
char
præst
skibs
80
egne
##ive
haar
høiester
##boende
behø
1819
messing
fordring
##vert
udnævnt
##gede
skrivelse
##th
natten
baron
antagelig
kor
blevne
##vil
præstegaard
eur
##vigte
antal
##agttage
blot
dou
##sta
kjøbmand
vist
aftenen
selve
##ius
##olle
glæ
##ftes
rede
1823
##indsen
solgt
dis
øie
##iges
1820
##esen
sammes
##arte
35
tømmer
bat
sengeklæder
fien
fly
##urt
løsøre
##immer
ære
rø
vurderings
absolut
##stid
fordi
ansøg
jnter
fornøden
exem
europ
større
skræ
februarii
uly
##reds
kammerherre
##kommet
mennesker
##amme
foretages
por
vent
opbuden
franker
sles
jom
ordre
læg
holland
500
##givet
brød
jndvaan
tog
foreskrevne
176
desuden
sidstleden
##lin
van
##kkes
##stø
lange
##vor
##ahre
ung
##lerie
amts
besætning
48
faar
##rag
##rettede
partie
unge
plads
##ionen
##videre
##nævnte
##ceur
spanske
sat
syn
siger
langt
##otter
anord
alder
##enhed
1000
bøger
##eren
tiltræ
vinter
ey
svenske
seil
meubler
##broe
wi
almindelige
tale
##ileg
værd
##affe
mul
borde
skifteret
tin
beste
##viser
bønder
##form
vis
finder
slot
embeds
##forretning
##kiøbing
vente
##giver
exec
##tor
##skib
##iste
hiel
formo
##midt
gield
credi
vo
forel
##gield
cand
mort
forsynet
##skyld
##ants
rød
pat
mængde
tydsk
pas
forbe
##po
##hos
skriver
maaneder
lord
huse
poul
tarv
forskjel
sommer
douceur
virkelig
##lagte
fer
staae
##væsen
##terede
app
andreas
tilliggende
gaardens
fortr
foreg
anmo
national
horsens
##ffe
brig
slesvig
##delsen
ansees
sagen
fundet
bem
##entlig
hosp
derfra
##talien
compagnie
begynd
##førsel
hvorfor
knud
renter
billige
ankommen
sim
udgang
##arbe
hest
beskikket
afsk
dre
##fl
testam
##ecter
##staaende
rum
endvidere
heller
##ernes
daglig
byefoged
##komst
leilighed
##ladte
fruent
ja
henrich
gjen
##gelig
gav
gaardmand
gjorde
constit
miil
overalt
##lieutenant
33
herreders
hvide
peters
gre
saasom
##oller
##irke
behør
##iendte
##frue
forbed
##satte
##delser
privileg
kommen
##qvar
marsch
vestind
##skibe
køer
ophæ
olsen
stedse
##indes
etat
ser
##ffer
##obbel
log
kb
cancellieraad
##rette
fine
oplysning
##brog
spe
iboende
mangel
1818
public
stue
fattig
rigt
laur
##sd
##tagelse
moder
indeholder
agt
ansøgning
gesandt
##uret
##eng
command
rep
larsen
ford
##je
læng
almindelig
berlingske
rosen
hvede
nødvend
kirk
##ses
hem
overeensstemmelse
##ned
høyst
kiøkken
fik
##laden
capt
vaab
##ationen
drag
##skrevne
corps
##deelt
hujus
bruun
lem
##aire
rets
##pro
lic
fraværende
forsik
herfra
bid
pant
##tog
tol
##drag
ra
##ænde
stille
##fors
##elighed
##esp
uni
##antin
##strædet
strand
tilstand
hon
##manden
portug
1792
extra
styr
##ierne
##kar
##jun
tydske
rusland
rett
##veien
saadanne
##sterne
##gl
artil
##ka
opraabt
##ømt
udbet
ry
udm
skp
forlangende
##vin
tilladt
afholdt
menneske
##har
fod
herom
grundmu
##æs
retten
pante
##cer
##atiske
juris
kraft
bedre
forsvar
stykker
ringe
##feldt
cancellie
bragt
uagtet
##ance
fædr
afgaaet
fry
distri
##mmer
##aaes
##lægges
sukker
##ningerne
##kaar
tilkiende
sver
gal
ein
imidlertid
##eller
kiøbstæ
hospital
##mæss
jnsp
##ikk
##verie
##atning
selskabet
kost
##elserne
kier
herredsfoged
aldr
##aaede
neds
##usen
##ørte
fortegn
forg
smaae
##rænd
hiørnet
mør
led
##uler
mus
##ett
fremmede
kommer
poena
##løse
tilkiøb
pund
##gier
jyl
fog
fruentimmer
##vel
##vand
børsen
grav
##ific
##fol
1822
regne
##pæl
rigsb
mands
dersom
##obak
prior
førend
##skriv
##eskab
1811
veder
meest
hier
obligationer
efterladt
catal
stadsrets
##ugt
34
##uer
acc
##itain
##sendt
##eer
dobbel
dronning
salt
##dam
sørensen
dri
effecter
70
##ael
udg
##alg
stole
gier
halve
sprog
hus
indkaldte
gaaer
hvert
skiftes
dannebrog
##hers
høe
##reat
helsingøer
forsamling
schw
haves
##aill
##ering
##indre
mindste
veed
efterladte
afh
##ølle
##sig
ege
allerh
##sken
thomas
jnvent
##ænk
##ecteur
##viist
bisk
betr
midler
mænd
yder
derover
##æret
##sting
megen
beram
stald
bestand
fier
##ok
søndag
1824
##agter
bonde
qvist
1810
skee
prø
vaaben
##tem
kongl
betaler
##eth
##undne
schmidt
omstændigheder
sikkerhed
##giv
fork
fregat
modtage
premier
bringe
##port
landsover
##levende
engelland
##kkede
kbh
begj
kiøber
##viv
depu
heri
##skede
##eb
guds
roesk
##mende
garn
##tiden
##forvalter
##rib
vide
mueligt
vilkaar
bre
seer
##lende
glas
tønde
kakkelovne
behag
##amt
prok
fuldkommen
##als
strøm
cro
##ison
##somhed
te
tegl
frankerig
del
christians
##opel
##ylde
##bragte
melder
##ls
nic
##pen
lykke
lys
bestemmelse
##toc
jfølge
giør
##uf
stadens
##nden
klæde
aldrig
indh
confir
forskjellige
ca
##ks
##itets
ful
forordningen
troe
besid
fandt
##ith
##føres
roeskilde
tilkiøbs
foranstalt
licit
din
tiende
##roe
##snart
behager
##ødte
hoff
400
laan
##skes
##lod
syd
##ieski
fortrin
dyr
theol
pressen
horn
sorte
js
grundmuur
forandring
phil
pak
forlanges
kronpr
atte
1821
##hei
jtalien
##holdte
tider
preuss
##læn
høystbydende
vitter
##mers
pomp
england
##sti
ude
termin
viden
anviisning
hensyn
thor
pal
tem
directionen
dele
##bring
pi
1825
##elte
saae
saasnart
45
jørgensen
smaa
middag
uh
michael
##eland
tilfor
##issement
##ola
wien
directeur
konst
##ba
lpd
herre
##bre
##seil
ør
rasmussen
ska
##elle
chef
jagt
fart
aviserne
længe
blade
mater
skiftesamling
hjem
##staden
##øier
svendborg
cour
nyborg
bager
læses
##ped
erst
sager
forfatter
##ykket
##æster
skrift
##aaret
lovlige
paaske
slutning
##eden
joh
creditorerne
##yder
stykke
##inen
silke
slagelse
##egnet
neap
##io
afre
salg
republi
##mændene
maal
##leie
dæ
passer
æl
##aaden
64
heraf
sætte
stater
commer
jnfanter
##holms
træn
##ønt
kanon
obligation
haab
cal
##qvis
meldes
ky
brun
tiener
im
arvingerne
##tagen
##ellan
##urn
38
##øder
maren
sverrig
##meret
##are
1809
skil
jfr
bekost
##illes
præstegield
##tz
##kkun
ger
regn
veien
##ttelse
færd
pens
tag
kjø
gjorte
##tel
gehei
##ppen
tilladelse
sild
henh
ru
##følgende
forsikk
jyd
mist
##ica
ventes
transp
##skj
magistr
##arer
com
##oss
jnst
papiir
##uth
liebhaberne
soph
classe
præm
##ligere
fiin
geist
porcel
lotter
##adsen
fær
schi
ægte
##ovn
maaneds
##helm
1800
vogne
##entet
passende
meer
reis
saakal
umynd
war
##bede
fang
gothers
rigsbank
actor
beskaff
lære
##relse
beretning
cold
##vnte
understø
##ding
landsoverret
##ensborg
##ule
##kræ
collegi
##fares
hvorledes
smør
##ytte
hvo
bol
##kring
##fører
glæde
univers
sluttet
lud
##ters
##voc
øiebli
##off
anbefal
##antinopel
chr
ark
heftet
præs
dur
tillade
##anterne
##lit
##aval
indbydes
avert
lyn
tron
math
hedder
catalog
tages
opbuds
1826
forskiel
##kommer
don
spør
regjering
gros
officerer
fornem
##papiir
sielland
vitterligt
##river
levende
##ats
ufor
regning
gem
flaade
ikkun
tiltale
jndkal
uld
##igheden
protoc
jver
cop
pligt
##vning
stræ
##linger
matro
##ømme
43
tak
høiesterets
1812
smukke
liggende
blom
##commission
##tru
##standen
kat
efterlevende
elsk
das
##cht
1806
##pri
bul
##bech
##bringe
##sede
##irken
betales
##dire
##qv
ribe
olden
##frem
jomfrue
neder
wel
relig
linned
croix
huusmand
saavidt
bank
petersborg
mandag
jylland
##amer
paast
##gel
slægt
havn
hund
species
##din
ditto
bekiendtgjorte
brygger
mol
37
##plads
##issair
boes
christianshavn
tegn
##bygning
##ocum
pige
høitide
##folk
42
gyl
skr
frihed
##stander
num
vedlige
1814
begynder
troer
sider
ligge
##isted
millioner
maria
havne
il
1808
født
betydelige
vides
##haver
favne
indkaldet
##gives
dages
prisen
##indt
nærheden
storm
bortsælgelse
tobak
nap
##beh
heel
##vnes
uge
ægt
laug
fremdeles
sir
##du
sche
iagttage
igiennem
fyrst
uf
beskaffenhed
inds
amerik
##meg
##bord
porten
##fang
hvoriblandt
##tagne
benævnte
##gjort
vederfares
minde
fordeelagt
efterladen
jorden
fæng
leve
søster
ga
ej
madr
mærk
øvrig
johannes
stervboets
150
us
fad
anmodes
##søen
44
herr
tabt
subskri
##use
halvtag
##faldet
ofte
regiering
neppe
##cur
indløb
ent
bevilget
##contoir
hjør
##fart
##uri
tiid
smuk
kru
##ligste
jorde
##immel
##stuen
##arier
pct
hensigt
gaaet
##esum
##forp
beløb
udkommen
1807
tyrkiske
lagt
1827
foretagen
jacobsen
fiendt
assur
##indelse
gift
høihed
engang
bataill
afgangen
straf
qvarteer
##itte
faste
medlemmer
##apir
linieski
bestandig
modtages
##revet
beviser
rev
##udet
##skal
##ont
avertissement
##muret
nb
fattige
hollandske
løn
befalet
##attet
vex
levn
hvorom
stilling
##undt
vol
##ørt
jndhold
udenfor
forud
##hal
rettens
1805
sælge
soren
wiborg
kunst
seg
##kast
forladt
nest
nyelig
morgenen
senere
mile
nach
omkring
##aas
bis
##skov
stod
##stine
sædvanlige
##ænke
nyde
##skud
gade
execution
##varer
angreb
commissionen
ox
forlig
billigste
forslag
menigheder
enkelte
##son
##indr
##bred
##dage
##opher
##rik
sendt
rige
forø
1831
billet
gaardsrum
wer
underret
##eres
##adt
##urde
biel
stande
vurderingsforretning
##ents
##abel
sidehuus
##minister
ug
##serer
dyb
trækning
hører
malt
østerrigske
stæder
satte
begr
##cha
##vt
##post
forli
nicola
ødel
##rivelse
anna
anvende
tilstræ
respe
altonaiske
##endelse
hvormed
hielp
feldt
maaske
holste
værk
##ttetid
##iens
historie
##maade
##ias
##ble
karen
forfærd
yn
birked
##uren
ih
forestaaende
52
1804
aggers
vigtige
fire
lor
bekiendtgiøre
thisted
behørig
##beck
##lader
sj
ped
hovedgaard
tropp
39
paastand
fienden
##æger
varer
leds
##atis
hvorfra
byet
citanten
##melige
gylden
consul
secretair
politie
kgl
1829
veir
artik
gun
høistbydende
opdag
##que
register
forsy
bomuld
kol
600
christopher
##pedition
tiltrædes
sige
ægteskab
resident
##qvisition
docum
værelserne
behaget
selskabets
56
udstædt
lol
erholdt
venstre
beboelse
vestergade
kuns
øen
medde
heft
##aben
jydske
navnlig
kjøbenhavns
stk
##byr
ludvig
resolution
erich
vise
anlagt
overorden
41
rh
##vo
##kan
1813
##antz
##strand
tan
##sku
1801
##olen
fem
ostind
##givne
46
exempl
tilde
##penge
eget
ops
##smand
##amp
##ript
sorenskriver
##fly
pen
boepæl
##øiet
armeen
snar
##kasse
holst
bra
bevæg
fores
amster
blo
##orff
levere
##iende
bekræ
størrelse
skuesp
gou
72
skipp
mah
je
##enes
ovenmeldte
##lum
sned
##aalet
ladning
fisker
##cter
ev
æd
##blant
wal
timer
korps
bemærk
##tager
##sent
##ton
##vocat
ankomne
jnventarium
##værdige
bord
urte
elis
ringsted
uhr
##last
hovedstaden
##tryk
##sels
##50
##kne
lieut
bortforp
##ischer
##værge
##bær
##øndt
##hiem
fortæl
frygt
kammerraad
lind
##idet
##ient
samlet
wilhelm
barn
jngen
bekiendtgiørelse
1832
##iede
tv
jndvaanere
##ham
constantinopel
dies
ib
##lerne
forestilling
etatsraad
held
cent
##etter
ført
stervboes
##gn
##gaae
aus
hænder
afvigte
##see
provinds
##ærede
##steder
##enten
oldenborg
jld
inter
##qvarteer
passeret
##fe
accorder
birkedommer
begyndelse
jnteressen
lut
keiserlige
sorg
dobbelt
rest
proces
##vedet
saafrem
raa
1796
1816
##ott
##bes
##skaff
præsident
indretning
udlægs
apothe
##værelse
##ender
oplag
1799
##adem
herefter
opholde
##modning
boghandler
##skabs
hy
##oe
parcel
##asserer
preussiske
##føre
ethver
john
forevises
##egaden
befindes
##ærkede
bestyr
napole
cas
pension
jnspecteur
##gene
saafremt
##ite
tit
##delen
rode
sed
pe
district
underskrevne
artillerie
amsterdam
expedition
erklæret
##contoiret
onsdag
saarede
bortsalg
berammet
bjer
##illede
begyndte
begjæring
væg
tydskland
ane
hir
privilegerede
lassen
##æb
enken
jes
kirstine
tillæg
##rænder
##ry
hverken
gaarde
##ften
1802
beløn
1830
muller
##jor
skyldige
curator
hast
assessor
##dal
tom
##øieste
##brudt
sagde
forse
hertugd
lit
##gangen
antaget
fallit
divis
forpagter
hum
sne
##rad
inder
wo
2000
torv
vaan
hiin
forsøg
##kalde
##dik
ethvert
undersaa
rygte
myn
##velse
tommer
skatter
##skrift
baad
berlin
51
frit
licitation
bend
##dere
spise
længere
##olph
kiendt
ræ
##inske
till
##gaar
taler
aaben
##ligheder
fug
##esummen
gra
##genhed
anm
overs
##ate
3000
tager
##gsm
##lich
1803
md
partier
##bere
taa
seet
brønd
respect
elisab
kasse
##atur
blod
##ætter
elskede
fabrik
tildeels
foregaaende
igjennem
ale
udenlandske
gevin
##stil
fregatter
preussen
enkes
hustru
##ykkede
##holdende
##derie
dødsfald
overbe
ank
gjennem
frø
advar
dav
##ængt
##væsenet
##mægt
##dommen
##ign
##raa
skpd
erhver
mari
##andtes
reqvisition
aag
##landsk
auf
##aner
betalt
##ueret
faaborg
##skibet
brænd
##elandet
sæde
mercur
##leveret
vahre
##lef
raadmand
livs
lykkelig
##jendte
konger
##brug
maaskee
##tning
undersø
anker
tiltalte
##ahr
sees
cathr
udbetal
menighed
dræb
forskiellige
befalede
##bedes
##ungen
##bør
høieste
forholds
tviv
alli
##vidt
##kræmmer
esk
##ession
egnen
studen
føre
##øvrigt
durch
mø
##fordres
gul
##ensdatter
##stidende
forhandling
tæt
fredag
soldater
saakaldte
jndkaldelse
baghuus
##huse
flensborg
hovedgaarden
dømt
ren
va
grosserer
hjer
##maal
hvorudi
##idende
udvi
tjeneste
faaer
##levere
løverdag
liss
æg
hvorover
loc
qvæg
departe
##stra
anviser
fø
##cond
##agede
uaf
høre
##aparte
haanden
##ældte
jr
##ræde
liig
##az
overfl
meen
blad
##rings
##fulde
hørende
##ringer
fleste
sygdom
colon
##anc
stænder
90
tilkj
indeværende
biskop
##fæst
##meget
begrav
##brænd
##lunde
##sdatter
redskaber
fla
medens
falster
lat
def
segl
ytt
vestindiske
fremtiden
##ommene
##apper
muelig
fæste
kiær
bern
##øst
nyeste
vedbli
##bergs
##mens
mads
advocat
colding
##inet
amtmand
##bare
4000
prindsen
jnfanterie
kloster
tilg
ubet
syge
##ots
##utter
forenede
bedes
holdet
lissab
##sto
folket
##uch
faldt
##søer
##igere
##æste
##irurg
sædvanlig
forening
##leg
##heds
holdelse
bevilge
##hert
##agde
##ert
tilsammen
søge
oversat
jmidlertid
kirken
pompe
##næst
pun
foræl
##beret
commande
2det
bekiendte
##fri
##kede
knudsen
##marn
##liggen
forlade
alders
underviisning
gand
skyldig
met
##brød
europa
cad
##fuld
besiddelse
47
##stiden
bey
prokurator
opmærk
##magt
heele
oprør
egn
elisabeth
afsked
eet
sich
muligt
##deelte
##cker
eiendoms
øl
erindr
asi
formoden
holder
lidt
##priet
tun
gren
54
bogholder
try
##log
koster
ulykkelige
retter
hvidt
sang
livet
borge
bout
siellands
sorøe
second
##ford
honet
overflød
bla
bragte
besluttet
##øvet
cours
##mun
capellan
kbhvn
lam
tilfreds
opby
##agel
##veie
propriet
1795
kræ
drenge
foranstaltning
vidt
62
blaa
temmelig
aarlige
##prov
derhos
##lings
##junker
begiering
##holdning
##icia
nestved
are
stormarn
##kerne
##alter
antageligt
##yt
adkomst
laae
##løs
freds
##sendte
##aine
prioritet
##agelse
##ore
bryst
mester
##ortes
dronningen
sc
##oed
respective
tyrkerne
##atet
søen
es
##venhed
johanne
damp
##redes
lissabon
pav
##indser
55
svag
øvrigt
bang
##lediget
boer
sogns
mynd
herpaa
universitet
iblandt
##fordre
avls
sind
høire
kondition
skat
##dahl
53
mennesk
born
##lænderne
ankomst
eder
rang
orig
vox
ros
kundskab
vice
##stu
##agten
contr
snedker
gyld
nibe
omstændighed
madrid
torsdag
skovskyld
greve
nærme
ann
##entlige
sande
octobr
residents
eiende
georg
##holdelse
hefte
forkl
##ænger
##issen
##længe
kro
krigen
hollandsk
poulsen
adel
havnen
##entøi
vansk
##reature
lærer
aa
##fyr
kram
allerhøieste
hirsch
bekostning
##sket
skiftecommission
transport
##ønner
beslutning
hvorimod
been
bay
byetings
postmester
##holdet
flo
stærke
nytte
oms
##chi
##apitain
civ
venders
lydende
caval
nytt
##ath
alene
oppe
klæder
##osition
cast
pil
resten
forordning
militair
lysthav
##vei
complet
jns
verden
66
##icht
revolution
dør
##bert
63
##kel
5000
1815
1828
indført
##hoved
confirmeret
audi
##byes
##ors
reisende
appro
8te
ombord
arbeids
fare
udkom
driv
alex
pascha
##bi
rec
afhandling
doctor
smer
tirsdag
afseil
##adre
##frøe
##vahre
##alle
fest
##brænde
peders
assens
alvor
grunde
loves
familier
specier
regiments
raadhuus
wol
##uel
##ta
##anen
øieblik
giennem
cathrine
##kkelse
bræder
##kum
excel
næstefter
rdr
privat
imo
49
forv
udfør
dreng
altid
garnison
produ
##lagde
##frie
##kassen
monar
##rett
jor
modtaget
eders
##brud
opfyl
##strøm
##maa
kongensgade
matros
blaae
auditeur
##ættelse
regjeringen
vandet
landsting
anliggen
##mæssig
deele
vold
75
krog
##ns
grundmuret
taar
##kirken
landets
##vogn
meddeelt
portugal
aarsag
stervboen
##brand
65
andr
lyse
beskrivelse
##aux
120
##kiær
nøi
##menter
dø
lysthavendes
adfærd
afdel
geheime
selveier
##sættes
61
##jut
asiatiske
qvant
##iter
ønskes
levnets
patri
ædle
##iesyn
##skaf
admin
74
lis
dahl
hat
aff
navne
madsen
##reder
hede
fortegnelser
coule
berett
material
videnskaber
areal
hensig
læse
udgivet
speile
forbindelse
maler
overdr
russisk
fre
documenter
erke
augusti
uop
##gelige
undersaatter
bære
##arbeide
prin
constitution
tim
dernæst
rettigheder
proprietair
vende
smith
##slev
##angaaende
bech
førte
tagne
##lerup
##ice
procent
##andede
smed
drægtig
catalogi
regimenter
##marsch
exam
##hauge
styk
erk
##isten
##mk
stol
fæstning
##sættelse
1797
##styr
thee
stræn
##hæng
aagaard
agent
##yen
indkomne
58
indrettede
hammer
bruges
mandskab
formodentlig
1790
##kammeret
##delige
opbudsboe
##ral
ovennævnte
##uhr
##sec
geistlige
friis
##bemeldte
bevid
berømte
aukt
funden
mæg
sophie
##ric
mærket
opholdsted
siæl
##holt
kaper
søger
flydende
##orph
##fru
addr
capital
stal
reser
hellig
vurderingsforretningen
##smed
træer
foraars
neapel
kli
##umt
bogen
begiæring
##ribe
forpagtning
##iren
forkyn
##ording
rytter
overeensstemmende
claus
##eskriver
##øiede
efterkommes
kryd
nordre
sende
magistraten
##ænder
sta
forsam
simon
##esser
tilstæ
viist
##have
antage
has
rigs
cadix
##erent
høst
anliggender
##kter
##forsamling
1794
vei
pra
besør
sach
støv
##iest
rud
attr
##øielse
linieskibe
kammerjunker
posten
brændeviinsb
prøve
bele
brandt
lagttage
papir
##utor
bill
jndt
justits
angaaer
forseg
##skende
sem
begyndelsen
jon
##orter
kancel
##oge
nørregade
ubek
moderne
prædik
origin
##gerne
porcella
1798
kjær
##ni
flyttetid
riis
##try
hurt
slæt
##nedes
undtagen
bekiendtgiør
hals
##we
blevet
57
medic
anmeldt
##vex
##ym
##sene
##com
##fabri
##gere
##ommissair
slaget
vels
haders
overrets
fadd
skar
fj
lovligt
skiønne
gandske
kle
love
1833
visse
##gaaet
processens
##unds
##yre
behagede
øiesyn
als
studi
desangaaende
vers
fade
##hente
stab
fiske
midt
fanger
##ægger
##mølle
fuldstænd
commerce
##behandling
ubetyde
##dømte
bøge
imodt
forvaltere
farver
journ
pan
lette
##tlige
længde
commissair
##erup
jlde
urol
##fordring
fortrinlig
afsagt
stri
##vene
flø
henven
##ines
##tale
høiesteret
anmærk
direction
udkommet
##one
##yp
værdie
trende
hundrede
tri
testamente
anførte
forbli
##giøres
##enz
opst
chat
coll
skræder
begyndt
hellige
##act
liebhabere
##leb
##slut
aand
##træer
republik
marg
giel
##vold
kaa
tugt
klø
skyl
sønner
ze
##æld
svensk
slots
68
maaneders
##meen
##karl
forholdsreg
##nende
forretninger
spørgsm
pc
placat
kjer
hustrues
##rethe
sørgelig
venter
##ureer
skom
embede
samlede
napoleon
##æna
embedsmænd
bestaae
musik
##spl
stil
wand
##præsent
800
hensættes
antages
tidende
attester
rem
hvorunder
freden
caffe
##redskaber
pot
forfatning
meyer
rolighed
saalænge
piger
viser
stam
##inges
kommet
indtræ
indhegnet
##aret
betydeligt
komne
afgr
frank
lav
clausen
militaire
rbmk
##directeur
forbemeldte
græske
forbr
##omet
dar
##havn
tilforn
##ums
hær
summa
fyens
norden
##the
raadstuen
oprettet
##ffen
flor
top
skolel
call
##dyr
##ordingborg
amtet
redskab
##offic
ler
buch
protocol
ram
credit
portion
blomster
udgiver
vir
beretninger
##diction
besat
fryg
schwe
bidrag
parlam
norsk
lærde
ledig
compagniets
stykket
kul
##kjøbing
##tages
handelen
kiøbesummen
##stevnte
dru
stiftet
##gne
passerede
russerne
venskab
cond
tilgode
tagen
mødte
ot
##hængt
indr
##raph
##øll
hovedet
middagen
udstædte
##major
##angel
godhed
ist
slige
##endt
erindre
fortien
subsc
kast
59
hæder
vexel
politiske
bød
træe
tjen
mos
administr
##landet
fødte
##eligen
##undende
##egen
fængsel
linnet
stude
grændser
##isch
lolland
##meel
##ielle
forvent
jæger
tus
net
paul
##provst
erob
skive
##ærker
67
rør
erklæring
##hus
##iz
##gst
##reven
udmærket
angre
jnstru
##lau
##rende
##amerik
tyverie
litr
komp
bidr
brændeviinsbrænder
syvende
##asses
marker
invent
jose
##kul
76
betien
##merne
majests
##iers
forde
qvartal
esc
1791
dronningens
brø
separ
michaeli
gangklæder
##afvigte
falde
udnæ
portugis
kapitain
jen
vog
##mag
handlende
71
##bedet
org
fersk
amb
##hrr
æld
##roner
##skræn
##dragelse
bergens
##tshuus
ut
magter
jndretning
schou
forhenværende
stock
adskilligt
lyng
valg
istand
wul
##oler
cab
ed
forfatteren
marken
provindser
rbs
deeltagelse
møllen
fjen
gart
haben
##ute
fulde
bygningerne
spansk
pæna
underhandling
sviin
fornær
foref
##æm
tyrki
250
begive
##kirke
anven
##kes
fæstningen
testament
magaz
rigtighed
kaffe
##bed
skrifter
##edskab
##æstgiver
sie
europæ
tract
bekjendte
##indsens
kiende
##hø
erfare
foranstal
røde
neg
theater
passager
læster
skoem
grændse
##aille
##atus
udru
algier
##fisk
børs
forældre
dal
##øger
constitueret
paafølgende
batter
vinden
snarest
##mouth
oper
teglhængt
##zig
##gaaende
hansens
bedr
erstatning
##mon
britt
spid
flag
herværende
excellen
siges
rap
commandeur
sættes
tilveie
regieringen
##bu
1500
theolog
høiere
bortkalde
trykt
johann
102
minist
særskil
opmun
dor
##ga
bereg
##uger
meldt
bestræ
tilbag
opstander
tilstæde
##stykker
##arius
fiendtlige
titel
departement
religion
øer
##part
friske
borgere
73
kommand
præmie
derudi
dhrr
tilkommende
frøken
##eter
##faldne
commando
##anderborg
neden
gjør
eil
tilstrækkelig
##rettes
varme
werden
udsat
##bra
wester
##attede
fandtes
krist
##ineret
baand
##samme
##skiønt
øst
befuld
lotterie
commissarier
##entz
##fi
befr
subskript
pakhuus
##hertug
sendte
bad
##sedler
##ilien
##olit
stiftamt
trykp
udkomne
101
bemærkes
storbr
gouverne
##stæder
78
sad
auctioners
martin
schul
grevskabet
søndre
deputerede
begaaet
##talte
##gryn
fastsatte
##jent
beqvemmelig
forretningen
residentsstad
skiftebehandling
borgemester
skeete
aggershuus
hine
ansat
##jord
feil
forsynede
##regi
##xer
kiøge
tilk
betræ
skilling
##garn
aver
opholdt
henhørende
##æde
haaber
kiøbstæd
##angen
formue
plak
forevise
##chs
##toft
belønning
behøve
indbunden
græs
##lægger
amager
agtes
maattet
helst
mette
underliggende
væl
##yes
græss
tilleie
skind
##falde
nab
##iret
begynde
fragt
locum
##risk
##feld
david
forvalteren
betalingen
##fa
##anst
møllers
svær
bras
fødsels
##erentsraad
overeen
##egn
commun
joseph
##viste
gavn
retfærd
frugttræer
mening
##læst
1788
hamp
##dets
loft
hann
smukt
indtru
carol
seier
behagelige
tronhiem
vægt
##idel
175
januari
folke
##ischen
##sal
##eligste
69
molt
son
83
academ
tropperne
##laget
ædel
##position
1787
jndvaanerne
rettighed
##bier
foust
afhente
østersøen
beskad
scheel
repar
anmeldte
##arl
##jutant
laa
finants
nicolai
##bud
rigsd
provindserne
schles
udebli
sky
opført
pilest
vac
##iderende
grad
værelse
repræsent
flyg
eftersom
gryn
##edag
klasse
prindsesse
skiøn
##ftede
jordlod
consumt
##mands
##ftelse
##bod
executor
leveres
stok
uber
opholder
##iteur
fædren
beliggenhed
kiøbmager
skrivp
sød
villie
trække
##set
##deren
overordentlig
cant
##formynder
bonaparte
møll
##stadt
##vigen
##steret
thomsen
artikel
publicum
porcellain
besø
vestindien
skifteretten
##gjør
udel
6000
organ
tax
formeene
udredes
accorderes
beting
bifald
##ze
rit
##ko
##herred
##iist
forskel
##indtil
tiene
fridericia
banco
##arv
fods
opbyg
fiint
dateret
##bliothe
gesand
auctionerne
cr
bie
kakkelovn
løbe
kred
west
torvet
færdig
tomme
jnsur
ophæves
##telsen
##ides
salig
hatte
statstidende
##pladsen
casse
77
na
unter
kyst
##iserne
ott
opn
convent
kiøbe
almindelighed
##esch
corsøer
carac
fremme
udløb
##betal
stemme
##aaen
1786
forund
eiendommene
kiøkk
salarium
pluds
nedlagt
##ffet
cam
##væsens
frederikshavn
vinde
##ffende
schøn
engeland
skolelærer
udmærkede
1793
aftens
hjørnet
ældste
forhuus
defens
##ners
##dem
bemældte
vedvar
hollænder
henimod
##kiendelse
discon
brandkassen
stadfæst
gran
fortegnelse
stærkt
herreder
drammen
##insp
##melser
##ville
meel
ærede
gartner
courant
sæbye
ministr
##dring
##egaarden
##respo
##rædet
##agtig
jam
cong
krigskibe
slottet
##da
udrede
sidstafvigte
tyde
umyndige
##furt
kold
##skrive
##kontoiret
##mbr
bataillon
cron
##lær
1789
grækerne
skomager
fierde
##kam
fulgte
østergade
afgrøde
naad
##ua
##endahl
##nelse
##vter
mortific
middelfart
##somme
bringes
dyre
umyndiges
##orges
sar
residerende
##corps
holsten
karl
paali
anlæg
##orf
præsten
saaes
undertegnedes
bortforpagtning
frederiks
##hund
##yge
##usch
vagt
dannebrogen
tilhører
skab
oprettede
rolig
henvender
##retten
##uck
officeer
istedet
##ues
seng
øvrighed
brede
enkelt
mælde
udboe
mog
laans
prædi
exempel
arrestanten
rul
reiser
jlden
fir
saameget
opgivet
##serne
fallitboe
keiserl
studios
allerhø
levnetsmidler
wor
christiansborg
lege
tiender
##ulerede
kons
døb
iøvrigt
##stings
jurisdiction
avertissements
candid
morten
##skrivt
forny
opbydes
gunst
##skon
henved
mund
afbrænd
bøndergods
##17
##undborg
karto
##isses
174
##rive
kommission
jsen
derhen
student
passagerer
tilt
opmærksomhed
##ansk
beboes
skoemager
82
##gre
skuespil
høim
raff
time
meddele
lou
kiøberen
##fler
moral
gram
hænde
##igelse
reist
børne
79
tet
skabe
afholdte
contant
statsraad
skrive
hei
##idst
efterladenskaber
##rien
tall
tørve
tilkjende
##delses
commissari
dun
84
ref
opførsel
sult
##gens
##holden
bisko
assureret
wir
disconto
excellence
gib
forklar
optaget
forlod
forholdsregler
##rets
##yttelse
reen
##shald
##aarup
frivil
gale
1785
##boes
ku
kister
viis
sagt
understøttelse
tvivl
borgerlige
førstk
##olleur
indeholdende
##værker
forven
reisen
veile
ministre
sognekal
130
broel
ærter
humle
anmodning
anmeldelse
udfald
prote
aabne
tænke
##berget
ældre
ombedes
ambass
dram
ødelæg
fløi
myr
slutningen
kroe
dort
gyldig
##onom
regierings
værge
indeholde
##kommission
holsteenske
manuf
artiller
lieuten
formodes
##bøll
giøres
fond
føde
##ffes
##byder
søndagen
mathias
publikum
cathar
##krige
##ested
hoffet
berørte
holdte
ferdin
##øren
øver
stemmer
arbeid
nærværelse
diver
afreise
##ograph
birket
læder
protocoller
bendz
##aarne
fæe
skjønne
flid
jernfang
##sgaard
bulow
##yndere
##adser
himmel
fægt
burde
sørgeligst
jnstit
jer
pundet
##iender
saare
##lingen
skud
opgive
forraad
paasee
kontoir
##manns
forkyndelse
exemplarer
solgtes
lægge
##18
weile
##rund
taxt
##iere
##vind
##kkeligt
nummere
spor
##stedt
actier
bruge
##ban
ner
arbeider
##byde
callundborg
gle
forundt
luft
mærke
omstændighederne
provi
##erte
oxe
fremst
88
##ugten
##pass
##ørsel
lignende
##cus
udb
porto
opdage
ufort
amal
hempel
hidindtil
ond
lover
##sende
hovedqvarteer
private
fædrelandet
wind
kirker
christiansand
konstit
hobroe
orlog
brittiske
##ms
udv
sjæl
##mest
##ci
##mat
fischer
tanker
erklærede
slutte
sou
pladsen
bogh
laugværge
octro
bær
##lers
olie
kalk
frat
item
adressekontoiret
mask
hovedgaards
dyt
division
eeg
##ield
øine
sandsyn
toldkammer
philos
##essel
frankrige
efterladenskab
anseelig
conc
creditor
betragtning
##elen
sundet
##kn
journal
besvær
forpagt
mistet
##igheds
confirm
##entes
20000
85
wur
erlægges
juul
##ydelse
udsæd
##akker
generalmajor
##aterne
svarede
##ful
baden
##sætning
rat
##able
dræbte
##børn
##tre
jnge
stevning
bøn
bas
befinder
hjort
##løv
##ypten
porcelain
rey
avles
##staxt
middags
stifte
strid
duelig
##alet
##behør
moltke
broe
svare
rygtet
doms
forsvare
lister
more
læge
forskellige
afgaae
jndfly
pigen
virksomhed
troede
udgiveren
franz
1200
haabe
ordentlig
erlægge
blant
##vad
diverse
bland
##fo
geheimer
##teres
sigt
kommende
ansee
kronprindsen
tilende
alles
ansvar
##aale
wandall
bivaan
hul
fremmed
gave
##10
stykgods
fur
regent
##antere
fartøier
vad
##affel
##ræer
##ommens
moss
jnteresse
##delig
##skaffe
meste
plant
fyenske
##slaget
fremgang
##kastet
godset
foreløb
##oblig
##lier
klub
stedets
anseet
kiøbmagergade
overformynder
klar
live
tyl
##fort
skjeb
gri
hiller
nuværende
debi
møn
anstalter
##pund
stav
bekiendtgiørende
ub
herberget
nyekiøbing
proklam
##its
poster
skor
undv
embedet
herredsfog
liebhaverne
mr
modstand
##heim
brødre
##lew
kur
amtstue
forstkommende
fordeelagtig
drage
##tagende
vaanings
beder
reiste
fjer
sex
forgaars
indstæ
bur
bestod
landeveien
halvt
budolph
##ftig
leye
pedersdatter
##onne
##aver
igaar
morges
bortsti
disses
##staae
1783
##forn
spidsen
lovbefal
##priser
jndflydelse
##insk
undgaae
##bef
##eral
##anke
forbi
agtelse
##idem
93
frisk
betru
##intet
bestræb
smag
##gning
win
bevægelse
gott
behøver
##ttr
aud
jensdatter
ning
prioritets
apotheker
forder
##lement
befandt
sli
##asch
tegne
##regiment
nærings
landsby
kjøbs
aft
##mæssige
kaar
qu
kop
brugt
ungt
sammens
kiøbmands
foranstaltninger
høitidelig
grønne
commissionair
pompevand
hoppe
hoverie
forsaa
bekjendtgjort
arm
graae
storbritt
langeland
##akt
bøg
plet
krag
dobbelte
udnævnte
##uner
tilbehør
##ægte
est
ønskede
aas
rigsdaler
san
##ukker
broelagt
##sters
stuen
bornholm
grunden
conferen
ball
heg
indtra
##tøi
premie
tyk
vigtigste
##øber
behageligst
forstærk
jurid
sognepræsten
fregatten
inf
modtog
saar
##unst
hannover
collecteur
anc
viinhandler
cur
spørgsmaal
henhører
paastaae
##agende
rigets
jntet
##kte
margrethe
legitimation
idet
##iteter
fornemmelig
##øs
særdeleshed
domkirken
dækket
daniel
staal
##ægter
##cke
fornøielse
foresl
graa
borch
nielsdatter
udt
92
rester
bod
erklære
depes
haagen
##stein
##ressen
forliig
jub
##kernes
81
hil
føres
forlangte
hamb
udgivne
jndbyg
bede
omgang
inderlig
##fær
##oth
##lang
##givelse
forstaaer
did
leveret
løv
##lagne
tunge
##onner
util
##skassen
dame
auktion
rod
##dres
lomme
##olog
besynder
##ytt
aftes
consumtions
##pige
##aaelse
bevæb
4re
ern
##kkerne
derværende
sidstnævnte
opbudet
tallotter
udsatte
græken
foranførte
hvorhos
chur
##korps
aftensang
bomulds
tilsidst
fuldmagt
addresse
##iis
##schau
ostindien
merk
##ørnsen
##ib
kaldte
linie
udtog
ambassade
##handel
agte
forblive
##hug
seidel
statstiden
eiere
##mægtigede
plig
##ligheden
forsendelse
formaaer
may
magistrat
malm
action
patriot
kapit
##breve
collegium
jndboe
bestemme
flad
nævnes
kyster
savn
##zer
##gangne
søndags
##klæde
##reise
##uget
medborg
tillid
wordingborg
##ack
10000
coureer
attest
køn
ride
resc
interess
forlydende
frankfurt
##ømmet
zur
##ttre
oberstlieutenant
schr
huuse
videnskab
kamp
brugte
neut
matric
forbedrings
fangne
opdaget
monrad
ritmester
stilles
flesk
##aadt
paatage
mariager
lev
væsen
indtraf
gage
##faldt
kaldes
##spro
##adel
veie
lodder
steenkul
dannemark
gemal
synder
livstid
kongeriget
maader
skridt
forsaavidt
tørves
portugisiske
villet
skyde
sahl
umu
kug
corn
##baand
bondestanden
##drene
slu
slette
##plet
##bogen
uafhæng
ep
udbred
givne
spil
86
boghvede
chirurg
ministrene
aske
tørre
toul
bøde
forekomme
##lot
auch
skove
rich
skifterettens
tøi
nordsøen
nordamerik
salling
meddeelte
holstebroe
allierede
##va
brændeviins
panter
smede
liebhaver
##anker
##ancer
subskription
separat
##dene
behagentlig
rab
132
jansen
planke
##leveres
##næs
besætningen
stege
skrives
forsø
##bringer
hørte
norges
auctionsdirecteur
opholdende
##yldt
enge
##ersvend
##falder
kasser
gader
mahogn
udenlands
hug
druk
sengesteder
##itsch
skrivpapiir
debitor
eskadre
urtekræmmer
handle
dragki
tusinde
##secretair
allerhøist
materialier
##eske
søgte
aflægge
##rop
##sa
##ick
else
concer
kirkes
sax
##iedel
sikkert
dorthe
følgelig
##ese
jndstevnte
tilintet
aabnet
rødt
##skr
##ømmelse
drives
wint
laurvig
##antinden
givt
æres
##domme
grundet
##inaire
acter
##sky
sundbye
godtgiøre
afgl
##stæd
##bach
##hørende
krigsraad
steentøi
idag
høimesse
##yle
jnds
haandværk
faldne
formodning
##giør
nødvendige
europæiske
sandhed
bygningen
forstand
##kkere
kirket
##splads
will
advares
kiøn
budolphi
kiob
##lades
geheimeraad
nissen
skanderborg
beboere
abra
provis
bibliothe
ypper
##udt
indestaaende
##eleie
stævning
guldsmed
plo
dragon
horns
hørt
bladet
jorderne
nielsens
welling
ministerium
haard
guul
manden
sække
##minde
mørke
vedbør
udelu
andres
kronprinds
##kkende
bast
udval
qvægt
ommeldte
gaa
forgi
byetingsret
##ilt
##init
yttr
anholde
taknem
mandskabet
riget
adressecom
##havers
langs
borgmester
##jern
fyhn
stædet
##eredskab
skylder
holstein
jntel
skylde
kiøbet
vidste
afdeling
viste
##gave
##12
##inerede
fornødent
fængs
##bød
godser
drive
##ais
##spred
##betjent
##yden
ule
tver
skoe
rund
##essionen
klokker
ak
lærred
litter
kjøkken
##eskyld
fat
bekjendtgjørelse
halm
##marsken
##ligst
99
##aus
logie
##indende
hospitals
##værn
##sætninger
##posten
skjebne
fig
sagens
##døde
civile
geomet
foretage
borte
spisekammer
##ito
caution
slog
committe
birch
studiosus
oprigt
opgivne
riga
skiftets
overd
##ministeren
eed
jnsurgen
afse
svares
##fne
##svig
##yssel
rost
##ups
##ninge
qvitter
holbek
tilkiendegive
green
behøves
kartofler
hass
staaet
betæn
konf
##henborg
ostindiske
ledsaget
approb
87
erfaring
sluttede
raab
dand
kalde
betragt
vigtighed
fleere
skriverstue
illum
hersker
soldat
mord
lux
trond
##arbeidet
lovbefalet
##oster
##doms
sadel
jrland
##fyrst
nyttige
fkr
bygget
##ahn
nicht
110
kab
1777
afgik
tel
ugi
##uter
correspo
svaghed
##hæ
hjel
##ous
udenbyes
fødselsdag
##betient
fortj
adressecontoiret
myndige
beholde
bopæl
##havere
johansen
##ark
##hoff
##værdig
ledige
frederiksberg
skippere
abraham
kiør
mode
##ftige
lagde
##gav
bese
##binder
regimentet
kallund
syntes
##middel
##lar
##jo
torve
##nike
700
kancelli
##sætte
##handle
fastsat
feber
defensor
tidligere
fraværelse
undtagelse
hierte
rott
indsendt
vedbliver
lovens
result
finderen
manufact
sælgende
michel
tørveskiær
indløbne
erindring
corp
handelsmand
tilsk
rigtig
farve
tilkiendegives
##ældet
skriftlig
##aadte
anholdt
rim
hind
tillagt
aargang
##reaturer
indkom
garde
mæ
##gik
engs
græsses
blik
america
hiøring
##bor
##byegaard
nødvendig
plat
wedel
forlangt
stadsretten
contoirets
haugeplads
jæg
samtykke
hessen
##lichen
skjøndt
qval
derunder
fører
sikk
##mægtiget
##lyst
avling
baa
ele
ten
trak
favn
amerika
gew
dannebrogsmand
liebhavere
##skat
endskiønt
nøie
søem
landvæsens
færge
##auction
##ong
##adr
trængende
##fæste
##lens
1775
løbende
otto
berettiget
##lu
##orv
giorte
##anterie
udgives
engellænderne
beck
duelighed
haarde
deputeret
qvinde
forelæg
tolv
frid
##ink
##hlen
1782
##isset
cavallerie
døttre
gammelt
##leverede
meier
##aarsag
enden
stiftamtmand
##qver
kongsberg
##gien
bortsol
tap
alting
1776
trykke
keiserens
##erske
nedsat
mægler
##anz
havet
christine
livets
tjener
heiberg
undlade
planker
torden
nævnte
##olin
søgt
skoler
89
hies
angive
thron
amerikanske
skrevet
tillader
paafordres
antagne
udst
damer
sæbe
rend
uind
kannike
anmælde
##nesen
stifter
deput
anth
træk
##ps
##veir
mølleskyld
1781
fordeelagtige
vedblive
mur
##neberg
bedæ
mayn
##stædet
marskal
trykpapiir
##gjørelse
decret
##kkels
hend
uorden
wall
##hren
bekræftelse
arn
forenet
nøg
uheld
arbeidet
papirer
98
##boderne
112
iv
##teren
new
antallet
udlægshaver
##giørelse
##histor
##ting
koef
system
koe
##igl
februari
dødsfaldet
hovedgaardstaxt
bortkommen
vidtlø
tilsyn
udla
taffel
strømper
bass
embeder
approbation
skades
udslet
nøds
##bon
skie
indføres
##yldte
##venheder
##scommissair
sønden
angrebet
bart
begav
lan
##komster
ifald
kjøber
sterl
citroner
skaffe
meenigheder
nærmeste
##yng
styrke
stranden
gunder
fange
##brig
meddeles
bierget
170
holden
stadsrettens
not
asse
bestemmes
##marken
lauen
alexander
rykkede
skiær
extr
hvoriblant
gevinst
ringkiøbing
##itteret
##lim
##lieuten
1780
ufortøvet
bødker
##gjorte
sognekald
##givende
debitorerne
##of
beskikkede
fogderie
peber
amtsforvalter
trø
udkommer
latinske
##fold
benytte
indskræn
stud
gibr
hengi
adressecomtoiret
##no
redde
magazin
hemmelig
##ana
##skaftet
##itetet
resterende
afsendt
deriblandt
avl
opfør
udski
##skrifter
personlig
##ieg
##mægtige
lide
##anien
gule
##nere
enhvers
sørgelige
jldebrand
##anderende
fornu
oplys
ugentlig
##havet
universitetet
hoft
hvedemeel
stub
betro
##etøi
formeentlige
##ollegi
aflagt
søes
##anne
toug
americ
konstitution
hastig
værnet
warschau
##øen
##anerne
##ikke
cento
overdraget
philosoph
vimmel
overst
##deret
fornøy
erkehertug
luften
michelsen
billetter
pud
skibene
ferdinand
nak
forlange
fac
afgaaer
svig
assist
conferentsraad
fiskerie
##lager
entlediget
ophævet
nø
øvre
herskab
øe
pu
##andre
rector
signet
160
virkelige
træde
gouver
tiltræde
rebel
dest
behageligen
opsl
snap
sælger
vanskelig
##ligviis
protest
jnspe
uv
summer
##altar
copiist
140
udbetalt
##40
saaog
spar
vaa
##ussel
seidelin
real
kh
valgt
modtager
##ommet
underrettet
hansdatter
fleischer
efterskrevne
schum
kjendt
skue
indenlandske
afbrændte
##beg
pludselig
kaas
##hs
tønden
forsamlede
##our
##gesen
politik
berammede
jnteressentere
lykkelige
giest
##tech
103
skikkelig
begivenhed
wilse
##mor
frist
blok
staten
inventarium
semin
anordnede
overv
##ege
##pperne
krudt
1779
##ternes
##tegnede
original
efterfølgende
##kilde
folkets
jsland
neapolit
hellere
jensens
jessen
otte
kysten
aber
eengang
nummer
##asen
præster
understøtte
ibid
##drup
varede
##vendig
forebyg
grundsætninger
liver
erichsen
##ælle
generaler
##gtige
skuespiller
##fj
buon
tallotteriets
bri
##hør
besatte
bekjendtgjøre
##uleret
protocolleret
##elands
befri
pand
værneting
##ati
aarsagen
96
##icus
saltet
græsning
politiet
graven
1778
ubeh
gothenborg
aabnes
konges
kønig
forlag
bene
jis
nogenlunde
##kaste
forestillinger
udrust
afgjort
skot
sedl
gel
syl
ministeren
##quis
95
sange
##ches
virkning
autor
##cte
holbech
deslige
vista
christensdatter
besvar
afsagte
skatte
øverste
souver
heelt
græv
stiftsprovst
leer
ankere
##stunden
ple
lemmer
rykke
malet
erter
virke
##enterne
østre
##bind
##unt
tur
##ugs
##æder
veil
angribe
dreier
gibraltar
forene
##herren
kreature
##tshuusholder
straa
##øse
##mange
##uss
adjutant
mistede
##ico
anstundende
bogbinder
bortsolgte
opvar
floden
##byrd
vinduer
vimmelskaftet
##ænker
registering
nødt
rhin
compagnies
placater
præstøe
ulykke
##helst
appell
##æk
8000
matroser
undersøgelse
ringere
udlægshavers
##linge
stockholm
forligelses
##dent
beqvemt
rentekammeret
riger
##ork
##tsch
##oget
obser
##fordret
##comp
bæster
spring
opstand
beskyttelse
omh
skudt
betrukne
høye
mann
levet
donau
jndstæ
kors
##erem
sluttes
behørige
##fogden
artikler
forfattet
##entere
slagter
roes
prøver
inddeelt
justitskassen
173
chal
ube
octroy
matt
##hans
forbedringshuus
ansl
##wig
##skom
række
##stæds
regnskab
løven
stø
parceller
overflødig
forvente
contin
##cul
##erende
præmier
kløver
skiftekommission
##ælder
beqvemme
etats
bour
jgaar
##sigelse
##lotte
##øers
navnet
afgive
##mersken
byr
##mene
##aaren
harver
bogsta
##schou
bestemmelser
anbragt
##uh
opret
batailloner
yderligere
adgang
philip
jndførsel
##kret
trøst
foraar
##ensgade
lykkedes
##11
1774
guine
udgjøre
ejus
##telig
stands
korte
tingsted
rigsbanktegn
medtager
afseilede
iblant
##illinger
##fader
ærbød
dragoner
vinteren
lyngbye
##stor
##giske
feld
paven
sundhed
anton
gevær
##ement
1773
fragtgods
danzig
vesten
oder
kallundborg
premierlieutenant
geometrisk
aabning
seneste
vundet
gust
overbeviist
steent
hirschholm
##stien
samler
forandringer
##iseret
skjøn
##stykke
##cip
vigtig
##kteur
leir
##tin
##arm
##hle
nagel
kronprindsens
kiøbmænd
værger
hvi
barbar
opmuntr
ialt
##oer
kundet
portra
yderste
fuldstændig
raffin
bund
udgjør
flæ
forre
uforg
anbefaler
adam
slig
hvorhen
forbud
egentlig
##nich
##boed
##draget
provin
##erson
evig
##sv
##holdnings
adjun
audien
verdens
anført
vedbørlig
beklæ
planter
decembr
pligter
schulz
fede
østen
vedvarende
##antens
falske
befinde
direkt
vidnes
uhyre
##yesyn
dommen
besøg
##fer
##bøger
luc
manglende
commercel
disp
##olig
selskabs
##fest
plankeværk
gaderne
##oste
##tets
gibsede
##torv
controlleur
tylter
##20
beskj
ørsted
værdige
##hj
sik
kastede
vurderet
kannikestræde
##grund
##egnede
keiserinden
udsigt
konditionerne
##aller
kiød
collect
##istrup
udførsel
landg
forsikrer
fdk
flode
sydlige
brandkasse
falbe
tiære
##haverne
91
børns
bestyrelse
trykkes
##mach
##anket
sørge
begivenheder
##uerede
lofter
skippund
foregi
overho
resk
jesper
winther
##qven
oc
fjendt
herman
udføre
brager
reier
udgive
heftig
vendte
underhuset
undersøg
afreist
forveien
embedsmand
besidder
##huuset
lyd
##osa
fyrsten
udr
dorothe
beord
underoffic
##beltoft
retskaf
vished
etaten
##moder
rentekammer
last
overordentlige
##mans
94
##æves
storbrittann
charlotte
ambassadeur
##geist
kling
skaan
skiel
schier
##mestere
lunde
andeel
saaret
haugen
##condition
bygnings
secret
##kier
aflevere
kathol
kiøbstæder
skiønt
jomfru
omtalte
underrette
mener
fæstnings
fel
##edt
statens
værket
##fød
dybt
sachsen
skrivt
husar
gyldendal
beleir
ventede
klage
##skirken
nedre
pommer
bordeaux
juel
bindingsværks
knap
##inspecteur
fortsætte
italien
gemalinde
sjel
dytmersken
suite
regjerings
##edning
lidelser
106
eb
hefter
halvor
tienst
##gaarde
beqvemmeligheder
lyder
pleie
foranlediget
##osten
##pool
befuldmægtigede
##arvinger
arresteret
##agelige
nav
pon
forklaring
skoven
##rie
##essere
leje
reent
tvang
ero
frederichsberg
tilfredshed
jversen
brøn
##værelser
qvantum
sænge
plakaten
chines
laanet
##baade
##faldende
million
##yldest
subscript
lemvig
gouverneur
##inets
welche
foder
##bringes
trælast
nel
solgte
bach
hæn
kræfter
tyrkiet
rottbøll
dommer
##oder
##apar
handelsh
##ummer
svæ
fyrre
##biørnsen
##sche
kunnet
rønne
tilskrive
præsidenten
oppeb
publication
sic
sæt
fiender
sygeleie
rhinen
##hald
stode
kirsten
udtryk
elle
riber
ton
##lid
greven
97
dyd
jh
kiobenhavn
##arme
koefoed
afske
pair
margar
frederichs
hyl
reddet
gieldende
tær
jnsdagen
111
rygter
imodtage
##dder
jul
##assel
vien
moniteur
uhrmager
tot
sus
forleden
##christ
##falden
forful
zeit
fjenden
ufors
bielægger
plynd
desaarsag
planen
fortsættes
mulct
##bur
##elund
128
##første
##ogen
udnævnes
sty
falder
bekiendtgjor
convo
udgiør
tørklæder
mem
landsoverrets
udsættes
daa
glem
ansø
##kram
forlægger
førende
parter
fyrste
jurgen
fælles
depescher
frug
actionen
fan
tyve
vaabenstil
ambe
skagen
forstyr
tobaks
hielpe
kre
afgiøre
overmaade
ansatte
høeg
##byrdes
aarhund
##broder
1771
brest
hollænderie
kaldede
spille
tørv
tapper
oplø
russer
begreb
##ødende
mørk
snee
##ædvan
##iserede
oversættelse
frede
fugl
eine
105
gjerne
foretagende
andraget
communic
bestræbelser
udfærd
stoer
jkke
forat
marti
alexand
##liam
tilforlade
ankommet
##øller
værker
kobbere
brunsvig
fab
flasker
##ect
indv
lovene
ordin
indsat
ladningen
##yne
session
indre
priserne
deeltage
grækenland
him
stige
##ieren
##bank
knuds
fænd
vr
##hard
ansigt
chir
vild
lag
##hing
muurmester
strænge
panteoblig
hertugdøm
pakke
udbetales
uforglem
friderik
grændsen
afskediget
løse
befryg
##isterne
garnisonen
caroline
betalte
aarene
anvendes
##edig
##ilig
gron
nogens
##aven
##arii
overt
ringeste
mest
tabet
##uriz
opdragelse
haft
carst
bidrage
giestgiver
skiden
omkostningerne
tugthuus
pall
retskafne
arresterede
##ische
rendsborg
forbedring
##bygningen
indtaget
##nemann
skibrede
materie
indsende
overlades
118
residen
indkomme
nyder
handlinger
middagsstunden
##ti
##yal
østersø
##skolen
klare
tønsberg
balle
afskaff
toge
##aft
##cred
marse
hindre
møen
bortr
phys
schu
##antaine
kaval
forsv
gevinster
hammers
drift
##ænkte
provindsen
kapellan
landhuus
##ahren
##baad
conrad
##olade
kiære
##rim
fædrenelandet
bco
forlæn
befordre
##obs
ibidem
##hmen
##gelser
fladstrand
heder
##liche
##heste
glim
generalforsamling
##skou
dybe
foged
##farten
taal
øyesyn
befordr
catharina
##fs
høide
bekjendtgjorte
##bund
##dorff
anh
##faste
aarligen
##ønder
##stads
prædiker
trævahre
##sid
proclamation
entre
##skole
frederiksborg
##kors
##giørende
reiersen
arch
blid
smit
tiendeydende
naa
lorenz
dræbt
lauenborg
##kastede
vidnesbyrd
##ros
grove
hald
lært
vestre
##sko
udsæl
grønland
talrig
opfylde
##ensburg
birketings
##ple
choc
falden
forøget
lax
cronborg
step
##vest
banken
dorothea
formode
forgiæves
efterretningen
koff
pomperedskab
indretninger
brænder
lærreder
marschal
tild
anmeldes
konditioner
sophia
sønderborg
##ommel
styrmand
nødvendigt
oprette
forbundne
politi
1770
eierne
parti
handling
forlanger
anstræn
chol
danmarks
blandinger
polske
løverdags
begjering
##boet
brugelige
125
obl
schweitz
##las
alter
lim
##ræder
biørn
bayern
udtry
enker
vognrem
##lic
thy
bierg
khvn
##lach
indgangen
dipl
opposition
##mose
cass
usædvan
durchl
bester
overeenskom
##gjøres
garnis
indleveret
##wer
ancien
anstænd
##30
##ichen
##æle
##za
opbygt
paastaaer
forliis
almeen
fuldt
paar
forsikret
bisp
##deland
lovet
pilestræde
efterlade
mangler
indbragt
dim
##erm
indkommen
bj
holsteensk
foreviser
legat
anordnet
rust
salget
opbyde
besørge
casserer
fortet
sligt
##seet
pariser
seddel
tildrag
officier
concert
hur
##admiral
hirschholms
elm
sve
##ropper
boghandling
kant
amter
##daler
##etten
yng
oplysninger
spur
avisen
officielle
kieldere
octroyerede
tidlig
uddeel
flyttet
undersøge
forstander
forsamlingen
mes
opføres
simonsen
anseer
samle
##garden
toulon
jordegods
betræffende
hillerød
lyde
blæ
sign
giæstgiver
sandt
my
karak
sten
brave
forsigt
##war
krone
betim
privilegium
##vivl
##apartes
afsl
sigte
svaret
admiralitets
##befalings
commissariats
rad
gjer
seb
simpel
tient
soel
##endal
nationer
yttrede
herligheder
##general
officiel
yttret
udbetaling
##deløn
bent
lede
march
dres
steds
fav
##fæster
herover
frederichsborg
eege
##iesen
priiser
oplyst
flygtede
kud
##dingen
##viisningen
udgifter
jagten
studer
magn
bogense
gjæstgiver
##verk
proviant
beslag
indmuret
blaar
7000
evangel
gaardsplads
tilbud
domme
##marskal
læser
rescript
##lov
anføres
undvig
wøl
contrib
pandt
anmærkes
wellington
marked
gundel
##somt
##balle
107
##scapitain
røget
europas
stokholm
##fic
passere
##fred
##teminde
christiane
anordninger
sard
##bart
theat
hiørring
sinde
panthaver
forbund
sødskende
vedligeholdt
##forder
##skabets
stak
beløber
datum
blaat
camp
forskaffe
lehn
christiansands
ingenlunde
ordinaire
munition
ris
bibel
##riis
planer
##landene
ulov
##lunds
liin
12000
dine
director
##cken
##adte
##derup
mold
172
forfærdiget
##era
bouti
takke
mortensen
testamenti
##fiord
hvorvidt
fun
##redskab
##leth
skuur
commercelæster
ravn
afgift
opbragt
fierding
##egnen
forplig
hengivenhed
bombar
rummelig
hing
midten
##skommissair
velsig
anmærkninger
erklærer
##dne
verk
hertuginden
##onien
charac
sadelmager
##undede
##kaldes
tilfredsst
cassen
boede
##kretair
##elsens
bleg
huuset
##dinger
bønner
ange
gjent
livr
talrige
theil
birke
esp
##kere
paag
accordere
##mesteren
bortstiaalet
##fødte
bestaar
knapper
forden
gluck
gis
brændte
attraae
fah
##stande
##fabrik
bekoste
dragkister
torde
tilbagele
vadmel
cortes
##ingo
revis
statstidenden
dol
andersdatter
ald
brem
fortsættelse
##rit
pap
brussel
1784
##low
ley
margaret
anlægge
toft
agerdyr
pist
##him
##handlede
##fast
bekym
garver
møder
##mme
kjende
misforn
get
agtede
##husene
##hm
civil
erholdet
##isser
profession
gothersgaden
hessel
risen
kamre
vens
gienstand
##garde
copulerede
##ydet
##edte
##itzen
hjørring
uges
##igr
##deres
umiddel
bekjendtgjør
troppers
##unge
kalder
mørch
##ydning
resol
fornemste
jndtægt
genua
bror
reserve
##ulation
##iche
##stal
høyer
næstk
sav
advarsel
erobret
omv
miguel
anseelige
justice
ulykkelig
udsalg
jbra
##ailler
sognet
haven
forpligt
imøde
urigt
##aalen
stadt
kierlighed
dieses
oli
marcus
meddeler
beregnet
tienlig
104
faldet
opsat
husene
sommeren
hurtig
fløttetid
soc
findeløn
dømte
##inerne
erholder
omend
##pler
##ai
113
raae
##foruden
vrag
##øve
las
udp
lispund
cavaller
chatoller
##rine
opfyldt
udlandet
fartøi
pligtig
executores
hvile
##skontoir
stavanger
afdelinger
fiel
sætter
##60
vurdering
frivillige
augustii
befordring
nyere
eierens
skoleholder
pibe
tabte
løgst
særskilt
udkomme
##haande
##dike
##sburg
gaver
faber
faders
briggen
smerte
leip
offer
163
forval
##vars
jubel
pedersens
villig
lunds
##terer
avlings
##bønner
smig
taknemmelig
##dringer
jnden
erhvervet
bevæbnede
##lage
##mad
svendsen
kil
##osedler
formind
##feber
optr
vandt
løbet
foranstaltet
##rene
##vogne
bierre
tilfældet
buxer
stillede
infanterie
deser
tegning
##gs
##rigs
pladser
helsingøers
nationen
dæm
netop
foraaret
##teredes
forsyne
commandant
escadre
behold
forsendes
vom
nys
foretagne
affair
læsning
moniteuren
##brudte
oluf
skarp
afst
##steens
morsøe
biskoppen
kiendte
færdige
kjøbt
##wald
##storff
ansættes
vicekon
##bringelse
jndre
diplom
porte
asp
befaler
armees
bredt
nøiagt
##bal
løve
brasilien
##øes
##14
##fferdt
præc
monark
##mal
##temberg
ged
##bogtrykker
kolding
##ammes
forskriv
erfarer
sielden
##parte
ugift
114
mandags
uroligheder
eilande
istedetfor
##dorph
enkefrue
##ara
oplagt
##olie
falsk
skrædermester
wird
bibliothek
dagens
musi
formæ
indstr
##sse
hospitalet
##kaldet
jndstævnte
##edr
ankomme
varet
snapsting
egentlige
wen
##bler
##ianske
beboet
115
beyer
marseille
##vegne
hjerte
parlamentet
manufactur
##drage
##cks
##qvir
##erslev
siælland
skolen
generallieutenant
##blad
##enborg
formeentlig
dennem
##berede
tinglæst
108
##oger
formynder
protocollen
skuds
veier
fordeele
røg
onde
##stæderne
reddede
slaae
schønhe
udsig
anvendte
pin
frankrigs
##boden
geograph
middelhavet
livres
compagniet
samlinger
rosiner
adolph
##ay
forr
gundelach
ungkarl
stang
nogensinde
##bredelse
indbef
byeskriver
aabnede
louis
##ommes
broen
behøvende
italienske
seeneste
##15
##rade
huusholdning
kasserer
##medaille
avlsredskaber
##16
forsikkret
##fuldt
##dommer
##hiel
liverpool
of
##værket
beskadiget
##bemelte
jahn
##kynd
tanke
ded
høn
udført
brune
##skjold
##econom
franskes
proclamatis
foustager
afgaaen
nordlige
##isation
afhentes
##brødre
sikkre
##handlere
##handles
desto
##ike
paalagt
raison
bug
sygdomme
sterling
svarer
tilstaaet
##melde
brud
ports
bekiendtgjørelse
hensigts
kompagn
auth
ødelagt
aast
##ugaard
opførte
##raadet
overeenskomst
##yds
muelige
##lesen
aarets
lauriz
farv
hiint
nar
kanal
ankl
reform
##iment
350
##mil
koner
trinit
erfaret
potter
tyrker
les
omt
stabel
indløben
fægtning
afgivt
haandbog
jyllands
levnet
etc
opsyn
krigsf
degn
fødsel
##kningen
sultanen
##ahls
forundte
##oret
opd
modtagelse
derfore
cancelliet
selveiergaard
uskyld
##nat
##commissair
fortsatte
worden
sab
varene
1763
##vitt
forrette
##læggelse
septembr
fortun
hamborger
##inien
skjæb
herredscontoir
##værdighed
knip
gields
liter
##bruun
##ængere
barcel
miste
ballast
##elde
meddel
postgaarden
begivet
##dalen
##iligheder
royal
afskeed
kald
fugle
landstings
tam
##stemmelse
couleur
##tien
##ordnede
kaste
souverain
overkrig
officer
bevægelser
qvægtiende
brødrene
tilslaget
jntellig
afslut
frost
tob
overgivet
liste
##ancen
matth
grenaae
stervboens
band
slaaet
konsul
tractat
sjælland
##kru
##illie
secondlieutenant
##meligt
##zon
underholdning
flaaden
rulle
eli
##une
meldte
bonitet
ernst
saug
overretten
##ktøi
forseglet
paalidelige
forskrevne
##olis
forebygge
##assessor
##dersukker
omegnen
sæder
tilstede
steens
polen
napoleons
velyndere
##ahlen
christensens
medborgere
stuer
bane
uro
strandede
cancellies
eq
tæ
reyse
##mask
rub
vindovne
##jente
##aat
paakiendelse
ministeriet
etag
##øvede
klager
bestemmer
landgang
jbrahim
fuldkomne
##gild
##oral
##skiær
metal
muursteen
nøiere
linde
lærd
majestæter
afseile
mot
##lags
vedligeholde
kancellie
##stene
##illende
underretter
logis
dækketøi
##cia
jnger
røm
formel
##gjorde
opraabes
elskelige
##ppel
dieser
skam
ubetydelige
koste
##13
vig
kammeret
##færdig
##enzen
samf
forsegling
talg
magas
handles
##aabe
corf
liber
##væb
schrøder
jmellem
beboede
cart
##righed
uforglemmelige
##blev
##anes
##etz
skien
baller
##hoveder
anvendt
900
##pil
forordninger
directe
regner
franskmændene
fangen
akadem
byfoged
##uper
kaab
udvik
albert
hers
guldberg
trænge
wølfferdt
forandret
indtrufne
buonaparte
magters
catech
mynter
øvrigheden
raadhuset
##ordenen
fortæller
udnævne
##ergaard
chocolade
trukket
assurance
postcontoir
novembr
malling
colbiørnsen
skilder
canal
##urier
pohl
##tering
##rip
domingo
##ino
lodsedler
deputation
##ladet
kiøbstæds
udlagt
druknede
tilsendt
couleurer
bønderne
##kiel
##ræe
deeling
##herr
formoder
mont
william
overflødighed
##lærer
hverandre
afreiste
amtets
endt
forbemelte
##ynt
hoveder
uafhængighed
sendes
snedkermester
aner
##hedral
summen
nabo
ballet
##mit
##ouge
##ædle
##can
15000
oster
pants
##spil
regler
karle
##kun
##ytter
che
arbeyde
folks
baaden
sigende
hidr
haardt
anfører
overgade
piber
drevet
opt
bonden
joch
frig
fyldest
##kaldte
##annt
##æringer
hauger
##orno
meenighed
##riske
bygge
hjul
wulff
optagne
slaver
republiken
helliggeist
hendrich
skrivter
##boder
stadfæstelse
##iten
berner
hvorfore
stett
udbrudt
kornvare
ungdom
marschere
hval
##blevne
##stemm
bedst
119
røver
tu
østerrigerne
##loden
neutral
sidebygning
lovgiv
linieskib
angiver
tøm
hist
chirur
qvær
liebhabernes
bage
##upt
##rups
##tent
##nok
udfordres
produc
døbte
##lyng
herskaber
##dags
##betale
##ksal
føle
heeltag
##læder
kønigsberg
tilsku
berettigede
betingelser
##asselotter
knu
batav
##don
liim
udgave
##kiørsel
malede
heden
seilede
forventes
tilkommer
##ctioner
støvler
##skind
anskaff
perem
##ase
generalerne
hensigter
prædiken
##følger
##grav
bielke
stræng
firma
drist
##oms
clem
udde
indførte
langvar
brigade
fornemme
hypp
##endel
bist
creature
jarl
##antes
kirkens
##vang
tresch
##slund
bringer
schiø
schow
anstalt
øde
##arup
##achen
beskyld
tydelig
dramatiske
lun
##væsenets
asseur
forsikkrer
juridiske
endte
##medens
ovenmelte
##ssel
##yser
##ini
tjene
lotteries
tøy
opsigt
pilestrædet
gleerup
ande
fund
wie
nakskov
ansp
femte
broch
##øver
##klædt
marmor
##hausen
svære
trykken
supp
bryggerhuus
tilgodehavende
##retter
anvendelse
hein
forstærkning
cabinet
##hrer
linden
##field
##fjorden
bøl
##ttede
flæsk
indlevere
##viiste
##schirurg
ugr
##qvarteermester
hovedstad
holms
kæm
sur
wr
vinkel
ungdommen
assistent
hids
kostbar
erobrede
tyrkisk
tykke
##besk
##telige
skonner
##retninger
risengryn
strandgaden
kastet
##conditionerne
besluttede
onsdags
dum
brol
##chef
foreviist
afseilet
wands
reparation
jblandt
schlesvig
lum
##entin
byer
sjette
regnes
##dels
bendix
mex
nan
adelgaden
##finde
##hvor
ubekiendt
##edskaber
degne
syv
tiltalt
archi
##menh
bogs
mir
##ighederne
efteraar
##cit
indskibe
støde
sukkere
##iernes
##varing
løkke
haag
pøb
elend
##iken
##betaling
betragtninger
##kammers
##attes
overlade
vælge
arrestantinden
opbragte
opfordre
glimrende
folkes
vægge
afsendte
alens
boen
absolute
nedsatte
eskad
china
erhverve
forul
stre
sever
opfordring
skrivtlig
laurs
lyk
ulrich
##bierg
indlade
##lydende
##rier
##strups
ax
dra
wurtemberg
underhandlinger
morea
##ley
kirse
confirmation
jnsurgenterne
141
pakker
##bs
skadesløs
##lys
kundskaber
neapolitanske
##commiss
servi
flugten
efterhaanden
overra
almind
beboer
medaille
30000
##seng
122
storkors
bloch
##aften
##betien
dagligen
fordær
hassing
rel
##ata
hæve
forbedret
##kkens
##ieret
flaa
bøgebrænde
ef
##baarne
vande
fæster
velsign
capitaine
korsøer
trib
nationalbank
##veis
vine
citadel
portrait
proclams
universitets
passe
##leren
troskab
oversv
mas
forfaldne
##stes
hartvig
##ieur
galt
livorno
##benterne
135
##ygge
qvittering
actie
drikke
lysgaard
birg
fædreland
grov
ædelmod
##hin
røn
endogsaa
raade
andersens
haabet
rein
fortrinlige
conference
bourde
bevæ
##nin
nedlagte
bogtrykkerie
fed
##kegaden
##lementet
hiemme
gustav
underste
ruslands
piast
almindeligt
panteobligation
##fning
sagfører
afgivter
klog
tyver
iværk
frederichshald
##gaa
procur
forsikring
uldne
næring
langes
ægypten
omegn
læger
overhovedet
##bol
##numer
jarlsberg
eeneste
##armeen
agger
halsen
mæl
hage
pantecred
foranled
moralske
##ppet
schweiz
mission
##liget
hense
##yttet
nyegaard
marquis
##distri
ort
trængte
##beretning
tvert
forbudet
##70
##gjørende
ulden
indføre
nytaars
##gaaer
beund
ov
james
trinitatis
oplæ
plouge
kostbare
ubetydelig
witt
gebro
skorsteen
udbrud
samles
staters
formen
230
øieblikket
rundt
religions
##fod
øje
frøe
herredskontoir
vesterport
undersk
bekiendtgiørelser
panel
anthon
venedig
##udan
forfly
slutter
rask
sved
erkeb
##ision
##eck
leth
døe
fredensborg
##endeel
knæ
tildragelse
samsøe
overleveret
##rives
helt
##astet
høis
gjøres
ditmarsken
kutter
##ends
fredens
undvigt
drev
bogstaver
##rift
haderslev
ebeltoft
bille
udtagen
inst
kapere
raadstu
maynz
umage
##lien
søer
torvepriser
staldrum
kugler
busch
stiftelse
##skjøndt
nim
##ynde
soldaterne
høitidelighed
feldttog
dampskib
##het
yttre
##anken
græve
##blik
bergenske
##cass
handelens
brorson
##stald
fiendens
dup
daler
##bjer
trakt
tillades
##trud
##mund
lovise
patriotiske
forfærdige
##bølle
løgstøer
traad
kones
kreaturer
mynt
stettin
##bst
detasch
resp
apen
baroniet
##ommeldte
##æstede
seyl
gjeld
krigens
leverer
nicolay
##værdie
##ctions
mast
##uris
##kiøn
gangen
taarer
##øyer
fro
regel
##illen
dampskibet
bagger
pul
deg
##ægtet
førstnævnte
canton
116
auctionsstædet
forpagtnings
optrin
indry
##øvelse
historiske
##ænkende
##orgen
1769
fuldbyr
afholde
nes
standse
##orer
##uns
123
erstatte
frugter
##orum
udkast
kiøbenh
##traadt
147
indslut
##ænket
bøggild
speci
forlæggeren
##hes
##antet
bryde
lorenzen
oberste
fælled
##æft
michels
trondhiem
##ilie
##alminde
keiserlig
##strid
anciennet
naae
tallet
honette
concurs
tildragelser
ir
catt
opv
kiendelse
salom
##skrivning
pres
jernp
opbrænd
anordning
forefindes
##80
sands
indbragte
jndust
petersens
jnstitut
værdighed
captain
tde
##anders
kjøbesummen
commissions
overformynderie
sval
allige
##given
joach
medicin
##befalingsmand
##car
reqvir
selskaber
elskelig
fundne
idømte
kulde
kirsebær
vidne
##præs
ophøre
vindu
deputeredes
##lagen
kiøbmændene
merkur
henhold
omsider
ade
alvorlig
agende
skin
potte
##dinal
##erie
forsikkrede
residence
##berne
potten
arvefæste
##imer
##0000
portsmouth
extraord
##zu
tilbør
tilstaaes
beretter
##ace
four
bekostninger
matr
##anførte
##pre
127
udbrede
rheden
englænderne
overslag
former
rdl
brændt
avlet
##igo
##oserne
egypten
vistnok
ørum
jndby
noksom
ubekiendte
hom
katt
batterier
##ises
oprettes
##melsen
was
##pes
hannem
##smaade
##brevene
##aaler
##ømmes
holme
##tegning
ankers
##æden
ugersdagen
beskytte
egenskab
##øj
studs
exammen
forpagteren
##sæd
##elius
licitations
treschow
glade
henri
lieutn
dider
brøg
bram
holdtes
1764
##cen
styrtede
taale
##tim
behandlet
afhæn
cadet
uopholde
frik
exemplar
sognefoged
mortifications
mangle
favor
##iteten
continu
##aarige
##drer
boutel
qvadr
caracter
##bil
nationens
##dug
magnus
##ada
seile
virksom
fortællinger
garden
bestille
bekiendtgjøres
ihre
oeconom
tav
##aadet
##bygninger
bielker
lex
kirkegaard
skiftecommissionen
belgien
mangfold
opbygget
ynd
halvtags
overværelse
jndkomster
sidstl
rosenkr
societ
##dning
aalborgske
##eredes
overgive
##ssing
arvingers
retsind
##utz
betænk
engellænder
tilbaget
armeens
caracteer
##god
from
høj
hjæl
spanierne
sove
tilkomme
fremtid
forhør
appellanten
muret
einer
##hjem
lægges
casser
vedvarer
##ras
naturligviis
fryden
tilkiendegivet
##smænd
grus
frugtbar
tirsdags
##ættelsen
landsmænd
hads
retskaff
armeer
rent
helbred
jngeborg
##olence
##vært
diam
##hi
handelshuset
jsaa
henrik
larsens
##stol
laane
grevinde
brevposten
regninger
consistor
##egade
grø
nyttig
afsætning
lyksal
pohlen
ratific
mariboe
##19
##værre
worm
overtræ
følelser
storbrittannien
forur
fiine
chatol
begravelse
##pun
engl
farlige
omsorg
roe
sirup
stamhuset
hov
producter
sul
##uagtet
datters
##vald
sau
mulig
hjemme
dands
foreløbig
roden
anlagte
##endrup
##recht
storherren
##hem
provstie
had
oste
meerbemeldte
vidner
opdagelse
hertugdømmene
tide
##indret
tilkjobs
##laucht
dist
kos
skjæbne
paastaaende
gangne
arvepr
tilstaae
virg
dir
##umb
acta
peremtor
allevegne
foer
indbyrdes
##ichs
jægers
findet
bivaane
rob
##hne
indløse
almuen
##nerne
foraarsaget
sviger
forstrand
afben
personel
fordum
fogh
times
bestri
burg
logerende
subskrib
##dorf
##rone
vater
##ond
##ypt
farlig
adri
forbry
fortiene
##isere
omløb
sidde
##ænkt
##clusi
##tinent
gens
drog
134
høyeste
mallag
handler
prom
forbryder
paarørende
længer
##høi
ihænde
##vexling
christne
vands
ener
viiste
postdage
##bringende
pel
indgaaet
sammenlig
ønsk
hemmelige
herregaard
byeting
opmærksom
skibscapitain
blye
conto
fredericia
##igien
lot
besætte
exer
huder
skræk
klein
bourdeaux
##orende
mathem
##jæger
bytte
stervboegaarden
alderdom
luxdorph
veiledning
forvand
bistand
##rere
jahnsen
##bygger
##alske
##andeur
indlagt
corpset
jøvrigt
kaaber
jndretninger
##ening
##smaal
grændserne
tilendebragt
##stat
udgivter
##bryg
##acher
roman
frygte
indsendes
##stømmer
marke
bark
underkastet
heil
jnstrumenter
##svend
##itiske
amalie
skotland
kaal
##historie
##veder
pligtige
jndsidder
bags
kysterne
anbet
lode
bemærkninger
##lona
naturlige
jonas
forbunden
foreskriver
efterlever
parlament
underdan
opre
vognmand
ophævelse
##førelse
værdig
kruse
fødder
##cc
konstantinopel
hasle
forbrudt
tilbyder
collection
##støber
kiste
contoirs
lubeck
##siske
##staaer
fiendtlig
kolon
høyt
ridende
##abil
udsætte
anciennetet
##hde
bemynd
rigsbankdaler
spær
117
##idenden
fust
stier
mede
angives
engelænder
soldin
##tighed
##istiske
loe
124
##oli
nærmest
jurgensen
ender
stras
riges
udbredt
litteratur
anordningerne
168
236
stabell
##pede
støb
mass
aarsager
vaar
eens
befandtes
forfattede
subscription
udby
fredags
##færdige
indrykkes
vænge
##yve
bevidnelse
stutter
committeret
206
henrichsen
eie
note
##acteur
omst
trøie
tales
emigr
holmens
munter
anviist
143
divan
ladninger
##quist
dorthea
skudsmaal
brygge
eger
yderst
vedligeholdte
jm
pest
hovedqvar
forsvarlig
pengene
##spredte
##oter
##stør
indvortes
cord
##brænder
undvigte
larsdatter
##banken
alligevel
##agtige
hestene
gene
##cast
citanterne
##indede
##trykke
fiol
##ttes
##etil
medbragt
sterv
generalpost
vove
##hardt
vedligeholdelse
ilde
frygter
aande
##hof
##isberg
generalen
averterede
##haand
jndbyggere
hamburg
banc
##ask
##arie
##roede
registeret
jndbrud
##rane
medhold
bortle
befalinger
dresden
144
1762
jesu
##abet
##ollen
schmid
smyr
godses
vext
erik
##ikus
bly
olsdatter
bot
baglast
hofs
stadfæstet
trang
169
indtage
lak
antager
rentekammers
reel
apenrade
agen
##eddel
##gtighed
actors
belt
comoed
schønheyder
tilsides
christi
reskript
##inter
joachim
egenskaber
proklama
kilde
smidt
##lidte
fil
##leret
eftertiden
cataloger
matricul
##slager
129
ori
##geant
admiralitetet
gielde
##heftet
##handlet
##lande
##æres
kapital
udtagne
138
bonapartes
vaabenstilstand
##fordrer
forsikre
beskadigede
kog
lykkes
##nytt
indg
##spun
##øies
##andse
landmand
kierul
billed
##atisk
##parcel
##igs
kaabber
lykøn
indvi
##kaldt
rath
formelig
listen
anfør
varde
paschaen
konfir
elling
koureer
##green
nid
##raf
od
tilstædeværende
##amtet
kostet
transportskibe
##haus
##virk
vognen
##irer
skeede
mogens
arendal
skipperen
bentz
##skarl
##traadte
##øiende
corvet
##seer
lyon
##meldt
søgning
klædes
trappe
##brev
saltede
hindringer
besøge
extraret
kours
rasmu
franskmænd
forhindre
opgives
##frihed
trom
romerske
daad
stru
hunde
hiemkomne
##budne
capitaler
cholera
lon
##sholm
lods
##maaler
##skiftet
fremlagt
fried
stervboer
nytaar
##mt
staa
##skuur
nordamerika
##inch
indvars
##geraad
tilkiendt
hente
betimelig
behandle
toldbod
desuagtet
durchlaucht
pragt
talt
##kiendt
##ødder
forbin
##død
##kninger
hauch
iagt
befunden
osten
##ram
therm
valen
##ming
##sagt
bjerge
lovgivende
embed
##urendahl
beløbe
##præsident
lil
##iver
##hov
vindovn
jndtægter
frantz
##sætter
provisor
flade
tromp
contract
aarhundrede
hager
udseende
##conom
leipzig
petter
fortræ
forglem
forpagtningen
##træn
##itterede
gratis
##eremon
109
undertegnet
##skiøndt
##ellet
raabte
angiv
tillægges
rugen
qvarantaine
piastre
preussisk
uleilighed
hidtilværende
statholder
kjøbe
barsel
##spør
2500
##ændt
bekiendtgiørelses
henseender
udbetale
tæl
##ians
frygtelig
grammat
##ppid
naturen
levede
klingberg
bond
borup
ledsagede
162
madam
expeditionen
##kens
##oll
kløcker
bortforpagtet
##ris
erkiendt
kjære
henning
examen
##go
loftet
straffes
155
fadderne
121
fremlagte
modsatte
##anna
læsebog
vang
bare
glæder
forommeldte
##hertugen
##aur
vak
##atz
krager
beregning
##ofte
quar
schal
pract
hviid
vender
neu
amtsprovst
naadigst
hønse
angivet
indsendte
jama
qvadrat
cathol
##næ
morder
mærkværd
mech
kiender
pach
##kiedel
endeligen
redacteur
wig
raadet
taarn
liebhavernes
##ination
ryggen
mallaga
133
tabende
udvortes
anføre
udføres
væsent
samvitt
flam
forbedrede
retfærdig
##iereg
livsarvinger
condolence
speciess
udlagte
leop
136
##curator
martini
##yers
schack
##sposten
sant
yde
afhandlinger
hagen
tillagte
mikkels
collegio
##itten
kiøberne
afgifter
##tings
skrevne
ellen
bryl
kas
søges
udstæde
theatret
uret
##itzer
##iat
##ersoner
sørensdatter
wochen
amund
##yndt
##endte
konen
høker
antagen
collegiet
##eler
##ithe
##egr
overladt
comptoir
##ahrer
##ringen
##slag
##lugt
##cius
inner
sunds
fonds
statsminister
galli
timers
tiltagende
##stegn
administration
nett
##ienden
##orten
operationer
fattigvæsenet
##posterne
gegen
##osse
adjunct
sop
adkomstbrevene
rudkiøbing
att
viol
circul
munchen
reeb
retmæssige
##kjær
brigger
massen
kiøbes
selmer
##ude
##xen
noch
krogh
academie
##bindingsværk
kield
huusgeraad
clar
##reatur
districts
pavelige
##stri
bero
##drevet
wulf
konigl
moders
moldau
##haven
vognremisse
##aum
##cat
##wart
frim
troes
audients
tvist
forber
fordrer
omkostning
##icon
marine
seild
##lemann
fahr
krigsfanger
rov
underkiendelse
illumineret
bemægtiget
hattemager
kongressen
fremskr
anmode
leiligheder
skrækkelig
tart
##rider
udførte
extract
fjerde
gaaende
bekom
ovenstaaende
præcise
rende
184
sadolin
indtruffen
correspond
opmuntring
foræring
veiret
folkem
skinder
qvinder
##onte
##kund
##adjutant
haus
christiansen
159
omvurder
##nest
forøge
franzoserne
vinkeltag
qvi
troppe
fornødenheder
forskjellig
mærkværdige
##bret
betient
enkemad
livregiment
dub
##nesk
gouverneuren
##forst
næs
tex
revent
mistænk
gribe
kynd
york
navar
tingen
claudi
##iæ
kopper
ventelig
tand
badstu
munke
drivt
rothe
uniform
adressecontoir
##lieut
justitien
buen
##kakkel
##væg
seen
leverance
herredsfogderie
boul
desværre
refle
domm
kareth
chefen
opvæ
synd
udgangne
forvisset
scho
benzon
imedens
ordens
mant
weil
##gsmaal
interessante
forsvars
nederlag
taaler
americanske
##sler
##ævnt
maadelig
forelæggelse
efterly
126
ordenen
efterleverske
len
englands
##horn
borgen
urter
tingstedet
udbr
mac
orle
kiøbere
##fieldske
fulgt
gie
vordingborg
broders
svane
indfundet
omby
benefic
152
koffard
##gjeld
pram
græker
hertugdommene
indvendig
lovligen
slesvigske
nødsaget
jochum
elever
slave
amagertorv
puddersukker
##tiende
dengang
stiftets
ærbødigst
zum
ansig
tvertimod
wis
flensburg
##utzen
kour
aasum
laas
renterne
teleg
flot
rykket
befuldmægtiget
164
seminar
lagte
##tvivl
##levering
##ække
traf
forelæs
andresen
lave
libha
##eskind
bayer
##kirk
modsat
hornsyld
følelse
træl
uund
underst
talte
bull
indtræffe
fu
sens
##farende
forskands
##hoe
skomagermester
##ani
constitutionelle
avant
indrykket
betiente
##unget
fineste
omhyg
non
##gsel
##vog
##edahl
thorn
torsdags
observ
##chal
udfly
holdende
valgte
fon
tilhøre
mindst
##ax
enige
borgerne
øerne
storvi
##ationerne
henlagt
forhaab
##vaa
##ellen
revolutionen
føie
paan
boelig
##aalne
##skrives
##sammes
##aria
tabe
ihiel
lid
tilbagekomst
befale
flygt
herredstings
compagnier
stuehuus
##baaden
139
adelige
eenstemm
simple
departementet
winding
hoffer
amtmanden
##mør
mangen
trium
gielder
##ston
##elskab
vendt
nie
##ceraad
##lehn
##sees
##tofte
tonder
pesten
##been
mein
210
ran
efterretningerne
tjent
rens
##andsen
laursen
cort
##ederich
fuldm
herskende
240
author
##qvet
##skar
##igeres
indfandt
##kort
grønt
##straf
hjorth
bagerovn
fændrik
mens
##ee
hotel
anbefale
afsat
boendes
ling
salomon
forle
vertshuusholder
spaniens
nederlandene
forbrydelse
augustenborg
kreds
stum
jnteressent
udbredte
klareboderne
antræ
landsdommer
veg
##ffel
fiende
pom
smyrna
carstens
landsoverretten
severin
##iler
stene
bortdøde
tour
udgaaede
##viden
skriftet
kornet
forhuset
##mentet
##elden
kiøl
tilhængere
##strømper
##ængden
skovfoged
udførelse
wang
bierge
væver
kiedel
##ugle
##viisninger
hæste
vandagen
transpor
kancellieraad
stødte
##præst
evigheden
undtagne
befrygte
tum
strandet
sammensvær
##ior
underveis
prindsens
talen
bøhmen
kjøkk
##fyrsten
##bak
##dragne
hviler
senatet
##ykte
kornvarer
nørgaard
##agers
qvart
huusmænd
commissioner
usædvanlig
hagel
##kir
##ariat
ubesk
vicekongen
branden
kjøre
skidenstrædet
##arter
hopper
champ
##skifte
elskte
##husets
tougværk
bortkommet
hæft
arbeidsmand
schubo
beviist
grand
##priis
gid
##edie
dren
dos
formyndere
capitainen
older
sultan
##hler
##secret
##denne
maale
bestilt
underhandlingerne
indstævnes
##berger
erindres
nedlægge
giertrud
##dera
blu
fortælling
barcellona
modtagne
redelig
betænkning
undvigelsen
##qvid
siet
diurendahl
budet
allerhøistsamme
jhænde
konget
borttaget
gjor
husets
examin
plakat
bombarde
jndkomne
137
ledsage
##sere
udl
optage
herfor
undertiden
historien
wandsbeck
herren
udfaldet
bere
politisk
sadt
publiceret
cic
candidatus
samtale
##skudt
gesch
##stederne
##iber
islandske
foss
hiemkommen
regjeringens
straffe
jde
##mældte
udleveret
ovenanførte
##tinentier
qværne
##slagen
sundheds
tapperhed
##ining
vacc
faner
benene
rigsbankpenge
interessen
forhandlinger
stormen
mahognie
##issing
divisions
hjelp
bassesen
ringkjøbing
bjerg
##25
foretagelse
lotteriets
rer
##igerne
hævet
fryd
tilføiende
lærreds
tillig
##grad
prædikanterne
debatter
rhed
vaaningshuus
signal
rach
constantin
##løste
synge
forbere
svagelig
agerland
vensyssel
dømme
##avl
udbredelse
mandfolk
englænder
bryggers
etages
##enhau
forman
##richt
disposition
##zar
angivelse
hesten
ove
##skning
officererne
udaf
øiemed
beære
spurgte
kanonskud
##yttes
##nerup
kielderen
øvrighedens
raisonabel
##atten
expr
biergede
mangfoldige
##ønde
christelige
##ligheds
##klo
fattigkasse
nøiagtig
baj
længst
feg
##atningen
##ersom
panteret
##24
forlægges
etab
blich
triest
##iendom
birker
ikkuns
studerende
bres
veirmølle
##fried
dus
wid
indtog
##oneret
skibets
brændeviinsværk
bun
cum
strækning
jespersen
westen
overbeviisning
##yptiske
upass
udbrød
##urch
##borgs
foreslaaet
ejusd
tiltales
ophævede
forvir
ugen
stund
halvdelen
fortsat
vandel
huusholder
##ændte
udsælges
##skomm
island
fruekirke
medicinske
##pelse
indd
hænderne
herredsskriver
baum
1600
##irede
forventning
jørgensens
endskjøndt
##kjende
slagne
classes
fortsættelsen
##ellerup
regimentsqvarteermester
auct
leopold
runde
##aand
##dest
glar
originale
prætens
tyv
##indst
generalst
##søgte
220
munk
sydamerik
havte
liget
ply
sebast
forelæsninger
skaal
##quet
panden
mær
panthavere
torn
tilveiebringe
taknemmelighed
##ira
størr
mons
##uller
vitt
vestlige
korp
##selskab
tronhiems
##ces
##elsers
tilhorende
approberet
cabinets
nyet
ovn
##brændeviin
liimfjorden
kommando
karakteer
tau
##ving
##iker
elsket
jus
bortgaaet
##rettelig
escad
maskiner
##floden
fattiges
historisk
##givt
rid
leiren
efterdi
søm
nordamer
elmquist
it
166
##icip
##klar
##kontoir
opdagelsen
bunden
##odder
torsk
grækernes
artilleriet
forekommende
anmodet
fortiener
iaar
domkirke
forstaae
registerings
kollegi
olding
herredscontoiret
glad
redigeres
engen
schj
lollands
hovedstadens
menneskelige
vanskeligheder
rasmussens
opdagede
masse
##agens
157
abon
jnteressenterne
dandse
hoch
faret
annam
roligt
rasmusen
##bestyr
stiftsbogtrykker
stærkere
sprang
medlemmerne
##ollerup
##bunden
behandles
kløverfrøe
anstændig
udtru
angel
greb
##gam
kiøre
skje
uder
ladegaard
oplyste
ceremon
##haupt
flitt
##dommens
berettes
opfordret
endelige
tings
addressere
kiøkkentøi
gebrokken
##list
lærere
prakt
felt
roth
væd
prægtig
sikre
egebindingsværk
kostede
annex
indløbet
heldig
alexandrien
##menterne
bevog
##løbet
perle
aastrup
hatt
jnform
eft
##ikon
svage
brandfors
mød
betre
gouvernem
##wal
148
anderledes
sicilien
##ran
indst
storfyrst
##handelen
befindende
##esses
grenade
##oft
##sin
jndskud
nødte
ualminde
formand
##idens
retmæssig
lutt
udvand
formaae
udtrykkelig
militær
faare
jnfanteriet
ruug
pov
##maan
prindsreg
##fry
skatkammer
##jn
flod
bekiendtgjør
bagge
##uv
gebe
uvent
##stift
indsam
##bræ
##ail
forføl
kjøbes
fornøyelig
katholske
ryd
stæderne
sygdommen
saakaldede
uddeelt
##ulaire
153
kobberstykker
privilegier
tetens
opp
chem
lovede
almu
kræn
pau
overhuset
conser
##stænder
boglade
siellandske
stabs
indtræde
ivrig
fen
sidder
gienstande
ofter
nyeborg
dannet
indeholdt
grader
krydse
dannelse
begyndes
indstrandede
kø
unger
pors
##iane
gla
##ungne
##skirke
nedsætte
ottom
matriculeret
list
##hor
kiøbt
haug
stemplet
fædreneland
talle
marscherede
orleans
##være
##maad
##ky
saamange
tømmermand
punkter
angaae
schumacher
siællands
bedrager
efternævnte
diderich
kalve
retterne
grat
belagt
kiøbstæderne
bortgang
columb
sørensens
optages
christoph
145
tyrol
##aul
##øllen
berøvet
collecteurer
læste
fabrique
##kielder
gol
##ittre
silkegaden
##23
omring
saaet
##march
##ilden
star
##kiød
ophørt
føler
jndbyggerne
krigskib
tilstillet
storviz
##bort
##fag
exempler
evige
johnsen
##onen
156
weg
rasch
##spredt
raffinade
svedsker
##wo
bevare
master
##ktor
##dahls
gan
tænder
befol
prise
handske
kudsk
opkom
christend
olsens
høibro
petersburg
bærer
spare
##vigs
disci
rene
toldboden
boutik
portofrie
mahogni
beklag
forbeholdes
tagsteen
ægtef
stubbe
gouvern
##mont
##isc
canning
bekjendtgiøres
einem
40000
pakhuse
directeurer
bolig
ach
due
desforuden
ansku
refor
rimelig
gall
slæde
##iano
##fare
##kjød
silde
udsætter
underretten
##itus
ultim
husum
rigsbanksedler
christophersen
pag
ulovlig
##ringe
##iels
vexler
bade
nytorv
nørreport
##ariske
reh
penges
schar
##steene
##kener
rio
##ningens
dødens
wallach
ubehagelig
dall
landsbyen
margaretha
vidende
moden
jordens
moses
landhuusholdnings
geel
træffe
forben
pallads
skilderier
bortre
bertel
##endi
rosenborg
galthen
foruds
forgyldt
netteld
øre
indrette
weyle
hoffmann
juridisk
anspru
beboerne
##so
belgiske
caspar
pris
##yres
##modighed
administrationen
cirk
##vennen
spids
kanter
##irket
citantens
enth
##gtes
brandredskab
##agelsen
anførsel
forlængst
##beder
##sy
giød
##gjer
sængeklæder
retfærdighed
ce
tone
##alig
##rimin
presse
tilstrækkeligt
amalia
admiralgaden
tomt
mundtlig
kiers
parterne
1834
jordiske
skibsk
##kaal
østerrigsk
walløe
tilfalde
medfører
søstre
commandanten
alvorlige
skyts
berl
##ete
##estrup
indkaldt
##viisnings
##bygget
forelagt
bevidne
##haar
##adse
commanderende
udeblivende
forauction
##alp
slup
##taler
svagheder
betingelse
jndkaldes
grundede
##dreven
collegii
andrag
skikket
klip
rosenkrantz
bestillinger
silket
beløbet
riig
jesui
tang
forte
kjøbmænd
blodige
##sts
trods
evne
svin
lettere
natura
##hagen
tilbudet
forbig
neutr
##hmann
memel
munch
plove
##ingaard
samuel
krohn
kavallerie
deelt
##fterretninger
omhandlede
schiel
rose
##forord
##udne
indhegnede
nærmede
unød
ugrundet
gad
##auf
rot
kjøbmændene
byefogden
enkekasse
bremen
##brun
##øns
##øielig
gudme
buenos
tos
##kers
leien
udbragt
##utt
beng
neergaard
charlot
##vol
jøder
##herrer
forandre
fæstninger
vaanhuus
sædvanligt
##leben
sieldne
greenaae
##blade
##kende
portens
auctionsconditionerne
##legge
milde
forfulgte
##ardie
udhuse
befæst
apper
scham
##borgske
rudkjøbing
orlogs
nam
sammestæds
##barn
fortjene
stakit
##skammer
ordentlige
oprigtig
eqvi
faderen
##raader
mønster
favorable
##ria
##emod
ophører
walter
lagen
spiger
passage
løg
marschen
øvrigheds
hensigten
kummer
boute
##cours
##parter
forbliver
mild
vilkaarene
brasil
landgilde
magister
overdrev
høitidelige
bitter
adsp
prænumer
rech
bindings
convention
fortræff
piem
nægte
tilhørte
##villige
ryttere
uvis
dekret
skild
anner
tienlige
speciessedler
lub
##capitain
fril
ungarn
brøgger
fremskridt
holck
##sset
tilbagelever
uen
sandvigen
fane
corfu
stader
tænkemaade
dess
vant
landmanden
krum
##kasserer
hve
roelig
justitiens
arrester
##machung
declar
kammere
bentzon
talrigt
olesen
dække
grenadeer
vahr
holmen
warde
##haveren
stephan
oppebør
##ied
##ungs
hover
##trolleur
coch
misly
logerer
herlighed
michaelis
punkt
væsentlige
søgende
1837
forgyldte
##itere
##33
##ichmann
melden
duelige
fabriqve
sindel
##vnet
unde
forunde
truede
boel
forefaldne
digt
##ora
udf
146
juliane
republikens
foranstalte
seine
daglige
##yldig
børnene
nationalbanken
eines
omendskiønt
omliggende
blandede
##ligemaade
##forløb
forsør
trans
ponto
##hier
ancher
grave
hofbog
skaane
panelede
##otte
1772
afdrag
##leve
prætent
154
paket
hassel
vatter
courier
jndfald
finmark
confer
actuar
##bell
allen
ligeg
jernkakkel
opføre
palais
wilhelmine
cens
prop
lovgivning
##forf
##betalt
cardinal
siette
steeg
nagelfaste
fulden
æbler
nyligen
##bber
citadellet
dyn
tractaten
uopholdelig
medbringe
skovrider
glædes
##slet
geh
keis
lægger
##ritz
##acht
høiær
ophæve
fyrstend
1te
boghandlere
forfærdiges
casper
theologiske
nen
skibsb
hæfte
afgiv
brudt
##muur
##stienesten
##idenhed
##glas
avanc
deling
specific
beordret
hersleb
##ags
thaarup
skadelige
##entligen
nicolaus
dørre
trip
##liges
forefaldet
dagle
bevilgede
pyr
øien
thur
ansaae
assurerede
190
ventet
lom
1838
forbedringer
himlen
##ano
doct
##ieskibe
estrup
jørg
luttich
arket
bondegaard
hovedbygning
udvalgte
##ores
##stj
##stit
##eskov
find
families
jndtæg
sognede
exc
attraaer
garnisons
catharine
super
schanderborg
skrivning
cancellist
kronprindsesse
chinesiske
mægt
##aster
indheftet
landsbye
maanedlig
tolder
ejer
afholdelse
elben
##vedkommende
redning
rabat
dro
vit
wold
##oges
underkaste
vey
forestaae
nødvendighed
subscri
paulsen
savne
tig
bertelsen
catechet
slem
dessen
afri
uddeelte
aarh
formaal
luther
bivaanede
kande
kirketiende
opraabe
qvarteermester
synderlig
befordringer
edel
pomm
berth
engellands
forskræ
biør
tilforordnede
ilede
nis
stænger
herimod
##iro
beltet
##tten
forsæt
peru
##mater
##ydes
##etøier
station
chirurgus
fødes
##bladet
licitationen
nykiøbing
forsikrede
##alten
##forretninger
##commissionen
lab
persona
rubler
##berett
boehave
truffet
##ankede
flindt
digte
##ja
harboe
##holmen
fremlægge
generalkrig
stifteforvalter
berigt
udgangen
upaa
opvartning
lider
afmarsch
##meere
helene
kjøbenhavnske
forfald
udgjorde
thun
142
brugelig
contre
locale
erkjendt
hiesigen
rømme
foraarsagede
165
##havde
stænderne
affaires
rie
##lius
allehaande
steden
skindergaden
brende
nei
exemplaret
bekræftet
##cassator
##alte
##isme
værtshuusholder
##selen
henneberg
##værks
fortjener
iklædt
##lænd
bekjendtgjørelser
traadte
grundt
auc
boutellier
##itim
212
##kreds
anled
suff
digter
arendahl
##holtz
plymouth
##psen
konig
venners
##dsv
stempel
anslaaes
rigtige
hjælp
##ustrup
schle
kont
beklage
miner
hadersleb
nævn
vedvare
kleins
tion
boeck
wolff
##somm
##ismus
parret
cathedral
speciel
##uls
helsingborg
forresten
##enden
skaff
udenrigs
offentligen
foretagender
jdømte
##aniske
##olige
opfyldte
##stemmende
læsere
beslutninger
omhyggelig
saal
##yndte
besiddelser
anliggende
oversk
50000
musikal
akk
male
etatens
adsk
##resund
storhertug
##ows
paataget
##stav
##overs
##anternes
bemærket
oprettelse
flugt
##ængte
lysthuus
passelig
ypperlig
bin
solen
jeppe
hermann
armen
høyhed
##ymn
udre
##forstander
afgaaede
trykker
weide
rotter
##orge
##aader
thye
postpapiir
leylighed
##peter
##district
stiftsbogtrykkeriet
##egning
folgende
tælle
mehr
nicol
smertelige
resultat
rummelige
kassen
venskabelig
fornyet
gebeet
indgaae
jndtryk
strals
panthaverne
kjerteminde
131
syssel
afgiørelse
##scomm
oppebær
galease
mars
boens
landt
mose
østergaard
##planker
cassel
aabenbar
udeblivelse
organist
raffinader
binds
aflagde
##estrædet
velædle
##command
##erier
blads
usand
##agus
terminer
prædikener
forbenævnte
##ida
høsten
nogenledes
ydermere
adrian
pacha
##pa
kjendte
betryg
##upper
##iendomme
verf
pantebogen
nels
tienende
nede
oversæt
brandlidte
virksomme
væsentlig
jordskyld
rosenstand
uafbrudt
fourage
##mærket
##priserne
trane
lybek
blan
holl
forkastet
##uc
kanonbaade
167
kragerøe
sammenh
bekannt
14000
##directionen
##uhre
boy
roug
##audi
paaanket
indsatte
tyrkernes
malerier
##dals
##omhelst
udhuus
##ostrup
solv
roligheden
engelænderne
maar
mærker
wem
##eget
søns
melis
indfinder
mænds
##halten
lorent
kry
characteer
skrækkelige
##forb
engbund
agtet
vandmølle
forderungen
pohlske
##ppidan
yd
kunster
væb
##apt
##varende
astr
##ensch
chor
størstedelen
##egaards
##rest
depe
arsen
nydt
##gersen
##garns
##dalene
arbeidere
sunde
##haugen
##lighederne
collin
peri
tilstrækkelige
sopha
wed
##syge
kiøbsted
høibroplads
100000
anseelse
thorup
kunstner
dantz
##ælv
præstegaarden
gaarder
tidsrum
foreslog
harmon
mindes
alman
##onsul
misbrug
bundt
jørgens
udbetalte
##vidende
brevposterne
##abl
##schen
solid
kampen
##ødet
seyn
brill
##antiske
vanskeligt
ahr
##nderup
mene
nordiske
borsen
##ted
##ankes
ali
1839
myrdet
beskjæft
andragende
alvise
##skiør
hornemann
birks
bragernes
justiti
1768
##forretningen
videnskabernes
opdrag
tilstundende
burger
##witz
rigsdag
nellemann
bittre
##tser
constituerede
##orie
angik
prindsessen
serv
hovedbygningen
fornødenhed
schoubye
##ieres
sags
tinghuus
maskine
rog
uble
betragte
druknet
ploug
##enhe
keiserinde
umiddelbar
##90
troet
halle
sardinien
##ontes
paaboende
valget
##igiennem
hovedqvarteret
pop
blide
25000
fruentim
lispd
wes
##gde
schous
##løber
taus
batall
volden
prag
leed
tegltag
begravede
erlæggelse
vertshuus
hørkræmmer
budskab
leverancen
rebellerne
mærkede
turde
verme
vigtigt
vilhelm
soe
dokum
skoemagermester
tribun
indt
fordele
anholdte
udgaaet
calais
cavalleriet
##uiller
##vinde
jndigo
speil
subskribenterne
kjærlighed
imodtages
skaber
confirmerede
##iol
bragn
##lette
huushold
borgerskab
##enne
undsk
formener
mistanke
opfyldelse
##marschal
reim
tyre
##oven
##rin
bræn
afstand
minuter
##ecorps
##pas
peremtorie
forski
streng
begier
sey
undlader
##corpset
almindingen
latinsk
ømme
##22
##idere
herz
velfærd
sessionen
blandet
pitt
arr
##sager
##ingerne
##tok
figurer
1300
hes
##aber
høje
brav
##spe
deelen
##quer
##ellerne
flaske
robert
##ierre
##antning
prægtige
vesterbroe
##ingel
sye
hull
bragernæs
##lis
bei
coff
##kiendes
latter
anbefalede
sebastian
rieg
bemægtige
##ægtede
gehør
behageligt
sergeant
glarmester
sun
185
stein
skiftecommiss
asien
khavn
sander
forøgede
besynderlig
##auditeur
218
fjendtlige
tomm
krigsministeren
forsamlet
true
##aske
##sløv
##esløse
farer
boli
vorden
aaen
##dette
hæves
vestindisk
tilkjendegive
##ita
sogner
storehed
beskriv
bergs
gjenop
yngste
nyetorv
strømsøe
snarere
frugthauge
vadmels
æn
snees
kane
gied
kni
stemp
overværelser
arbej
bemærke
vill
brab
mandler
liebhaveres
##dig
indste
tilhørt
beskreven
belgrad
9000
##irsdagen
skiøde
borgerlig
boulogne
ifor
##uk
##domm
##mas
moderen
gevæ
brock
kundgjøres
gronlandske
##edo
gierne
france
velsignelse
ødelagte
##anstalt
##fælde
frabedes
ordet
dannede
karet
nec
##aase
opnaaet
##nach
aftale
talede
altonaer
committee
ahle
udskib
baggaarden
wiener
departementer
christens
koch
##bliver
torg
portioner
naaet
uan
##yges
huust
##ario
##qvæg
actionens
with
aftryk
overleverede
brog
dødelige
apost
geværer
##pligt
rekru
them
offentligt
finland
forundring
vidtløftig
##compagn
uventet
anmeldelser
jndbydelse
##ilia
sekretair
mandat
##søgt
dreyer
grønnegade
##castle
rah
##tende
meierie
foredr
becker
beklædt
foresp
udbedes
##ttrup
forstærke
angivelser
nykjøbing
høegh
forsigtighed
##uts
franc
bullet
hidrøre
kie
1836
barnets
societet
odes
afbetaling
##liid
spies
antver
forøges
##sund
altsammen
skræders
fornyelse
##usens
indrettes
jndkiørsel
old
afgivet
selveiergaardmand
race
julius
murede
neum
classer
underrets
divisioner
tilførsel
##dsel
velstand
holstensk
##skol
##bereder
189
mandens
##ssels
monum
##porten
##gelsen
171
##boer
##ika
##essioner
##hode
frivillig
##træde
bjerget
hedevig
ejusdem
couleurte
bayerske
glands
udarbeidet
reelle
landmaaler
haardna
##vinge
forsamlinger
erobring
friederich
##pens
svan
bevillingen
##anderes
##villig
prædike
udlægshaverens
##freds
oe
##orvet
##ecretair
løber
gev
ræd
afhentet
voldsom
stær
samment
kjøbstæd
bøder
hæftet
stueuhr
længder
eiendomsret
tunis
jb
##venner
aabent
jnstrument
nordamerikanske
halvorsen
anmelder
terr
personlige
breg
sme
tilhør
smal
geistligheden
##inspe
##igjen
marien
158
##huuse
eds
mam
##giører
maaden
##ose
leon
udgiv
fornuft
ringer
##tligt
husarer
vic
##forsamlingen
paalidelig
##støi
deyen
##mern
mennesket
rasmusdatter
##løst
brystet
anch
gaves
qvantiteter
anspruche
tilovers
##stager
endda
schimmel
apothek
occonom
daar
##ock
##eliggende
meil
sidstmeldte
tænker
høv
schwar
stalde
videnskabelighed
storhertugen
##ois
##eski
skik
betroe
jean
naaede
forstaaelse
consuler
pigebørn
creditorers
##page
spis
tilføiede
##olleborg
jordebogen
##iana
##auer
duc
borgergaden
guult
frygtelige
besidde
oprørerne
herudi
bemærkede
##ulere
parlement
geb
nedst
porsgrund
geelmu
##orth
liqvid
450
imel
lej
260
jacobsens
lyksalighed
tilflugt
skydes
##zz
jndberetning
beordrede
##liste
##læge
særskildt
jø
rast
bliktøi
prindser
##schaft
uopsig
skaden
apotheket
##rech
høistsamme
dronninglund
##tzer
angrebne
stralsund
ahlefeldt
##utet
given
##ims
##vares
majestet
tegnet
tingstue
magrethe
garder
folkene
ceder
forfølge
arg
beskyldninger
##gter
bortleie
jomfr
tvivler
ordinair
forholdes
dyrkning
tie
overvei
sh
seir
##yldige
acten
##agerne
helte
opnaae
viisdom
udskrift
trol
##splad
grovt
resultatet
pommern
tillod
237
forfatterens
congressen
dad
ters
skip
afgiver
ødelæggelse
lød
##skræ
eman
bredde
vall
wesen
##villa
hvet
nærmer
forsvarede
frey
##ovede
##rettens
tidens
hestem
erfarede
gard
trondhjem
##ils
afhandle
##uthen
commoder
deeltagende
compet
flytte
bancosedler
høiheder
misforst
anordnings
##øster
pharm
yndede
jstand
##jnd
kundgiøres
dreven
forunder
##dts
magdalene
forestille
strædet
##passerede
kolle
henlagte
tilsidesættelse
oftere
underviisnings
##gangs
monte
skiærpelse
collet
kundgjort
bilægger
proclamas
forsamlings
beleiring
bevæge
##gart
##tenborg
tilstille
charge
forbeholden
utræ
ves
##rud
conditionerede
rohde
jndien
##tegods
langvarig
##hænd
##inding
middelmaad
toget
formæling
bogsamling
##skrig
##ligge
dardan
legeme
forpligtelse
neutrale
jng
forsikkre
##dersen
mour
tienden
grevskab
lægd
bidraget
frederichsberggaden
mulige
##airer
steentøy
comoedie
angivne
udstedt
aarer
##kjøn
garant
catrine
##fuldmægtig
flygte
lug
octav
sønnen
##raab
aaringer
klasselotter
##enhagen
distrikt
##brændsel
batterie
høns
frues
kniplinger
godse
##conf
bragnæs
meden
dans
tørt
lønnen
lune
lyset
bemærkning
rav
bebre
recommen
officierer
prindsregenten
rommer
##uli
##dern
guineiske
##rod
raads
liebhaberes
##gierninger
fædrelandets
underofficeer
149
##ceer
##leveringen
uægte
##dep
mods
steengier
##ureur
commissionairer
byrde
seh
kjob
districter
succ
ansøgninger
transporter
overeenstemmelse
grusom
døl
##ember
##prisen
fløde
andensteds
fyrster
indrykkede
lich
##iteret
##entil
1717
fremvise
fou
smid
skrev
sper
##tons
##edage
spræn
##jenesten
formu
huusholderske
indberet
krigsassessor
holmestrand
##regaard
kanalen
fornye
skjønt
gunstige
turin
kot
mærkeligt
even
##æts
##ftighed
linier
##bringelsen
essen
sachsiske
rougsøe
##alender
sværd
bevær
deren
byde
foregaaet
overkrigscommissair
mikkelsdag
sinds
vige
##hord
##juris
##arest
brag
kjender
constitutionen
støvring
##indrede
193
fordrede
patent
coursen
besee
forbrydelser
cappel
lystspil
lamme
##ædre
omf
##vægt
drevne
up
##cept
##moden
jevn
hatten
haabede
kragh
udskiftet
altfor
confect
tømmermester
hornum
færdighed
enighed
pantecreditorer
angou
høitideligholdt
##borde
lieutenanter
zin
byder
raf
##mangel
trævare
kriger
discip
reserver
anseete
##meed
følgen
bevirke
bestyrelsen
medailler
taare
##rild
##iti
##user
viingaard
helena
dødsboe
renten
kurve
jede
beholder
sla
##appe
jntelligen
set
overlevere
giv
ejende
anmæl
gers
klart
stokke
frankerigs
qvantitet
erkebisk
ledes
knutzen
##arbeider
##wn
anbefalet
##dele
##rigske
brugbar
ecker
paaankede
barne
lægds
##bjerg
tons
made
overrettens
ægtefælle
##berggaard
frederichstad
convoy
klit
trin
kronen
kronborg
candis
stolt
diplomatiske
somhelst
herl
underrettede
henstand
klokkes
regieringens
beregnes
orient
##oni
allerunderdanigste
religionen
tvinge
##rom
forste
fierdinger
rii
anviisningen
tode
taksigelse
yttrer
beholdt
##ligger
kjøberen
position
rantz
snesen
udsk
oversatte
løfte
wulfsberg
##rand
##ært
##angne
mekan
325
galle
viine
decision
bruger
hørfrøe
forandrede
helsingør
iforveien
baggesen
udviste
hammerich
foreløbigen
afskaffet
hag
hingst
wille
paaskud
anlægges
boglader
landsoverretspro
dytmarsken
jød
##ierg
stiftelsen
rasende
landede
carlsen
gjem
klædeboderne
mældes
##frygt
##ny
vedholdende
madera
205
udvalgt
undergang
bekiend
bortdød
fuldkommenhed
bernstorff
ubetydeligt
gut
##26
forres
##ulle
roer
##edrag
conseil
##ielpe
jllum
bræde
mortificeret
bjørn
vildt
##megen
colonier
##plig
leverede
mærkelig
##gru
forlader
##skatten
beroende
hatting
233
sorenskriverie
skiønneste
qvartals
contribution
beeg
bagage
##ikker
##gange
lau
##skendes
endskiøndt
benaadet
penne
##xe
laant
##tales
bonorum
tingenes
model
##tagelser
##lære
paabudne
tilbørlig
overveielse
forstærket
effendi
kattes
østlige
orkan
event
fiend
udgaae
209
plantet
appertinentier
hog
hobro
døren
##sperson
besees
schl
qvæst
verds
oprindelse
fortegnelsen
hob
jndtagelse
##essions
befundet
vestervold
hinrich
deles
##ivne
188
velær
broer
fødde
consum
gende
immer
jtalienske
subscrib
##enhauge
commissionens
deriblant
blucher
møb
vahren
##konom
tillaans
friderichs
##fect
infor
tiente
candidat
##kelse
##inair
##ræs
jndry
sødring
##aaben
empl
forskud
udgiøre
tørklæde
kjøbstæder
barnet
afbrændt
bodil
sac
wh
fortiden
remonte
uberett
taxten
standset
kult
underskrift
arri
meninger
delin
skilderie
scheen
##maskine
forbindelser
##umme
##frit
fienderne
sammel
##scher
280
slibe
ypperlige
##gle
##qvent
##enburg
##keret
stiaalet
pos
tienesten
enkefru
ankomsten
##ote
degnen
hagerup
astrup
##vok
anti
tysk
forbeholder
besøgte
##brands
##søge
bekymring
tolstrup
begravelses
sevilla
##prog
abel
fjorden
congo
høikon
dragkiste
##enen
##avis
talent
kobbersmed
tobaksp
mærkelige
jamaica
malta
stampe
underskrevet
læsøe
##ques
omhæng
##ølv
qvind
renteskriver
cub
225
sædeland
tilintetgjort
høres
forvaring
kontra
##chester
centner
ubehagelige
ayres
spinde
henr
forestillet
beskikke
cre
##oser
gunstig
indvarsles
kjøkkentøi
iland
opstanden
boder
##aveer
hofboghandler
##ht
overf
prints
proklamation
ansøgt
stødt
##cep
##kloster
plante
fas
jmod
malke
kadet
##lene
frelse
frembringe
270
ørn
opsloe
omstænde
##aghed
paat
rdlrs
tilføiet
samlingen
fremgangsmaade
##peder
beholdning
bered
mathiesen
lutken
fallitboes
kart
munden
##oug
##iene
frederichsen
schiøn
uordener
tilforladelig
##vagt
sterboe
aalb
##halv
prinz
louise
uefter
bevis
heldige
betrag
flyde
udgik
kleinsmed
##xøe
hambro
forbuden
græsk
nationale
bundter
russernes
hvormeget
stiftelser
gesandtskab
uhre
arne
begunst
schierup
anstrængelse
matthias
lotto
schubothe
majestat
facon
hold
fremfor
##ureren
nøgel
pøbelen
mende
madrit
uundgaa
landsbyer
geographie
efterlader
meeste
trediedeel
kommissionen
ondt
##pot
##aarn
storthing
frederiksberggaden
rigsgjeld
amaliegaden
beskrevne
skriftlige
rl
forholde
grøde
contoirer
berette
obligationen
kabinet
fredelige
##reich
skiød
meub
##ktøy
einen
fornærmelse
mayland
pf
##lested
##æren
jane
bemærker
##tion
##ierede
##broen
opbygte
tronen
herredstingsdommen
wallachiet
##bad
skrib
monit
westph
uddeeling
##dsvaade
##hre
forslaget
patron
##feldts
uformu
##ulte
restancer
opmuntre
anbragte
##spersoner
##ægge
fuldstændige
##ars
ergangne
saakaldet
forsøgt
weidemann
##tningen
tøier
skolegaden
etagie
krigsminister
vahrenes
aparte
##inus
reich
parlementet
antagelse
woer
##ivid
heide
##ladel
hampe
canalen
egenhænd
##halm
yttringer
afslaaet
eftertry
afsatte
basel
##hovder
bret
gele
princip
##tegnet
familien
thorsen
haandværks
udfærdiget
gor
gabri
##dømt
##ingers
herlige
besøgt
##chel
commanden
undersaat
betiene
sporon
undersøgelser
asseureret
catalonien
##strakt
beqvemmelighed
examinatus
##foed
forarbeidet
paask
kjød
207
qvier
kronens
auktions
lydighed
##ystem
skikkelige
bron
##esedler
##itann
landevei
statsraadet
seilere
forholdsregel
tilskrevet
forfulgt
strængeste
##rettelse
huses
fabrit
##rath
indgivet
hartmann
bechmann
total
schn
##urede
forløbne
brænderie
##fur
##ict
##32
bert
færø
betænkt
hinds
bebu
salen
junta
sørges
##stract
##sing
violin
allarm
rolle
ydermeere
paagaaende
##stervbo
199
kreditorer
vaterland
dod
stendrup
næringsvei
oppebie
nægtet
sene
##stole
omfang
gluckstadt
##illa
slanger
munder
takkel
##øyet
cis
nætter
##tig
##zow
##umgaard
sein
skolens
strasburg
festen
almue
bankens
statstidendens
##jom
##regning
##glum
##tze
egt
##ato
kjøn
tofte
partic
rødder
odessa
stevn
jnsurre
deelte
bruuns
jldebrændsel
anrettet
211
afsky
kbhvns
kaperfører
baar
overgaden
##emann
standha
magaziner
sabel
##uur
##lsen
oprørske
svagelighed
tilmelde
##ura
boesen
udstædes
##øeskiøbing
eyl
##ichte
øvelse
raadstueskriver
field
##lak
202
hansteen
pret
frel
##tegne
poet
##hauptmand
billede
lettelse
pasha
yngre
coldinghuus
##rettelsen
anhang
##citanten
hohen
151
afgiørende
gent
##ama
nyehavn
toldbetient
sammensværgelse
##deeling
handlet
bæres
1400
diese
dannes
marthe
linien
foregivende
##virkning
efterstaaende
kapt
mindet
sym
sovekammer
tilefter
privatbreve
udbeder
læn
##lidet
##række
masker
tilfunden
politieret
catholske
møie
##kra
brude
egeberg
##fond
retskaffen
dende
##orto
retir
216
fierdedeel
##kjer
korntiende
nun
stade
ree
skibsfart
fortælles
menneskers
modtoges
stierne
##befaling
begravet
vahrer
204
velgaaende
##schild
sognedegn
franco
vasker
enkemadame
##nis
##nung
gruner
charak
anstrængelser
cru
##deling
liunge
amerikansk
forfærdigede
fæehuus
astronom
theologi
reebslager
ønsket
blotte
enthusi
lavere
enkemanden
##cour
opfordrede
efterret
##ussen
petition
forestillede
speyle
landes
deserteur
kreatur
##agtede
afdeelt
bande
desert
kiellerup
bestandige
talleyr
iber
eftert
landmil
card
priisdømte
patro
##ontaine
pedro
fortælle
befrie
##ckel
1835
nederste
muus
##lies
kappe
søde
##bbe
levin
herredømme
suhr
oppebæres
##opp
##gtigt
heftige
dagleier
foræd
maroc
indkalder
spørge
pandte
jndustrie
##litz
fortab
##mond
jægere
##christian
fædrenelandets
##ae
børglum
bekiendtgjøre
nørlyng
forsøge
uforsigt
optog
frysen
ualmindelig
klokkeslet
samtlig
opfundet
litt
324
dødsboet
forliist
beslæg
behandlede
fordob
oplæste
foræret
##bestem
landmænd
schne
fløy
kirch
bankosedler
##eskeer
##hme
stan
##bakker
cornelius
størrelser
##sfor
##oren
medl
##ladene
bataillons
ankerto
##stolen
##geren
gemahl
brink
wær
##mi
##gaaede
##cas
medal
medbragte
plum
senne
1767
lier
##fre
##beer
tabeller
mikkel
elendighed
##brede
medtage
indsee
jndian
understøttet
indrykke
koge
187
verst
øll
betreffende
##28
skreven
viv
afdød
carøe
avertissementstidende
sandsynligviis
##nier
besch
nations
##alsgaard
uoph
##advocat
mach
##hentede
pds
handelsbetjent
fogden
bourbon
afværge
slagen
kornbrændeviin
hoftidenden
##uder
underhandle
andagen
lovg
##heit
trækker
midlertid
indstevnte
finmarken
##agere
adjut
godsets
ansigtet
##leme
herskede
victor
jndk
capel
neste
forklare
winter
wesenberg
stød
klin
melk
jagttager
##bens
##66
##arn
konnen
##halb
bucharest
eich
##vendige
friherre
formelys
klipfisk
##hvil
jndtog
##ygtede
##vilde
udsp
##best
sandheden
provstinde
opfindelse
driver
udryd
dublin
tved
stkt
1765
stormgaden
utrætt
trætte
##armee
pistoler
lexicon
##bers
generaladjutant
halling
sæby
junior
fortre
pasch
commissarierne
moreau
##ieregiment
utal
schive
##søster
arvingernes
udelukkelse
følgerne
salic
kniv
ydm
wad
marqvis
##fars
livrente
##zel
meente
østerrige
adressere
udnævnelse
repart
trone
indløbe
ins
##ici
##farer
frygtede
venskabelige
inddr
overfald
creditorernes
skibsted
giernings
hannoverske
fanøe
dug
miss
blicher
krarup
danner
nationers
vink
##skaberne
kierteminde
meddeele
interessant
dere
algaden
efterlyst
lovfor
vinder
tilskuere
detaschement
##læggende
##aser
elske
antagelige
madsens
##taxt
myrdede
baag
hierter
udraab
reflecter
stubbekiøbing
nyested
##parten
stemning
klubben
seildug
løst
magdalen
svende
barom
skiftesamlinger
kavaller
tidspun
##kiste
frankerige
##skjær
stilhed
willum
##using
jndskræn
##gesk
fortsætter
blodig
voxne
mægling
instru
skrig
udleveres
luerne
philladel
bayonne
urolige
##kurator
232
fiirk
steenstrup
kirkerne
geistlig
schlesien
vedvarede
vahrene
albrecht
grundmurede
##bedende
befriet
##gieldende
depecher
##adet
forbru
##avet
ostende
aandelige
krigst
urtekram
jernpomp
træfning
bedømme
##inget
vedblev
yndest
mynster
forpligtet
och
##imus
##værkerne
carga
fattigvæsen
einige
pakboder
nederlandske
garnisoner
monitøren
sle
kiendes
huusholdnings
porter
katal
bangs
mogensen
##anet
endtes
excell
washing
##bne
afgjøre
decor
sender
##steden
merc
soll
directionens
##banen
##fleth
vart
adspredte
strømmen
sildig
grækenlands
gyldendalske
tul
overlærer
jordskj
testamenter
frataget
betragtes
keller
forhandles
linieskibet
panthavernes
capitulation
capitainer
hyr
baghuset
ligeover
politiemester
aftægt
holbeks
straaet
cors
colonne
newcastle
arriveret
gold
uveir
##ilte
kaldt
##lieutn
nære
##kor
##dreng
eenlig
borgeren
foresatte
resolvere
disk
alme
kall
østerport
weich
brændende
mage
##36
gjens
kandid
neger
mødt
klasser
dous
dragøe
fortiente
chinesisk
##ripter
otter
reed
##drede
sønderhald
##35
afleveret
tort
røgt
uophør
##phia
##phys
religi
kiøkkener
consumpt
tilfalder
##ængende
provsten
kornvahre
sanger
##nens
##aarde
græven
nedlagde
umueligt
durchlauchtighed
##boelig
forsikres
##reer
venet
varetægt
##fier
##geben
arrestere
hegelund
jøde
ugivt
øin
vidst
##mæg
senator
beviisligheder
##ettes
meddoms
personen
fatte
opli
##ersel
##agtes
##enhavns
herredernes
graver
jernkakkelovne
uskiftet
mane
udenlandsk
eiendommens
sivert
auctionens
carls
korskirke
falsters
storehedinge
##riet
##lyde
forberørte
skand
conditioneret
linnede
laurvigen
##officerer
dusin
hæst
ron
##cum
opof
##raff
allerne
antvor
opera
bestride
blichfeldt
rinds
##inister
begave
nævne
vinding
anbefalinger
pistol
verl
anseeligt
strandbred
kiere
refs
corresponden
oversvøm
wahl
meldet
træder
214
agre
oprigtige
østrup
still
##øbet
skiøndt
##ober
##kur
skill
boye
kalv
markeds
bam
hidsig
londons
friderichsborg
##odt
##papir
##artik
fordres
stervboestedet
fastlandet
delen
underofficerer
kompagnie
##quen
##atik
udøde
##uses
##lementer
tilføie
plader
##mæssigt
paaviser
kiøbte
##boets
forbundet
skyldende
udførlig
cammer
##lup
##bat
##ittr
##chem
værdien
underrettes
udlevere
##ætning
legations
tredagen
tilbageg
ders
sverrigs
##lieutenants
##rel
varm
forsiden
farverie
klædt
laugs
hertugdommet
middelmaadig
indgive
sølvmedaille
fler
##knings
##gode
erholdte
regnskabs
scheels
bismer
parlaments
eckern
jak
slæ
ovne
##gaaes
##34
##rul
##auen
smedemester
bouteiller
##ielsen
tabel
billetterne
##dy
unytt
folge
toldkasserer
##zeb
oldenborgske
liberale
fromme
##ionens
bagerne
##bay
jngenieur
hertugdømmet
sognekaldet
dannebroge
udløben
valencia
##mærke
spir
retning
schol
heede
indenlandsk
##specteur
244
flasken
candidater
##merede
manif
tegnede
vindues
indsluttet
justitiarius
##75
forret
municip
vinduerne
eyer
medio
nydelse
186
##essing
skueplads
##vard
##vner
##sminde
solens
nut
##tmann
1100
hoveds
brummer
wey
ødelægge
arist
##ropperne
tilbagel
henhøre
##istence
ubekjendt
provinc
cassa
indskibede
repartition
balt
##elling
##alier
##fterne
berømmelse
straffet
senat
deputer
østersøiske
elsker
protok
laden
ladte
fanget
kirkesanger
sindelag
psal
##tænkende
paalæg
mariane
##varius
knab
hiort
pande
afbrudt
195
320
##søn
##edre
afstaae
skibstømmer
jørgensdatter
frakommen
beføiet
fartøiet
fyldt
hænge
tilslagen
undervise
208
østersøisk
##yserl
sank
voigt
feldtmarskal
##ældig
##rolleborg
paategning
efteraaret
##holts
krigere
sørget
virkninger
antverpen
##virke
udmærk
##skript
brændehuus
friderichsberg
literatur
##ams
##aarig
161
##illon
vække
mødet
pdt
ses
##ence
foræringer
##sender
steget
postvogn
guldmedaille
dyrebare
bekommet
##riften
##lemager
fabricius
corporal
fortunstræde
foraarsage
feddersen
kongres
erfaringer
##sho
afgivne
lieutenanterne
genever
tes
betyden
stegne
jnt
##skild
mulkt
jnventarii
bortstiaalen
##uels
alstrup
##clar
styrte
aldrende
sjeld
hyppige
gund
ramme
tænk
##gefær
##roet
hjerter
besørger
magasiner
annammelse
kirkegaarden
forulykkede
indvik
udkastet
arab
##ittel
koffardieskibe
veter
gaardene
veemod
ulykker
ansvarlig
udelukkende
skiepper
meddelelse
sære
afvæb
commod
krab
capitel
nødvendigheden
60000
virket
##medelst
seire
##istræde
##lemmer
amtstuen
afskedigede
##kunsten
##villie
udsøgte
##traad
theod
birthe
pantsat
tøndern
##vox
grenader
if
vier
##iterede
##eligheder
lighed
bortfæst
velind
geme
##akte
porcellains
bemyndiget
eiede
alph
215
billigt
conting
bedrøv
##ony
expl
##ova
statssecretair
eiendele
recru
savnet
skibskapitain
##illo
forbindt
##skrivelse
##lister
omkomne
slæder
bure
forbedre
sinding
directorium
anbetroede
blande
establ
tvergade
fædre
foranledigede
opvække
##plader
udd
bygt
veyen
sundby
studsgaard
erlagt
##licher
ast
##ney
##fen
vælges
døbt
licitationsstedet
low
falsen
bagermester
bajon
nøde
##ava
ferr
udslettes
aands
maur
dæk
kapel
##ailles
jslandsk
fiolstræde
handskemager
##møllen
##elbst
maadeligt
moralsk
buden
##bild
##nitz
forbunds
derforuden
capitainerne
skonnert
##oria
regist
##slaae
taushed
tilbyde
##roen
persien
##bechs
kolde
jnsurg
didrich
ahl
##laus
##vntes
hjøring
eiendomsgaard
tømmers
consistorial
forbyde
stig
persiske
skjønneste
ods
afholdet
paaful
boels
retour
lugt
milling
fris
##limin
skjænke
myndt
##agier
##amin
sago
naturens
trukken
baronesse
##skrivter
gesandtere
tilbages
indeholdes
hævede
adressecontoirets
høiærværdighed
##crone
landvæsenet
janit
forbudt
østerriis
oplyse
sammenkomst
umyndig
vægter
hurtighed
bispensgade
##offer
##mig
##ibe
bydende
draget
roed
fortjente
længsel
##grunde
holbechs
oplæst
##spræ
rosenørn
opslagne
studenterne
trykkende
myrde
dardanellerne
##fordrende
##los
##ersen
løkken
frederikshald
ophøiede
##estedt
fængslet
fortabelse
rørt
##bane
eene
opgiver
247
sølvværdie
umuligt
archipel
confisk
stræde
diesen
##ordt
augsburg
100de
##melder
stridende
ovenfor
hovedgaardens
thygesen
##29
udestaaende
kiærlighed
stalder
bibelske
hestestald
fyrværker
forretningerne
herredet
overstiger
##høv
spiller
jordebog
andrage
stribet
##telser
##issel
sengen
helvet
tønders
mare
blank
indbundne
vovede
understøtt
klosteret
indskrænke
tileftersyn
##elsk
afleveres
stikke
mure
arverettighed
adeler
bortkomne
kjerlighed
rabbek
##viede
forsikkring
siellandsfars
##bibliothe
journaler
søemagt
angouleme
municipal
##gard
##vre
##bonden
roch
hammerum
opførelse
##indstyve
##festen
alde
udhug
##kadet
kanonerne
jversens
ottes
udsigter
landeiendom
skildring
rapport
voc
##asset
196
obel
muursvend
giensid
seigl
handsker
luxem
axel
harve
asmus
feed
##schi
tørvemose
##skytter
direktor
foragt
##kkelsen
indav
oporto
##lysning
hiul
opmunt
stutterie
tæller
forlegenhed
##ged
oprinde
efterlod
fremsatte
tegninger
##husiske
forefundne
departements
##anere
stik
kiøbesum
østers
bomuldstø
angreben
crimin
paaankes
nordvest
##blive
stræb
bengalen
forøvrigt
##irt
blods
ægteskabs
provindsial
kongerige
administrator
jægersborg
talleyrand
##drende
hellighed
staver
lommeuhr
carstensen
øjeblik
##øbe
meck
rigsdagen
benævn
ducater
##dragt
constant
brat
advoc
grøns
alliance
mestere
forræ
##drog
245
lægter
##berts
poste
##strende
kaperen
congres
##vst
##1ste
##verdagen
tidenden
høikongelige
steg
##mind
frasti
udsæden
##kunst
##alder
##alers
##ffede
##tenberg
halvbroder
magistratens
##spørge
##von
##antede
##borger
##regne
bierring
bagt
stiil
ventedes
herske
dyder
dalmat
gesandten
##upe
hellum
fact
specerier
buchwald
mosa
##anstalter
bugge
##kapitain
storme
reglement
drøb
##farve
helle
##dikke
udgiven
##træe
søefolk
secondl
haderslef
utilfreds
##ivet
ligitim
bortreise
##cons
menneskets
repræsentant
##ove
##adende
schaarup
hinder
##sdahl
geistlighed
uforand
##esens
tjære
vanskelighed
skibes
##frø
##gierning
naadigste
utr
huuslige
213
færdigt
##45
erkjende
moer
modtagelsen
philladelphia
betydenhed
høiden
regnet
langelands
##kopper
farvegaden
sydamerika
##eten
besynderlige
##zau
##lebye
billes
tyven
##ladende
trufne
mylius
keg
forelægge
fornøyelse
##herrens
trompeter
##løn
breed
bundtmager
kum
uover
ell
##selben
grundtaxt
jncassator
middelsom
puncter
caffebønner
kiøkkenhauge
zuruck
nelson
16000
foreslaae
committeen
fing
uven
paastod
metter
denen
##spapir
qvint
forposter
legiti
schwart
aae
oldermand
udøve
spiste
spanier
##husen
##stax
legem
anf
hollænderne
resolveret
rammer
##igte
medgaaende
gothersgade
støtte
anpart
mineral
forehavende
skadelig
fælledskab
rørende
##pels
lykkeligt
vises
blokade
bæ
##ærende
slagt
andens
commanderer
betræk
sælgeren
kongetiende
hængt
indbringende
frans
frif
kjøbenhavnsposten
grøfter
bolivar
##ulff
tegner
traver
patien
forskiellig
wends
tiltraadt
oplær
cou
indbudne
urolighederne
##dæd
##essens
##gend
behr
søefarende
calmar
konstitutionelle
##høy
##ilet
amnest
lauritz
dettes
søet
##eskj
secher
jndsendt
231
fangenskab
janeiro
##indens
forsynes
jægercorps
udløbet
##hugger
figur
forespør
tud
##wad
##skyl
forstyrre
indberettet
fern
afvex
landinspecteur
##kroner
smug
væxt
adrianopel
paafaldende
senest
tempel
oeconomie
##dotter
##ordre
islandsk
ophørte
##maale
udbytte
fabritius
##ichts
brugen
nathan
kornlo
munster
vaage
manifest
overgivelse
forlagt
##aværende
kronprindsensgade
direktionen
##oligende
jntelligenz
beskrive
courerer
bekræfte
eck
tis
##senderen
##hedens
lauritzen
##ject
oxhovder
ker
##tsen
salige
pots
avlsgaard
gundersen
pille
forha
høivel
stukket
forfærdiger
tilbagere
thronen
opbrændt
##york
##elsiner
ligt
falken
distrik
natte
fram
bugten
##ipp
omgivet
barm
kbhavn
hændelse
stiern
pam
hæders
nedsab
king
justitz
ædru
tilkjendegives
ii
##76
##arch
jndivid
forenes
gregers
gaaede
sud
overtage
##ellung
klæd
brahet
konfirmeret
dons
jammer
jahr
øren
##ols
##liv
kiole
rettes
plov
røvere
pensioner
ræds
overbevise
throne
ubes
##greb
bege
kjørte
forlode
debats
brændeviinsbrænderie
aftræ
bespar
forefaldt
hospitalskirken
brevet
cramer
sjelden
nøy
udfor
udskrivt
indskibet
##holdelsen
jernbaand
skjænket
bugt
stoel
letten
remisse
sødskendes
formuende
aages
foreen
nørager
arrestanterne
bryggerie
lauget
braun
uvedkommende
vet
indqvar
##icher
taller
kond
##biørn
malmøe
udladelser
elias
finmarkske
##dræ
##geme
krie
pladse
##kjørsel
respekt
dantzig
efters
191
befæste
##benævnte
opbudsboes
batavia
vover
##num
seqve
sølvtøi
fægtninger
hess
##buden
høil
søgsmaal
album
brækket
udstæd
opvakt
##aves
besp
præses
##knive
##tschal
##ysen
skede
ankommende
##kister
##rivt
grønlandske
rudolph
sluppen
lærdom
ihr
fold
##budet
##øge
##tzen
##nel
udlænd
omme
formere
arbeides
toldkammeret
trem
gjød
kroner
hell
afseiler
nur
leiet
lutter
westergaard
bøndergodset
mexico
##høe
##kalk
##mennes
truer
materier
nøieste
##kjendt
##hest
##onerede
schon
stiftstidende
sprøi
publications
dronningborg
klosters
indkommet
revne
##lama
##bleven
ihm
tik
maas
recht
##strækning
palle
mueligen
kotzeb
##ieves
##ular
##emid
hale
##bruger
friderichshald
##munition
anno
princ
##skums
##beviser
##aadede
borgerskabet
seenere
udvex
##læsning
wein
banke
barselseng
##geligt
##versen
samtaler
beklager
##hns
uindløste
bus
gas
rigelig
forekommer
udstædelse
bestyrer
krambod
observere
opbrændte
opsigelse
nyerup
haan
george
rolige
entled
##vognen
skieppe
bestal
oranien
eggers
##lieb
gravens
overpræsident
##ustobak
besigt
venne
fødderne
bedækning
neutralitet
kæmner
##kap
kock
##vorne
bogstaverne
tilfredsstille
jar
underkast
betids
##assur
hielm
spørgsmaalet
hegn
##55
schytte
velgiørende
##vinduer
ædelmodige
wens
indbyde
##lander
jos
diet
##avlen
frabedende
##varsel
lyb
kokk
grebet
##stikker
##behag
##nyttige
dia
##emand
illuminerede
aler
##kten
ligne
halvsøster
viborgs
kaffebønner
##38
holbeck
fremmes
raun
teglværk
høiheds
jsaac
nil
regierende
krigstienesten
hierm
belønninger
michelsdag
rys
berøvede
abbed
gir
##laaet
##vnede
brøde
troppernes
tilstaaer
discipl
##born
##skibes
øinene
dige
mundt
ing
sæk
fortreff
tilbere
beroer
fabriker
tvivle
pich
zahl
forj
##agtelse
dragt
carlos
publiqve
fordringers
qvindekiøn
myntergaden
dosin
##arerne
fredrik
beretningen
archiv
rotterdam
##jæl
##27
konfisk
##istisk
valpladsen
conventen
underviisningen
anmeldelsen
magel
classelotter
strækker
mægtige
reflecterende
storg
##chmann
##øbing
præsterne
velvillie
besørget
##kreature
##upgaard
richter
betroet
##dar
##usion
invi
drager
næse
forbinde
##ariatet
##marked
sicil
dokumenter
erkiende
##beviis
ligel
14ten
tjenlig
##byegaards
stephen
cra
##nød
##hatte
##ago
##agger
18000
tilføies
truds
birketing
pleier
subskribentere
frimod
##achten
markerne
330
sorgen
##lars
usk
##kkers
##søes
skolerne
knudsens
volont
brolægger
##kud
##21
unders
##delserne
fiorden
prindserne
oplags
vagtmester
tilbygning
overfaldet
jnqvisition
svov
rasede
udførselen
uddeele
nurn
overskud
mandkiøn
fremlægges
admiralen
nedergade
kugle
fahret
vermeinen
østerriisøer
zw
##nær
gaardfæster
strenge
omringet
mødende
##oden
##kas
##chirurg
udlo
laf
##kiøbings
wilson
personers
anstillede
stuehuset
schleswig
galeasen
##alterne
skille
schm
lovkynd
fordrive
lærebog
provisioner
pontoppidan
##lan
forskaff
219
##musik
professionen
trængt
pantecreditorernes
salicath
age
##39
##lauget
ligget
gammeltorv
fyldte
##brydelse
depesche
dotter
opfordres
226
depos
anstillet
##villighed
frederikshavns
rimeligviis
##44
fryde
aarstid
fyensk
forgieves
##komment
##kald
grundig
##stenen
sonder
preussens
medicinæ
schmidts
bomber
glemme
folkemængde
qvindfolk
##bels
tille
ordineret
christiansund
jødiske
jndrykkelse
vacance
paagrib
samvittighed
saan
skuldre
toldbetjent
svenstrup
fregatte
##clusive
verdslige
gymn
kin
tilsendte
værdi
trofast
parcellen
cassens
biskopper
##ya
##reen
##bryde
jour
antog
nedgang
benj
gulden
sara
philosophiske
agers
nag
##ædet
stemann
##dendeel
##shistor
documente
udførelsen
brix
omkostningers
mehem
friheden
##blaae
repræsentanter
mecklen
##ires
hau
indehavende
anklagede
##godser
gavne
##jeg
indlem
ladt
forvalterens
marieboe
herrens
tilskuer
vaabenstilstanden
##lung
##kob
indleveres
cher
slum
flin
##chiold
affaire
sjeldne
##buch
lieb
glo
begiver
##inson
kræmmer
paany
hue
janitsch
1766
produkter
gaase
##egang
##skilde
suk
behøvede
##proc
strandings
hane
##meister
underskrivt
berygtede
nagelfast
skielskiør
keisers
stemplede
##inere
forring
saabye
bestyre
debitores
handen
lens
##gelses
frant
aarvaa
##pring
print
begyndere
huusholdningen
##jerne
indskud
##løw
wivet
##rændsende
music
nestkommende
helliggeiststræde
nytaarsgave
gest
schult
diæt
revisor
##hart
##haab
afbetale
eftertryk
##sterer
##ældende
salair
generalg
regimenterne
valentin
naturlig
klem
##mærker
uddeles
skikke
##selden
truende
kanonade
rind
##konsul
##levet
udspredt
overhaand
belle
feldbereder
akkorder
##skier
borttage
juell
201
qvistgaard
forstærkninger
fuldendt
##vokat
##yret
##ylder
blinde
228
mægtig
correspondent
jndledning
##mæster
tienestepige
##istria
monarch
bortleiet
##sum
##cap
##ulair
##faldes
deeltag
truet
attraaes
adelen
hyld
##skue
velbaarne
sølvm
jerntøi
krak
saft
recogn
forbrydere
wissing
##wich
overm
krøl
fior
specie
commandere
rigsbanken
besørges
diamanter
##orst
holt
schre
handelshuus
værkets
undersøgt
medborgeres
tyverier
arveprindsen
tvær
##aftet
borgerskolen
arresten
qvalitet
communication
simpelt
paavises
uvidende
##told
##ziger
inddeelte
glat
##jomfrue
augusta
borre
vindue
##konsten
tilkiendte
udgift
afskediges
gjensid
##ios
nærved
politiets
bux
smaat
lynilden
##estad
emp
vindskib
anskaffe
brændsel
tilkjendegivet
plantage
##48
omtale
stiftamtmanden
hurra
rahbek
ask
bliktøy
stormende
##prædik
thiele
undersaattere
andagt
spre
enkemand
##værdigt
latin
komplet
savnes
##stieneste
vald
##aag
##alis
##beres
elven
maalet
qvarter
##jurisdiction
cogn
udsted
hanherred
concur
syssels
##sdorff
bagsiden
asch
fattet
##leff
##ierget
fornuftig
birgitte
sammenligning
creaturer
##illelse
kokke
##metofte
##ificeret
sildigere
kinder
##rød
##kkener
nytter
lofts
repr
foreningen
pensionist
##edags
lorentzen
anordningsmæssig
1s
fide
ussing
##fæl
hvormange
##gener
landvæsen
##icer
klokke
fornyede
extraordinaire
velærværdige
leire
classen
executions
forvol
##mation
frag
følges
stip
erhvervede
ferdinands
rebeller
fers
##artigen
commandoen
gabriel
##bom
skift
##tene
besaae
fortol
tilsvare
betydeligste
lap
øve
##holz
stegen
bogstav
kommiss
tappre
uindskræn
##halt
herskabet
##bebo
engels
lettelig
bekræftes
holstenske
formening
##uet
##ament
erl
sognets
undersaatters
misfornøielse
jøderne
zach
##andens
frelser
holbergs
mina
theoret
skovene
trund
bevæget
krydser
drengen
fortale
##estræde
##bourg
holter
mængden
##amenter
##schef
fattigvæsens
jldebr
enkefrues
udfordrende
hard
underkastede
gjend
enig
proft
seilet
##flod
blomst
eylande
##ærde
smukkeste
kristian
##ologie
udtrukne
##malet
detach
berettet
længden
udeblive
##77
hvel
herreg
ægyptiske
organisation
cochrane
døv
##holter
farvet
gottor
tykkelse
tilstillede
accord
ophav
##vendt
selvstænd
235
jldsvaade
fasting
forkyndte
udførligere
virgin
##hvidt
##ssedler
straae
clo
naturhistorie
friheds
velgiør
skibsfarten
trænger
slægtninge
auktionen
urigtig
nantes
##igh
##agh
udviser
249
anbefales
blomstrende
raader
boller
##gaardmand
lude
charles
synet
thorvald
##oi
indmu
opfordrer
rødbye
aufge
fremstilling
innerhalb
##inader
træffes
svine
klædekræmmer
brunt
afgrøden
kaarde
hønsehuus
washington
vikker
parap
##controlleur
provisoriske
anz
indanket
thrane
meyers
skrædder
procuratur
ængst
finger
afstra
##lægt
talenter
banker
preusserne
pile
##qvist
##ogle
elv
besvare
mosse
byrder
sveistrup
ct
overgav
stivelse
hørlær
menneskes
jngefær
birketingsret
##igjennem
beslægtede
##ærere
indkiøb
aalborghuus
dødfødte
##eldst
erklæres
tilveiebragt
unødig
lann
##hv
søvn
orgel
gienparter
gesandter
eid
bedet
roser
ruller
snu
##øye
##avit
##lir
giæs
velgjørende
definit
mrkt
saxkiøbing
##ativer
messe
øye
##aling
konvo
##tran
##kenes
tilstaaede
befriede
landvæsenscommissair
afhent
vraget
mager
##rat
##ariet
paalægges
udsagn
hent
##skninger
giorde
muse
jblant
vakt
##ancel
udtrykke
indhente
herredsting
reisendes
forbudne
metternich
arent
gies
sindet
##icum
grammatik
ihrer
##velsen
nørresund
lynge
##arbeidede
producere
skaaler
allet
nysted
vert
subsid
##oppen
kalle
naturhistor
tolden
himmelen
brahetrolleborg
liidt
dann
strømpe
averteres
hævn
##vige
indgang
bekræftede
ænder
##agersvend
##skoe
inclusive
forpligtelser
friedrich
##lerød
efterlig
fraskil
endver
##læs
verona
honning
emanuel
jordskjælv
##kersvend
bemægtigede
trofaste
##dreier
brown
poulsens
prøvet
særskilte
##nah
##aw
herlig
vært
##sblade
beslutte
vaaningshuset
traktat
lidende
overgeneral
aarøe
##oper
landsfader
korskirken
ægteviede
jepsen
##stribet
idelig
##navn
udtræ
##meyer
gifte
tegnebog
udkræ
æresleg
anthor
jndtægten
dien
itte
bytings
auctionsstederne
beskie
raske
regnskaber
punct
##ischers
exerceer
alling
opoff
255
hindring
eiendeele
##mild
##jorder
overgang
##ælge
præsen
agere
##ouse
tredive
##skyldige
flamsk
##tøy
forar
tilve
markj
værtshuus
specielle
taber
redelige
republikan
studenter
kilder
bommen
##kil
annu
##kaldelse
tienestekarl
afhæng
nordenfieldske
forskandsninger
nævner
water
##aro
##indighed
bry
velbehag
raadinde
224
##handlinger
oldenburg
averteret
fattes
##aaber
befordret
stervboerne
##fordringer
chirurgi
forvirring
ich
gevinsterne
colonner
furre
tier
##selse
##skreven
touge
baggaard
legems
almuesk
##elskede
194
friehed
hospitalsforstander
forskiæl
##kild
##hammer
##kkert
faredag
aabye
afhænde
omslag
rapee
##kamre
##eser
##sey
konvent
grene
238
sagte
rostock
##felt
exe
sølvbes
skjær
korrespo
redelighed
overdragne
zeuthen
continuation
opspørge
jndsig
herluf
beher
befales
farten
manglede
overflødigt
##saltet
bestræbelse
##næss
fak
anholt
##skeer
seiner
reber
fremmet
fierdingen
udslettet
pind
198
complette
academiet
springgaden
jakob
203
regimentets
##script
agtværdige
nordamerica
oft
##verts
omhu
##rust
##blod
versailles
ubeskriv
perlegryn
msts
forbydes
##forening
sæden
svinds
sørenskriver
genues
bredgaden
sukkerraff
molde
fjends
føiet
promp
bestilles
halvanden
magde
##tract
anskuelser
kass
ross
eftermand
indbetale
sohn
palme
##bakken
##betalte
avlingsredskaber
befolkning
stevns
bold
##docum
ligner
schuld
troeskab
kræve
springvand
officielt
retsindige
8vo
megler
drey
udvidelse
geheimeconf
sandsynlighed
magen
paler
##nøden
##sekretair
medfølge
medtaget
##tend
##icanske
begges
vindes
portugals
stærkeste
dalmatien
søb
##oy
harden
hammel
##anniske
næss
lukkede
##splan
tienstligst
kuld
##oes
hørtes
kabinets
efterlyses
enthusias
jernpomperedskab
lindberg
feiltagelse
frems
borgers
ols
svoger
sandsynlig
cancelliesecretair
henriette
aagesen
tænkte
forska
inddrevet
sidstes
brandc
div
lamper
indtræffer
indstævnte
martinique
rantzau
##rø
##gie
opgang
laurbær
velsignet
##nødder
##mich
##møller
jndtil
hied
reden
hyp
prætention
##skam
anmoder
algierske
svært
indskrænket
audience
kag
##ørre
opsatte
bremer
trøster
ue
##uppe
##jyl
##alens
præti
ney
strandstræde
brystsyge
haandværkere
lindenborg
længstlevende
auctionsdagen
verm
ministerial
##kone
ibd
##maatte
jnsurgent
baaret
anmer
sigtet
brevene
gaz
dahls
mandatarius
sels
##cent
devise
##varet
##lements
christianss
sond
militære
fordeelagtigt
fægtningen
romm
##angs
machen
hedemarken
wallis
omkom
##agene
hester
drab
guer
tyske
misbru
commanderede
schifter
mols
floder
erobr
contribu
udfordre
indleverede
kongeligt
##kiør
dronninglunds
koldt
margret
taxations
tilværelse
##roes
adler
jndvend
generals
256
krigscommissair
262
honor
erhverves
stribede
gielden
manufakt
##maaned
siderne
gebet
stykg
staterne
fuldkomneste
frysenborg
sekret
conn
udentvivl
243
223
##shuset
sollen
opstillede
pave
host
jligemaade
##fel
ermeldte
chron
tilføier
##ments
fornærmelige
suspen
tilhold
fries
##brændte
grundtvig
dede
##ching
oplaget
fremad
nyekirke
bogtry
chefer
##kelmann
udtrykkelige
ds
forbittr
schib
commissairer
eenstemmig
##ræk
petri
forestiller
uforsør
##vide
##ielp
tilstødende
jnfant
anhøre
##79
##olon
udholde
sultanens
garantie
##vands
bess
billighed
øvelser
embar
damerne
##usene
døbe
forvaltning
omvurdering
aqv
kagen
bepl
melke
roche
sagerne
randrup
stykkeviis
volt
kopulerede
isteden
##skau
gemene
forventende
slangerup
wissen
##bager
medfør
forsømmelse
##sbog
bentzen
strænghed
monument
run
støder
udrette
##ationens
rigdom
duk
##folkene
borgemestere
##ytterne
jbsen
##rector
alton
komd
##kostninger
bræd
##friheden
ancona
dybeste
suffis
calender
##lerede
indbetalt
chri
carsten
snor
slotsgaden
distr
rigst
##ryn
##gu
villa
##imir
velche
portene
fortient
hertel
modtagen
behageligste
friderica
kæ
klever
##olden
berøm
kjøbet
##annah
ødelæggelser
##ræes
##irten
##bour
kommissair
forefaldende
##engel
yttring
cattuner
eftertrykkelig
møg
udbragte
##læde
barbeer
godtgiørelse
oversigt
vaer
brandforsikk
parade
frembragt
velgiører
skeedte
##resp
faren
absch
steenberg
regentskabet
##bene
gavnlig
sup
overauditeur
henrettede
befalings
prætension
havanna
stadshauptmand
tørvejord
##eskee
murat
leder
misk
viss
##gra
udbye
værre
##skabe
ungdoms
comtoir
##feil
gulv
hammerslaget
erkebis
delinqvent
ihren
pøl
vau
fras
##ulationen
afsende
fordums
fremstille
steentag
sier
vaars
styre
##ado
beredskab
lehmann
asia
fiskere
carolina
vidtløftige
varerne
tosk
virkeligen
fjende
udrustes
opløst
lauenborgske
fuhr
ken
øvet
##bage
godiche
office
##stilstand
agerdyrkning
fom
##enæ
##esløs
admir
skjød
forhøielse
couleurt
procento
opreist
grue
orlogskibe
##forfatning
##umer
##wil
bygges
befundne
benyttet
lisp
##agterne
##redet
##gielden
##uta
grun
##klæd
maaltid
arbeidsvogne
udruste
##buxer
##lieutenanter
betroede
##tømmer
udvendig
salpeter
##esserne
254
betragtet
universitetets
evangeliske
skarpskytter
jntelligent
trundhiem
pod
plade
##chet
krit
foranførste
effe
kirkegaden
skienket
bah
##beste
amthuus
##strands
stalderum
forretter
##ørv
skier
boston
offen
betalings
kommun
herredsfogden
autoritet
underdanigst
tilplig
afsted
byggryn
ons
kiøbmanden
historier
hab
niss
hovedparcel
fyrret
udmærker
schumla
dispachen
correspondence
but
##aris
##ali
##enhuus
maane
fyrreb
foden
spek
spørsmaal
##rettighed
stakkels
550
lykken
muligen
##houg
pøbel
pern
foredrag
##stemt
directeurerne
##cuss
mantua
##naad
##ultet
menn
##ælges
plø
byefog
forhøiet
spørger
stræbe
##anstundende
barthol
etableret
##99
stiger
proven
bosn
værne
##rivter
trækkes
grube
##arierne
trappen
billen
lægen
procuratores
soelberg
hvetboe
cult
jel
modsætte
træerne
postens
aabnedes
skriverstuen
erstattet
børnebørn
##78
gude
riddere
residentz
##ammeret
##datters
linn
adresser
1761
udskift
bataviske
clemmen
dob
vrim
blegede
schand
hæv
godtgjørelse
sengestæder
fordret
##ettrup
inderligste
utaal
tilkjendt
##ativ
advare
bilsted
ligegyld
batt
pec
afhandles
paagieldende
##entens
##burger
hisset
ohne
smel
##bas
##cere
##emed
##forde
beregne
format
pigerne
indbemeldte
##genes
##ydede
onske
leievaan
sundt
##forslag
palmer
hjertet
fjerding
tilkiendes
efterm
##urerne
##rap
maling
græsset
meddomsmænd
##smanden
frisen
frandsen
##dtil
braa
##imar
grækere
##handlerne
musel
konsumt
sophaer
øres
##slef
udsendte
recomm
##yrer
lovmæssig
kok
korns
jndvaaner
pantegods
spillet
ottende
klogskab
uventede
##edire
aare
hollands
bestilling
handelsbetient
forhindr
kredi
rings
##mb
oprettelsen
slap
ladegaards
ulstrup
takkes
behørigen
opbe
##middag
##jender
##talen
legion
middellandske
huusmands
lommebog
##riol
urb
afhielpe
erindringer
kredit
kyl
##ørklæder
steene
romer
fredsunder
exister
fattighuus
kristne
dale
vinge
slaaes
amme
videnskabers
quarantaine
egteskab
marocco
alphabet
stamp
##unna
omski
leier
østerr
ligefor
stride
oxekiød
skonnerten
##sot
##jende
østerrigs
voxlys
smiths
prætiosa
kne
pelt
folio
tractater
samfund
eskild
##roller
266
##snæs
transpar
nedenstaaende
reele
lector
##nement
andere
bagges
evighed
protocoll
befrielse
ebbeltoft
zir
##akke
prog
droge
##ffert
##beskrivelse
##øjet
bekiendtere
informere
##dlr
##wegen
##74
##esche
bevises
musket
compagni
messina
gewartigen
greg
##idelse
##laug
jndqvar
192
landevær
udgaaende
strække
besvarede
uforsørgede
##mord
##ottet
vending
##bredet
religionens
trondhiems
##ommerne
efterladende
##othee
opsætte
udrustede
dalsgaard
regenten
miguels
stev
statspapir
glatte
ministerielle
##stilfælde
avantgarde
##31
berger
cob
##staterne
republiks
verstordenen
##forest
##forraad
gjest
blind
##olds
franzoser
grim
##95
##ørgende
ledet
graad
##synlig
comtoiret
maltha
remisser
skiftebehandlingen
##stilling
234
liniet
branddirecteur
regimentschirurg
tracteur
fangst
bevæbnet
levninger
memo
affordre
undertry
main
252
avlede
stiftsover
conditor
gur
ile
skru
##eleer
damme
nedsættes
katteg
wollen
hadersleben
sieg
fiends
raben
uns
lægerne
dybts
egetømmer
jonsen
forventede
servien
##vagten
denn
indber
opo
##drages
##ugget
fastsættes
qvarte
effect
forsikkres
smerter
orlogskib
dover
detail
etagen
landbo
##klædte
brevpost
tydsklands
voldgaden
reqvirenten
jhændehaveren
##stjeneste
afrika
tømme
indkjøb
varighed
##abelt
##læste
kiøbstæden
bedækket
champagne
big
mom
nik
stage
paadømte
parma
mohr
citantinden
rhinsk
utro
consumptions
bange
mob
atla
opkomst
eftermiddags
sønderlyng
visit
davon
vanskelige
qvitteringer
tilfredsstillende
##hat
klagen
menigheden
adm
kongehuset
lotteriet
spinder
opbud
vedkommer
##entiner
##byen
kjøbmands
siellandsk
mullers
spørgsmaale
repræsentantere
ewald
##ales
trav
nørhald
200000
fjord
tugthuset
kut
##phan
klauen
tøj
forordn
soult
##comk
heinrich
lommet
##raae
tilskrives
afgjørelse
##eligere
##elset
marsk
veste
restrup
florenz
uskyldige
amnestie
døer
ufrie
vedkomme
arter
##indkaldes
trykkede
erklæringer
##grave
sandsynligt
jndsigt
##atum
stiftbefalingsmand
enkens
##flaade
##stridige
udstedte
##velser
forstue
##ients
mussel
ledsager
trier
gislum
formeret
anholdelse
hved
armod
bøy
silistria
##tags
svøm
bordet
grønsaltet
##staver
seilbar
rigtigt
vaaning
davidsen
alleslags
overhof
stakitværk
##aug
##umpe
venskabs
amtsprov
neapolis
storbritann
##slew
berømt
jndste
##rivelser
junker
221
folker
eyere
##portion
kramvahre
graat
upaatvivl
nøden
##elli
los
værktøi
henry
##trykte
batteriet
bastrup
paalydende
løw
uldent
fasthed
ynk
skiftecommissarier
mandal
offere
##marke
265
abild
anstille
klippe
fjerne
vogte
skidenstræde
##nelses
antre
kommitte
postamtet
biergene
tilstaaelse
##antzer
transporten
tærende
galliz
forauctioneres
uefterrettelig
oval
##alitet
hunger
approberede
##berettigede
neckelmann
ide
nødes
vagten
nyeligen
navneværdie
uley
æskes
skagens
##avisen
herres
landsen
nødig
stændernes
athen
udkommende
afsluttet
agenter
##por
stro
opdyr
nyboe
parader
##afdøde
jung
##assing
bøget
forsvarer
kjøge
laag
tillægge
##amen
stiaalne
landemærket
privilegeret
triumph
uenighed
lue
stiftelsens
fattigvæsenets
comb
kathedral
##gravet
##ørklæde
angl
##ariats
londonske
brodersen
voldsomme
paalide
wraae
respektive
##iøb
##vern
underholde
boed
##ovs
stiftsbefalingsmand
gerhard
trækningen
uforandret
ls
ryst
##stok
fortalte
##enschiold
kjøbte
tjenst
jsenkram
besvaret
aachen
dil
paalagte
slaaer
foreviste
forsvaret
jsær
opbyggelse
infanter
dødes
##edel
medføre
overgaaer
maat
trag
hverv
ungdommens
ment
##giel
thune
skoles
kommandant
mønst
bcomk
kiøben
ords
##airo
knive
petersborger
forne
frabeder
##ruck
kjøbstæderne
dræbe
dollars
territor
pur
##98
##tern
manchester
##gerslev
217
ugunst
bekræfter
##yening
allerhøistsammes
##46
adkomster
livgarden
viborger
tilsende
koffardie
jnformation
conferents
sha
##omed
berry
demon
velbemeldte
##spenge
tilbøi
helg
##loven
holsteens
egetræer
fængslede
brunsviger
oppositionen
ci
opkjøb
opbrudt
klost
bedømmelse
indestaaer
centrum
castlere
arbeiderne
rustninger
indbefattet
lovformelig
waa
##født
##cterede
##planter
toldboed
standsede
krigsret
ørbek
jydland
forsøgte
kierulf
##besen
##ades
stamme
efterkomm
vict
##dictionen
walde
schulden
tørvehuus
forer
skygge
overve
midnat
albanes
skibsliste
banksedler
nyttigt
potaske
##fningen
begre
capitains
rugmeel
patrio
steengierder
nand
##bag
##person
bortf
kjør
commis
truffen
##fyrstelige
##hordlehn
##ryk
##usse
aarige
jndfør
synkende
lindved
fratræ
kopiist
smigrer
occonomiske
lanng
skum
omvex
##entved
syrien
farligt
vandre
lettede
glædelige
virt
apostol
tildeelt
##ension
ungar
kornpriserne
rasp
hiertet
ugifte
sow
##marker
takker
fleeste
universal
forhandlingerne
pomer
lænker
##vigt
##rug
##neret
capitalen
diæ
brevvexling
##ialier
terminen
stridigheder
forulykket
tat
optagen
kjøbstæds
trefning
brevig
sydvest
tilstrække
churfyrsten
tapre
period
voss
##skee
indskibes
##ppede
jndkomst
præpar
##øvrighed
qvarterer
##bonde
kiæreste
margarethe
##rør
##asseer
finantserne
jstandsættelse
contingent
lien
lindre
ziir
angade
bring
meubleret
##prof
fuldstændigt
operation
##jørn
##onere
maii
tidlige
laud
følte
kjæm
armeecorps
assistence
lett
vognmager
##fartøier
straatag
alten
almægtige
overbragt
begræde
ballerup
drægtighed
begravne
colonial
chalse
##erst
domkirk
røst
brahes
belønnet
##ældige
##180
ydmyg
##gader
anfald
##ierer
maaler
bran
seletøi
helbrede
##lynd
borgermester
gevinsten
kiendetegn
flygtet
philosophie
seminarium
##loves
forflyttet
bureau
ginding
##72
forbyder
betydning
##vart
indtruffet
skrivpapir
tellem
plyndret
##bryggen
##kysten
røgtobak
nesten
sov
##eln
##bern
allerførste
belønne
brigskib
rytterie
##befindende
kancelliet
264
møbler
ninger
holten
ærlig
kulden
##passage
overstige
pommerske
udvikling
cisalp
fliid
mult
forter
anfort
underskov
##henseende
sukke
mish
discuss
arbeidsvogn
daase
falck
rense
kryds
consumtion
gjentagne
henningsen
udbreder
forbie
brække
clausens
rummeligt
vask
##fornøden
hugge
markedet
opdragelses
cargaison
mosaiske
enigheden
coburg
246
justitsr
ministrenes
zeitung
lagener
klitgaard
##96
vedtaget
regensburg
fornøiet
fortjent
perler
punds
kramboed
skarpe
tverhuus
##bestyrer
bulletin
benjamin
tangen
jndh
faj
søekrig
kanonernes
havnene
smeden
forviisning
##drager
brøst
nyekjøbing
atten
##gio
bleget
##hauen
postkontoir
kraftig
punsch
erobre
foregivne
##yet
##inos
tienderne
##tagelsen
besked
kamrene
forhaabninger
##ørring
berthe
generalitetet
raadighed
halvdeel
##stoel
hurtige
##quisition
kutterbrig
divanet
##lik
bliv
kjøbstad
##idag
bohn
exped
ordbog
forfattere
##ignok
fridrich
bæl
wald
afdeel
omkreds
steff
gottschal
tiltrædelse
ufornøden
korpset
hæderlige
tromle
bryllup
##gal
sall
gudum
tagvinduer
otting
nom
marstal
258
trøste
langer
forfrem
buhl
hornbech
volde
umuelig
##bolig
aflægger
##ull
kronprindsessen
understøttede
jndenlandske
##fiel
efterfølger
##riber
rettet
##deleshed
mærkværdig
befæstet
eqvipage
##akkerne
##stier
##liger
##iset
##kjendelse
##øvrig
360
birkeskriver
jslandske
mistænkte
oversamt
##ahrs
kroppen
velsigne
antræffe
##eil
tilden
##terings
ankommer
langballe
wieder
opstillet
lavdag
jomfruerne
omvurderings
breslau
##ilds
##arde
haub
##ladelig
duer
##bard
lukket
tredobbel
færre
politiekammeret
administ
bielkefag
birgithe
retsindig
wemmetofte
schultz
cer
føiede
æske
##iton
##ndere
overle
##lateur
laante
chirurgiske
bou
##conus
summe
##antsleren
ejeren
recommenderet
##aren
##ardt
siddende
bluh
253
wilster
##blaar
udmærke
fierdendeel
fortrinligste
bernth
fløiels
##ienne
kjælder
krige
forelagte
##duun
werner
dommere
##pant
bevaring
aren
britiske
indes
verw
perm
##gaardens
arbeidede
hysken
zimmer
##sholms
##staten
##verede
stur
klasses
nyegade
christianiæ
freditorerne
aun
figen
kreb
##stens
##stierne
berøve
søel
joen
skrivtlige
tidsforløb
allieredes
overeenstemmende
conferenceraad
iberegnet
eftertanke
##leilighed
erden
##derede
herholdt
udspredte
##krone
overordentligt
administrations
##bierget
standsning
aam
##jus
adskillig
##qveur
opholdsteder
portugisisk
##magersvend
##qverede
tildømt
færøerne
psalme
muld
frav
##forte
jndførelse
dieb
overdrages
gys
vanter
##deels
##drig
##ordon
tidsskrift
sydlig
netto
##gaver
naadige
misfornøiede
stangjern
gouvernør
##førende
##stik
paatager
indtal
aarig
##istik
mkr
haf
##ktion
budget
rigeste
abr
##indet
##ards
udlægger
ærøeskiøbing
##skudte
bevidst
besvarelse
besadt
fæstningerne
badens
klingen
schub
strø
udgaaer
eskadron
##nahme
##iddende
##ppes
listerne
canon
fortiet
uformoden
øvrigheder
kreditorerne
provision
reimuth
##ux
##lidende
indbringe
saade
grubbe
fortvivl
testamentet
badstuestrædet
praktiske
jolle
sod
##alget
lovs
lysthavere
##bekiendt
bortforpagte
##høveder
tykt
tilforladelige
magasin
cav
pater
##ismen
##stern
arret
##schwe
ovenpaa
conferent
mahon
monarken
tjenlige
jnstitutet
udvirke
forespørgsel
##oupe
forholdet
##læger
ditlev
meerskums
underretterne
udvides
overtrædelse
kys
vie
##ome
afholden
##skasse
frelsers
##imenter
betiendt
exist
menneskeer
jagttagelse
dristige
##stet
landsfor
##cert
kjøbere
luthers
restance
vidtløft
overvære
knabro
bøgerne
rømer
krukker
vacancer
corpor
massena
schiønning
lovgyldige
cot
istem
saff
afrik
beboe
##rak
##ladelse
bourg
prydet
juels
domest
stadssecret
friheder
bredder
batallion
hiedurch
cod
fjor
bortført
budde
syns
kraftige
ihnen
ebbesen
meubel
laar
##fade
##værger
kirkestræde
privilig
armeekorps
##poster
ankrede
bortrømt
##ariate
##itair
mans
##ydningen
ridet
urne
guadel
forandres
hæren
guineer
aspar
tilbagetog
uundgaaelig
dant
nanne
rin
vorg
##iin
tilbringe
##fore
prælimin
boger
tiirsdagen
gaars
schimmelmann
##ense
udsendt
##modig
formeener
##protoc
fløtte
øverst
skjeppe
francis
gland
stiller
##former
christiani
knuth
##vidne
justitsraadinde
cli
##fund
engene
meddeel
##utrup
hee
bøsse
honnet
europæisk
reventlow
mistænkelige
ranz
vas
##reisen
ther
foretager
stadfæste
academies
##88
tilfalden
##alog
deichmann
##italer
hall
gierning
teil
beregninger
beundring
##fiske
indgivne
1840
selges
committerede
veyr
krigser
275
##klæring
legge
krigsfang
ærøe
henvendt
sjelland
flaades
udmærkelse
rye
##andi
##iseres
commanderes
tilbød
stiftelses
hoftidende
##usk
##vas
saalydende
høste
rever
parte
stryges
sognefogden
theer
borgerkrig
gregersen
udvide
allerhøyst
than
##neren
##fogder
##rebne
gravet
aabenbare
løvte
nakskou
hesselberg
mortificationsdom
brandforsik
formeldte
skiænke
mejer
ophøiet
middelgade
##poena
rigtignok
uldall
jsenkræmmer
nøye
kosakker
gersdorff
ah
prosp
frederikke
##agnie
kyndige
pru
##dings
##forhold
##ationsraad
franken
krud
##beretninger
jordlodder
indstrandet
##kunde
stævn
##ensioner
##estald
##varede
##modige
guter
salted
revolutions
siællandske
afskaffelse
almanakker
kotzebue
mik
hare
kommandeur
beskytter
reda
imodtaget
##gades
opdager
mathematiske
##43
##stru
##liisberg
forsp
hvidberg
##ification
strømme
laugdag
tilsynel
brendeviin
sommers
##itæt
conde
hofraad
229
statur
sving
hestetøi
dæmpet
sessioner
##rog
##ækker
afbrudte
forelæ
jagttagelser
skuespilhuset
tidspunkt
frar
varig
kontoiret
situ
forvalters
forelæste
beenklæder
beneficium
uformuende
recommend
hud
vedliggende
##redie
processes
byggede
##sbreve
willem
skrøb
klipper
varmeste
udrustet
himlens
##maskiner
tripolis
straaetag
upart
winde
##bø
after
##vester
ordener
seminarist
##samt
udleverede
##yldes
plage
stillinger
jerslev
kri
kah
##inationen
##stration
lægdet
hyre
corpser
boutiqven
wensyssel
lager
piano
##elæder
##kkedes
##ppens
veltænkende
forløst
##ssager
##attens
##snit
matroserne
elephan
døm
forsamle
##hæve
alternat
etagier
fæsteren
magdalena
emer
villige
1700
##app
reyst
førstes
anslag
renters
lykkeligviis
##jud
##iasen
##ssund
stadfeldt
corunna
høistærede
giern
##skelse
##skilling
##dragen
christina
jordsk
##sætningen
politiekammer
colonie
næsbye
medbringer
røgede
pala
strængt
sardin
samvittigheds
ced
##nb
##pat
##eringen
frich
slæb
222
formindske
bregentved
must
rau
##rav
udarbe
##forand
##mandler
rbtegn
sengelig
fartøyer
eden
winds
foreskrevet
3500
heilmann
##tzehoe
seel
flinter
fuldmægtige
onsker
fortviv
mehemed
##rens
##hens
##inderne
førtes
levan
formil
kanoneer
resolutioner
tome
ødelæggende
prætensioner
afgjørende
2400
politier
terp
contor
paludan
hindrede
udskiftede
afgivten
##assurance
hardenberg
forsættes
anmeldet
capers
toldforvalter
micha
balling
hiemit
naboer
storbrittanien
schneider
vaade
##stow
##igaard
forener
helbredelse
tønningen
##direction
pletter
secretaire
character
wurde
##bus
paagre
tilbudt
fiord
mindelig
skatten
malerie
udløbne
opførselsen
pottemager
gouvernement
kiersgaard
halvparten
snig
skrifte
hæftig
kobberkiedel
vovet
livsfare
mueligste
skorsteens
begivenhederne
##grunden
tve
øyne
##hunde
herredspro
petum
jordeiendomme
jnteressenter
gyldne
nysgier
contoi
nettelduger
tømmersvend
svi
tod
##kasser
##jl
forviist
##bey
ammunition
øiemeed
guinea
indavlede
##jens
##isa
besaaet
eiendommes
resid
vesteraae
dyrt
flotille
armer
grunder
##lyste
fuldbyrdes
tilstanden
øieblikkelig
##urius
restaur
##magere
undvige
heglet
dømmes
##fle
##ala
betegnede
fremlæggende
lærret
beskikkelse
subskriptionen
smagfulde
##fordert
akademie
tilfaldt
overhoved
jndløbet
##yndser
indestaae
fiskeriet
hydr
levetzau
vildfar
theodor
janitskar
forladte
##regn
guddomm
opfost
afskeds
tanken
forældres
##magle
pakkepost
hængte
##rons
##alus
frisch
konster
abge
obligat
forstaden
##ritzlev
bomuldstøier
rist
##atos
frands
skikkede
kann
beroe
regulaire
grøv
skiftejurisdiction
##eskydning
johannesen
viener
liqvidations
varmt
steenh
magts
ryberg
fædrelands
forøgelse
kapitel
interessere
uafhængig
bielæggerovne
##has
law
kiøbenhavnsk
strang
corresp
stemt
consulat
bestræbe
forflyttelse
censur
forskrifter
tiltager
overbringe
##ministr
brevskaber
expeditions
##utteral
##betales
revisions
jægerspriis
##dinge
##hun
##witsch
kisten
##førere
afsætte
styrtet
tienstlig
høier
spadser
mandsperson
majestets
qvæstede
tvungen
glemt
geelmuyden
##clarerede
##ndrup
conven
premierl
oftest
fiendtlighederne
restved
oxekjød
physiske
langesund
expresser
fattede
udloves
krands
neust
##regler
borgervæb
preusiske
##østet
adkomstbreve
grise
uvisse
##riptet
wigelsen
wich
##doter
alteret
##istrædet
strande
rugbrød
brøndum
##høker
hemmelighed
secretariat
entrepr
schweitzer
geheimeconferentsraad
dic
vede
overblevne
##trent
stiv
springe
licent
mrk
hyllested
fortienester
collett
sennep
##65
anviisninger
##selskabet
solide
roses
##officeer
slagtermester
##wan
##atil
indfalder
boden
smak
beliggen
circ
##huses
hengiven
##nichsen
dommeren
stabelen
##tlæder
##hul
forræder
1760
##do
udbrudte
harp
skiære
præstegaards
document
bænke
##tninger
conrector
bortfalder
skifteforvalter
hovedlande
adsplit
forstæderne
staf
eragtet
fralig
##listerne
##minder
brandfrie
obersten
afsjun
krampe
##kirchen
paschas
ert
spads
heinen
sidel
jndvaanernes
stuepige
##kamp
##æringen
forordningerne
bevilgning
tolk
sædekorn
storviziren
tilsyneladende
##hede
tilbragt
aarligt
nedb
stoch
frugtbare
friestedt
jurisdictionen
##direkteur
uvidenhed
vinduet
mistænkelig
daværende
##afler
supplic
##arken
##ortel
juri
straxen
garner
fastsætte
brændeviinstøi
indhegning
dybde
##chaft
realis
##partementet
carthagen
stundom
afric
##vendene
marsel
fiir
præmierne
epidem
##fange
laus
arvel
tyrke
karlekammer
escadron
funder
tynd
##vaar
##85
nyhavn
generaltold
##skillige
##aters
sibber
direkteur
indhentet
paafulgte
effekter
wag
##73
##ieredskaber
##anti
besti
huul
misbil
forbedres
udplynd
asparges
dorph
##obe
239
krigsskue
seilfærdig
udvidet
patrioter
forseglede
farvande
boelsmand
cairo
gere
slav
habe
290
rumme
meening
laurvigs
bedækkede
omegnens
##emidler
pig
##orne
overgaard
realer
##komtoiret
dyrke
udrustning
bjør
retskaffenhed
markeveien
fugt
##billede
indtre
holger
konsuler
forraadnelses
vaag
nelli
medlidenhed
gaaen
tænkende
omstyr
hop
##brune
olds
police
herrn
løvstrædet
tobaksfabri
landsoverretsprokurator
ottesen
weder
##63
berol
fornøi
besynderligt
ønskeligt
undskylde
medalje
bab
casses
iført
##rar
forstæder
##iderne
frontes
anvise
majorinde
tilveiebringelse
staff
harr
underholdende
almindeligen
simp
##pengene
overflødige
utallige
ustem
##iff
ansættelse
udsættelse
vurderes
opnaaes
##lieutenanterne
overrakte
anførere
egede
fk
##forg
##esserer
rettere
fremsat
krigerske
forbrænd
magnet
nørrev
##junct
mistænkt
##høft
ulige
øens
##køer
vari
lei
##procurator
lynild
convoi
hestemølle
disciple
##melserne
capudan
antwer
##havre
posen
skildt
##fordriv
edvard
bos
rejer
undtages
løsning
philipp
ugeblad
fornærmet
publikums
nøgler
##89
indsk
##umper
##bygmester
graabrødre
##brænderie
erkiendtlighed
##dog
##fam
##ampe
hersch
overlæg
tilfulde
brædder
directeuren
##korpset
##polit
mek
kortere
flytt
text
ægtefolk
jnstructioner
taalmodighed
##lav
nedsættelse
myndighed
konstitutionen
karakter
##hielp
tommers
afvises
indi
vii
torne
sorenskriveren
batterierne
videnskabelige
memor
jntelligentz
jldebranden
sunder
##lat
##issionen
redu
hiørne
##beskrivelser
##videnskab
fell
holberg
blommer
##esserede
oldt
belgi
##geløn
ziret
##mud
##gem
udlevering
undert
##ederes
##herved
lyststed
class
hertugens
##garten
tranqve
fjendens
oppebære
viingaardstrædet
kind
##xet
##arrest
erne
##dren
forfatningen
hæver
lærrets
naboe
marchere
trappehuus
pia
##fjord
##cau
##inie
oplandske
despot
græd
sandheder
natural
welcher
foreslagne
divisionen
##røe
##lein
falch
benyttes
assign
mortens
timelige
##iisning
nørresundbye
ifinde
uri
wessel
skeed
poly
nørrejyl
appel
##høsten
winkel
forstyrret
anledningen
dier
endes
marcher
sege
##agtningen
##ugge
forholdsmæssig
bekanntmachung
venetianske
nyheder
grend
portrum
##ktør
maalt
fegtning
oppebørsel
grib
##velige
##deløb
mynst
##legges
indsamlet
bluhme
iii
spalte
reglementer
veyer
##ossen
jacobi
bergenhuus
##banco
mexik
ublegede
seinen
bekjendtgjørende
##blom
grosser
tjenestekarl
voxen
directions
darm
bedrøvelse
spidse
##dum
##beliggende
tillagde
##alsk
##ogt
schaff
##afgi
hengivne
fortalt
boghandlerne
bekiendtgjordt
boelsted
uophørlig
volontair
haars
##mess
opløb
velkommen
moe
befe
jernværk
suur
citron
engellændere
##gleichen
basse
trette
havannah
anmelte
bestemmelsen
gientofte
##ologiske
hjelm
jndførselen
##fiords
spreck
blæst
præfect
fremt
modvind
angrib
sælskabet
assuerede
søndergade
indbeg
anklage
beskieft
650
odels
##maler
##ildt
aflægges
##assung
forefalde
handlede
umaade
vintersæd
cederfeld
prompte
##86
propr
indest
##queur
lutz
benyttede
##kyndige
hiemmehørende
tvet
##øgerne
commerc
høitideligheden
maribo
dommens
tas
##gesch
pour
navnligen
claveer
districtet
ew
gaas
hang
fradrag
##irectionen
slagte
hensov
munck
kbhn
bernt
væst
##abe
elb
##huusgaden
##kiøbenhavn
bidstrup
entree
rafn
hære
##94
menes
##stedgaard
angere
andern
toldinspecteur
mors
contracter
##anus
##foret
beredt
kjellerup
moskau
##sses
##renes
##frugter
bomuldsgarn
styrede
omtalt
asseurance
arbejds
diaconus
stag
##irup
spand
bertr
tryg
lichten
vartpenge
uang
##onder
##mart
indbyder
indseer
betegnet
##arias
skjænd
pakhuset
skraa
urtehauge
contreadmiral
stut
ermelte
jndholdet
hæfter
isærdeleshed
##leverer
jomf
retsdag
forvisse
schmidten
scharling
afhentelse
fland
jal
befordres
##hansen
synges
mahler
barbariske
pinneberg
anskaffelse
sulte
interessentere
qvintin
kien
##jac
##anie
##foren
blege
stederne
unægt
broderede
colonierne
pommersk
mindstbydende
schlegel
brændes
eider
##2den
affærd
##vem
storherrens
melbye
263
egyptiske
forkynde
uberettiget
aanden
hulde
jil
kup
wit
forøn
medvirkning
##boen
advaret
rhinbred
agerdyrkningen
gierningsmanden
jud
geog
helm
##endnu
ophid
beregnede
gavnlige
kultorvet
takkelage
legitimeret
diebitsch
frontesp
jahre
paalægge
begaaede
##førde
##præste
godtgjort
beboelses
protocollir
hindret
definitiv
forbittrelse
gil
##stænger
auctionsforvalter
aabner
bødkermester
beltpassage
sart
##cla
##meldet
heed
indenfor
capite
nedstyr
godtgjøre
##friede
adressen
londoner
gulvet
provianter
lehns
urigtige
beskyldning
boyesen
##pital
stors
nærliggende
##jenigen
##ogna
ligesaavel
lindholm
udlaan
ragus
##fsen
##83
##92
##attende
theem
matrik
tingene
vognmands
##kræm
fordeelagtigste
kunstnere
taage
fjender
tilveiebringelsen
svalet
deputerte
##ceret
formod
storve
ordres
franskmand
closter
serask
rækker
hindsted
nøiagtighed
##shistorie
##aer
##yrede
##bow
bestellung
lyne
sogners
normann
haandværker
jnfanten
digteren
declaration
##elyst
##atel
##farvede
monsen
skudte
madras
vægrede
vaske
burgermester
max
demach
proced
absen
nordlig
sædvane
plantning
cattun
povelsen
##sæ
##hvad
indsp
navnkund
beviisligen
sælskab
rib
rummel
erindrer
##løshed
tilstedeværende
ferslev
udste
##ersdatter
leyr
thyr
##neman
##ykt
armeerne
indfly
frygteligt
smedde
joniske
opførselse
fajance
nad
##græ
indbringer
##veiret
hose
registr
##ssøn
kaster
tidsfordriv
flensborger
træevare
inventarii
generalstab
##acker
popp
statsk
vognskuur
fryder
kruger
utilstræ
barth
pairs
lima
##skræfter
gardiner
750
##71
giørende
tvunget
destom
gissel
jourdan
sukkerraffinader
conr
lee
henne
menneskene
##marschen
80000
plyndre
opvakte
ubeskrivelig
edike
tung
marin
boj
thu
søg
domstol
hertz
adressekomtoiret
sirtzer
monarki
rosted
kattesundet
##kin
##hassing
##orup
forklæde
##mæle
##astes
##essal
##burgske
##kongen
anmodede
schwach
obligationerne
forestillingen
theologie
jas
tilfaldne
##olt
##givere
##ppo
falbydes
fuldkomment
terra
færgel
ufuld
collins
cathedralskole
charakteer
tæring
wart
##ryg
tildrog
##liggiøre
##ries
schade
foretog
tækket
tyveri
gevæhr
jllumination
palermo
pæ
haxt
##mare
forbeholdt
gierder
protestantiske
motto
langvarige
billedhugger
edeltoft
standhaftighed
tranqvebar
aur
##stl
##skoler
proportion
advokat
authoriserede
uforsigtighed
##edes
##84
udfinde
daher
trykket
tyrann
stof
heftede
kiendelig
uskyldig
grenaderer
kager
rykker
##lassen
##hung
overtaget
chou
tiderne
oplyses
##ificerede
fangerne
raadhuusstrædet
foraarsager
skuepladsen
feltt
christendom
lp
##nig
kiøbstad
laste
420
flittig
enthusiasme
castlereagh
cham
hvilkens
##holderen
##moese
børnenes
attesterne
ødelagde
lavendel
tordenveir
fyn
flet
ward
##93
anke
##pect
##ells
kundgjorte
værksted
uopsagt
retfærdige
##spladsen
gemahlinde
bortfæstet
nægtede
skiænket
velbe
perp
schiff
contrab
ernære
##stractat
fælde
forrettes
tiltaget
overmagt
skiør
betage
carlsc
sprogøe
lampe
græsnings
tilskuerne
ric
##chts
herforuden
##radet
kunsten
larsb
heftighed
oprøret
fæstningens
betientere
kartoffel
gensdar
sørgespil
aul
##bygt
strat
opholds
forkyndt
foranstaltes
tydeligt
tiltroe
opofr
snes
##dige
##91
##vember
##meste
regul
traadt
##mennesk
geby
##mode
skjold
planens
rangforord
kommandanten
grævskabet
spiritus
ædruelig
sengeliggende
que
##56
##igung
erforder
##steros
formaaede
midlerne
hjørne
forfærdigelse
scener
mæglerne
brødet
østlig
artilleri
marcussen
overkrigskommissair
ligitimere
vaude
alne
indbetalte
##vnt
##sport
tørke
præsid
tvungne
taalelig
antræffes
jdag
nod
tsch
##edde
##geret
reglementet
##eskoe
hæftede
næstanstundende
beboende
tilsig
##volds
cantor
allerhøistbemeldte
døvst
taars
##idsel
reimer
forlyst
grundsætning
valnødder
raabe
tillu
tjenest
octroierede
forsvunden
ugrundede
sammenhæng
tiltraadte
anlagde
sørgeligt
magten
chartet
opdages
foranstaltede
indfrie
bohe
bevaa
bendt
##belt
taarnet
##bedste
udsælge
bedrøvelige
##ili
##arre
##erser
##avns
christelig
##yndige
forfær
##kostningerne
##levad
vigtigere
levemaade
festlig
fortieneste
kastrup
landhuushold
udflyttet
##inspekteur
##pande
overgangen
trød
formidd
forestaaer
forretnings
welches
anec
fritages
transportere
uopsigelige
jass
##bundne
##fæ
##hur
atta
atlas
lew
thuiller
velgierninger
forhenv
forhøies
##yttede
theologien
generalpostdirectionen
tudse
eleg
huld
myg
muren
##ohn
##skel
arnesen
##later
gryder
feh
forbitt
bakke
forliste
baadsgaard
##svaghed
jstedet
pid
prev
ydes
forhaanden
##arisk
seletøier
kommanderende
udgav
ruiner
circulaire
##ydens
aflagte
##olien
##ionerne
overbragte
##abi
brad
gaardmænd
tienest
silkeborg
skilsm
paastaaet
worsøe
æsker
entr
afgaaende
melchi
møllerup
brændevin
gemytterne
lerche
møllens
tilv
derne
optagelse
arb
oberberg
delbanco
malermester
naadig
eegholm
buonapartes
forurol
berliner
afsættelse
noter
##spaa
formaaet
skyldigst
##iddere
skipperne
menneskelig
brønlund
jernplader
##isens
##lied
bryn
##prang
jndleveringen
##sern
gangbar
fall
orlogskibet
aander
##kred
##siden
##64
kanton
##isternes
ubekjendte
fortjeneste
rømmet
anviste
melod
##ernen
lovenes
hidkomne
##hlensch
##blommer
auswart
vaaninger
gottingen
pyrenæ
foreenede
eiet
ritter
rth
vim
##kiske
##staa
kiøbende
bestaaet
andreasen
227
skjel
forstaaes
galanterie
veiene
gulbrand
lerchen
gleich
schiøtz
jesuiterne
##hid
jule
østeraae
hungers
##flid
stolte
møllersvend
conventionen
ottomanniske
##mægler
lugtende
fedt
hut
##allet
##riks
brit
reb
parlements
197
##aternes
skoesp
frederiksværk
##æftet
##atret
jndtræ
halsh
rosenkilde
##brecht
væsenet
tilsyns
klingende
fabriqueur
myl
##kow
forarbe
beæret
##rader
boeskab
juvel
##illetter
seiler
##issements
qvartaliter
jnformator
fylde
jøden
nass
hvass
udskrevne
omfor
##endorf
saxt
beskaffen
couleurede
udvandrede
ryn
wolle
##uteret
##kanten
##veres
dennegang
fremsk
høiagtelse
afsagde
ræv
##ollegiet
beleirings
##ther
##aub
##qværn
skaarup
##brandt
forblev
hunderup
rentekammerets
tvede
##indige
fiinhed
##raabe
fødeland
stænders
pludselige
##jør
eiers
annecterede
##ificere
consuls
kronprindsessegaden
hyrde
kaff
matte
##ragt
##kop
gjæring
stiftede
domhuset
verh
indfriet
frokost
reelleste
ifjor
hæng
kands
paabeg
##avler
harhoff
lignede
##bruget
halvaar
specul
enkel
kronning
contracitanten
adelgade
pauli
##dret
storadmiral
##seren
maanedlige
##ordenens
læssøe
bygningstømmer
frugtsomm
fleer
videnskaberne
destineret
afski
koestald
cancelliets
bergh
nationalgarden
aarsagerne
congothee
qvindekjøn
upassende
gundorph
##hner
erindret
##kkene
tønd
mikkelsen
arrestant
vanille
formodede
foustagier
sarag
panthaveres
inviteres
wins
##bill
##huusmand
##hau
orm
bedring
oberster
gjordemoder
pantsatte
carthagena
aager
lass
##maalet
##42
##sem
lukke
haugefrøe
interim
efterkomme
generalitets
ulm
bryggen
brasch
toldbodgaden
skydeselskab
archipelagus
veninde
##lenz
raser
jordan
##færdighed
besættelse
statsgielden
340
bruns
præmien
flakke
kataloger
picheg
##oles
udtale
##berland
cohen
24000
avlingen
broberg
mergel
##kaster
fyrstelige
gesandts
undvære
overdrevne
hieselbst
publicationis
charlottenborg
solidum
hvilkensomhelst
jena
vale
##ilen
sognes
hedde
dinesen
sydost
##fangst
streif
kofoed
forordnings
kierstine
forklaret
jnspekteur
bevægede
iagttages
norg
paaligger
saamegen
kiedler
thon
farvel
behandlingen
##inth
pomper
vægret
tusende
westervig
søemand
##svinger
zante
paaanker
paakiendt
undskyld
complot
heftigt
choler
lassens
forskrivning
tumult
##bibliothek
tilber
skye
spii
incl
procession
polakker
neapels
##bærende
fornærmelser
##skontoiret
indgaaede
bombardement
gn
hænger
matter
tost
##stog
enhalv
overleveres
##icomm
generalstaterne
##utioner
allun
fiær
ursin
##bleve
udvalg
højt
forglemt
strandbredden
guadeloupe
##ssen
##ella
##sex
##urger
prove
##resen
garverie
ulf
forstør
plantede
generalkrigscommissair
competente
brædstrup
krebs
binde
hou
mande
bruus
krave
dama
##commanderende
compagniestrædet
kaarsberg
provincial
kegleb
gjestgiver
bæste
##bøs
##itæ
anrettede
udpasserede
overste
overfaldt
opsøge
prot
bygsel
forefalden
confisc
##ifik
jnterims
betrukken
kapitaler
schiøtt
widdin
afreg
indsættes
##ota
selb
fuldført
lærte
kiøbstædernes
##ube
##vation
skytte
##gest
##angers
revet
søllerød
##farne
godserne
leden
##ytten
verschi
omstændelig
hoe
##ælet
landgods
kran
gientagne
fiendtligt
tilgrændsende
indtræder
kiøkkent
slippe
botan
##stervboe
garnisonerende
bez
gaardskarl
bøye
##værdigste
forhindret
schwer
oxholm
methode
oxehoved
auditor
##betiente
mærkværdigheder
poetiske
anat
sale
hey
synke
tiltrædelsen
fiendtligheder
pavens
overdrage
tusind
proviants
uvirk
englændere
bevogtning
oekonom
aftægtsmand
princesse
spreckelsen
reede
landværn
stikkels
rigerne
oberformynder
smeds
brødres
##knapper
opretholde
expresse
minerva
dukater
##rifter
havar
##løben
besynderlighed
pont
zwe
vares
landskabet
stede
242
holsteinborg
pakkeposten
tilhørere
mæster
medgaaede
##uni
overgaae
1850
andalus
betænke
berber
fortro
manges
jnfanterieregiment
occ
sabler
tauber
subscribentere
elephanten
jt
##busch
høimod
flens
fædern
jydsk
handelshuse
blaarlær
geg
peer
##pæle
##62
##endeels
##sbøger
vestervig
fode
sammenro
##skibene
mahlet
stockfleth
levetid
løvenskjold
iværksat
##tendant
afgjorte
##olde
##isborg
##ugung
pardon
henlagde
hofbogtrykker
##ckes
mæske
rejersen
forrettet
herigiennem
##ugler
junge
drages
huer
redou
tdn
ordenens
##anstalten
##kommissionen
prindsensgade
eichel
bestalling
elig
##muget
underværelser
lausen
jndsenderen
##opol
248
##eskole
formiddags
legationsraad
næstfor
commissaire
lieutenants
mildhed
##ual
tildraget
udøvelse
##kommand
arak
##indig
minor
tryl
##stævnte
nordens
langværge
udsadt
##slunde
jnfanteri
høitideligheder
søndenfieldske
berthier
senep
vember
wan
##batter
##ariel
trygge
##idelig
weis
testerer
pigekammer
reysen
fornuftige
laxegaden
udpantning
dristig
wegener
egenhændig
museum
storvez
bonne
beskje
hingster
instit
høivelbaarne
konsumtions
pie
indstænd
hausen
##opeer
postdag
dødelig
anseende
fuldmægtigen
hurtigt
wandal
udebliver
ubeg
hændelser
tobakker
erkebiskoppen
willumsen
frastiaalet
##col
udskrivning
##livet
overrum
noteret
daup
thestrup
raserie
datteren
behandler
premien
sikkerheds
regnskabet
oxehoveder
gluckstad
tari
wiel
##daase
##ementer
oranger
##komsten
##herreds
##ache
arbeyds
godsers
betydeligen
doch
erstatningen
bologna
boepæls
ramus
pudder
segeberg
øj
hobe
opgav
##issimus
hallager
##dict
oberhof
kieler
hempels
musiken
hæderlig
##magaz
##untius
stoergaden
francois
bald
rain
terne
harer
forlø
strie
##moderen
skjorter
arsenalet
##qvi
skre
##ogsaa
adspredt
salz
professions
glæden
publicerede
voger
læderstrædet
virkede
opløsning
equi
##fonds
gallizien
vul
##lon
tiltagne
udholdt
##ordnet
bering
##resogn
rix
gjenstand
brystsvaghed
reserven
didhen
engellændernes
kierulff
piemontes
aden
linds
##indelser
beau
##atorium
cariol
læres
##torvet
delmenh
commerceraad
madsdatter
academiske
syltet
foranledige
afbenyttelse
fustager
##staxten
##chingberg
fortvivlelse
bunt
##dro
##41
fori
erindrede
strye
indfunden
opstod
tjenesten
bekiendtgjores
kieldsen
uleylighed
svaletønde
bander
##mis
##amts
##chou
##eger
inddreven
varna
marte
##øyede
gierninger
boll
ægyp
tømret
degneboelig
consistorialraad
mundtlige
##pla
##cor
##radt
spænder
##ouverne
nordost
silkebaand
forklarede
dæmpe
udsigende
helliggeistes
cordon
fuldmagter
##ward
capell
canada
##inert
mørck
vitterlig
udbetalingen
udstaaet
trøye
communicationen
auktionsstedet
hindsga
pingel
##okr
##52
##esom
afsættes
afskrifter
##skirk
##sefterretninger
gjæst
gevor
umiddelbart
høisamme
##solgt
els
spænd
stedsevarende
jndkaldelses
bivaanet
epist
continuerer
##jægermester
practiske
kagstr
mum
jacobsdatter
hamborgske
300000
lykkeligen
richard
westphalen
vindskibelighed
fos
rader
##53
##igets
stutt
##usser
##vendte
gef
tienere
martens
livgarde
skrivelser
professorer
brask
dybtsørgende
øiet
##mets
##undes
tranders
katech
##baands
##punkt
vattersot
coffardie
afdeelinger
røre
udbede
kloge
nyem
bleeg
politiem
lønning
##stofte
porcelains
tallerkener
indberette
dalen
##aga
klap
##ummen
##bond
fornøielig
modtoge
næstpaa
##hls
muntre
avertissementsr
opførtes
portraiter
lieutnant
meklen
tænkt
tilladte
##deri
tiders
lodden
bruunt
johanna
heger
forlags
affald
##skra
beærede
##gjor
##icke
huusarme
franck
278
magtesløse
biering
skatterne
legemet
directoriet
rømning
urbans
entreprene
stet
kirkestaten
opfinder
publicums
jtaliens
hæderstegn
ubil
trykkefrihed
blegdam
translateur
schwarzen
wa
##teligt
udøvede
##agtighed
bryder
##ynter
##betjente
kammers
bestandigt
sygehuus
konferentsraad
forelægges
nødsfald
##pligtige
afvexlende
herskabs
scher
##ikerne
christiansøe
modsig
sleth
indeholdte
sirts
hendrik
forreste
bierregaard
gouvernøren
bortreist
thorvaldsen
cim
gyde
jahren
vere
øm
##laae
forfalden
somme
efterlev
##øds
striden
sognep
tiltræder
drew
jsle
elskere
authent
meddelelser
gigt
##agie
stjerne
gifter
hafte
bors
jnspecteuren
tommerup
bevidner
clausholm
saxild
misforstaaelse
patienter
##prædiken
embargo
4to
hunden
kinch
render
##vie
##qveret
##inetter
##onten
beviste
seiren
##udg
##faret
ligesaalidet
tilstod
amerikanerne
rigsdalers
dunker
hilse
sabroe
hove
søgde
udsalget
bergstaden
løben
afskaaret
scene
kristen
caroliner
fiolstrædet
vange
##edon
aly
herskind
trop
trukne
appar
hundborg
undvigelse
kniplings
traktaten
jsaach
svigermoder
tinghuset
doden
irgend
##skow
skikkelse
allein
processionen
træet
gruus
abrahamson
weilbye
fortjenester
stemte
##stidenden
##magende
wedelsborg
charlotten
trudsler
egers
jess
##alerne
henrettet
sørens
weise
gienstanden
videnskabs
##ignan
extraordinair
sensation
krigsskuepladsen
sap
##uterede
##isp
##iente
menne
nyhed
mandskaber
hammond
##først
tilbøielig
auctionssteder
##sbes
faye
dydens
##thes
##brevet
paastande
pebervigen
ihenseende
##cca
##edal
opmaa
melche
jnde
heels
##ossa
skuespillerselskab
hasse
##bøl
##edron
ens
chin
coffe
moes
skilt
departementerne
seieren
mouritzen
antwerpen
##68
fragten
algode
##hea
svarelse
nødlidende
ministers
ærefrygt
nachschou
mathematik
fleres
daab
kiem
lunder
væn
##lød
##xel
opgave
conjunct
adlyde
sorsdagen
søebye
bragtes
bjergene
hummer
alvorligt
himmelske
beskjæftiget
id
##zes
forgj
##egi
##bout
##æggere
##eskaber
tørring
weimar
tranque
munthe
warberg
documenterne
reclam
pairskammer
pettersen
##documenterne
forpl
##reis
##kkelser
hovedp
indstævnet
gewesen
straat
##gartens
velindrettet
sire
vinger
##derer
forbinder
brok
##ello
bakken
##antser
tungt
savnede
##abilis
mærkværdigt
tank
##tige
harald
søder
##achs
##løses
fabric
rødviin
yngling
spurgt
corvetter
qui
rørte
tont
##adens
straffen
syden
koppel
##strakte
tilbagelevering
africa
stie
indkommende
##lip
prover
procureur
træfang
##lutning
dreiel
aabenraae
blanding
fahner
prætentioner
avi
ging
køb
tolle
vem
##kenborg
##ariil
schouboe
kjøberne
fedevare
fortræffelige
pit
##bræder
udlagde
##forstand
blechingberg
reven
bortsælgende
næstfølgende
observation
reforme
##cepter
##geskov
commodore
neustadt
##itser
proph
kej
tienligt
polakkerne
##phant
ostindisk
indskrænkede
udfærdigede
glaub
scholten
drøbak
ningen
##bøgerne
##agtigt
##revis
hinandens
flekke
søndergaard
fyenboe
kraftigste
autoriteter
revision
adressecontoirs
hyldest
mæng
deurs
anger
brinch
spore
huusfæster
landsmand
passagen
ærværdige
##blaat
boesiddende
resultater
notarius
archangel
binnen
apostoliske
sjun
##naal
##æum
##stjenesten
##ares
sehr
engelbret
stry
tree
havnepriser
parcellerne
bernhard
engebret
forpligtede
##hielm
flaadens
pir
reder
sah
##itung
udfordrer
omtales
bonder
brend
tidlang
beres
brandassurance
æren
jnventarier
kiobs
svigers
daaser
##kundskab
##fields
sibbern
##fro
##87
##seg
##racht
brands
##været
##iceret
##aca
næsen
##mænds
skuffer
fangel
opstaae
povel
betragter
luxemburg
nørrevold
uangivne
jnder
kau
##kande
marstrand
spl
henrettelse
marscheret
telegraph
bismerpund
##61
opgivende
##enhver
ladefoged
horster
monarker
provisorisk
roedsted
nurnberg
ustemplet
eies
mollerup
##itil
##sensgade
kommerce
dyrket
inderlige
uops
taxeret
sammensvorne
utilbør
uvillie
bøgetræer
##lex
dert
høistsammes
angiveren
cec
##sleth
eftersee
omgaaes
opel
##kommelse
boss
høf
ongefær
##sættelsen
besættes
##fferter
anek
thyges
afsluttede
strasborg
jesuiter
kongers
##farere
##slaaet
drik
calabri
plyndrede
befordrings
betryggelse
religiøse
høl
tilbydes
##skan
opkomne
##indiske
reys
juan
bilba
forfatte
fyhr
klædte
trapp
##strømmen
1757
conferencer
oversvømmelse
frydensberg
##inders
standen
alsted
minder
emanc
##undeviis
gallic
wienske
repræsentanterne
dyrehauge
pletterede
taffelet
efterkommere
paas
##ælling
slett
finsen
ladegaarden
miile
##konge
ill
sorger
creditorum
foreløbige
hertugdømmerne
hensigtsmæssige
cabinettet
duus
røe
uski
beredte
bogens
bened
ligefrem
dyne
baadsmand
beleil
øresunds
iligemaade
##haa
hansdag
jndd
##eneral
fremlagde
##holds
muskat
grum
259
balles
bøndergaarde
erstattede
postefterretninger
stikkelsbær
berede
##bland
omer
underskrive
toe
adressecomp
arresthuus
kamme
##bringelser
central
ravne
##trup
##och
##sons
##cal
##skere
viel
kjole
portor
##flaaden
loge
dannebrogsmænd
hornqvæg
colonien
stolthed
##bt
##inten
##onn
##ødre
prætor
falk
forfædre
forskj
310
jordkielder
miød
patroner
brester
gemacht
assem
discipel
transporteres
##onymus
ranzau
bæger
##flo
selvsamme
forfang
duel
svarende
ærende
frihedens
piemont
efterlevelse
##vandet
udøvet
##beviisninger
repræ
feire
forfrisk
ligesaameget
personligen
##etting
verkau
##skens
svømme
schiels
napoli
forsvandt
baumgarten
naalet
##ilier
ogs
derind
##ief
besad
begangne
priisen
hofferne
mundingen
bing
uvillige
##nungen
##inot
dey
##merie
giær
andrup
schat
##lye
gotgiøre
billigere
handl
fabriqver
snareste
skillings
##artikler
tranquebar
binder
##eriet
afviist
høiene
rouen
jepp
krydsere
susanne
almeennyttige
cuba
cloud
odder
indby
##givenhed
posterne
##præclusi
friberg
##shøi
opraabte
korvet
forsvarligt
kuling
benef
khvns
emancip
##cterne
tiltage
##ørup
hanne
brads
holdne
berent
halen
kammerets
verd
begiær
collegier
thomsens
334
rosenvinge
indretningen
subskriptions
pharmac
haxthausen
jgien
pad
wass
udvise
overfarten
##beks
opdagelser
laase
geelmuydens
uindskrænket
gab
ik
##100
##anda
anlediget
værste
##førstkommende
kommanden
garanter
##versvend
hiembragte
bolette
myndig
##enza
besværlige
archivarius
1841
abonn
aarvaagenhed
guar
stahl
skjer
manu
requisition
søegaard
hastrup
kornv
extraderet
forkyndelses
florentiner
americansk
formenes
musikalske
##tør
##69
nykirken
##ælds
bortkaldte
løfter
torp
hartk
hialp
tørsting
steenkalk
femten
tvillinger
fæstegaardmand
betræffer
besværinger
columbien
houg
##atterne
henligge
gjæster
##heater
##danigst
landsold
erfarenhed
klædehandler
torvegaden
##hængte
##ologisk
forsigtigheds
riegels
krabbe
##leur
##verden
udviist
##rivileg
forestillende
middels
skadesløsholdelse
iagttaget
baumgartens
##walde
pic
##esamling
257
maaneden
agerdyrknings
massa
omskiftede
hytte
qve
##lion
##æiske
kjers
sørgende
polsk
gaardsredskaber
##antsler
voxer
magazinet
ratificeret
debatterne
paagribelse
kem
sendelse
##elin
bedær
##marks
skjult
dygtig
bukke
merden
davids
skieppen
skotske
badstuestræde
lejegaard
lønne
uben
##kler
##67
##etage
medarv
##ssange
aga
gudelige
uheldige
blæk
olivers
anskuelse
paketbaad
storthinget
jndskrænkning
aan
past
ubrug
##aaser
bortfly
##icen
##tegninger
##enternes
hædre
tyrstrup
forordnede
ærinde
380
forseelse
billard
blomsterfrøe
tienester
ballastet
indviet
ubleget
tobakspinder
##stød
##listen
##ummet
retninger
rettelse
torslev
kardinal
hospod
hestes
mindelighed
viceadmiral
hjelpe
flaader
nissens
deserteurer
rhe
##teligste
##54
##ilhørende
##eli
stjern
##eges
troens
læstes
regjeringer
faderlige
patrouiller
otterstrøm
zie
##vinger
opsn
sidim
flød
nordlandene
forordnet
horiz
contraher
fartøy
tersløse
eyeren
wissenberg
jah
hanse
##mestad
chap
##visende
hertugerne
solem
særskildte
nøgle
oprindelige
pint
taff
##sein
hande
havdes
opkommen
regnings
drø
halds
sølvgaden
persons
leverandeur
tilkiendegiver
veirliget
sjællands
qvægtiender
pudersukker
jnspector
udgifterne
motion
birkerød
delig
##37
##inal
##atens
##formedelst
bortkaldet
talem
##aane
præstegi
##byggere
fordeelte
calc
papiirs
gyldige
krydsede
##lensch
tvangs
##mittags
##donald
fortep
misforstaa
fontaine
iklæd
##leriet
nærmelse
hvergang
##lagers
##modt
##løbe
soldaten
pigebarn
campe
fremstillet
wellingtons
produciren
##edyr
høes
rek
int
betalet
##kjedel
cardin
lysthaver
##regnes
uldene
##aillon
tilkjendte
ulovlige
subscribenterne
##ester
opsig
bortfalde
pror
##komsterne
befatte
verket
provste
virkeligt
busk
afgiøres
grønlund
groth
raket
willadsen
hylder
##isselem
##fornødenheder
rold
tilskud
endskab
repet
jndfødte
paryk
silent
hiins
benz
vægtig
scott
##schweig
africanske
##mos
afvig
afbræ
indhentede
##øbt
sei
sevel
kjøl
ulykken
klædefabri
boliger
liigvognen
reformer
##materialier
asmussen
melchior
##ilian
lokke
insol
torst
bender
ærø
lemming
haabs
artillerister
rathl
modstandere
##aatte
opsættelse
sidsel
thessal
fremfærd
##lagens
267
skoled
afreisen
jrgens
kolonier
støbt
bunds
vener
##faaet
##aabye
##ammet
skyds
samqvem
marinen
leil
prægtigt
knaster
##court
seilmager
kræver
drengebørn
##felds
##kond
hieseldst
realisation
wurtembergske
frilodder
##shoved
herredsprovst
pærer
howe
11000
hayt
begaae
##krands
exp
##ægten
anmelt
deeles
268
almisse
##ktionen
##shø
brækkede
hemmer
storhertugd
saf
##oppe
strup
paadømt
##ione
havb
maidag
forsømt
veldyr
jsach
boutiqve
skribent
##quar
##etræer
##stider
##kommiss
##antmachung
##tringer
schelde
bevirket
bifaldet
valgene
fastsætter
voer
afskaaren
hastige
##queteer
gouvernementet
##inisteren
hydra
het
##fir
##97
##tek
##øret
skiørt
parad
##rerende
##produ
stadfæstes
skabning
fyldestgiørelse
servietter
jet
waar
##ienen
livjæger
steenfeldt
fældet
##uerende
##lodder
dronningensgade
##obligationer
søemænd
wrads
væbnede
maskerade
blodsudg
entledigede
##uz
##ume
forlænge
haber
poes
koureren
bibels
markeder
seilads
tilintetgjøre
subscriptions
ubeskad
##kraft
katte
long
ringen
##masse
##rh
##hall
antegne
giort
spind
##standens
udgivt
stadfæster
forelæst
besværlig
overformynderiet
tonde
hagemann
kollegium
ferslew
guddommelige
rthlr
pland
##nas
##onde
stigen
##row
almisselem
koren
pundtlæder
pedros
imode
forstærkes
winthers
samfundet
ceremonie
pander
rykte
##perne
afholdende
harme
skiv
beskrevet
takkede
advarede
##johan
##bury
beskrivelsen
opfostrings
##piger
##kass
vedt
frakommet
##kommissair
##rigen
##mandens
forbierg
finere
tilsyne
gudstjeneste
afsi
kierlig
graves
collecteurerne
bibliotheket
fornemmeste
kattun
gevæhrer
##generalen
krigserklæring
##ronsaft
ave
##laub
skibbrud
formeente
faxøe
wei
truppen
regentskab
fændri
cen
##aarnet
losse
mandkjøn
##aires
steengjer
##solgte
commanderet
imorgen
meerbemelte
eskorte
panteobligationer
pes
##58
##sekret
chren
henstaaende
bandholm
trompet
kyndig
leievaaninger
seilbarstand
storsult
rar
##ping
frausing
cha
lazar
prolog
stedf
roh
251
##løsning
##phuset
handagen
smigrende
foruroligende
##reden
lasten
##issementer
pergam
##byggede
læserne
##gaardsholm
bredahl
smertelig
forefunden
ondskab
forskrivninger
avancement
kæmmer
bilbao
##3de
udreder
##keiser
##owsky
stæds
gudstieneste
tønnesen
uhret
markjorder
kattegattet
messen
uk
##haug
##spart
egger
fyrede
klædning
frugtesløse
friderichstad
teglgaard
overbeviste
kaalr
fleskum
udgivterne
jaa
##mine
##ndt
tilr
##ingens
deter
overgivne
opsp
chate
mary
conforder
huusjomfrue
velfort
resch
disc
menneskelighed
finantsminister
sylte
yndling
thermomet
cele
qvis
##uppen
##smændene
ente
udstr
indgik
nexøe
sengested
##ivelse
stukne
nationalgar
accordt
credito
##ographiske
bønde
næringsd
sloges
meierieredskaber
tosc
fraliggende
overfor
høien
spillede
baromet
synden
førstningen
charl
candia
ondskabs
kirketer
betimeligen
buntzen
gum
jævn
##atnings
##lio
##enthal
##hrine
bell
aarslev
dybere
##smuget
justitssecretair
luttichau
rochefort
coblenz
##bande
##røm
vildet
jndiv
præten
prindsesser
handelsfuldmægtig
naturligt
skrækkeligt
prøven
snedkersvend
anmærkning
republikanske
skiønnes
opslaaet
garvermester
jndsigter
destomindre
edict
pierre
##pal
##chner
##aards
maro
##utta
juv
petit
mithin
hæle
bordt
anordningen
herredets
ufeil
fremstillede
arntzen
iværksætte
tede
##møde
##enberg
##skulde
##ynge
udenrigske
##issa
salme
##tesse
topper
halvøen
##allis
thomasen
hospitaler
##skrivningen
lysekroner
##endelsen
fundat
uvished
voldsomheder
ankertoug
weichselen
eien
giem
kent
##rol
##anernes
##anditeur
##isel
##roer
##utte
qvas
tilslag
dræbye
nationalgaden
anbefaling
forældrene
kliim
skarn
bølgerne
cicilia
##compagnie
haardnakket
most
mille
##ovet
##sser
undertrykke
kontr
##ffs
##forvand
schæ
jndkjøb
forsømme
##ahm
undertegne
forekom
jnteresser
visiteur
længste
opvarte
storbrittanniske
smittede
##rona
##hængende
venlig
trykningen
cancellier
blottet
uforander
kruuse
stabscapitain
alexanders
befrygter
tilbagelevere
raffinaderie
brillanter
suffisant
##algaden
prosa
inspecteur
landkort
##ianerne
grevskabs
vederhæ
patriotisk
tikiøb
fraskildte
rasphuus
##nie
##potter
forberede
tildeelte
##rick
##usc
indgangne
hvilested
løkker
helbredet
261
ribs
jordbrug
sorterup
brahe
##holdenhed
ivrigste
verlust
creatur
fordan
indladt
overhør
kiørsel
##istent
holte
##ppels
fløie
ruder
blokke
jldløs
reserva
louisd
kasses
ror
##personer
skiul
##gernes
sognd
kammerater
brandere
negere
sengklæder
hjemmehørende
##edoch
##beth
tilbuden
trykfeil
broderen
welles
itu
excesser
kornlofter
assemble
##fæstede
førelse
spaad
neusch
embedsmands
gesandtskabs
fordrevne
usle
##legning
bendixsen
arveprinds
transporteret
forædling
genuesiske
tug
##iam
##59
##isom
##kked
lihme
nærer
emil
lodse
debitors
udstilling
peberrod
##seete
kander
sover
##udte
senior
fordrings
ligemeget
sygdoms
castel
fornærme
churfyrst
periode
litthauen
antvorskov
korrespond
rigstidende
landseneer
##alem
fryndser
oversendt
manheim
engelsted
brod
312
stervboehuuset
bombe
heldigt
##foer
fæstningsværkerne
velsignede
affairer
hensigtsmæss
orlogsbrig
vicec
jndvendinger
hovedlandeveien
kahrs
ode
##æus
paakommende
menig
spændt
recommand
minut
##ops
gebra
sidehuset
beboeren
skildre
##raaderne
brittisk
rimeligt
jnspections
mechan
gemeene
ore
forholder
vedkom
nyholm
nyekirken
compli
raset
goth
bibli
tranberg
kampe
rosenberg
anvendelsen
helliget
rapp
grovsmed
romersk
læt
wies
##maae
##47
overlader
godheds
fint
verstor
ligemaade
skilte
vacante
beqvemmeste
fahrt
aftrykt
eventyr
pfal
##irs
frembragte
sletten
##ideret
komedie
jacobs
weitere
forestaaet
fodt
kronet
grønlands
##physicus
abschriften
##51
paad
oplevet
marten
reper
andrea
##tegaden
bornemann
430
werde
skatol
riisøer
mærkværdigste
korporal
criminal
delmenhorst
cin
##rus
##cien
kants
flon
wilders
forsynets
##lohe
kokkepige
##jere
skilles
##umenter
commite
##rænge
siele
##sbu
grevelige
skifterne
jsra
opmærksomme
gottfried
facultet
brønde
rastadt
bue
##tligen
stid
kommes
##handlingerne
dyden
borchs
sneen
skiønhed
eskadroner
omringede
dølgsmaal
##qui
##inck
grant
krigskommissair
ulv
oplysende
bevilges
rescripter
giødning
landvæsenskommissair
hypothe
brist
##yette
##yndelse
bortst
##saaes
toldvæsenet
prehn
forhøie
ungefær
semlin
conventet
udsalgs
brolagt
indsluttede
##imellem
erf
høg
kongsvinger
anmelderen
nedbrydelse
##trykt
revolutionaire
theologisk
arnold
utrættelige
##lieutnant
prætorius
##pi
##cerede
##oland
##live
overslaget
rebell
fagotter
bygmester
##anns
hartier
vestlig
##rettelige
stridskræfter
qvægtienden
couverts
kølle
##akken
##isning
indlagte
omgiven
processen
##plan
commissarius
pcent
##magas
corfica
schlesvigske
brillant
wede
##melt
abor
opstaaet
dalbye
fjendtlig
boutique
dessal
tyskland
idelige
tinge
stange
##ieutenant
seyer
lybeck
undre
jordefærd
commandeuren
drukne
skindbuxer
themsen
sehested
utilfredshed
##dugs
##zi
##81
erhalten
##enhoff
##ændelse
tilhænde
##spir
østerbroe
hævne
breder
forsvarlige
imp
sieben
fornyelsen
morderen
forskiællige
gill
satt
##oet
##md
##æer
stammer
stau
##ønske
løgn
senn
##endorff
broug
emmer
kundgjøre
studere
hjemkommen
loftrum
frakke
kanten
##antisk
forson
##artkorn
rasphuset
wose
furst
brasilianske
pynt
##stille
blikkens
gjæs
##spost
kronnings
merket
paske
hjemkomne
lollandske
sætning
laasbye
tredobbelt
andalusien
sing
##urter
macul
lottrup
spaa
jndgangen
christiana
stren
qvæ
giørt
raps
udslettede
pibehoved
anskaffet
bendixen
telegraf
stumper
frelste
bosnien
vundne
##ives
udhuuse
##ulund
skiulte
landfoged
##hrs
knoph
taft
balla
frankriges
mørkt
gierlev
thorla
opfylder
anslaaet
indbefatter
panelet
beskrivelser
slibestene
krieger
svindsot
onsild
provence
jd
jedoch
##morder
formanden
elba
hadel
##farts
majestæters
##anderup
##fyrste
originalen
gottlieb
foreslaaer
svigerfader
diætpenge
##nene
##aare
medskyldige
exper
kirst
kramboe
slemme
zinsen
æst
##stropper
salte
qvindelige
løvenborg
##vangs
slaverie
gregor
darmstadt
ureen
##beds
##worth
byerne
høyde
spd
christoffer
cos
jndkiøb
##akow
touren
276
abrech
benaadede
##tegnelse
solche
hestet
bornholms
kostbarheder
cisalpinske
alternativ
achen
uhl
##lagede
##hms
harre
##vender
ligen
coureren
syening
hørbye
##richten
corender
afsendes
oberstl
pleiede
øjebli
dupli
kourant
##gamle
udrydde
schwartz
paraderede
periodiske
dj
iværende
##stykket
tilsat
median
vider
colbiørn
næstafvigte
hiertes
øieblikke
kroemand
concent
bastholm
bindingsverk
##enheim
storgaden
jagter
kollerup
rac
tostrup
vante
##alde
opl
inc
##icat
veltal
beskrives
enkedron
maanedsskrift
savner
erobringer
larsbjørn
asker
cu
##freder
##repræsent
##endet
lokal
spirer
betj
##trykket
nærsom
stryge
maadehold
##huusen
fløiel
extrag
postcontoirer
ihændehavende
hofsorg
element
geller
mave
uende
##okker
##kelsen
##ielse
##aaf
##skin
capod
241
##slov
fabriken
waren
nerve
barbara
##aptain
jndividuer
beplantet
pølser
spekhøker
ligegyldighed
sage
##ensstemmelse
##ulf
skiult
ditlef
parker
størst
sælskabets
guil
majors
bechs
manufacturer
understøttelses
qværn
##ererne
forfal
forviste
marsken
##læders
schilling
henlægges
østerliisberg
hiemtings
spørges
holstes
alvorligen
forbedringshuset
uheldig
betrokne
hammersborg
fortuna
særegne
selvstændighed
bann
jage
toner
##fug
efterrettelig
hosf
##tou
procl
barnd
hestehandler
legitimer
romaner
lundbye
apop
boghvedegryn
kellermann
recognos
jndivider
gaaden
##fern
##82
##instit
havets
elver
afgange
haud
trommes
flint
troværdige
velop
veldæd
grændsende
meublerede
voxe
skylden
badenske
lægemidler
udlægshaveren
stærvbo
##naadigst
tilbøielighed
telt
##plag
##hob
##ambu
anbringes
##urgt
bekient
spot
##løbende
byetingsdommen
##chiør
##esseret
røgind
lumholtz
anmældelse
repræsen
udvexling
indpa
krat
formeentligen
##neden
stiltien
##hæft
elephant
deputationen
tambour
jnteressentskab
opmuntret
tilat
lac
##kaldede
##heil
##ssal
tilbageblevne
stervboehuset
walla
corresponder
træknings
servierne
eckernførde
hille
pred
##anlæg
forærede
udstræ
giellerup
holmer
forsin
svagt
toldsted
krigsmagt
dronnings
uldstrømper
foustage
parlamentets
frelseres
upaatvivlelig
bevaagenhed
jaget
##elet
lander
##vision
erfarne
valla
nytten
krigsskibe
soya
høitid
ynde
edder
schiern
##skoven
evangelisk
lærdomme
skienke
oldsager
fjel
viede
##fugle
##stige
##tenant
ingens
faldende
postill
pose
bispe
omslags
wolf
##mestads
aqvavit
walt
##fæld
##49
fordet
##lagdes
høyre
##øvler
skarlagens
repræsentativer
afstaaet
reeleste
nannestad
##sogn
afvende
##andser
eftersees
arboe
##serup
##ope
huusmoder
##slage
direct
moderate
##osset
ausnahme
vægring
mortificerede
slukket
hurrar
fødselen
kattrup
jndtægterne
døre
ket
ører
oppen
##gjæld
leith
indenbyes
plur
##sbaand
roms
gientaget
umisk
røverne
bjerre
testamentariske
kudske
forbeholdenhed
ligeoverfor
lorden
##bue
anon
samledes
underhold
skim
project
spæde
poen
neml
trues
##fiorden
executorer
schønheder
støbe
spiseskeer
paaskedag
##consul
rummelhoff
ulem
##smann
adver
justic
hensid
møllergaden
tienestefolk
professorerne
viinæ
flyvende
forudsee
skuespillet
fæstningsværker
fredelig
rothschild
fau
hæg
rak
paatale
indtagne
bock
##etsomhelst
meener
##asten
##etta
calli
udførlige
lieutenanten
knudsdatter
korpser
kaars
magelig
zahr
##lser
##drige
aale
guule
morning
##smaaden
menneskeven
indheg
caus
fregatterne
taarne
prinzen
##ibus
redacteuren
maneuv
saxtorph
fich
##etaten
lob
huuslærer
liebe
strider
udsvæ
##klædning
suppe
anordne
rummet
moderat
jslands
rigsbanks
vægten
erhvervelse
tylt
kjobenhavn
betragtede
##mennesker
bac
crim
jers
tvil
##ucteur
omtaler
vars
seiers
kridt
kari
allgeme
aftener
bergmann
ubetinget
tjente
formeres
vakte
skibstømmermand
##sty
##edagen
chan
reqvis
lovtale
##mesterne
slagterne
jldens
391
lollandsk
istandsat
##freden
frydendahl
odsherred
less
##uere
##rid
##gul
sigter
gjæld
##kron
søeboed
usur
lilli
uberettigede
næstpaafølgende
gus
qviste
##storf
##char
kjeld
##ængelig
bøie
standne
charle
bagerie
sangen
avlsmand
1746
smitsom
underskreven
forsvarsstand
nedsablede
døvstumme
brougham
how
sext
karter
røgen
ufordeel
1756
vacant
cambringe
ansøge
martiniqve
divisionsgeneral
fortræffelig
coffard
adjutanter
nutidens
øresund
##vaghed
##skaal
frasagt
overtru
norder
nept
fællede
fædrenelands
griber
puder
lotteriesedler
folkemængden
kourerer
qvarteers
akt
##blet
##nævn
tilmeldt
erfurt
##isis
anbringe
##chte
koncert
sterboet
colberg
borgeres
jnflam
politievennen
bjergede
bevidnede
korsgaden
keiserindens
surnumer
wadum
rup
##freg
##chnet
##iman
hellevad
qvie
siber
trykning
broderet
secondlieutenants
vexelcours
##magers
prædikede
forfølgelse
stephansen
ryssen
tilskriver
tilbragte
modstaae
##lysende
hartkornet
borring
brigskibet
behørigt
ædelt
epaul
angest
helvetiske
uformodentlig
nørrejylland
æde
##mindre
##ela
enro
efterson
##ugger
schagen
lyster
kard
spaniere
fæstel
sammenkomster
seerup
haslund
syltede
flygtende
karether
munderings
sivertsen
##øves
##ime
##omen
##urker
underjord
manøv
landvær
landsted
jndp
haure
ordrer
gemeen
martha
albanien
gotha
gotfried
bevillig
fisked
udeblevne
bolværk
tvilling
districtschirurg
##ancerne
floer
epil
bladetobak
rostok
feldttoget
grammatica
undersaatterne
eckernforde
juveleer
##dahlen
tilhaande
udrettet
##istre
lahde
##icante
dania
grundvold
strøe
abs
næstved
fæstet
brunnich
fugls
kongerigerne
rørvig
bidrog
bada
pludseligen
uindbunden
omhue
forhøret
frugtbareste
statholderen
##kobber
##aubri
elef
ganz
æsk
##yse
##amtets
derud
salario
forlød
straff
skrivtet
guldbrand
valde
ordrup
einz
billeder
forsvinde
kassens
libhavere
gazette
hub
jeder
##lange
##pol
anto
opkiøb
giæst
eiendomm
hækker
rugsæd
præstens
sirtser
trykpapir
forskellig
mønter
beholdningen
fuldbyrdet
mødre
spiiskammer
iler
jager
jtzehoe
ohl
##ovi
##rykker
##kkets
frastand
aran
##keit
##ønnen
oldingen
##orpser
gudstjenesten
prøvede
graders
ubestemt
pommerantzer
elleve
udbyttet
avantgarden
jntelligentssedler
shaw
##anier
afregning
erd
udstrakt
varenes
proposition
spliid
schen
jndvi
13000
maanen
##skipper
almues
##gryder
##reng
##iteres
claussen
drammens
bærum
naalemager
eqvip
rekruter
framlev
loftsrum
##bri
##igten
##eleg
##arum
udu
klaver
slotte
##forval
bren
christus
hakkelse
deeltager
stougaard
##seilet
veirligt
opsagt
concord
opførelsen
pandts
tilbudne
##bryggers
statspapirer
territorium
uegen
##hlet
##hvede
##wa
##omer
hersom
spundet
lies
##krav
##aint
olmer
godsforvalter
damit
stadig
nationalb
troeværdige
##ellanterne
snaregaden
rullestue
forvandlet
rehden
stigende
north
ufrit
afhandlet
aut
kanne
##dagene
salve
mosel
fyre
ærefuld
forsikringer
litra
wohn
oprørs
alvorligste
affattet
skaansel
vognremisser
fremtidige
##deput
damaskes
##abeth
høne
modstander
selvskyld
navnene
broerne
profes
mahomed
vogt
gunstigt
lænke
æble
##etet
##arten
aarsdagen
skiule
regt
##afgiv
##paaliggende
angav
dict
vaudeville
maculatur
##irens
bild
ærefulde
marscherer
udbetaler
hospitalerne
##lebne
potatos
1747
afslog
kontrib
væsentligste
føn
sent
##57
forskrift
frod
udbre
arrag
franes
carlist
mangelen
kolderup
tronhiemske
bache
explos
krølhaar
doc
fyld
##sang
##elien
tilnavn
##idste
saat
opløse
klaveer
værks
blanke
trudsel
greverne
thorning
dybwad
pantet
henvendte
cornet
umiddelbare
navarino
calabrien
abe
iis
##altet
##ammede
kiørte
kiøbm
marqu
##middagen
bekjen
førstekonsul
befæstede
guit
majoritet
##folket
sagernes
elisabet
schønberg
besværligheder
##sprotoc
gjordes
forauctioneret
forræderie
spadsere
medfølger
underholdt
arentz
haste
liisberg
15ten
skride
brodering
viined
brygmann
##skyldig
møens
lysestager
frederiksværn
sjællandske
tilendebragte
omendskiøndt
mælder
forkaste
stener
starup
fral
beklagede
mandahl
tabde
benzen
bevillinger
leverancer
tobaksblade
praktisk
eendeel
vord
##2de
becher
samtid
##tres
schin
lygte
sækker
lænd
fortæret
lindring
##affen
lethed
brigantin
galde
diesem
titul
##foder
curasseer
overdaad
afstaaelse
corvette
skaffet
hessiske
##olongi
esb
lets
indsig
aargangen
marchen
park
sønnichsen
kayserl
phill
fodres
lysestøber
repareres
kuur
##ographie
usædvanlige
uddele
eriksen
protocollirten
benefice
cette
afbild
##ogner
##urd
chen
adskilt
forskrevet
opfundne
gyldighed
kopenhagen
hensigtsmæssig
establissement
jndstevntes
flyttedag
dreve
##gor
staar
##lide
skalle
musk
formeget
rive
citronsaft
berlings
333
##raadt
americanerne
mæskekar
tilski
##chers
##egods
##roende
hosliggende
seit
haupt
geis
foster
schwaben
allerhøy
skolelærere
sadler
fuldbyrdelse
sekretær
ufeilbar
##ommere
samm
opstaaende
landmaa
reguler
##icerede
rettede
trod
normand
##øvelser
kbd
erichsens
ostindie
brøndlund
landstinget
skyet
gibset
hængende
hendrichsen
eschild
hade
nal
nas
ydende
zwar
##vs
##igræs
hvorlunde
##tring
##astiske
ingenieur
##moser
morillo
arvestat
forhø
anvender
nanqv
amundsen
mercurius
undskyldning
##gri
forend
##skinds
havren
reens
stervboegaard
velme
træef
carn
karlen
siun
fabriqven
sedlen
kommandere
cantoner
reyser
formindsket
anerkjendt
##trængende
bondens
oversættelser
##bønder
elen
beka
##tsche
bestilte
modsigelse
unddrage
hofjægermester
hovedgaarde
gamme
keine
afgives
romanz
tarrag
nødvendigste
trængsel
nummed
##brændt
krambord
krydset
erkehertuginde
syngestykke
herzog
udødelige
theoretiske
naale
##just
##ates
udclarerede
##beens
haande
smuget
befry
rude
magistrats
femmern
konstitueret
sparre
wenneberg
innerhald
almuens
waldemar
curi
daaben
hasser
pundeviis
##igende
støvet
friet
##eligst
##runden
overladte
opsættes
1750
lakk
leyen
behielp
schestedt
børre
huuslig
halt
##schow
tønnes
leiligheden
pundige
vurderingsforretningerne
olufs
bombardementet
fiirkantet
keglebane
jed
reds
afsen
skare
##varbe
liigt
skadeat
jsma
castellet
adjunkt
tilbageleveret
indbefattede
seminariet
stephensen
paastevnte
##tois
kommande
##somstænd
statue
prim
##karle
forfatters
begrave
krop
danielsen
archite
tvistigheder
renset
kollegiet
væbnet
eber
tanger
##uste
##chten
##ulet
klude
bryssel
forsøm
trent
undkom
krigsb
lærre
alleneste
foeres
asminder
flyder
færøe
angrebe
eleverne
##adresse
falkenberg
herregaarden
bladene
esch
java
tvers
afk
##steren
##tobak
##esset
roskilde
eenlige
eiermanden
375
indsadt
søsters
secretairen
kurv
schrø
navig
ungern
ungerske
abildgaard
recommendationer
##jacob
ever
lunden
wendt
##lus
begt
skon
opholdet
bortføre
henstaae
træffer
hædret
##sdorf
mændene
laugets
ugedage
fjerdinger
prænumeration
##reborg
raadslaae
##aabte
wild
sammenskudt
skibsbygmester
##toge
##læng
passerer
wohl
ræve
toulouse
##begi
udvikle
promte
navarra
juntaen
disciplin
hardanger
1sten
forrettede
sker
skou
##ula
skiven
bestor
amtmænd
linder
kundgjørelse
poulsdatter
høystsamme
pantefor
strafe
expeditioner
kramvare
##høit
organiseret
ondar
windinge
udtør
generalkrigskommissair
tilbagereise
fehmern
verhaftet
masch
kierne
##deller
##indretning
noth
sloge
consol
##ppers
allerbeste
hevn
nærvær
feede
sognedage
tørrede
deromkring
bulgar
stoler
stolter
laage
forderligst
dimensioner
alphabetisk
schielschiør
##ucht
##indelsen
##legaard
stim
paadraget
oplagte
maske
##ract
orn
smakke
læk
kammerjun
273
ladede
vera
nordlands
bifalde
biørnsen
bemk
elskværdige
bortforpagtningen
oprørere
forklarer
haardnakken
didrichsen
saragossa
##jest
stødende
kongerne
amber
lieben
sørger
##hopper
skude
blokeret
tydeligen
staats
udtrykkeligen
landsoverretsprocurator
fideicomm
thorlacius
diner
jkkun
##gyden
##vens
forto
tilm
##ledet
skete
hovind
opdraget
##boeskab
forsat
dragne
norup
maglebye
fieder
sedlerne
sædvanligen
spedel
oxen
jesus
avlsbrug
brændeviinsbrænd
ponte
lutherske
##gartner
##freund
vaarsæd
bertrand
##nets
skl
##sefter
##unct
##odborg
opbringe
##vente
##emag
##imed
modum
269
nordhordlehn
mishandlet
graf
##stokken
##stude
gavnligt
cram
jnsurgenternes
##skription
indviklet
gede
naaer
##ilende
##ary
##reuth
deum
##iders
reene
jndholden
##airerne
##synligt
ladehuus
skibsbygger
mussen
berammes
voxet
frederiksstad
eskadren
seyls
columbiske
frontespids
kør
laval
##iog
##vorde
fordelen
##iansk
##idede
pløen
##skiærer
283
kammerad
wex
landeværn
fabriqu
corpses
sortementerne
warn
indsætte
origine
jægerkorps
kommanderer
##bestemte
giensidige
direktoriet
##kudsk
##kiørsels
existerer
program
##bænk
##osen
##renter
##casserer
##jorden
frau
kiæm
regering
præg
##ecterne
##illy
rigers
belg
bergenhusiske
##konst
##vilkaar
sortebruun
middagsmaal
tappert
burgos
riego
utrættelig
realisations
##gnet
bemer
ara
liqu
melt
lovud
##heatret
##sson
oldes
opbudne
gesche
premierne
tilstilles
stueuhre
lorentz
schweizer
mechlen
bebudede
ankertouge
ochlensch
pampel
ænd
ærer
##øbs
##boegaard
##ainer
comptoiret
##moe
søndresogn
##øyen
adkomstdocumenterne
amalien
fyrreplanker
manufaktur
lutzhøft
eig
##øegaard
##pf
##irte
amende
##econ
selvmord
allgaden
pengemangel
univer
4500
wurden
fæstningsarbeide
omtvi
##bestigelse
udlovede
sette
vrede
zuge
##jet
##dents
algi
##kkell
##aborg
haveplads
klages
sekond
velhavende
##valg
undsætning
undslet
træskoe
obrist
faur
virkningen
foreskrive
fædrene
piil
bestyrtelse
constitutionel
##bedre
kakkelovner
overvinde
kæmpe
drax
generalstaben
æt
forlede
bew
anførste
opholdte
advent
schy
huusmanden
kriser
bygger
pode
##shire
artium
langtfra
foregaae
##duger
academiets
estvad
jntrig
benævnelse
seqvestr
pac
##mødre
##andsede
##unøe
seyld
##rængte
##elds
##resch
##ognito
##væver
væder
stuart
teglhængte
attesteret
hillerslev
usædvanligt
regelmæssig
ravnd
ou
pæle
æv
##flø
afskaffe
##atien
hanau
##ruer
stores
mandlige
haur
modon
sysler
##contra
prindsesserne
horne
svendsens
banen
fortrol
medborger
højst
brylle
upasselighed
desertion
vivat
nassau
gallicien
jeppesen
##erings
oglu
##elder
kiol
##vedt
brøder
lykker
##kiet
##akel
policer
herredsret
##owski
preetz
opfunden
usikker
##halle
gleiss
befries
bortrømte
deposito
##seller
expeder
tofter
vincent
##konf
digtere
færsk
peel
inderste
avlsgaarden
forstandere
fængslerne
udbryde
lombard
smedes
priviligerede
kav
forterne
##rækning
snit
milo
nørrebroe
##istrias
uforstyr
##stoft
huller
skilderiet
ledsagedes
opmuntrede
##professionen
efte
ubr
wendel
##ique
deuts
formal
krigsh
midte
beviislige
sandheds
foreninger
rase
jtaliensk
import
berlinske
naup
fløite
spærret
recruter
connosse
kiøkkentøy
##passe
skandse
spen
straffede
helligt
avisens
eiler
##enheit
kelling
ral
##lel
##gad
afhandler
##onville
##trøie
offens
barret
kehl
fortærede
korthed
krap
urolighed
nedentegnede
##obligation
geheimeraadinde
aarhundreder
hyppig
nicoline
beredvillighed
zacharias
cultur
blikkenslager
##edæ
udk
hoste
lahn
langsomt
debit
mishandlede
ophævelsen
organisere
reyste
indestaaes
biest
lend
pyn
##uis
forhandle
konens
##ielker
contoirerne
talet
deponeret
høitids
saur
fodfolk
laaget
opnaaelse
beleiringen
befrygtede
nøiagtige
sehestedt
frifunden
fischers
##3die
##verks
fritz
frosten
spøg
allernaadige
godtgiøres
skjulte
omkostningernes
trefarvede
forhøiede
flora
dunkirchen
jerus
##journ
studie
svække
drak
forskaffet
ungarske
taschen
dow
##eders
##elast
vedtagne
##ristian
ligning
liggen
##rivende
gegeben
septem
nedskudt
##ventarium
##asseret
wilh
vækker
troppecorps
##strax
føje
kroen
portugiserne
udrustninger
lucie
aflevering
##ersing
##aadan
cohn
##upert
formul
kommercel
fortrinligt
bisped
wirth
samleren
palladset
ømmeste
unyttig
erkebispen
schandorff
##kantsleren
##sand
foromm
##alige
##ative
herunder
marc
reval
laster
bortkom
##stemme
brut
sædel
krigførende
theeskeer
##bark
damas
##hoste
hertuginde
rygge
mislig
miils
fogder
udførtes
biefald
arvefæstegaard
whit
skjænkede
hurraraab
##sam
##esiske
perserne
avlen
factor
317
deponerede
obligations
doppel
forøvet
papiret
tops
husarregiment
sjeldent
akademiet
hvalfiske
##aste
##æpper
##itation
arki
rektor
##danmark
personale
admiralitet
##lændere
breden
herredsfogedcontoiret
voll
forefundet
biskopperne
forlænget
fingre
underkastelse
magdeburg
maaltidet
##kugle
##idelser
##liess
trøier
berettede
lettet
afgiften
indbudet
fordomme
##aillen
tilstædes
frygten
mortification
forligelsescommissair
hermansen
pantecreditorerne
uopholdeligen
macdonald
##lehnske
paagreben
oves
##uens
##hører
undergivne
præsteen
##hauger
exsec
fornøiede
hørgarn
benæ
bevillings
umagen
majoren
glædede
klippet
royalisterne
lensmand
gon
kig
næt
timmer
antegnede
udstyr
##bergen
smor
##sper
taftes
thorseng
ugentlige
mæssing
nødsages
monsr
verfugung
emploi
vocandi
navnkundige
urbansgade
eben
wæ
##fanger
##hon
klumpe
17000
landsk
gjældende
bondes
regnegade
oxhoveder
tilkjendes
versch
behøvedes
stævnet
coffee
hylde
sværge
##aniens
##eladen
forbydende
##ensig
##becker
thøger
regts
##lemaade
postgaard
lysthaverne
gammelstrand
diction
biergeløn
forsvarere
pyram
##igna
udstrakte
indfaldes
ombragt
inge
hvilende
falmouth
syges
mangehaande
belønnede
toms
qvæget
taarup
bevidnet
lavt
forventer
bourmont
hidrører
irlandske
kandestøber
harmonie
reimers
potsdam
akkorderes
oiesyn
##onich
ommelte
##kommanderende
schac
tilhest
plessen
stædets
forhindrede
prioriterede
##skjør
michelsens
frikiendt
violon
beskjeft
katechet
ihn
##oust
##fad
##qvin
##stuer
aftaget
##iener
##bou
træt
##danten
401
sandberg
##idset
480
lærerige
velsmagende
tilveiebringes
johannsen
svækket
aspach
musikken
##cancel
cortsen
udskibning
willestrup
##hvilket
fladt
hie
nort
uom
##stavn
høig
schie
lydelig
goddæd
formaalet
krigsc
barder
magtpaaliggende
testator
ferske
amsterd
condit
regentinden
fornemmeligen
opmuntringer
lastet
frideriks
laursdatter
biørne
advocaten
uovervinde
behersker
aph
sæng
##kle
##steins
##ulassen
siddet
##kalder
dagbog
##auctionen
høyere
bagers
kjøbenhavnsk
guldbrands
lundt
heftigste
skyldes
jubil
qvalt
udfærdiges
flandern
font
##sag
medvirke
omvendt
skiø
maals
advarer
##yrkiske
undgaaet
skibsc
endeligt
nødde
anslaaer
lagner
uddeelingen
ønskelig
observations
schiellerup
##lob
##igtet
paasat
anarch
udarvinger
##bevæg
mack
præfe
modet
beskyldt
hæster
##smør
palm
nytaarsdag
texten
cicer
distrikts
##kilder
##vine
##sindede
##viske
##kjold
beretningerne
dagene
execut
avertisse
opbyggede
philipsen
##mindste
forkastede
paasche
lose
fremkaldt
##skriftet
grey
mørket
ørne
reparere
lidte
justiceraad
##bid
anmod
udløber
broget
thr
##deeles
lovstridige
keyser
tilbagekomne
poh
eieres
hensat
tørfisk
afgiør
musqueteer
munterhed
vædde
lill
taf
vedf
##derende
følt
amiens
conditionersom
aalborgs
hellen
grundene
nedlægges
mittel
mølleren
opbierget
nørlund
agerjord
luer
activ
forordningens
strikke
concerten
catechismus
hasselbal
##skade
bekiendtgiørt
capellanie
vandets
theehandler
farveriet
ministres
heibergs
tilsynsmand
##ussiske
schmith
variationer
valeur
lds
tilki
##andagen
indlysende
briller
bagva
##slot
jordbund
haasum
##quier
##partiet
fangede
beklæde
distance
ubehageligheder
ubegrib
##jagt
fordel
reichs
nyekiøbings
velbemelte
halse
tors
bøe
bankr
skiftesamlingen
sædelighed
tverbygning
skjeppen
indviklede
pung
wahr
##aftes
afkom
arie
heilig
antændt
antændte
tourn
##værksted
kofod
jacobine
##orpset
confession
serge
tolke
##peditionen
mesolongi
sebastiani
opofre
ferrol
lpds
jassy
eeds
##plade
forgaarden
deien
beed
kløvet
storhed
allerbedste
henkalde
sallighed
orme
ærke
kamrenes
##utores
anlægget
[...]
