#version: 0.2
d e
e r
e n
o r
a n
Ġ s
Ġ de
Ġ o
Ġ a
i n
s t
Ã ¸
e t
i g
a a
Ġ S
i l
e l
Ġ f
e d
Ġ h
Ġo g
Ã ¦
Ġ i
Ġ t
a r
e s
Ġ A
Ġ b
Ġ m
Ġ H
o m
a g
Ġ F
Ġ B
Ġ v
o n
t e
Ġt il
Ġ M
Ġ 1
de r
Ġf or
Ġ K
in g
Ġde n
a l
Ġa f
r e
t er
de n
Ġa t
Ġ D
n e
s k
Ġ P
l e
Ġ T
Ġ R
Ġ en
an d
l ig
Ġ L
Ġ p
Ġ J
en de
v er
u n
Ġ C
a m
Ġ er
Ġ G
t i
Ġ E
Ã¸ r
o l
Ġ 2
s e
a v
Ġp aa
Ġ V
st e
Ġb e
Ġs om
r i
Ġ n
Ġm ed
r a
Ġ N
o g
i s
l er
Ġde r
Ġ O
Ġ d
Ã¦ r
i d
f ter
n ing
s en
a t
Ġ u
in d
g e
Ġde t
om m
k k
ĠF or
Ġv ed
ĠS t
l i
Ġ k
Ġ g
ti on
i t
sk e
ĠS k
e g
c h
aa r
d t
Ġh v
Ġ 3
i e
u s
v e
Ġ e
r o
Ġa l
r Ã¦
i r
Ġ an
de s
m e
el ig
Ġ U
i en
Ġs k
b er
Ġ l
Ġs aa
Ġs am
d s
r et
Ġ ind
Ã¸ b
Ġs ig
Ġs t
Ġh av
en s
Ġo m
Ġf ra
de t
r u
u r
or t
an g
Ġ un
Ġh ar
lig e
u l
Ġu d
en t
Ġh er
Ġe fter
ĠA u
o s
0 0
Ġ1 8
st er
d ag
Ġ -
k omm
Ġ et
m el
er e
Ã¸ l
kk e
Ġh an
l a
o d
or g
Ġ 4
de l
h ol
ĠM a
g i
c tion
b e
n d
ĠK i
ĠD e
er ne
n der
ag e
o v
Ġun der
el ler
a b
ĠK on
Ġb li
f f
ĠA ar
a s
d r
Ġhv or
t en
Ġo ver
ĠAu ction
ĠSk i
h ed
g er
ig e
ĠE n
el se
Ġhav e
Ġ eller
r ed
i er
Ġ 5
Ġv il
k e
Ġf Ã¸r
el s
av n
Ġo p
t et
Ġh os
b org
m er
Ġer e
ĠA r
ĠA n
e st
v i
d te
ĠG aar
ĠK l
Ġder es
h e
Ġi kke
ĠE fter
Ġ 6
Ã¸ n
g t
v ed
Ġn og
l ing
Ġv ar
u us
Ġ W
aa e
aa d
ĠH r
l and
Ġsam t
f or
ĠB e
Ã¦ l
b r
dag en
u m
t o
ĠA l
komm ende
ĠC h
ĠKon g
t s
ĠKi Ã¸b
y e
ĠM ar
Ġk an
le v
m id
. ,
Ġ1 7
Ã¦ re
ĠP ro
Ġ Ã
ĠH an
a d
ag t
y n
Ġ in
ĠN o
Ġsam me
a p
b o
ĠC on
Ġ1 0
en h
i st
Ġden ne
r an
Ġ .
t te
un d
en e
ĠH er
Ġbli ver
l Ã¦
d i
Ġsk al
r y
Ġd a
Ġal le
l et
Ġ1 2
g ende
ri st
Ġen d
e m
Ã¸ de
r ig
Ġ 8
Ġm an
Ã¸ d
p r
er s
f t
es k
s i
an t
enh avn
u st
v Ã¦r
ĠT il
a de
e de
p p
ĠR d
ĠB y
Ġg i
ĠD en
u g
Ġbe k
elig e
Ġs in
Ã¦ n
Ġm en
or d
k al
ĠA f
Ã¸ re
et s
v en
ĠCh rist
ag en
ret ning
Ġb lev
ĠB o
Ġ 7
ag er
Ġm aa
Ġ j
n es
Ġv Ã¦re
ing er
Ġher ved
Ġk un
o t
ĠR b
el e
ĠÃ ĺ
a tion
ar t
g aar
in de
Ġhan s
a den
ĠS e
ĠL and
i den
re m
m and
ien dt
Ġ 9
s el
Ġhv il
u d
i c
Ġb ort
Ġ lig
u t
ĠRb d
Ġv i
Ġal ler
ĠM k
st kommende
Ġn u
le m
h uus
i el
ĠT id
l ag
s er
g en
t il
Ġ1 1
ĠM and
Ã¸ i
sk ab
Ġde m
y r
ĠU nder
ĠO p
v ar
y l
Ġs id
Ġ c
k et
v is
Ã¦ t
f te
Ġb et
ĠS ch
g j
Ġbe h
ĠO ver
k en
g ang
ĠS p
Ġ r
i an
ĠKiÃ¸b enhavn
ĠR e
i m
Ġm ig
ĠH o
aa ende
f al
k er
kk er
j en
o st
ĠU d
Ã¦ v
Ġud i
Ġhav de
or n
Ġind kal
Ġu den
l r
it o
ĠMa j
or e
Ġdet te
ĠJ n
ĠD ag
ag et
ĠGaar den
ĠA m
re v
at ter
is se
ĠR eg
in e
de el
e der
Ġo ff
a u
v il
o b
m ed
b y
ĠS og
en er
ning er
ĠJ u
ĠV ar
ĠG r
ĠJ nd
ĠFor mid
Ġbli ve
Ġh am
ĠPro c
Ġmaa tte
g el
Ã¦ st
ing s
Ġ18 1
ĠS te
Ġbe st
i ch
t or
Ġoff ent
Ġj eg
mel dte
ĠL e
Ġ18 2
ĠB er
an ske
Ġbek iendt
ĠP ar
ed s
ĠH ol
l y
ĠfÃ¸r stkommende
s dagen
Ġh ol
m od
u b
Ã¸ m
h ver
sen s
e c
ĠB r
to ir
Ã¸r ende
ul d
i de
ĠS ter
Ġin den
g es
ber g
ne m
vi is
aa de
n u
Ġ (
ste m
j Ã¸b
Ġsk ul
Ã¸l ge
der e
aa er
ĠE t
am mer
ĠGaar d
Ġm el
00 0
ne de
an den
gaar d
ĠChrist ian
eg et
Ġ1 4
Ã¸ e
te g
ener al
Ġ1 5
k i
ing en
o de
ĠfÃ¸r ste
ĠT dr
s aa
a f
ĠRd lr
ĠV ed
f Ã¸r
o p
den de
un i
ĠEfter retning
ĠA pr
a st
der s
Ġ1 6
ĠApr il
Ġ2 0
n er
h a
ar i
del se
Ġv Ã¦r
ĠO c
di tion
k r
ĠG eneral
ig hed
ig t
ĠO m
ĠH uus
Ġd isse
Ġbort s
v bo
ĠL i
al e
Ġ I
Ã¦ g
Ã¸ v
ol d
v al
ĠSter vbo
h and
ĠJ uni
t r
Ġf aa
ĠT h
ĠSki fte
ĠV i
ĠP rÃ¦
ri v
Ġ re
ĠF ran
lig t
Ġsid ste
rÃ¦ n
ĠAu g
Ġh ver
e b
Ġnog et
Ġ1 3
m ber
d re
ĠJu li
k om
Ġvil le
n et
al t
Ġ and
ĠF re
Ġv or
Ġbe g
ĠF ag
o dt
ĠR et
ĠL y
st Ã¦
ĠB og
a h
i k
h en
Ġoffent lig
Ġg j
Ġf rem
ĠS ti
Ġnog le
omm is
i ske
d ie
Ġtil h
Ġd ito
ĠJ an
Ġend nu
Ġn y
Ġm eget
ĠDe c
Ã¸r es
r ige
Ġf Ã¸l
Ġs el
ĠHan s
r on
Ã¦v n
ĠM en
ĠSe p
Ġ18 0
o u
he der
ĠD et
u den
v et
o h
Ġnog en
e ste
an ge
o ds
a c
le des
b et
t es
m en
an n
ĠAug ust
Ġ Q
ĠSt a
pp er
u e
ĠVar sel
Ġtil lige
ĠP ri
ĠV Ã¦r
ru p
Ġ2 4
ning en
ĠH Ã¸
Ġan den
Ġn Ã¦r
Ġs e
ĠK ir
ĠS Ã¸l
v ig
els er
ĠV e
Ġand re
ĠKong elige
on er
l es
ĠP r
an de
lÃ¦ g
ĠA d
ien d
ĠC ap
Ġan mel
om p
Ġl ov
ĠSÃ¸l v
ĠHo f
ĠAr v
Ġsaa v
s yn
D en
ĠF l
ĠH s
an c
s p
Ġn ye
omm e
i re
Ġbe meldte
m ere
Ġal t
ĠCon dition
is er
il le
ĠBy g
i a
ĠU ger
ĠA al
Ġ3 0
Ã¸ g
ĠD age
s s
ĠM an
ĠG ang
Ã ¶
si on
ende s
it or
ig st
t ag
Ġtilh Ã¸rende
l am
ĠOc to
Ġsel v
i et
m Ã¦
d Ã¸de
Ġ ig
Ġ2 2
Ġ :
Ġ17 9
u p
Ġm in
ĠE x
ĠF ri
ĠP aa
Ġd og
ĠMaj est
ĠDe el
ov ed
en ge
val ter
d an
Ġi mod
Ġaller n
Ġaf g
u ra
Ġn aar
Ġ le
r av
re de
ĠE iend
m ar
ĠO r
ĠD an
p aa
en sen
in den
elig gende
de lig
Ġog saa
es s
me ster
ler e
Ġ2 5
ĠSog n
ol gt
ĠAal borg
ru e
at te
omm er
ĠMa an
a ir
Ġvil de
Ġindkal des
ĠB Ã¸r
Ġen hver
mel lem
j er
Ġb eliggende
i sk
a der
Ġallern aad
d ig
ĠHer red
Ġm od
s ch
l an
Ġanmel de
Ġv el
m u
v ende
hol des
ĠM Ã¸l
a k
ĠOcto ber
ĠSt ed
r ing
Ġfor n
Ġbekiendt gi
a an
ĠH oved
as s
ĠJ oh
Ġtil b
teg nede
ĠfÃ¸l gende
Ġst ore
Ġ2 6
h er
ĠS am
f ar
ĠP eder
Ġst ra
Ã¦n g
ĠFormid dagen
komm e
ĠMa i
l en
ĠM e
ĠEfter mid
Ġi mellem
Ġ2 1
st ed
Ġb er
ĠFor dr
Ġhv ad
ĠP et
d sk
ĠJan u
ĠÃ Ĩ
ĠMa d
ere de
ĠB eg
Ġ2 3
st en
Ġhvil ket
Ġ1 9
g ade
Ġkun de
Ġvar e
ĠAm t
Ã¦vn te
Ġh Ã¸
er n
s om
hol d
ĠvÃ¦r et
Ġst or
Ġb es
Ã ¼
ĠM ed
ĠH en
r aad
Ġs it
aa et
Ã¦r k
ĠB et
ura tor
kk en
Ġen deel
ĠR aad
Ġvi dere
ĠD Ã¸
Ġsaa ledes
Ġh en
Ã¸ nder
Ġ2 8
o c
sk i
Ġf aae
ter ne
ĠN or
ĠK rig
Ġs iden
ele des
Ġhv is
Ġm e
f tet
Ġsk e
ĠK jÃ¸b
ĠSta ds
ĠS al
Ġun d
g te
aa b
Ġfaa es
Ġaf gang
Ġ &
it a
sk a
ĠL ie
ir k
es se
Ġstra x
ĠT ro
us et
Ġlig es
ĠLand s
te ur
Ġaf dÃ¸de
al d
ĠS Ã¸n
ĠD om
Ġskul le
ĠBo e
ĠH art
Ġn Ã¦
ĠL ov
l o
ĠR o
Ġfor et
Ġg ode
Ġg od
den se
Ġp r
ĠD r
t al
hand ling
ĠSki b
den s
ĠC red
t t
ĠS el
ĠFre der
Ġb o
Ġf lere
ĠP la
i ster
o ver
ĠH a
ĠB es
ĠF eb
jen dt
Ġfor m
on toir
or te
del es
ĠH av
Ġf ran
ĠFeb ru
F or
h av
ĠArv inger
k orn
ĠProc lam
Ġkun ne
ĠT i
st and
l ut
vÃ¦r k
ĠE r
ĠAuction s
ĠN i
Ġ2 7
vÃ¦r ende
ĠT or
ĠFormid dag
ĠB ye
Ġc on
ĠEn gel
ĠS lag
a ch
Ġ ingen
Ġ li
Ġ1 00
kk et
c e
i es
ĠK ammer
ĠL Ã¸
al v
Ã¦ d
ommis sion
ĠSt aden
an det
Ġde s
Ġbe stem
Ġborts olgt
g et
ĠF Ã¸lge
E n
ĠVed kommende
il lige
Ġg am
komm en
omm en
la de
Ġtilb age
ĠN y
en te
ĠHart korn
ĠO dense
and t
er et
e iser
Ġfor hen
hol de
al er
ĠHan del
l ed
ĠB ar
ĠS let
Ġblev en
ĠG e
l Ã¸b
Ã¦l ges
ĠP ost
ĠUger s
ĠMar ts
un der
ĠBy en
i se
en ter
Ġbekiendtgi Ã¸res
ĠSep te
Ġafgang ne
ĠLy st
ĠN r
gi v
ĠDec em
Ġskul de
i ti
sk ri
ag es
ĠC ar
ĠFor s
o le
ĠEn g
ĠEn ke
aa l
ind s
or de
li e
Ġfor dre
Ġm Ã¸de
t ug
id t
ti i
h r
ĠSt at
y g
ĠV en
hol m
ĠD er
Ã¦ s
ry k
ĠF red
c k
ĠNo ve
ĠJ ens
Ġ2 9
ĠR ig
ra f
t ig
Ġo s
ĠDag s
ĠFordr inger
viis lig
Ġmel de
elig t
or p
r es
Ġ "
ĠM id
f og
ĠJoh an
ĠProclam a
ĠSepte mber
y d
der ne
Ġhvil ken
Ġman ge
Ġfor e
Ã¸ er
itor er
ĠS ide
o ur
ret te
Ġe i
ĠDecem ber
ĠAl t
i on
Ġf ri
Ġen ten
el sen
ĠKong en
f ra
d atter
t br
ĠLi v
Ġbest aaende
Ġbe viislig
de de
Ġm aae
yl d
ĠK eiser
ĠT rÃ¦
ĠJ ern
eg ne
Ġin de
ĠSt or
ĠM in
ĠF ol
ĠSog ne
b ye
g aden
Ġv on
ĠÃĺ ster
Ġh ele
Ġb l
hol dt
ret tet
ĠNove mber
Ġbe f
ĠQ v
Ġsin e
ĠB org
ĠNi els
Ġallernaad igst
Ġb Ã¸r
hol der
Ã¸r re
ita in
ĠEfter syn
Ġm ind
Ġsaav el
st rÃ¦
Ġb ed
t ry
ĠJuni i
Ġfran ske
ĠJ ust
m inde
un det
ĠM il
anc el
. )
m ann
ĠSk pr
Ġhvor i
ĠE l
ĠSti ft
k l
Ġaller ede
ĠA nder
Ġfor inden
Ġ nem
Ġsaa dan
ĠP ers
u ur
Ġk al
bo e
Ġb esk
s b
l Ã¸
en d
l ang
ĠS Ã¸r
p rÃ¦
Ġfor rige
ĠAar huus
la s
Ġfor s
ĠAl b
Ġs p
ĠPet er
ĠO l
or den
el d
Ġhvil ke
ĠM ag
ĠS Ã¸
ĠP ort
c t
Ġl ade
land t
ĠL in
Ġ Ã¸v
ĠKong el
Ġsid st
t ra
Ġ17 8
u ten
og n
V ed
a ver
ĠK an
Ġan det
ro e
ska ber
ĠAuction en
h i
on d
ĠProc urator
ĠGr und
ĠJuli i
Ġlig eledes
al l
ĠBe k
s raad
st rup
vis er
am il
Ġnem lig
Ġaf holdes
Ġ18 3
s m
ĠCondition erne
Ġig ien
in der
y de
Ġbo ende
lig hed
Ġbeg ge
ĠC ol
a ff
ĠPro v
ĠAar s
E fter
an der
Ġh e
Ġen gel
u tion
tr ent
t rÃ¦
ĠBÃ¸r n
la dt
. .
Ġm it
ĠCon toir
Ġlov lig
ĠH e
and s
Ġan g
ri ch
t age
Ġfor b
ĠHan sen
ĠS or
k lÃ¦
ve de
rev ne
ĠS i
he den
ĠF amil
Ġbeh age
ĠJanu ar
Ġh Ã¸i
ĠG rÃ¦
ĠC omp
Ġd anske
ĠKiÃ¸b mand
ven d
ag n
in des
ur g
sk er
Ġa dsk
ĠK ar
Ġbeh ag
ĠAr me
Ġ Ã¸n
us si
Ġfor me
ĠHer tug
ĠL ar
Ġm odt
. ;
Ġ3 1
vi se
Ġbek jendt
rÃ¦n de
ĠSki be
ed ler
ĠG ods
n sdagen
ĠEftermid dagen
Ġl ang
il let
f Ã¸lge
l agt
ĠU n
try kker
ĠK orn
v Ã¦
Ġom trent
ari i
Ġ5 0
Ġa ar
ĠE m
ĠF r
u ds
ĠKir ke
f Ã¦r
ĠF Ã¦
ah l
ĠMajest Ã¦t
a ter
Ġl y
un den
ing e
ĠE ier
Ġh endes
am p
y nd
ĠJ ac
Ġden s
Ġm u
Ġbekiendt gj
ĠMÃ¸l ler
gt ig
ir sdagen
ĠN at
ĠDÃ¸ den
ĠD at
aar d
ste det
ĠKi Ã¸
ĠSt y
ĠT iden
st ue
Ġs al
mar k
ĠFebru ar
ĠN avn
ĠH v
s h
ĠKl o
Ġe en
ĠStervbo e
mel se
ste en
ĠS ag
al ing
ĠF ru
ĠP d
ĠM aade
ĠD a
an ter
Ġb le
gi Ã¸re
fog ed
Ġbe fal
ag te
ĠB ind
dr esse
ig ste
on a
ru m
Ã¸r ste
ĠSt r
Ġder til
ĠD ito
am ling
Ġtillige med
Ġind f
ver et
ĠS m
r er
ĠR as
Ġfor valter
ĠR es
es sen
p ar
ĠC ancel
ĠB ro
i Ã¸r
vil ling
Ġg r
ĠnÃ¦r mere
ĠStads ret
ĠAr be
Ġm ere
ig heder
b ha
land ske
o k
Ġder for
Ġp rÃ¦
Ġfor sk
v ent
ĠMaan ed
Ġ ne
ĠPrÃ¦ ste
ĠK n
ĠJac ob
Ġn ed
Ã¸ des
m us
Ġgi ve
Ġl a
ĠA t
Ġb r
it et
ĠSel skab
Ġk om
land s
Ġb ru
Ġunder tegnede
ti d
el t
a ti
il l
ĠTro pper
Ġg odt
ĠF d
ĠLov en
Ġan se
del st
Ġde ri
ĠC omm
by g
im ent
b li
Ġhol des
mel te
ĠBog trykker
un de
Ġl Ã¦st
il d
ĠL a
le de
ver e
ĠF e
orp s
ĠJ Ã¸r
eg en
Ġbet ale
ĠA nd
Ġhvor af
ĠDat o
ĠKiÃ¸benhavn s
ĠL andet
Ġt age
Ġb il
fal d
at en
Ġliges om
ĠN iel
ĠDe b
k t
uten ant
ĠM uur
ĠH ust
Ġs en
ĠB ru
ĠK ob
Ġer far
ĠD atter
hav ende
Ġind til
ĠT he
ĠLie bha
ub li
ĠSk ov
st eds
au ge
Ġtil k
ĠK rav
ĠC at
Ġh un
ĠL ig
Ġadsk illige
kom ne
u se
ĠG rev
m es
re ve
ĠHerred s
ĠA c
ĠH Ã¸i
ĠN ov
ĠP ol
Ġble ve
ĠG ange
ĠÃ¸v rige
Ġn Ã¦st
ĠB ud
ĠVi borg
ĠO ber
ĠB ag
Ġh id
ĠV or
v an
b ar
il ling
q ve
Ġ w
vis es
ĠB Ã¸
Ġ lige
ĠSk ri
ĠB ort
ie m
ning s
ĠH este
ĠSt kr
in er
ommis s
Ġ =
ĠB l
stÃ¦ nd
ter e
ĠBe villing
ĠO b
ĠS aa
m mer
ĠBr and
v n
ĠFd kr
led ning
Ġmind re
Ġt aget
y nder
et te
ĠR ug
p h
Ġ z
ĠKob ber
p er
ĠT y
Ġ17 7
ĠR i
Ġde els
ĠA ger
d Ã¸des
klÃ¦ der
c el
Ġhvor ved
ĠB on
k ost
ki Ã¸b
ĠT ien
m elig
ĠfÃ¸r st
Ġf uld
ĠP o
ĠFreder ik
as se
Ġder om
Ġu ds
e fter
t z
ĠKjÃ¸b enhavn
ĠSk riv
Ġs m
Ġ ge
Ġind rettet
ch e
ĠA dresse
ĠS Ã¦
Ġ4 0
on s
ĠJust it
or s
ĠF ra
ĠPro f
m o
ussi ske
ĠO ff
ĠnÃ¦ stkommende
Ġbekjendt gj
ĠH am
Ġgam mel
ĠNor ge
ĠHer re
l ene
C ontoir
Ã¦l ge
pp e
ĠJÃ¸r gen
Ġved kommende
ĠAf ten
ĠN e
an k
Ġh aver
or der
Ã¸ ie
t ens
lig ation
ĠM at
n en
b s
ab ri
gi ve
ĠF uld
i tion
il e
ĠAf dÃ¸des
il de
Ġal minde
Ġbil lig
ĠFamil ie
ĠBet aling
i in
Ġf al
mid ler
i Ã¸b
ĠW e
Ġbe komme
c a
it ter
ĠG i
D e
Ġgi v
Ġa r
ĠSki ftet
k ammer
ĠSep tbr
ĠNiel sen
m ent
ĠAn ledning
ĠBorg er
ĠN Ã¦r
ess or
as ser
Ġt o
ĠMar tii
ĠF al
Ã¦l de
vi in
ĠSte det
ĠJ ord
b ru
ĠSogne prÃ¦
Ġsk i
ĠH el
Ġud n
ĠM o
n art
ĠK r
l u
Ġ Ã¸
Ġgj ort
ĠK ap
ĠAuction er
ĠPar ti
ĠF rem
ĠF ar
ĠG ar
me de
ĠRas mus
ĠT old
d ant
ĠN ation
Ġp ro
h uset
Ġder ved
komm es
ings vÃ¦rk
an ders
ĠKon ge
ĠKi el
ĠV er
Ġbehag elig
ĠAn s
ĠE g
s at
Ġk omme
Ġs let
Ġo ven
Ġengel ske
* *
lig gende
y t
ĠFor b
stem melse
Ã¦ der
u di
ĠCondition er
Ġbest aaer
ĠB rÃ¦nde
Ġl ader
ĠI nd
ĠBo et
Ã¦ tte
ĠCap itain
Ġfor uden
Ġde raf
ĠNov br
ĠJ ensen
Ġig jen
Ġv ore
la d
an sk
ĠPar is
ĠS enge
ĠT r
Ġh in
ĠPla c
Ġder paa
ĠDec br
Ġsaa dant
ĠDan mark
ĠFol k
ĠT d
ĠF rue
ĠK j
m et
g ter
Ġal lene
un g
as sen
u i
n esk
ĠSlag s
m in
ĠEfterretning er
ĠOm kost
Ġan tag
ĠMand agen
ĠH j
ch er
se ende
ĠAl le
ĠV el
gi Ã¸r
ĠSp ec
ĠTid s
al s
Ġgi Ã¸re
Ġske er
te er
F ra
ĠFri der
ĠnÃ¦ ste
Ġs Ã¦r
ĠB ry
ĠO g
en g
Ġt ien
Ã¦t tes
ĠBo ets
a kk
gj Ã¸re
ot ter
ĠPri is
es p
Ġ2 00
ĠComp agn
y en
Ġi s
ĠVe ster
Ġend og
y er
p et
kk elig
ig en
ĠUnder tegnede
ĠH ens
ĠTil f
m ir
R et
els om
st ad
ul de
t h
Ġd Ã¸de
s dag
Ġst aaer
ĠB el
Ġs yn
ĠV and
ĠB esk
Ġg aae
y st
ang el
gi vet
Ġen e
Ġ Z
ĠBe handling
ĠS u
Ã¦r ke
ĠMar k
t aget
s se
ĠR anders
Ġliges aa
Ġaar lig
st it
ĠD ire
ĠEftermid dag
Ġ3 2
ĠF yr
ĠM on
f ts
ĠH ar
ĠChrist en
k rig
mÃ¦ gtig
ĠA vis
a ste
ĠW il
ĠBind ingsvÃ¦rk
ur der
Ã¦r ing
Ġde re
ĠR us
Ġs mu
d om
ĠSte en
Ġh alv
Ã¸r er
Ġt hi
ĠG uld
ĠPr inds
ĠKong ens
ĠCred itorer
ĠS l
o w
ĠG ot
D a
var e
ĠV il
ĠEiend om
Ġsaav elsom
ĠD i
ĠD u
ĠvÃ¦r ende
ĠEt ager
Ã¸m mer
Ã¦r er
em p
Ġ y
m an
Ġforet aget
Ġop b
ĠLyst havende
c l
g ger
Ġhin anden
b en
an ten
ĠEt age
ri s
Ġoffent lige
us i
Ġdet s
Ġf Ã¸d
Ã¸ ver
ĠDen ne
ĠT Ã¸nder
ĠFor lÃ¸b
Ġin tet
ĠHust rue
on g
d ige
Ġbe melte
jÃ¸b s
p e
ĠH alv
ĠFor f
ĠM org
a x
ĠP lan
ĠSogneprÃ¦ st
Ġp er
mÃ¦ nd
m Ã¦rk
Ġf indes
ĠJ l
Ġbeviislig giÃ¸re
m a
s berg
Ġforme delst
ĠFran ske
ist or
Ġbe vise
Ġborts Ã¦lges
Ġa ab
ĠRbd lr
S t
Ġdere fter
v or
Ġindf inde
ĠStervbo et
is s
den t
c teur
ly s
gaar den
ch en
ĠH uset
al en
er er
ĠHa and
ĠP enge
Ġvor de
al g
i ir
ol le
ĠH os
am e
id der
s c
ĠMajest Ã¦
Ġst aaende
viis ning
el dt
ĠKong elig
Ġkal det
gi ver
t tet
rig t
ĠReg iment
Ġd Ã¸d
ĠSt and
st r
ĠByg ning
Ġis Ã¦r
Ġt ro
ĠL o
ĠI n
ĠAlt ona
Ġst Ã¸rste
ĠG aden
Ġbestem t
ĠK o
E t
ĠT yr
ond on
ĠFor p
y delig
g else
j el
ĠK ron
ĠB u
f r
ĠS Ã¸e
Ġfaa et
ĠOver ret
av e
ĠU l
Ġmel lem
Ġs Ã¦lges
il ler
ĠV egne
Ġforn Ã¦vnte
ĠAuctions stedet
hand ler
ĠEn hver
ĠH auge
by dende
ĠB or
ĠS y
ĠBogtrykker iet
ĠVÃ¦r elser
Ġsamme steds
ĠFreder ich
Ġs Ã¸
Ġ ret
yd ske
b landt
k el
est en
an st
Ġop h
ĠChristian ia
an te
Ã¦d van
Ġv irk
ĠA v
be k
Ã¸ dt
Ã¦ng de
U nder
ĠMaj i
Ġallernaad igste
ig et
ĠPol iti
ĠHen seende
ĠFor ord
Ã¦ nder
m ager
ĠN ye
ro p
ĠO nsdagen
mir al
ig er
b og
D et
ĠM agt
ĠOmkost ninger
ĠFe br
ĠMen nesk
e ens
n ed
ĠV in
ĠMin ister
k ning
red ie
b el
ĠGaar ds
Ġfor lang
ĠAnd re
ĠOff ic
ĠCancel li
lev ende
ĠT o
ort il
ts aa
Ġop r
ĠSe c
ĠN Ã¸rre
ĠD anske
Ġaf s
Ġher til
ĠN og
ĠKlo kken
v aan
ĠhÃ¸ ie
p d
Ġv en
ver s
e k
ction en
ĠAar et
ĠRaad stue
ĠM ich
u f
Ġf Ã¦l
ĠS iel
ĠAnder s
ĠT ing
un ds
ĠT eg
ĠCar l
b urg
Ġat ter
Ġgam le
Ã¦t ning
ĠEiend omme
ag ne
la ds
Ġden nes
ĠG es
re st
ĠSti fts
ĠLiebha ber
ĠHandel s
skab et
lig en
ĠHav re
ĠN ord
ĠSor ter
under dan
l ar
ap iir
en ti
i ste
kom st
ĠAl en
ĠDe p
ĠSki pper
fÃ¸r t
ĠL ondon
qve m
te de
Ġs ub
ĠM i
ĠT Ã¸n
ĠSÃ¸r en
ĠPers oner
ĠT irsdagen
ĠS r
Ġse e
q u
Ġbe kommes
ter et
Ġhv ortil
ro s
S k
Ġ el
P aa
g r
Ġhav ende
ĠB a
Ã¸n ne
Ġform ene
akk el
Ġer holde
ĠVen ner
ĠUd lÃ¦g
Ġs il
ĠP or
n a
i p
ĠFre g
Ġst Ã¦rk
ĠAn ne
fÃ¸r te
ĠB rev
gaar ds
Ġt ryk
Ġerfar es
Ġv e
ĠMaan eder
ĠLÃ¸ ver
Ġer kl
Ġg anske
ĠD agen
midler tid
ĠLar s
ĠTh om
Ġgiv es
ĠL ande
ĠF at
ĠSp an
ĠPri ser
ĠH iÃ¸r
av ne
Ġvor der
t else
ĠT ab
ĠMajestÃ¦ ts
s am
Ġh u
ot he
ki ende
ĠEier en
ĠOb ligation
Ġp ass
Ġhol dt
Ġind b
al ler
for dr
Ġ6 0
ĠT Ã¸r
ĠArme e
Ġ ;
Ġb en
ĠS edler
Ġz u
ĠC ommission
ĠV ind
lut tet
ĠBer g
Ġbesk i
ĠReg jer
Ġt vende
ĠO le
Ġal tsaa
ag tet
Ġbekiendtgj ort
Ġsamt lige
ĠH or
Ġa gter
ĠHol m
ĠD ron
and agen
ha anden
ĠV ogn
le den
Ġtilk jÃ¸bs
kke de
A f
teg n
Ġd ag
Ġindkal dede
Ġfor si
ĠReg ier
Ġle gi
l in
ĠByg ninger
den e
i x
ĠUnder retning
Ġ181 7
Ġbed ste
Ġeller s
ft es
br agt
underdan igst
ĠChrist ensen
Ġbe vil
an s
ĠJanu arii
ĠVedkommende s
her re
ari um
ĠP rem
ĠR om
Ġfor t
Ġbestem te
Ġhid til
Ġre g
ĠLe ie
lut ning
ar v
Ġlegi ti
Ġfor esk
ĠG ud
ĠMorg en
H er
Ã¸ y
T il
Ġper pet
l eds
Ġd ie
Ġf inde
ĠnÃ¦r vÃ¦rende
be fal
Ġud stÃ¦
re g
ĠKon e
ĠKiÃ¸b s
ĠS lÃ¦
at ur
Ġgj Ã¸re
Ġla det
Ã¸r g
re b
Ġhv em
Ġhu j
s borg
it al
ir ca
ĠEiend ommen
l od
C ommission
Ġal deles
Ã¦n ge
ĠOm stÃ¦nd
cl usi
Ġi fÃ¸lge
Ã¶ r
ĠAr veret
im od
ĠHÃ¸ ie
ĠBort s
aar s
Ġs Ã¦dvan
Ġli den
C h
els ing
Ã¸ dte
Ġgi k
ĠH al
ĠDet te
i der
o ff
ene ste
Ġme ere
ĠC la
g ods
ĠnÃ¦st en
Ġli det
Ã¦ nd
ang er
ĠS v
Ġst illet
ul t
ĠV urder
akkel ov
ĠL Ã¦s
ĠT ran
al es
ĠTien este
s Ã¸
ĠFor m
r en
ĠB ir
ĠDer es
ĠPeder sen
Ġa bs
Ġa d
ĠFred agen
ĠKrig s
op h
Ġf ast
Ġgi ver
st u
Ġer holdes
ĠR ing
ĠCon s
ĠS il
ĠLÃ¸ s
Ã¦vn t
ĠSte der
ĠFuld mÃ¦gtig
Ġfrem komme
by des
Ġbeviislig gjÃ¸re
ĠPlac aten
C on
Ã¦ ster
ĠT er
var teer
k es
f er
ĠFor valter
Ġh el
els es
Ġ3 00
esk i
ĠJustit sraad
ĠSki fter
Ġperpet ui
ĠM ess
ĠAnder sen
Ġabs ol
ĠMar ie
Ġh ende
Ġfor est
ĠU ds
o en
Ġf ly
er aad
en tii
Ġder med
Ġan vises
ĠTiden der
red s
ĠS um
skri ver
Ġhen vende
g ar
ist ra
ĠN aade
ĠBy ens
ĠP re
ĠSk ade
ĠProv st
rav Ã¦r
ĠBer et
Ġm ine
ĠPeter sen
ĠAd miral
ĠS old
ĠC it
Ã¸ den
ĠL u
Ġbekjendtgj Ã¸res
Ġv igt
ĠL Ã¦r
Ġhol de
ĠL od
st re
ast or
ĠS vend
ĠS pr
Ġny lig
rÃ¦ der
ist ri
ation s
ĠR idder
Ġv ente
Ġc irca
ĠH u
in a
Ġgi vet
Ġst ort
le ver
Ġsyn es
Ġaller underdanigst
ĠS and
og ne
Ġlegiti mere
Ġhav t
ĠB est
vi st
itor erne
ĠSk ole
ĠF Ã¦st
lÃ¦g ge
l se
ĠL und
Ġi m
Ġb el
Ġhvor efter
un dt
ĠDeb itorer
ĠSt u
id s
ĠJ order
ĠBrÃ¦nde viin
les vig
Ġ3 6
ĠOp lys
ub ler
ĠSki bet
Ġsk yl
h el
h ar
un st
i ende
Ġ rette
K iÃ¸b
Ġbet ydelig
ĠEm b
ĠJn f
Ġang aaende
Ġsk j
strÃ¦ de
ĠFran krig
ĠP l
ĠVi in
Ã¸m te
gj Ã¸r
Ġindkal de
Ã¸d ne
Ġderi mod
bo ende
Ã¦r ket
ĠprÃ¦ clusi
ol ution
ĠMÃ¸l le
f ic
Ġb ring
ĠR ente
ret air
lÃ¦ nder
ĠMed lem
ĠD Ã¸d
ĠBer ling
Ġny t
ĠKiÃ¸benhavn ske
ri ver
Ġhvor paa
ĠPers on
Ã¸g ning
retning er
ĠD oc
kk elige
ĠF in
ĠLig eledes
f ri
y s
ĠProf essor
sh avn
ĠKan oner
ĠfÃ¦l leds
Ġske et
ĠOc tbr
Ã¸l gende
Ġtil f
h n
al le
las se
ĠTilf Ã¦lde
ĠBer gen
Ġborts Ã¦lge
Ġh eller
ĠHer rer
ver ne
ĠP astor
Ġsil entii
t ige
ĠTor sdagen
r ag
ĠL aan
ĠF abri
ĠOber st
ĠHam borg
ĠH and
M andagen
ĠMaj or
ĠB reve
Ã¸r te
ĠKiel der
q v
k erne
ĠB irk
in s
ĠDÃ¸ ds
ĠP a
ag else
i ets
ĠHol steen
Ġlig ger
ĠBy es
ĠR ed
Ã¦ de
Ġan s
ĠBe bo
te m
ĠSkib s
agt ning
ge de
t ale
ĠFrider ich
Ġu dt
Ġopr aab
ĠH elsing
Ġ181 9
ĠOr d
ĠLe il
ĠFor n
st Ã¸
ĠF ald
Ġudn Ã¦vnt
ĠV est
Ġbet yde
Ġn ok
ĠD ou
Ġ8 0
ĠF isk
ĠF ien
ĠPla ds
ĠOmstÃ¦nd igheder
Ġblev ne
Ġk ort
A r
Ġt redie
ti ske
vig te
ĠM er
Ġen delig
ĠH Ã¸r
ĠMess ing
agt tage
it z
ĠB om
ĠsÃ¦r deles
ĠMar t
H os
ĠFordr ing
i al
i erne
ske de
ra d
.. ..
ĠA viser
Ġs nart
ĠU r
ĠMad ame
Ġen este
ĠArv ing
ĠSk o
ĠCol le
ind sen
Ġher med
ĠD it
Ġ182 3
ĠSam me
Ġf Ã¸lge
ĠKeiser en
Ġunder haanden
ĠBar on
Ġs olgt
ĠPrÃ¦ste gaard
Ġt re
ĠHÃ¸ie ster
ĠAn tal
ĠHertug en
u rop
ĠS Ã¸nder
ĠL ad
ĠAften en
b l
Ã¦ gt
ĠK akkelov
ti den
Ã¸ ve
Ġv er
Ġ182 0
ĠH vil
ĠSk j
sk riv
ĠLÃ¸s Ã¸re
ĠS ub
n Ã¦vnte
Ġtryk te
red agen
ĠSenge klÃ¦der
orden t
ter s
ĠBro der
ĠKjÃ¸b mand
ĠFebru arii
ĠH avn
ĠVurder ings
et h
komm et
Ġfor st
ĠAr ve
ĠV ort
ĠM al
ĠMid del
Ġopb uden
ĠArbe ide
Ġforet ages
ĠG j
ĠSk ol
om f
syn et
en hed
ĠBek iendt
Ġl od
Ġabsol ut
Ġbl ot
Ġforesk revne
land sk
Ġ3 5
ĠF ader
Ġfor di
Ã¸ ds
ĠMennesk er
ĠS yg
ah re
ĠSpan ien
Ġ17 6
rette de
elig hed
la dte
ĠJnd vaan
Ġtil st
ĠOr dre
ag de
ent lig
ĠT Ã¸mmer
vi dere
ĠJ eg
ĠBes Ã¦tning
Ġt rÃ¦
ent es
ĠT ryk
i um
ĠK ra
ven ske
ĠC or
ĠJn ter
lag te
Ġ4 8
ĠAm ts
eg aard
rev et
ir ke
ĠEngel ske
ommiss air
T or
Ġst Ã¸rre
ĠFru gt
ce ur
ĠP ubli
ĠKammer herre
Ġ1 000
ĠA ss
Ġk and
ĠEx emp
R eg
Ġj o
. "
ĠF aar
Ġst ed
A t
an ts
ĠParti e
Ġv ist
ĠÃ¸n sker
Ġl ille
u re
ĠFran sk
gi er
Ġsig er
ĠB ra
iel d
Ġs i
ĠBeg yn
ĠBÃ¸ ger
ĠA p
Ġlang t
ĠAr rest
mid t
Ã¦ ste
ĠÃĺ ie
ĠRe ise
ĠB at
Ġbe qvem
b roe
T irsdagen
ter ede
Ġb aade
st iden
ĠB Ã¸nder
ĠM Ã¦ngde
for m
ĠCh ar
sp ec
est am
ĠDou ceur
ĠPo ul
es en
vil eg
ĠFor and
KiÃ¸b enhavn
Ġd rÃ¦
ĠM od
del sen
ĠEmb eds
ĠAl der
Ġp ri
ĠEx ec
ĠT in
ĠL Ã¦
Ġ egen
Ġanse es
ĠB orde
ĠC and
h os
Ġb landt
tal ien
ĠT ra
Ġf undet
Ġ ro
ĠB en
ĠSt ad
Ġst aae
ĠSl ot
Ġsidst leden
fÃ¸r sel
Ġfri e
f ir
ĠS ommer
Ġan kommen
ol ler
ĠAndre as
Ġb illige
ĠOp hold
Ġ Y
ĠF o
ĠW i
ĠSkifter et
Ġforn Ã¸dne
ĠÃĺ v
Ġbeski kket
Ã¸r t
ĠGaarden s
Ġ5 00
st aaende
ĠSam ling
retning en
ĠT arv
Ã¸l le
ĠA b
ff ec
ĠM el
Ġl et
c ontoir
v el
ĠMi il
Ġd r
ĠHor sens
ĠKn ud
ar be
l og
kk es
Ġd y
am er
Ġder fra
aa es
A l
ski be
ĠFru enti
Ġvirk elig
Ġsam mes
del ser
ĠC our
ĠDan ne
p ri
c on
ĠR enter
ĠB rig
ien dte
ĠHen rich
h Ã¦n
ĠBye foged
ĠHos p
ĠF yen
ĠB ier
deel t
Ġh ed
ĠOver eens
ĠFor t
R aad
ĠCred i
ĠStat s
tr in
ĠOl sen
Ch rist
Ġe x
Ġun ge
Ġi boende
Ġk omm
ĠH est
ĠB al
br og
r aa
nes ke
ĠHerre ders
ĠOplys ning
Ġs ort
m anden
ĠS om
Ġd u
giv es
ravÃ¦r ende
Ġinde holder
b ro
k s
ĠAns Ã¸gning
Ġ3 3
giv ne
ski b
ĠBru g
ĠH use
O nsdagen
ĠGes andt
Ġ181 8
z en
ĠLar sen
ff e
ĠBerling ske
ar e
ĠKiÃ¸ kken
Ġsted se
Ġr ussiske
F redagen
ĠG u
ĠVin ter
ĠÃĨ re
sk revne
aab en
oen a
Ġforsk jel
e er
h o
ĠFran ker
ĠEn de
Ġfor f
ĠCancelli eraad
Ġbeh Ã¸r
l und
lie utenant
Ã¸m t
Ġf ik
ĠL ord
el lan
Ġsaa som
ĠfÃ¸l ger
m Ã¦n
anst alt
ĠBr Ã¸d
at s
Ġhuj us
ĠO st
ĠFat tig
Ã¦t telse
ĠP h
Ġalminde lige
ĠM angel
ĠOvereens stemmelse
Ġhv id
s lag
ĠBr Ã¸
S ki
ĠK Ã¸er
Ġform o
ĠPet ers
ant in
Ġhvor for
ĠFor lang
ĠMe ubler
ĠPrÃ¦ st
g aae
Ġt ab
Ġfor be
Ġbe m
ĠS agen
ĠM or
ĠRo sen
strÃ¦ det
Ġh al
ĠJ omf
Ġfor eg
Ġn or
Ġ179 2
Ġk ommen
ĠM aa
is en
ĠLeil ighed
dag s
ĠH vede
ve ien
f ol
ĠSk p
lÃ¦g ges
Ġs at
ĠO n
Ġtil trÃ¦
riv else
ĠS ig
Ġopraab t
fÃ¦r dig
Ġfor an
a dt
ĠMil li
kiÃ¸b ing
ĠGaard mand
Ġgj orde
Ġtil ladt
Ġaf holdt
giÃ¸r else
ĠDr ag
er nes
Ġan kom
anc e
ĠTil stand
v in
dition erne
Ġh iem
ĠT ron
f eldt
Ġs var
j un
ĠFor hold
ĠBeg i
lu tte
ind re
vÃ¦ sen
ro v
t a
ĠS lesvig
ning erne
ĠTh i
u sen
ĠC he
t ter
Ġbr agt
Ġafg aaet
is p
- -
ĠNat ten
Ġhv ide
am me
Ġcon tra
ĠAr til
ĠP ante
ĠK b
Ã¦re de
Ġn Ã¸d
ĠFruenti mmer
ĠP as
Ġdag lig
d in
ĠForlang ende
Ġind s
ĠSt ue
Ġbeg yn
mÃ¦ ss
ig es
s d
ster ne
u ler
ĠStr and
els erne
Ġ ra
k aar
ri p
ĠKiÃ¸b stÃ¦
mu ur
Ġsaadan ne
esk ab
Ġi midlertid
kr ing
ĠCancel lie
Ġf ine
Ġf iin
ĠHÃ¸ yst
Ġr es
ĠBe fal
ĠL eg
ĠFor st
ĠP ant
Ġop f
lÃ¸ se
ffec ter
ĠHerreds foged
Ġst ille
Ġalminde lig
l s
Ġb i
ĠM Ã¼
Ġp oena
ĠHo ff
in en
la der
sk yld
at ning
g l
ĠHiÃ¸r net
an e
Ġk j
Ġtil kiende
ati ske
ĠUd gang
gi eld
ĠSty kker
ob ak
Ġher om
at ten
Ġ182 2
ĠLÃ¸ver dagen
Ġe y
Ġher fra
Ã¸n t
Tor sdagen
Ġ181 1
st y
p Ã¦l
Ã¸ ier
ĠMand s
a el
Ġbe ste
ĠL ic
ĠSi kker
ĠRig sb
Ã¦r et
Ġl Ã¦s
ĠH istor
sen dt
Ġbed re
Ġefter ladt
ĠSÃ¸r ensen
al og
Ġud m
la den
ĠBÃ¸r sen
Ġme est
ĠA mer
aff e
ĠG ier
Ġindkal dte
ĠL ang
Ġf ravÃ¦rende
rÃ¦n ds
ri k
ĠMen neske
Ġ )
ĠUn i
tal te
Ġ7 0
lÃ¦ de
ĠCompagn ie
ĠDanne brog
ver ie
ut h
Ġk ong
ĠChristian s
Ġt og
ĠE urop
Ġtil liggende
Ġ3 4
Ã¸m me
dr ig
u er
Ġengel sk
ĠÃĨ r
Ġd ob
es sion
Ġg aaer
ĠT estam
ĠSpr og
ĠS n
ĠArtil ler
und ne
ĠD istri
ĠAn g
ĠStadsret s
ĠDron ning
eg net
ĠÃĺster rig
Ġl Ã¸b
a te
Ġt al
ĠH iel
ĠK al
eg l
vent arium
ĠFÃ¦ dr
vi ist
Ġhav es
fÃ¦r d
k ar
sk en
st antin
Ġder over
d am
ation er
t el
v and
Ġm egen
ĠH Ã¸e
j e
Ġ182 4
Ġtil kiÃ¸b
Ġan mo
ĠFor tegn
Ġt ru
Ġsam men
ĠThom as
t on
ĠCap it
ri ve
ĠLa ur
t ighed
Christ ian
ĠQ vist
spec teur
Ġm ang
ĠSu kker
st anden
i us
Ġber am
c c
f l
Ġbet aler
ĠHÃ¸ ist
ĠSelskab et
pp en
Ġdes uden
ĠNat ur
Ġre de
ĠOr den
ĠSkriv else
Ġmodt age
Ġh ens
st ing
ĠSch midt
ĠSikker hed
ĠSki ftes
ag ter
Ġf le
ĠfÃ¸r end
vi v
m ende
Ġfor synet
ĠRus land
Ã¸r r
ĠBon de
Ġ181 0
ĠV aaben
ent et
os s
Ġ ry
sk es
Ġmind ste
Ġbring e
ĠG uds
ab el
ĠR y
Ġind t
ĠPri or
ĠE ge
Ġp C
ĠSt ole
Ġend videre
j or
n s
l ende
ĠJ o
op el
esk ilde
ĠDe m
to c
Ġsm aae
ĠBefal ing
Ġhver t
ĠAf dÃ¸de
ĠP al
Ġbe bo
p lads
Ġmu eligt
br agte
ĠB ed
he i
ĠD ig
am men
ĠG las
Ġmel der
ĠPrem ier
yn g
Ġtil s
us sen
ĠF og
Ġbest and
ĠTi der
ĠL au
ĠBe stemmelse
s erne
lÃ¦ n
n is
M an
ĠT al
c ur
la delse
ĠSp e
ĠG re
Ã¼ r
ĠStaden s
ri d
fÃ¸r es
Ġher i
Ġg av
Ġske e
ap itain
ri b
igt ighed
i v
ĠNor ske
Ġf ul
ĠN ic
it ets
ĠTÃ¸n de
Ġf andt
Ġefter ladte
s nart
ĠS alt
Ġn avn
Ġle ver
ind iske
hol dende
ĠRes iden
Ġn eds
ĠMo der
ĠJn dt
ĠSt ald
ĠN Ã¸r
Ġbeh ager
h Ã¸r
Ġover alt
ĠS ver
ĠS o
ĠBe viis
ĠOp b
ĠRe p
ĠC ro
ol a
ĠE nd
ĠBry gger
Ġvi de
ĠP er
Ġbefal ing
Ġg rÃ¦
ige de
hol dte
Ġ182 1
ĠG ul
ĠDep u
ĠhÃ¸ y
ĠLie utenant
ĠPr essen
ĠGr av
ĠSch i
it h
Ġforlang es
ĠG od
ĠB li
ĠHÃ¸yst bydende
ĠGrund muur
ver ti
aar et
il les
ĠBe v
ĠH us
ĠB isk
ĠE ffecter
ĠHens yn
Ġt y
ĠFor anstalt
br ing
ĠP ak
Ġ182 5
ĠD isse
o er
Ã¦ ger
fÃ¸r er
ĠA g
tion s
Ġv eder
ĠH aa
w e
ĠJÃ¸rgen sen
Ġforskjel lige
ĠTil b
som hed
a ds
m ynd
ĠM is
ĠL pd
ĠKakkelov ne
ĠKb h
ĠForord ningen
Ġy der
se il
id st
ĠGot h
Ġ4 00
ĠForand ring
ĠK und
ĠM Ã¸de
Ġve ed
t re
ĠRo eskilde
ĠJ yl
ĠHv or
ĠRasmus sen
ĠC orps
for valter
ĠAn viisning
ĠB i
Ġk ommer
ĠCap t
k ast
ĠH orn
ĠPro k
ĠKron pr
ĠNation al
ĠGr Ã¸n
ĠVil kaar
ĠL em
Ã¦n k
Contoir et
ĠMich ael
ĠLic it
ĠtilkiÃ¸b s
Ġu for
ĠG ien
Ġ4 5
ĠKl Ã¦de
ĠS und
anter ie
lig heder
Ġv itter
Ġlov lige
f uld
aar den
Ġ red
ĠAvis erne
q vis
k j
ĠPaa ske
ri t
ĠKiÃ¸ ber
Ġsaa e
Ã¶ n
ĠA s
ĠF art
A n
ĠKi er
el le
et ter
tt else
u ch
holm s
Ġh aa
Ġmel des
Ġse er
ĠK y
Ġfor ts
rÃ¦ nder
ĠSkiftes amling
Ġh Ã¦
p ort
ĠV al
ĠP omp
kk un
st aden
r ende
Ġfor d
Ġal drig
Ġ6 4
ki ske
ar k
u det
Ġf ry
Ġ180 9
ff er
ĠF Ã¸l
mer et
ĠForf atter
ĠS lutning
Ġh and
ĠC ommer
Ġk o
ĠF od
ĠJ agt
Ġhal ve
ĠKan on
s es
ĠJ fr
Ġgj orte
ĠB ager
ol en
ĠlÃ¦s es
ĠMid ler
ĠD es
ĠVar e
li t
ĠMar en
ĠEngel land
ĠTil ladelse
Ġg l
ĠC an
le ie
Ġl Ã¸
Ġv entes
ĠSvend borg
ĠF Ã¦r
Ġreg ne
s datter
ĠSal g
ĠF ry
ĠC lasse
ĠMag istra
Ġ3 8
ĠJ s
ĠSil ke
Ġh enh
ĠÃĺ r
ĠC ou
Ġf Ã¦r
ĠQv Ã¦g
st i
hel m
ur er
f Ã¸lgende
ĠPor cel
b a
ĠHelsing Ã¸er
ĠEng land
stit ution
ĠD ele
be de
ens ion
ĠLiebhaber ne
Ġsaa kal
h Ã¸
ĠSk u
over ret
Ġpass ende
Ġ18 00
Ġs Ã¦tte
Ġr esp
ir ken
Ġfor el
ĠP und
ĠNy borg
ĠP i
Ã¸ der
far es
ĠGoth ers
ĠSty kke
ĠÃ¸n ske
v oc
D ire
ling er
d u
Ġefter at
ĠRigsb ank
Ġ **
ĠD Ã¸de
Ġs ti
ĠFors amling
ĠVe ien
Ġl Ã¦nge
ĠA gger
s atte
ĠG en
Ġfor deel
Ġ egne
em melig
re der
ĠF ly
d ing
ri ft
ĠW ien
ĠhÃ¸ it
ĠM aal
ar sch
stantin opel
k rÃ¦
ĠF Ã¸rste
Ġa v
ĠF aa
var er
Ġfuld kommen
Ġind bydes
ĠOpb uds
id ste
Ġh on
stit u
Ġt roe
ĠGe hei
an del
komm er
sk j
ation en
ĠPrÃ¦ m
Ġ182 6
ĠBeret ning
Ġk on
ĠB lade
ĠTi mer
sk ud
ĠMaan eds
Ġgr und
ĠPrÃ¦ste gield
ĠHvil ket
a ill
Ġhed der
ĠAr k
ĠF y
ĠMa ter
Ġtil lade
ĠÃĺ n
Ã¦ng ere
ĠS ager
Ã¦l gelse
ĠV ogne
Ġi kkun
L ie
J n
di re
Ġvitter ligt
de lige
ĠBesk aff
ĠT ol
ĠN aar
Ġg ien
Ġs luttet
er es
ĠPort ug
Ġs v
ĠRegjer ing
Ġp ol
ĠD y
ĠF a
ĠSt Ã¸rr
ĠReg n
Ġh iin
lig ere
ĠO s
Ã¸ en
ĠCat alog
ĠC old
ĠReg ning
fol k
um men
ĠM us
ĠSlag else
br inge
Ġlig gende
ĠRep ubli
f ang
ĠV irk
Ġt ages
ĠV ic
ĠFl aade
sk ov
Ġf at
ĠPubli c
be ch
Ã¦t ter
ĠH ier
Ġf inder
ĠP at
ĠSkri ver
ĠBru un
ĠV iden
ers on
ĠSm Ã¸r
Ġn ord
ĠR yg
ĠH aab
r inger
ĠTy dsk
p apiir
Ġ181 2
Ġbet ales
ĠS oph
ĠCro ix
ĠS en
ĠK at
tag else
Ġ180 6
u gt
Ġbekiendtgj orte
Ġfran sk
ĠSlÃ¦ gt
ĠStr Ã¸m
Ġ4 3
an terne
se de
Ġar be
ĠFors lag
ĠTil tale
ĠFranker ig
y tte
f rem
Ġd ansk
j em
Ġefter levende
ĠUni vers
ti s
Ġf ar
Ġm o
ĠH un
Ġind h
Ġv ort
ĠL ud
ĠKj Ã¸
ur ch
ĠJ ver
Ġhe ftet
ĠArving erne
ax t
ĠMilli oner
Ġl ed
ha ver
Ã¦g ge
Ġlig ge
ab en
ĠSk yld
Ġindkal det
ĠLin ned
Ã¦g te
Ġvi des
Ġ levende
B e
Ġ3 7
ĠJomf rue
Ġ181 4
ĠM Ã¦nd
Ġud bet
ĠOffic erer
rÃ¦ nd
b Ã¸r
eg aden
ĠNÃ¦r heden
ist ed
ĠBorts Ã¦lgelse
Ġbetyde lige
Ġsmu kke
ĠHÃ¸iester ets
ser er
Ġtro er
im mel
Ġk iÃ¸b
ar ier
Ġi agttage
Ġigien nem
ĠMedlem mer
ĠMar ia
ĠSpec ies
yl den
i eski
ĠMand ag
ĠChristian shavn
b elt
sen t
Ġ Ã¦l
Ġ180 8
t in
ĠBes id
par te
ĠDag es
ĠSi der
Ġs n
ĠA ft
Ġ4 2
v o
Ġveder fares
gj ort
ĠComm and
ent lige
ĠF avne
Ġg ot
ĠBeskaff enhed
s Ã¸e
ĠL ade
ĠRi be
Ġfor nem
ĠC al
ĠAc tor
ĠUn g
ĠEngel sk
ĠHav ne
for n
sk il
stu en
ru k
ĠTh or
Ġher af
ĠStervbo ets
Ġp asser
p ed
Ġg jen
Ġpaa st
byg ning
Ġv est
ĠA pp
f art
Ġu agtet
ĠPeters borg
s amling
t ager
Ġf Ã¸dt
Ġanmo des
ĠTeg n
ber et
mÃ¦n dene
Ġs te
ĠEfter laden
Ġtab t
A ar
ĠKong l
N o
ch a
Ġbevil get
fal det
ĠHuus mand
ĠU ge
Ġind lÃ¸b
riv es
ĠFl ens
ĠVor es
ĠStor m
Ġfordeel agt
Ġ15 0
ynd te
ĠD on
ĠT ag
ĠJ talien
ĠJohan nes
Ġe in
ĠSÃ¸ ster
vis ion
ĠRegier ing
en ing
hed s
ĠG al
ĠBek ost
ĠF i
P ro
ĠMin ist
Ġ182 7
aa den
Christian ia
ĠS er
mu ret
Ġg aaet
Ġ180 7
ĠK re
in delse
ĠTer min
Ġsmu k
ĠP ass
ĠPri sen
Ġ4 4
Ġben Ã¦vnte
Ġfor trin
ap ir
ĠLands overret
Ġl agt
b ord
ĠSiel land
Ġmodt ages
ĠM ol
ger s
Ġs Ã¸rg
Ġud kommen
ĠP ige
for p
kel te
Ġ ri
Ġfor ene
Ġbestand ig
ĠÃĺie bli
hol ds
ĠHj Ã¸r
Ġs ol
ĠSver rig
ĠS var
gt eskab
Ġbefal et
Ġafgang en
ĠF ad
ĠMen igheder
verti sse
Ġa cc
ĠD am
ĠN um
Ġo fte
ĠLin ieski
Ġhvori blandt
Ġc omp
ĠOl den
ĠHens igt
ĠChe f
ĠObligation er
st ine
gjÃ¸r else
Ġvor es
Ġs l
ĠJacob sen
Ã¦v es
ĠS a
Ġen gang
Ġ180 5
ĠMorgen en
ĠWi borg
ĠNe ap
ĠB ank
Ġbillig ste
ĠN ap
Ã¸i et
ĠsÃ¦dvan lige
Ã¦n ke
rÃ¦ de
ĠMil e
Ġsaav idt
ol og
j eneste
ĠSt illing
ĠLa ug
op her
ĠLig es
ĠExec ution
ĠPort en
ĠAl ler
ĠL og
Ġsen dt
c tor
c er
al et
ĠTi id
Ġfor ladt
Ġ183 1
Ġpri vileg
re ster
Ġs Ã¦lge
ĠGaards rum
ordent lig
ĠS im
ven dig
ĠJ orde
Ġop dag
ĠCh r
ĠSch e
ind ien
ĠSide huus
Ġs atte
5 0
am t
Ġun dt
ĠAr ti
Ġsp anske
ste de
m elige
ĠM un
ĠG am
Ġst od
ĠNic ola
ĠSe il
Ġd as
ĠTrÃ¦ kning
ĠK or
Ġfrem mede
ĠG ield
Ã¦v nes
ti ve
ĠO x
ĠS iden
Ġfor ud
se e
vertisse ment
ĠPh il
Ġuden for
Ġny de
ĠÃ¸ ster
Ġg u
ĠH aar
Ġc omm
Ġhvor om
p ost
s ig
jen dte
ĠAn st
Ġantag elig
Ġtil strÃ¦
Ġom kring
ĠHosp ital
Ġs orte
ĠM alt
Ġg ange
it te
ĠKra ft
ttet id
ĠHalv tag
aa s
Ã¸v et
ĠAn na
ĠbehÃ¸r ig
Reg iment
ĠK ru
Ġhvor med
ĠJyl land
ĠJnd kal
ic a
ĠSt Ã¦der
Ġsen ere
be ck
ĠVe x
Ġbekiendtgi Ã¸re
ĠA tte
ĠDan sk
ed ommer
Ġgi Ã¸r
Ġ180 4
ĠKar en
Ġhvor ledes
P rÃ¦
en skriver
ĠHer r
ft ig
Ġ** *
ĠÃĺv rig
Ġ182 9
qvis ition
de els
Ġforsi kk
V i
ped ition
ĠtiltrÃ¦ des
ti delig
ĠG ros
ra k
Ġbeh aget
Ġvigt ige
ĠRe is
ĠCred itorerne
ĠR elig
ĠAugust i
aa let
ĠFien den
ĠR ets
Ġer holdt
ĠPaa stand
m aade
ĠL or
ĠudstÃ¦ dt
Ġsel ve
ĠBy et
Ġst ande
Ġsig e
Ġ3 9
A d
Ġ eg
ĠD is
ĠVurderings for
Ġnor ske
l ler
Ġfor h
ĠChrist opher
me delst
ar te
b re
yld ige
ĠVester gade
ĠTh isted
ĠVÃ¦r elserne
Ġ ch
ar d
sk al
l ov
Ġber et
pp erne
Ġnavn lig
y p
ĠLy s
ĠL ind
Ġan m
ĠHo ve
Ġan lagt
Ġme er
Ġl Ã¦r
ĠHÃ¸ist bydende
i ere
ĠM ort
Ġbeg ynder
ĠBebo else
h l
Ġde el
Ġ5 2
Ġ181 3
ĠV ol
ĠNog et
ĠSta ter
b red
k jÃ¸b
ĠB an
ĠG em
ĠHol ste
f ly
ĠVe ir
in ister
ur de
Ġhvor fra
Ġr inge
Ġ180 1
ĠBoe pÃ¦l
ĠE rich
ĠT ale
Ġforsk iel
ul le
ende lse
c ter
Ġ5 6
Ġaf sk
in t
la st
ĠT obak
al ter
ĠÃĺ en
q ue
h iem
gi k
Ġt ydske
ĠV ore
Ġh Ã¸rer
ĠH ammer
ĠSt raf
est illing
ĠT ak
Ġne ppe
ĠRes olution
Ġle vere
Ġ4 1
Ġforn Ã¸den
ĠHoved gaard
bl ant
Ġbe v
ĠStÃ¸rr else
ĠS ir
Ġcon fir
el l
Ġan befal
c ommission
our s
av aller
a be
at tet
ĠR h
Con ditionerne
Ġt rÃ¦n
ĠB iel
ĠLud vig
Ġf aste
ĠOp lag
Ġ4 6
vÃ¦r dige
ĠBat aill
o e
ĠEt at
ĠSelskab ets
d ighed
skab s
gt es
al te
) ,
Ġu f
um enter
y der
Ã¸g te
ĠDire ctionen
ĠStat stiden
ĠJ or
ĠG ylden
str and
er en
a z
A u
ĠSt k
und rede
Ã¸n dt
Ġ6 00
Ġgi ft
g elig
Ġforest aaende
ske e
voc at
aae de
ĠEl is
all und
vÃ¦r ge
olle gi
lÃ¸ s
ĠLad ning
v idt
ĠBeg j
Ġ7 2
ĠÃĨ gteskab
Ġd i
ĠHistor ie
Ġven stre
ste der
lig ste
ĠSor enskriver
ff en
ĠSte m
ĠLy kke
Ġtien er
ĠK omm
ĠB il
ĠUr te
is cher
Ġ183 2
Ġfrem deles
ĠD re
ĠRelig ion
gang en
ĠWil helm
Ġmed de
or ff
ĠF eldt
ĠJndvaan ere
ĠHiel p
ĠFor lig
ĠHoved staden
ang en
Ġv is
ĠStervbo es
Ġkun s
c o
ĠJn ventarium
k asse
ĠP apiir
ĠRing sted
ĠfÃ¸r t
Ġen kelte
ĠAm ster
yt ter
ĠP ension
u ri
ĠGar nis
ĠNog le
Ġb org
tion en
Ġan komne
Ġoven meldte
si den
ent s
ĠL ange
ĠBl om
Ġpasser et
ĠHÃ¸i hed
ĠBegyn delse
ĠProc es
ĠH Ã¦nder
ĠHÃ¸ y
ĠSku esp
t og
Ġ179 6
Ġ ord
ĠSub skri
ĠS ned
ĠSt ra
Ġb ag
Ġr Ã¸d
s l
ussi sk
frem t
p enge
O ver
ĠH au
f Ã¸re
ĠO pr
Ã¦ m
ade m
Ġ179 9
li ch
h am
ĠJnd hold
vÃ¦r else
mod ning
ĠL Ã¼
ĠMil it
ĠUdlÃ¦g s
ĠL ol
ĠBo es
ĠC ent
ĠBirk edommer
Ã¦rke de
sk et
Ġfore vises
ĠFor deel
ĠG ou
ande ur
' s
p en
Ġny elig
Ġop holde
Ġt ry
hver t
ĠKammer raad
Ġ181 6
ĠS venske
ĠG ra
ĠFri hed
u dt
ĠRe v
ti er
Ġbef indes
yl de
mÃ¦rk es
ĠSÃ¸n dag
Ġsam let
ĠL it
b es
q varteer
Ġerkl Ã¦ret
ĠK am
Ã¸ie ste
Ġberam met
ĠHol st
oc k
Ġu ly
ĠBegj Ã¦ring
ille de
ĠJu ris
ĠU den
ĠJ orden
Ġbeg yndte
ĠForb ed
ĠBorts alg
ĠRet ten
ĠBeg ier
ĠC ommiss
ĠKir stine
Ġforet agen
ĠFisk er
ĠFor estilling
ĠU dt
ber e
Ġder som
Ġprivileg erede
ĠGrÃ¦ nd
Ġbet alt
Ġher efter
ent en
Ġ183 0
ĠF er
Ġvi se
ĠJnter essen
ĠArtiller ie
and tes
Ġt id
ĠL Ã¸n
re ise
Ġu de
Ġdob belt
Ġ rig
Ġ180 2
ĠKir k
ĠR en
1 8
ut ter
ĠJl d
ĠBekiendt giÃ¸relse
rÃ¦nd te
ĠAn mel
ag el
ĠK orps
ĠArme en
ĠJn gen
ĠBog handler
ĠUl d
Ġs agde
ĠSki pp
d ommen
ĠSt ore
ĠM yn
ĠD el
Ġ2 000
Ġan taget
Ġi b
gte de
eg n
k an
ĠEtat sraad
yl dig
ĠF Ã¦ng
ĠK unst
est ved
ĠLie ut
i det
ĠCons ul
ĠJ es
st ander
Ġsaa snart
Ġl eds
he dens
ĠA vertissement
ĠFreg at
ĠNap ole
Ġsaa fremt
ĠCit anten
Ġ3 000
ĠHav e
ĠB ol
Ġd an
Ġan st
Ġan ord
l unde
Ġt Ã¸r
Ġresp ec
ĠN Ã¸d
Ġ180 3
dr ag
ĠFors Ã¸g
Ġm ist
Ã¦d le
ĠR ode
Ġigjen nem
le g
Ġved lige
Ġl Ã¦ngere
ĠB illet
ĠHol land
ĠMar sch
ĠQ varteer
Ġs lutte
ĠUnder saa
skri ft
Ġ Â
ĠF Ã¸r
ĠExemp lar
ĠElis ab
n sen
ĠHust ru
gen hed
h ag
Ġtil deels
ĠAmster dam
Ġk i
kal de
Ġse et
ĠGaar de
Ã¦ kke
Ġf iendt
ĠOlden borg
sm aal
r ene
ed skab
un gen
Ġh a
ĠSk pd
ĠBer lin
ĠAp othe
Ġt he
ĠTran sp
krÃ¦ mmer
ĠM d
ĠEn kes
ĠB id
aa le
ĠCon fer
ĠRe qvisition
J nd
at or
an ke
J fÃ¸lge
le f
ĠU ly
ĠMar i
Ġforeg aaende
ĠC as
ĠC urator
ĠOg saa
ĠFreg atter
ĠOn sdag
ĠH ir
le veret
omp agn
ĠRy gte
in ske
Ġsi kker
Ġaf h
o ed
el andet
Ġhver ken
ĠParti er
Ġaf vigte
ĠMer cur
ĠSt o
Ġbefal ede
d al
ĠForp agter
Ġt ager
be des
es ummen
M ed
st id
ĠLiv s
Ġk iendt
Ġind st
Ã¸v rigt
ĠM inde
ĠV id
stem mende
ĠSt yr
Ġse es
kl ar
ĠGe vin
ĠCat hr
ĠG lÃ¦de
Ġa ss
Ġsn ar
asser er
Ġfors y
Ġel skede
ĠAgger s
ĠD yr
ur t
fordr es
o x
tig heder
ĠRente kammer
ĠB ord
in et
se g
ĠKon ger
ĠT it
ĠBe viser
ĠA ag
ĠLicit ation
Ġd ies
ĠCon tra
h use
Ġe j
g aaet
der ie
Ġt yr
p o
y re
Ã¦n de
For valter
ĠJnf anterie
m ation
Ġsaakal dte
ski bet
ĠEx pedition
Ġd Ã¸mt
ĠBag huus
Ã¸ver dagen
ens datter
ap arte
le vere
f ulde
ĠV aan
ĠF ug
age de
ot t
ĠR ussiske
) .
er up
aa t
ĠRaad mand
ĠFal lit
Ġ5 1
ĠUnder ret
and ske
Ġkong elige
Ġf Ã¸re
Ġan viser
teg ne
Ã¦l dte
ĠSk atter
sam men
Ġm Ã¦rk
ĠG ade
Ġhvor udi
ĠVÃ¦r k
ĠF Ã¸ds
gang ne
er sk
ĠReg im
ĠS yn
our n
Ġh Ã¸rende
m eget
Ġforskiel lige
mÃ¦ gt
r al
a ire
Ã¦g ger
st il
ĠSt uden
allund borg
ĠFaa borg
Ġet hvert
Ġinde vÃ¦rende
ĠHertug d
ĠA del
ĠFrem tiden
Ġh Ã¸re
i o
Ġm il
ĠSold ater
omm ene
Ġs and
Ġover eens
ĠT jeneste
Ġfor es
k on
Ġf ire
ĠEg nen
ĠBrÃ¸ nd
ĠR u
Ã¸n ner
Ġly kkelig
ĠSyg dom
ĠU mynd
le x
Ġt Ã¦t
ĠpC t
ĠGros serer
ĠFlens borg
ĠCon stantinopel
ĠC om
ĠFred ag
m on
Ġar rester
Ġf aaer
iss ab
bar e
ĠS ild
ĠT ry
ĠH um
ĠGrÃ¦ s
Ġk jÃ¸b
Ġbeh and
ĠTil lÃ¦g
ir urg
s mand
ĠFyr st
Ġ9 0
un ge
Ġh jem
ĠM Ã¸r
fl Ã¸d
ĠAn ker
ap per
ĠG rÃ¦nds
berg s
a in
Ġu s
ĠMa ds
Ġ4 000
i oner
ĠTor v
ĠD o
ĠS org
ĠCold ing
dr es
Ġskyl dig
ĠProv inds
ti fic
Ġbe des
re ven
f Ã¦st
Ġm is
ĠCol on
Ġbevil ge
ĠJndkal delse
ĠF ier
ĠB red
ĠFr Ã¸
Ġfal dt
ĠFor handling
Ġp re
ĠMen ighed
ĠT ommer
lo w
di ske
m aal
ĠAltona iske
Ġtilk j
ĠAl minde
ik a
mar n
ĠPomp e
ĠKlo ster
ĠBev Ã¦g
ĠsÃ¦dvan lig
ve ie
ĠReg ister
b t
ĠKnud sen
ĠMÃ¼ ller
ĠN eder
lig gen
ĠA ne
m ens
ien s
deel te
Ġfor lade
Ġin der
ĠS egl
ĠAl ders
ĠFol ket
hold ning
g ere
rig ske
ĠBesid delse
ĠEurop a
ĠMa h
ĠPro pri
ĠJ Ã¦ger
ling s
ĠEn ken
ĠElisab eth
at ure
lan det
ĠGr en
e ber
ĠV Ã¦
Ġmu elig
ĠEiendom s
tag ne
ĠL issab
Ġhvor over
Ġb yg
ĠHol delse
Ġhon et
dent lig
en z
Ġved bli
ĠSt Ã¦nder
g aaende
k yn
ĠUnder viisning
Lie utenant
ĠB lad
Ġp ar
Ġbr agte
ĠTeg l
K on
ch t
ĠM ul
viv l
ĠLi vet
ĠBer n
or ter
rov st
Ġbes luttet
ĠK asse
ĠBisk op
ort es
Ġ179 5
ĠDÃ¸ds fald
Ġpol iti
ir sdag
for d
Ġ4 7
ĠL oc
ĠAn den
ĠsÃ¸ ge
ĠR um
Ġu bet
ĠC ad
ĠBegier ing
ĠC op
ĠSiel lands
ĠPost mester
Ġt emmelig
Ġi h
ĠFal ster
ĠForanstalt ning
Ġm id
ri e
ĠB lo
u ris
Ġhol det
ri c
Ġfle ste
ĠDr enge
Ġantag eligt
ĠVar er
ĠStor marn
Ġa uf
Ġmu ligt
ĠL otter
Ġl idt
ĠFor ening
Ġhe ele
ic ia
ĠS ort
Ġl aae
Ġaar lige
ĠPropri et
sen dte
jun ker
ind ser
ĠSec ond
ĠSk il
gi ven
ĠLi ig
ĠU hr
ĠAd komst
ors Ã¸er
ĠL assen
Ġr ing
ĠPrior itet
b Ã¦r
Ġsk yldige
vÃ¦sen et
ska ff
an er
nd re
br Ã¸d
Ġy tt
ĠSor Ã¸e
Ã¸ ge
ĠFamil ier
ĠP il
led iget
Ġ5 4
h Ã¸ieste
h al
Ġmaa skee
Ġb red
ĠJohan ne
ĠD in
p el
ĠAn ord
Ġhol der
ĠBog holder
ĠJ midlertid
for dre
ĠPoliti e
ĠLe vn
j ent
ĠhÃ¸ ist
Ã¸n ning
ĠCap ellan
ĠAmt mand
ĠAn komst
at et
ve i
Ġ6 2
ve ier
Ġl ange
lÃ¦nder ne
ĠS ne
ĠPr indsen
ĠResiden ts
ĠBar n
ĠF le
k ere
H r
t elig
ag ten
ĠPor tion
ĠProk urator
re er
ĠOver s
lÃ¦n ge
ĠF la
Ġs ich
lad sen
ss es
Ġi blandt
Ġs venske
ĠB ang
ĠTi ende
ĠSogn s
ĠTyr kerne
cel len
ĠHa anden
L Ã¸verdagen
ĠD og
ĠUnivers itet
br y
ĠFor Ã¦l
Ã¸r ge
ĠÃĺn ske
ent Ã¸i
ĠPoul sen
Ġaab en
ĠNi be
ĠKir ken
ĠG reve
Ġp erson
s on
Ġbek iendte
me en
fÃ¦r dige
m k
ĠBry st
ĠSp ise
ĠÃĺ l
Ġj a
Ã¸g et
ĠLissab on
gi Ã¸res
ie de
Ġer hver
ĠBes lutning
ĠBekost ning
ĠT om
st ra
mÃ¦ss ig
ĠKund skab
hol det
en es
ĠnÃ¦r me
Ġex tra
ĠSkov skyld
ĠN u
ĠDit to
ĠPre ussen
ĠGe org
ur en
os ition
ĠContoir et
ĠA re
ĠB anc
Ġ5 5
ĠVen ders
ĠS Ã¦l
ĠJ r
lag de
ĠBor ge
Ġly dende
ĠLyst hav
ĠSned ker
Ġm or
ĠEg n
Ġk und
riv at
toir et
Ġrespec tive
Ġop by
l id
ĠByet ings
ĠR Ã¸
h Ã¦ng
her tug
ĠS lo
Ġ5 3
Ġ182 8
ĠHavn en
ien t
b yr
Ġind fÃ¸rt
ĠSÃ¸ en
Ġ181 5
toc ol
re des
t ing
Ġud kom
Ġst Ã¦rke
g ode
ug en
kk else
d ahl
ĠD amp
hol delse
u el
Ġ rum
Ġconfir meret
ĠDe parte
Ġder hos
ĠCathr ine
Ġ5 000
ut or
Ġtil sammen
Ġal ene
Ġover sat
is sen
ĠFor li
Ġfor g
gi ft
ĠRaad huus
ĠKbh vn
Ġl ette
y m
ĠN estved
Ġh aar
ĠBet r
ĠD av
si atiske
ĠJn s
si dent
Ġe et
Ġle ve
ĠR dr
Ġhvor imod
ĠFors var
ĠKrig en
ĠÃ¸v rigt
ĠBo u
ang ne
c ker
ĠnÃ¦ste fter
ly st
Ġ il
ĠDr eng
ĠHir sch
ĠOcto br
un s
Ġcon stitu
ĠL Ã¦g
Ġ6 6
Ġ6 3
Ġmodt aget
ĠTÃ¸r v
ad re
ĠA lex
ĠT e
fr Ã¸e
ĠBe en
ĠE s
ĠMad rid
ĠÃ¸ del
vn te
ĠhÃ¸i re
Ġb ro
Ġk ost
ĠFÃ¦ ste
ĠDron ningen
ĠMat ros
ĠJ e
ĠT re
ĠSk ulde
ĠG l
Ġal tid
f yr
ĠBet al
by es
ĠR esten
ĠM u
Ġhe el
ĠSpec ier
ig n
au x
Ġko ster
o f
ĠHv ad
a det
ĠFabri k
br and
ies yn
ĠÃĺiebli k
ĠTor sdag
ĠStervbo en
ĠK ol
Ã¸ ger
ĠAf handling
liggen der
ĠBest yr
ĠG ader
Ġgi el
k irken
m agt
Ġcomp let
ĠKongens gade
ĠH amp
ĠLysthav endes
ĠV ahre
ĠAss essor
Ġ4 9
ĠS j
Ġsm aa
ontoir et
i vil
ĠCommer ce
sk af
be meldte
sm inister
vÃ¦r dig
ĠAd fÃ¦rd
ĠAs sens
e f
Ġl Ã¦
Ġ12 0
ist lige
ĠLandet s
it t
ve x
ĠSec retair
ĠV andet
contoir et
ĠLevn ets
Ġv Ã¦
ĠDoc tor
i ter
ĠB rÃ¦der
Ġlov es
et er
ĠS ed
Au ction
aa ler
ĠMad sen
ĠForord ning
ĠSv ag
ĠN avne
ĠGarnis on
ah r
ang aaende
Ġ7 5
la det
av en
rÃ¦ k
ĠH jer
Ġom bord
um s
men ter
ĠFortegn elser
ĠS ar
Ġp l
ĠSÃ¦ de
Ġ6 5
Ġt agne
an ti
ĠLand sting
an ker
ĠfÃ¸r te
r ings
str Ã¸m
ĠP en
ĠÃ¸n skes
ĠR os
ĠK ost
j ut
Ġny tt
ĠP un
Ġu op
ĠAars ag
ĠMe ster
v ahre
Ġ Ã¦
ĠEr kl
ĠCatalog i
ol er
dr aget
ĠdrÃ¦ gtig
lÃ¦ der
ĠForb indelse
ĠGehei me
ĠR a
Ã¦n ger
Ġ179 7
ers om
ĠPropriet air
Ġ7 4
Ġmed deelt
esk river
Ġv idt
ĠSpe ile
ĠSm ith
Ġgrund muret
Ġind rettede
ĠAu k
Ġforene de
ve m
Ġind komne
Ġfor and
Ġ179 0
yl dt
ĠViden skaber
e en
ĠR est
ĠC ast
hol t
ber t
er den
en der
Ġbru ges
mar sch
ĠMe en
ĠBegi ven
ĠLiges aa
ĠTransp ort
k assen
ĠRegjer ingen
Ġfor ti
lag et
ĠFÃ¦st ning
ĠBe ch
ĠFor holds
Ġunder skrevne
ĠW al
be der
Ġf r
ĠR aa
Ġb Ã¦re
D er
Ġs tem
ĠFri is
in es
b rÃ¦nde
ret tes
Ġber Ã¸mte
Ġf unden
ĠRet tigheder
ĠKeiser lige
v ogn
U d
z ig
ĠD ahl
ĠDi vision
vi ste
ĠOphold sted
Ã¸ie de
Ġgjen nem
ĠOpbuds boe
els dag
ist en
Ġfly dende
p on
ĠAf del
O b
sk ende
ĠSel veier
ĠNy tte
ing borg
ĠR ang
K jÃ¸b
ĠEr st
ĠSty k
ĠT aar
ĠR ige
ĠS c
ur eret
la des
Ġbl aae
s Ã¸g
ĠLe ver
ĠhÃ¸ie ste
ĠBesk rivelse
ĠVe i
ĠArbe ids
ĠBegi Ã¦ring
ĠMid dag
vÃ¦ b
ri be
arbe ide
ĠKr og
t ning
ĠS ven
t elsen
an en
Ġefter kommes
ar er
ĠH ele
ĠnÃ¸d vend
Ġ6 1
Ġan tage
ĠS ol
ĠFor retning
t he
Ġhv idt
ĠJn st
ĠM aler
Ã¸i else
Ġaller hÃ¸ieste
ĠVer den
ĠPortug al
ĠRet ter
Ġ eget
Ġ179 4
Ġind ry
ĠAr t
Ġvi ist
b ri
Ġbegyn dt
ĠT irsdag
ĠAre al
ĠAv ls
ĠKap er
ĠLinieski be
ĠRet tens
ĠProc ent
f isk
ĠMand skab
ĠsÃ¸ ger
Ġl agttage
bru dt
bru d
ĠSim on
Ġoven nÃ¦vnte
Ġ5 8
H vor
ĠRegiment s
Ġcon t
ĠQv art
ĠB jer
n Ã¦st
v es
aste de
st o
Ġang aaer
ĠDoc umenter
ĠSch w
ĠCad ix
ynd ige
ĠNÃ¸rre gade
st yr
ĠNeap el
Ġu g
Ġ179 8
h u
Ġin ter
Ġblev et
ĠBrÃ¦ndeviin sb
hav e
ĠG ran
ĠPorcel la
tet s
el and
ĠRig s
Ġt ale
ĠSt Ã¸v
Ġnye ste
Ã ĺ
ĠAng reb
ĠSp anske
ĠNy t
ĠFad d
ĠSel v
ly dende
ĠBegyn delsen
ĠH ede
Ġanmel dt
ĠPr in
ĠOc t
ĠA ab
Ġ183 3
ar l
ĠBr andt
ĠAn liggender
Ġlov ligt
ĠAf gr
Ã¦ kket
Ġbehage de
ĠÃĺ iesyn
Ġfors am
hen te
Ġforsi k
ĠGam mel
dr ing
H s
ĠSoph ie
ĠKammer junker
ĠBa y
ĠK e
Ġdes angaaende
r aget
ĠJ en
Ġn atur
ĠSt Ã¦
ĠSep t
ĠCap ital
a us
ĠVurderingsfor retningen
ĠV is
Ġundt agen
ĠK ancel
ĠSt udi
rÃ¦ det
m un
ĠProces sens
ĠHoved gaarden
ĠW ol
Ġen t
ĠK amp
Ġhen ven
Ġg andske
ĠH endes
fri e
for samling
ĠAg ent
t ur
Ġovereens stemmende
ĠSlÃ¦ t
Ã¦r ker
N B
Ġim odt
ĠBÃ¸ ge
Ġbeh Ã¸v
Ġ or
Ã¸r en
ĠRi is
ita ire
bru g
ĠFor et
ĠCons um
min istra
ĠK ro
ĠF ade
Ġse il
ĠSy ge
ĠC avaller
ĠMater ial
ĠJl de
ĠFly ttetid
ĠÃ¸ster rigske
ĠTestam ente
hi as
h auge
ĠEr ke
Ġforb ed
ĠC o
Ġd it
ĠÃĨ g
ĠForp agtning
Ġtyr kiske
ĠAag aard
on e
g ave
Ġud givet
d Ã¸mte
ĠMagistra ten
Ġn Ã¸i
Ġm Ã¦rket
ĠV alg
Ġud kommet
Ġafs agt
Ġ5 7
C ollegi
ret he
ĠP apir
ĠG er
ari us
Ġv isse
ir en
b lev
Ġm arsch
riv t
ĠSlo ts
B er
Ġborg er
ĠF anger
rÃ¦ b
ĠDire cteur
ĠHustru es
ĠMaaneder s
Ġme dens
ic e
ĠJn ds
ĠHÃ¸iester et
Ġski Ã¸nne
ĠL Ã¦ngde
fordr ing
Ġbest aae
ĠBog en
y kke
Ã¦n a
ĠMar g
Ġm ods
Ġv enter
Ġhens Ã¦ttes
ĠJoh n
ĠBorge mester
ĠB Ã¼
prÃ¦ sent
d yr
ĠLiebhaber e
n ende
ĠDe f
rÃ¦ er
ĠSk at
ĠPas cha
ĠS Ã¦d
ĠFar ver
ĠRev olution
m Ã¸lle
Ġuden landske
stÃ¦nd ig
ĠEg ne
ier s
Ġacc order
Ġher paa
Ġs Ã¦l
ĠFat tige
Ġantag es
Ġkom ne
ĠGr unde
ĠKr am
F ran
trÃ¦ er
ĠSkri ft
Ġindh egnet
ke de
ĠRb mk
Ã¸ ber
ĠMe yer
m s
Dire cteur
ĠCla usen
ĠH Ã¦
ch s
f abri
c ip
ĠP iger
ĠSÃ¸n ner
ĠRaad stuen
orp h
ord ingborg
fte de
Ġfortrin lig
r Ã¸
di ction
Ġop rettet
ĠThe e
k ler
ĠA gt
del en
Ġbetyde ligt
g n
Ġan fÃ¸rte
dire cteur
Ġaf re
1 7
Ġ6 8
Ġt er
Ã¸l l
ĠCh at
ĠTil talte
c om
ĠW and
Ġb ar
ĠE v
ĠBel Ã¸b
KjÃ¸b enhavn
a kker
ĠT ugt
ĠSp Ã¸rg
For medelst
ch i
m ag
Ġsam lede
hÃ¦n gt
ĠH als
h avn
ich t
rÃ¦n dt
Ġhvor under
ĠHa ders
ĠSk om
ynder e
v ning
ste vnte
ĠE der
at h
en borg
ĠSk rÃ¦der
ĠSch ul
le b
tag es
Ġfors var
ĠudstÃ¦ dte
Ġkomm et
Ġu h
ĠL Ã¦rer
Ġformo dentlig
ĠRegim enter
un dende
Ġf l
Ġtil forn
ĠBid rag
ĠB re
ry d
Ġs ende
ĠSkol el
Ġbes at
ĠCla us
ĠFre den
b le
ĠGod hed
Ġf e
Ġu be
y ge
ĠNapole on
Ġer indre
ĠHove det
Ġt jen
ran den
Ġuly kkelige
ĠForf atning
ĠK ul
ĠEr far
ĠB aad
ĠVÃ¦r die
ĠÂ ½
Ġu l
ĠMichael i
Ġ Ã¦gte
ĠHe fte
and se
Ġforbe meldte
ĠSkifte commission
sam me
ĠZ e
Ġ Ã¦r
ĠOpr Ã¸r
Ġfor aars
ĠsÃ¸rg elig
Ã¦v et
ĠQ var
be handling
Ob ligation
ĠS yd
di teur
D om
Ġg en
m erne
ri o
ent z
Ġer ob
Ġ8 00
ĠHÃ¸ st
Ret ten
ĠL Ã¸b
ĠFar e
ĠBlom ster
ĠFÃ¦ng sel
Ġst yr
om et
ĠP ligt
ĠBeret ninger
kast et
aa g
ĠP ot
ĠE sk
ĠRus serne
ĠÃĺster sÃ¸
ĠSi Ã¦l
ĠLol land
ĠE ders
i z
Ġs lut
ik anske
ĠM Ã¦g
i ke
Ġ Ã¦dle
ĠAf s
ĠW ar
off ic
1 0
Ġp ubli
Ġind trÃ¦
Ġs ande
ĠM os
is sion
red skaber
emp el
el ling
sty kker
ĠB end
ĠRo lighed
ĠMajest s
ĠA ct
ĠUnder stÃ¸
Ġv al
Ġm iste
ra ph
ĠSty kket
ĠB elig
S p
Ġv ende
Ġm Ã¸r
Ġgr Ã¸n
ĠPost en
Ġ179 1
iel le
ĠMilit air
ĠT ri
af vigte
ĠKiÃ¸b esummen
hr r
ĠTy verie
ĠLit r
ore fter
Ã¦st giver
ĠReis ende
Ġan ven
dr agelse
d a
ĠG jen
ĠSki ve
stÃ¦ de
be det
ĠComm andeur
ts huus
ĠLin net
ĠBrÃ¦ndeviinsb rÃ¦nder
Ġf Ã¸
ĠSum ma
sk rÃ¦n
ĠH as
lÃ¦g ger
ĠAm b
u hr
ĠR ud
kjÃ¸b ing
Ġs yd
ĠPa ul
Ġforb li
ĠH at
ĠOp s
ĠRb s
Ġ5 9
ft ige
ĠFl o
ĠMag ter
Ġadsk il
ĠDeel tagelse
ĠEx am
me el
ĠAl li
ĠDronning ens
Ġh aben
Ġfor l
stÃ¦ der
y es
Ġp Ã¦na
a des
Ġaf b
Ġi stand
ĠB orn
l um
ĠR Ã¸d
Ġ6 7
Ġst ad
ĠOverret s
ĠL yng
ĠMar ker
1 2
ĠS Ã¦r
ĠProv indser
Ġled ig
p rovst
Ġbe give
O m
Ġu bek
ĠF iske
ĠRepubli k
ĠErkl Ã¦ring
ĠStu de
Ġf ru
ĠAf giv
at us
ind sens
Ġfore f
Ġs lige
Ġun g
Ġb id
ĠBek jendt
ĠBu ch
kar l
ĠTydsk land
s et
ĠMÃ¸l len
g erne
Ġerfar e
Ġpoliti ske
Ġudm Ã¦rket
ĠJ on
ĠCompagn iets
ĠJo se
Ã¶ l
ĠR igtighed
ri sk
ĠS viin
Ġf Ã¶r
Ġmo derne
Ġal vor
ĠS ang
ĠFl or
a ille
Ġ7 6
O dense
ĠPar lam
art ner
ĠHandel en
ĠTrÃ¦ e
Ġre ise
Ġst ri
ĠW ul
Ġn ach
la ch
el en
ti sk
h an
Ġfri t
Ġaf seil
reg ler
Ġsnar est
ĠHv o
ĠBerg ens
v ang
ĠMar ken
Ġm idt
ĠL Ã¦re
ĠColle gi
Ġi st
lut ningen
Ġat tr
ĠPass ager
ander borg
Ġt rende
ĠKi Ã¦r
Ġpaa fÃ¸lgende
Ġbort kalde
ĠEx cellen
Ġsk rift
ĠM ange
Ġsig es
Ġ15 00
ĠHan sens
ĠSt ri
ĠN ed
ĠDe ele
Ġher vÃ¦rende
o ve
der en
ĠF ro
a is
ruk ne
a sk
ĠK li
Ġmel dt
ĠOp stander
Ġ25 0
ĠSkri fter
ĠKjÃ¸benhavn s
p tion
Ġ10 2
Ġop st
Ġt aler
ĠFy ens
Ġs Ã¦ttes
ĠFÃ¦st ningen
Ã¸r sel
Ġaab ne
Ġop s
ĠForfatter en
ĠM Ã¸
ĠForÃ¦l dre
Ġsaa lÃ¦nge
fald ne
f s
ov n
ĠhÃ¸i ere
ĠPr Ã¸ve
Ġfiendt lige
R ed
est ed
Ġuds at
Ġop p
ĠT op
var es
d sen
Ġhel lige
ĠErst atning
ĠF lag
ent sraad
Ġf andtes
ma jor
ĠBygning erne
ĠSko em
ĠGang klÃ¦der
ĠLau ri
ĠJoh ann
atte de
Ġder nÃ¦st
ĠU ro
ĠJ ourn
ĠFor retninger
Ġsen dte
v ad
ĠÃĺ er
ĠBorg ere
Ġder udi
ĠGrÃ¦nd se
ĠO t
skriv t
d ste
f i
ĠAd vocat
ĠFl Ã¸
ĠsÃ¦r skil
ĠHerre der
q var
b on
ĠtilstrÃ¦ kkelig
ĠBort forp
ĠTryk p
ĠWe ster
Ġbe mÃ¦rkes
in eret
ĠL angel
u kker
ĠBe stem
ĠPrÃ¦m ie
ĠB Ã¸g
ler s
ĠAuction ers
ĠH Ã¦r
Ġbeg aaet
R e
ĠUnder handling
Ġoff ic
Ġan t
Ġel sk
ĠB ul
Ġfast satte
ĠLe v
Ġf ersk
k ul
ĠE gen
Ġover be
Ġf ulde
ĠK jer
ĠEmbeds mÃ¦nd
ĠK gl
ĠFrÃ¸ ken
Ġv iser
Ġan sat
ĠF est
Ġforsy nede
ĠPak huus
ĠSch we
to ft
ĠJn specteur
Ġ7 3
ler ne
Ġl Ã¦re
Ġbek rÃ¦
ĠMart in
mand s
b u
id sen
ĠGi vet
a terne
Ã¦g ter
Ġw erden
ĠO pp
Ġfore vise
ĠS ach
p ro
ĠL ods
Ġop holdt
Ġhenh Ã¸rende
il ien
Ġf em
Ġmaa ttet
Ġfal de
ĠGrev skabet
ft else
Ġbeh Ã¸ve
ĠVÃ¦r d
ed ag
ra s
aar ds
ĠStift amt
Ġbek jendte
ĠKiÃ¸bstÃ¦ d
Ġa gtes
k ers
ind ring
ret s
ĠM et
ĠD urch
Ġskeet e
Ġud komne
S el
ĠB atter
Ġconstitu eret
Ġforhen vÃ¦rende
Ġk l
ĠThe ater
ĠBel Ã¸nning
ort h
Ġindb unden
ĠE il
Ġh ast
ĠPrÃ¦ di
Commission en
ĠForm ue
fal de
S te
ĠC ab
on t
h Ã¸rende
Ġtil kommende
ill um
lÃ¦ st
ĠV inden
Ġfor anst
ĠN B
ĠResidents stad
giver en
Ġbegyn de
sk u
c us
Ġt agen
Ġ7 8
ĠSk illing
ĠEx tra
ĠJanu ari
kiende lse
ĠKl Ã¦der
ĠOp f
ĠSkifte behandling
a y
ĠBeg rav
ĠEm bede
ĠS med
ĠOp mÃ¦rk
Ġ178 8
Ġfor fÃ¦rdig
ĠHv orefter
k elt
ĠAm ager
ĠF jen
ĠM ette
v old
ĠLoc um
l Ã¦r
ĠAggers huus
ĠMen ing
tig et
Ġp ort
ĠMÃ¸ller s
ĠH ver
ĠFor kyn
j ord
ĠAn t
Ġw el
ĠHand lende
ĠUnder sÃ¸g
Ġf ald
ĠG iel
otter iets
ĠN ab
k ter
det s
Ġhaa ber
Ġ178 7
Ġaf hente
Ġsmu kt
re bet
v else
ĠTiden de
Ġpass erede
ĠK ort
ĠK un
ĠBetal ingen
la u
Ġbehag elige
jut ant
ĠÃĺstersÃ¸ en
Ġer k
Ġs im
ĠDire ction
l esk
i ist
.... ....
ĠD or
Ġg er
ĠS eng
ĠAl m
Ġ17 5
ĠF ods
aar up
ĠRegier ingen
Ġop fÃ¸rt
bli othe
ind til
Ġindt ru
de m
ĠSy vende
r age
Ġhol landske
ind t
ĠPil est
ĠK lasse
Ġgien nem
p ladsen
Ġunder stÃ¸
Ã¦v ne
ĠNicola i
G eneral
ĠFol ke
ĠA and
ĠB ri
ĠDepu terede
b od
ĠBanc o
k irke
ĠProvinds erne
ĠD hrr
ĠD ie
Ġlever es
ĠKiÃ¸b mager
aa en
ĠFor si
ĠJord lod
ĠKap itain
Ġarbe ide
ĠK le
ĠSkriv p
ĠfÃ¦r dig
p l
ĠVil lie
Ġop holder
i teur
gi fter
der et
ĠJustit s
Ġse par
tr olle
Ġj ust
ĠSche el
ĠVest indien
ĠPlac at
. :
Ġforme ene
ĠSt il
ĠPorcella in
ul ds
ĠJndvaan erne
Ġpre ussiske
Ġud redes
Ġ6 000
ĠThom sen
Ġu m
ĠtrÃ¦ kke
og e
e e
Ġaccorder es
og et
ster s
ider ende
ol ds
Ġbru g
eg nede
vig en
Ġb ier
ĠFr agt
ĠFrugt trÃ¦er
agt ig
Ã¸r n
ĠRig sd
Ġover ordentlig
ĠBelig genhed
ĠFo ust
b ud
ĠFrederik s
d omme
p t
ĠBe qvem
ĠMus ik
x er
ĠPla k
Ã¼ ck
ĠTit el
i del
Ġ8 3
ĠS idste
Ġda teret
C ommiss
Ġd at
ĠSam t
ĠMol t
ĠOp dag
yl dte
ĠTrÃ¦ er
vil le
Ġan meldte
Ġtil leie
ĠSam men
Ġoph Ã¦ves
ĠLeg iti
Ġ6 9
2 0
Ġ7 1
Ġj ydske
ho ve
Al le
tr aa
b ra
Ġt e
ĠTro pperne
ĠBog h
ĠR Ã¸r
n ers
Ġafsk ed
Ġ10 1
ĠR am
ff ende
ĠPrinds esse
den hed
rav e
ĠGrÃ¦nds er
Ġh ine
Ġ178 6
ĠK rÃ¦
ĠStatstiden de
org es
Ġhel st
ĠExec utor
ĠAlminde lighed
st adt
ri en
ĠMid dagen
ĠKiÃ¸ ge
ĠCommission en
Ġu af
elig en
Ã¦t ningen
ĠR ap
ĠSaa ledes
ĠL yn
Ġned lagt
b ier
Ġf ier
ig ter
k f
Â ¬
ĠFin ants
Ġ179 3
ĠG ie
ĠPublic um
Aar huus
ĠJose ph
A m
Ġtryk t
us ch
ĠHjÃ¸r net
ĠQ u
ĠGes and
ĠG ro
rip t
mel ser
ĠK yst
ĠVÃ¦r else
skri ve
ĠLo ft
ĠS em
ĠCon stitution
ĠV Ã¦gt
ĠBon aparte
vÃ¦ sens
tegne des
ron er
Ã¸ st
ĠstÃ¦rk t
C apitain
n Ã¦s
ĠSt ok
ĠMag az
ĠBrand kassen
Ġst rÃ¦n
ov ne
Ġunder liggende
ret ten
ĠLÃ¸ver dag
Ġp ligt
ĠFrider icia
Ġh uus
Ġud rede
ĠJns ur
t ro
ĠKrig skibe
ĠTron hiem
eller up
Ġbesk ad
deles hed
ĠU h
ĠFor huus
ĠFor uden
Ġanse elig
ĠJust iti
H uus
ĠSÃ¦ bye
Ġ178 9
ĠSkolel Ã¦rer
ĠSal arium
he im
Ġne den
ĠHol lÃ¦nder
ĠKiÃ¸ kk
ĠNÃ¦r mere
ind ing
ĠAl gier
ĠPubli k
ĠArti kel
k ontoiret
ĠÃĨ gte
Ã¶ b
ĠEiend ommene
Ġforsk el
Ġful gte
Ġudm Ã¦rkede
ou le
ĠU nd
ĠRe c
ĠRed skaber
ĠAtte ster
ĠFred s
Ġ7 7
ĠB Ã¸d
is ch
ĠAd ministra
ĠFÃ¦dr en
ĠDannebrog en
ĠPri vileg
ĠG artner
eg aarden
Ġop rettede
ĠP art
ĠRes er
Ġbring es
ĠTor vet
ĠDeparte ment
Ġhenven der
ĠBÃ¸r s
p hi
ĠCar ol
ĠDen nes
con to
ĠlÃ¸ s
ĠOp er
ĠF inder
Ġs ch
ĠÃĺster gade
ot h
Ġm Ã¦lde
Ġt egl
ĠBa and
Ġer st
ĠG rad
is chen
Ġpl uds
toc oller
ĠUd boe
Ġop givet
ĠInd retning
Ġ Ã¦rede
ĠL ou
ĠGrÃ¦ kerne
Ġbem Ã¦ldte
ff et
Ġover flÃ¸d
y dende
ĠR ytter
E m
lo tte
ĠT ydske
ĠDr ammen
ĠBÃ¸nder gods
uler ede
ĠSub sc
ĠMel lem
res pon
ĠBom uld
ĠSti ftet
Ġfort Ã¦l
Ġi stedet
ĠLevnets midler
ĠUndersaa tter
ĠFallit boe
slag et
ĠHel lig
by der
E x
re gi
ĠHoved gaards
l aaet
Ġop bydes
form ynder
s al
Ġsaa es
ĠSkom ager
Ġcomm ander
t Ã¸i
ts ch
fÃ¸r else
ĠLo ve
ĠAfgr Ã¸de
ds p
l ens
ĠChristian sborg
l ot
al borg
st ings
ĠJl den
tz en
Ġbebo es
bel te
tor v
ĠOpmÃ¦rk somhed
h vor
ĠB iÃ¸r
ĠC affe
ĠExemp el
Ġaf holdte
es ser
Ġmedde le
h us
ĠAf gang
ir et
Ġ17 4
Ġj uris
ĠBl od
ĠSkuesp il
var ende
Ġder hen
ĠPassager er
ĠKiÃ¸ber en
ĠGr unds
ĠF ast
hÃ¦n de
Ġrig tig
ĠM anden
ĠEfterladen skaber
ĠW est
ĠBÃ¸r ne
ĠMort en
i ve
ĠOp fÃ¸rsel
ĠR it
ĠCand id
Ã¦v ning
ordent lige
Ġ178 5
fly delse
ĠJ sen
Ġop taget
ĠW in
ĠC ron
Ã¦r es
ĠExcellen ce
ĠStuden t
ĠRe prÃ¦sent
ĠB ie
Ġd in
Ġg yldig
Ġr Ã¸de
mÃ¦rk ninger
ĠL ille
ĠGou verne
Pro c
ig heden
Ġass ureret
ĠJ un
ri is
ĠBortforp agtning
ĠTi me
Ġefter som
Ġforsi kr
trolle ur
ĠForholds regler
Ġinde holdende
Ġud vi
ĠAn n
ĠAft ens
berg et
c orps
ĠStudi os
Ġt a
Ġfor ven
ĠF on
ĠHol landske
Ġfiin t
ĠMinist re
ĠSt ock
ĠfÃ¸rst k
ĠAn modning
ĠSe ier
Ġinde holde
ĠSkoem ager
M a
f e
Ġf in
ĠFrederik shavn
tt re
bet aling
ĠUnderstÃ¸ ttelse
Ġbe y
Ã¦t ninger
Ar v
ĠUmynd iges
ĠUd fald
ĠCol l
ĠFor sk
Ġtilh Ã¸rer
gar n
lig heden
Ġres iderende
Ġformo des
ĠAmb ass
ĠFor bry
red itorerne
Ġ13 0
et t
ĠEn deel
z er
G aarden
c eller
kr ige
Ġvest indiske
J eg
f ler
ĠSch Ã¸n
ĠRegier ings
ĠC orsÃ¸er
aar ne
iss es
ĠDistri ct
ĠTra ct
ĠNÃ¦r vÃ¦relse
Ã¦ k
ĠSt al
ur s
Ġhol dte
ĠR is
ru d
mann s
ĠhÃ¸i tidelig
Ġfor undt
o der
Ã¦ iske
ĠP rivat
ĠAnmel delse
del ses
Ġ8 4
H ol
ĠTilb age
m ati
ĠKar to
Ġfry gt
Ġforvalter e
ĠLaan s
ĠSaa rede
Ġa ver
ster et
ĠCred it
ĠJern fang
Ġro lig
Ġ7 9
Ġfordeelagt ig
Ġtilkj ende
ĠPrÃ¦ sident
Ġop give
h au
ĠCour ant
ter es
ĠBend z
ĠS ou
Ġpaa see
ĠRe isen
ĠMiddel fart
Ġom bedes
ĠSk ind
f ten
li er
kk eligt
ĠT all
ĠMe el
ĠMat hias
ĠFer din
ĠSogne kal
A alborg
Ġsolgt es
ĠHum le
rit tiske
b Ã¸ll
Ġn o
ĠAu diteur
ĠÃĨr ter
Ġbru ge
ĠCon g
ĠExemplar er
bo es
Ġgi Ã¸res
Ġen kelt
ĠSlot tet
Ġhen ved
p lan
ĠCat har
el agt
ĠAuction erne
ĠFor h
Ġb urde
vÃ¦r ker
ĠÃ¦l dste
ĠR em
ĠB aa
ĠFl id
ling en
ĠK nu
riv ate
ĠKi ster
ĠT a
Ġsk rÃ¦
Ġber Ã¸rte
ver se
Ġopp eb
gaar s
S om
ĠNum mere
Ġd ig
ĠWe ile
ĠL am
K ong
ĠSkifteret ten
Ġl Ã¦gge
ĠH empel
i te
Ġdu elig
komm ission
ĠH ov
Ġa us
end ahl
ĠVex el
ĠEfter at
s a
u a
lam a
p ass
ĠT redie
Ġs agt
ĠDom s
Ġn aad
ru st
an ken
Ġsaa meget
Ġsal ig
j ene
Ġskj Ã¸nne
Ġerkl Ã¦rede
in al
ĠS ult
ĠDan nem
ĠLaug vÃ¦rge
ĠlÃ¦r de
z e
Ġfor en
Ġk ra
Ġei ende
ĠGr unden
ĠK roe
ĠF ischer
is iske
ĠFÃ¦ gt
og er
ĠHe i
ĠBir ket
Ġforn Ã¸
ĠForkyn delse
Ġi tem
Ġforb i
ĠAm al
ĠK and
ĠPro vi
ĠL Ã¸g
i fic
ĠK aa
ĠP undet
ĠHo broe
ĠEngel and
ĠBataill on
ĠSk abe
ĠHoved qvarteer
Ġhen imod
Ã¸d der
ĠD yt
ĠKir ker
Ġmist et
ĠBetr agtning
ĠOmstÃ¦ndigheder ne
ĠS ax
ĠEfterladen skab
og raph
st aae
ĠGr yn
Ġ200 00
Ġtil stÃ¦de
aff el
Ġm er
ĠSk y
Ġer lÃ¦gges
giv else
ĠSt ol
ĠJ am
ĠW o
ĠDef ens
ĠTil be
Ġbo er
Ġf Ã¸dte
ĠN eg
Her red
ug et
Ġre ist
Ġsvar ede
f Ã¦ste
ĠH eld
ĠGr am
K rig
ĠSch o
yp ten
ĠVe ile
ĠMid dags
ff es
ĠStat sraad
ĠHoff et
es sel
der es
Ġv urder
ĠK rist
Ġbef inder
i is
Ġ8 8
Ġ8 2
amp e
m br
Sk rivelse
Ġgj Ã¸r
Ġpaa li
ĠG ru
ĠAdresse kontoiret
les en
f ul
ĠOffic eer
ĠJu ul
L e
ĠS Ã¸d
on ne
ri er
ĠOr log
ĠMan uf
ĠKon s
de ele
ĠA a
Ġafg aae
ĠnÃ¸d vendig
Ġtro ede
ag ende
Ġfor lod
Ġuf ort
Ġanse e
Ġ12 00
Ġfors vare
ĠBeqvem melig
ra t
ĠNor ds
Ġer lÃ¦gge
Ġhid indtil
ĠsÃ¸rgelig st
ĠVirk somhed
ĠStyk gods
Ġsaa re
Ġbi vaan
ĠAn lÃ¦g
ĠJn ge
ĠD al
y dsk
ĠT im
omm ens
ĠÃ¦l dre
ĠC ant
ĠFart Ã¸ier
Ġav les
Ġtil gode
ĠC allundborg
ĠA siatiske
C ours
ĠGul ds
ĠWand all
C ompagn
Ġ8 5
ska ffe
Ġkomm ende
il t
y si
ol it
ĠJuris diction
y ttelse
K ammer
-- --
ĠAc tier
ĠStedet s
ti ende
ĠFrem gang
ĠE d
ĠV agt
ast rup
un er
ĠLu ft
ĠSt abel
ĠEn delig
Ġ ordentlig
ĠSk ud
ĠPro du
ĠBom ulds
ĠFyr sten
ĠBou ti
ĠUds Ã¦d
er te
ĠÃĺ ine
Ġanse et
ĠH iem
Ġborger lige
Ġbekiendtgi Ã¸rende
ĠVÃ¦r ge
ĠKiÃ¸bmager gade
sÃ¸ ge
ĠG ale
ĠBud ol
N y
ĠHosp it
ĠL Ã¸v
g ge
ĠCommand o
ĠHer berget
ĠAmt stue
le w
ĠJnter esse
Ġg es
ĠOver een
ĠJ fÃ¸lge
ĠKal k
Ġnu vÃ¦rende
Ġund gaae
ro b
gi el
ĠMolt ke
ĠCon d
Ġn et
Ġl u
ĠFortegn else
sh ald
ĠHan n
ĠK ri
ĠAvertissement s
ĠCar ac
ĠF ac
Ġbest od
ĠSkj eb
in tet
Ġre iste
Ġforskel lige
or f
ĠH Ã¦nde
ran dede
ĠPrÃ¦ sten
ĠD ort
on ner
Ġhv o
ĠLiebha verne
ĠM og
s lev
ĠArrest anten
ĠVic e
ĠVaan ings
ĠFre dens
Ġ178 3
ĠPeder sdatter
ĠgrÃ¦ ske
ĠT yl
ĠDav id
ĠSp idsen
ĠJnd flydelse
ĠMorg es
bri tt
ĠBÃ¼ low
ab le
by de
Ġst r
Ġop n
Ġt v
Ġs o
ĠJ ydske
Ġfri ske
si oner
Ġtien e
ĠFÃ¦dr elandet
ĠS undet
vÃ¦r d
ĠDeb i
del u
Ġig aar
ĠHerreds fog
an ne
ĠL Ã¦der
ĠAgt else
dr er
ste in
B og
ec retair
Ġbef andt
us inde
ĠAar h
ĠFran z
ĠJens datter
f Ã¸l
ĠF Ã¦l
ĠFran krige
mÃ¦ss ige
st axt
Ġlig nende
ĠPrior itets
ĠL Ã¦ng
ĠLe ge
ĠBevÃ¦g else
t alt
ĠBrÃ¸d re
vÃ¦rk s
ĠP igen
ĠDep es
Ġs vare
ĠT ar
ĠAuk tion
tag ende
c ul
ĠSk or
ĠKl ub
Ġud b
Ġbort sti
Ġbekjendtgj ort
ĠLande veien
Ġc ivil
ĠAc adem
S ogn
vil lige
ĠTÃ¸r ve
ĠB Ã¸n
Ġbet r
ĠTro pp
Ġst rÃ¦
ĠSte vning
ĠE eg
ĠKronpr indsen
Ġlov befal
h ug
ĠÃ¸n skede
ĠChristians and
ĠRigsd aler
ĠFry gt
Ġcont ant
c ien
Ġi Ã¸vrigt
ĠSch ou
Ġbeh Ã¸ver
ĠBeg ge
g av
Ġbehagelig st
ĠM oss
ĠBonde standen
lem ent
f eld
ĠGods et
ĠKr ag
in sk
ĠApothe ker
Ġhenh Ã¸rer
Ġdi verse
ĠH iller
Ġpaast aae
m esse
on om
ĠM odt
Ġv ansk
Ġudn Ã¦vnte
f est
Ġmodt og
ĠJ er
Ġs y
ĠU de
ĠLands by
1 1
ĠS in
ĠPrem ie
ĠMarg rethe
ĠTilbe hÃ¸r
i i
Ã¸ vede
ort s
au tion
ĠForanstalt ninger
ĠBisk o
Ġs ind
ĠM ore
Ġund v
ĠForp agt
Ġhaa be
ĠLe ye
ĠSt am
ĠViin handler
S ch
ĠC re
O r
saa vidt
ĠA ff
ĠG odt
ug ten
ĠGehei mer
ide m
c ke
Ġsk river
ĠT anker
ĠLegiti mation
f Ã¦l
ĠNiels datter
Ġerkl Ã¦re
ĠP oh
ĠLi ve
ĠK ann
res sen
ĠSÃ¦r deleshed
ĠForn Ã¸ielse
ĠFor gaars
ĠDan iel
ĠOver formynder
Ã¸m met
ĠM ig
K orn
ĠfÃ¸r es
ĠAf sk
ur ance
ĠT vivl
ĠRig ets
Ġu b
ĠUn dt
ien der
Ġ9 3
ĠReg ent
ĠPompe vand
ĠPla dsen
Ġun gt
r yn
dr ene
anden e
ol gte
ĠUnder tegnedes
aa else
Ġt ing
ĠAl mu
Ġbro elagt
st aver
ĠConsum tions
m ene
ĠK affe
ĠU di
ĠB aden
kke des
ĠSlag et
U di
Ġa pp
ĠMon ar
ĠMÃ¼ n
g an
ĠGeneral major
v ortes
Ġder vÃ¦rende
ĠJ a
Ġle veret
Ġcon st
kf urt
Ġs u
ĠBudol phi
ĠKon st
ĠDer imod
Ġinder lig
ĠTien der
ac k
Ġnord re
ĠJnd byg
G aard
Ġtilf reds
ĠDom kirken
Ġuds atte
Ġforst aaer
ĠKar l
eski Ã¦r
ĠRe par
lag ne
Ġud givne
ĠHo ppe
Ġfornem melig
ĠThe ol
Ġp h
ĠMil l
Ġforbli ve
ĠdrÃ¦ b
ĠOm gang
ĠNye kiÃ¸bing
mÃ¦gt igede
ĠSt ab
P ar
ĠA ftes
Ġtil veie
b iÃ¸r
Ġkal dte
ĠJnd boe
ĠBel g
k n
Ġm ar
ker nes
ĠSte mmer
Ġopb udet
ĠN ach
Ġn Ã¦vnes
Ġform aaer
ĠNÃ¦r ings
al ske
be f
ĠOst indien
ĠAmbass ade
ĠFor el
Ġr aa
ĠÃ¦ del
sk assen
ĠKy ster
Ġm este
hÃ¸ ist
Ġi det
ĠFuld magt
ĠFort Ã¦l
Ġ100 00
Ġbestem me
ĠHaa gen
ĠNor den
ĠForli ig
ĠMat h
ĠLÃ¦ ge
ĠSkri dt
ĠJn tet
ĠH atte
Ġge istlige
ĠFor lydende
ĠFl Ã¸i
ĠTil lid
Ġd isses
Ġforlang te
ĠB as
ĠSpÃ¸rg smaal
Ġa gte
Ġop byg
Ġpaa tage
Ġsk ade
ĠFors endelse
Ã¸b e
ĠK ry
p ige
Ġindt raf
ĠJnst ru
ĠL av
ĠP e
Ġinter ess
fal dt
ĠAd dresse
ĠBor ch
ĠA as
ĠBorg mester
br inger
Ġsidst afvigte
Ġbru gte
ĠprÃ¦ di
ĠForbed rings
Ġforel Ã¸b
ĠLotter ie
Ġk gl
Ġkal des
Ġk lar
anc er
ĠAnst alter
h andel
and re
ĠG age
ĠFl esk
Ġopdag et
ĠS lutningen
Ġst illes
ĠHj em
ĠMed borg
ĠGem al
bog en
ĠSogneprÃ¦ sten
ĠD ame
ĠLiv stid
Ġfore komme
ĠLangel and
Ġgiv ne
Ġs log
klÃ¦ de
Ġv an
ĠT ru
ĠSubskri ption
Ġtegl hÃ¦ngt
ĠBrÃ¦ndeviin s
Ġbru gt
Ġbi fald
ĠMal m
C ommissair
ĠF ravÃ¦r
ĠLin ie
er t
Ġh ur
Ġa mer
ĠKon dition
ĠGrÃ¦ ken
1 6
aa se
ti e
ĠMari ager
ĠAv l
ĠNords Ã¸en
A ss
ĠFor raad
ĠK Ã¸n
St ad
er ske
Ġbehag entlig
lever es
ĠBest rÃ¦b
a sen
ĠSt aal
Ġl over
Ġvil let
ĠUrte krÃ¦mmer
Ġre ster
ĠLiebha ver
ĠMon rad
ĠP ommer
ĠMa y
Ġg ro
kk ende
Ġvigt igste
Ġfru gt
Ġm at
ĠTo ul
Ġmed deelte
Ã¸ s
ĠFÃ¦ e
ĠfÃ¶r stkommende
jer n
fal der
ĠSt av
ĠJan sen
y tt
ĠCou reer
ĠSe idel
ĠNord amer
ĠlÃ¸b e
ĠBogh vede
Ġtil ende
Ġh Ã¸rte
ĠT omme
ĠP anter
ĠH vem
ĠSkifteret tens
ĠMaa der
ĠPo ster
eg nen
ĠKonger iget
Ġop holdende
ĠSteen kul
ĠC orn
Ġal s
Ġfat tige
ĠBorn holm
Ġ qv
Ġaf lÃ¦gge
S aa
ĠSko ve
Ġsaa rede
Ġud bred
ĠW ordingborg
ĠCommission air
ĠDort he
bÃ¸r n
ĠHolste broe
stÃ¦ d
Ġs Ã¸gte
1 4
ĠPlan ke
ĠRit mester
A vis
Ġpubli c
elig heder
Ã¸m melse
Ġdr age
Ġaab net
tige de
ĠMinist rene
ter nes
Ret tens
ĠK old
ie del
Ġsk rives
ĠSenge steder
Ġk eiser
ĠHv id
KjÃ¸benhavn s
ĠDrag ki
b reve
ĠHam b
hand le
ĠKiÃ¸bmand s
ina ire
es ke
ĠEng s
ant inden
ĠK aar
Ġgodt giÃ¸re
ĠJourn al
pri ser
ĠBed ste
ĠPublik um
ĠV ad
Ġd rives
ĠNog en
or k
kk ere
Ġhand le
ĠKj Ã¦r
g ens
u es
ĠA ske
ĠMed ic
y le
ĠK red
ĠD un
ĠFreg atten
ĠPl ant
ĠS mede
ĠSte entÃ¸i
Ġmil itaire
m ach
ĠSÃ¸n dags
Ġinde staaende
ĠSkriv papiir
Ġdob belte
Ġa b
ĠÃ¸ ver
ele ie
atur er
h off
lig ter
ĠN orges
ĠA us
ĠFrem mede
ĠStu en
o vede
ĠN issen
ĠNiel sens
u te
Ġd yr
Ġfor p
R ets
ĠV ers
an ien
1 3
ye ste
Ġad vares
ĠBet ing
gi Ã¸rende
h istor
lutte de
Ġved bÃ¸r
sted t
ĠFor modning
ĠBes Ã¦tningen
ĠOb lig
ĠS la
Ġ9 2
Ġan holde
ĠKeiser l
b ach
ĠFÃ¸ds elsdag
ski Ã¸nt
Ġ8 6
ha vers
ĠOberst lieutenant
ĠAb ra
c retair
st ri
ĠTil lige
ĠFy hn
Ġb Ã¸de
ol in
ĠAftens ang
ĠBebo ere
ĠB is
ĠH immel
ant a
ĠEsk adre
Ġtil for
ĠL at
mar sken
ĠPre us
Ġu ber
ĠJn vent
Ġforet age
ol ph
dag e
regi ment
ĠFÃ¸l ger
ession en
ĠRyg tet
Ġg unst
elig ste
ĠMinister ium
ĠH i
ĠBegiven heder
anter e
mid del
ĠMa sk
Ġl at
ĠO tt
ĠHorn s
j orden
Ġv idste
r ager
ĠW elling
ĠHo verie
ĠKjÃ¸ kken
Ġh Ã¸rt
ĠUd giv
h vn
lig st
Ġskyl der
en ce
as ch
Ġskyl de
ĠColle cteur
b Ã¸d
ĠTyr kiske
Ġforan fÃ¸rte
ba and
Ġom meldte
ĠSkjeb ne
vÃ¦r n
ĠDrag on
it sch
ĠByetings ret
Ġer ind
ĠS igt
it s
ĠJn tel
ĠEl se
ĠDistri c
ĠH ass
Ġ- ----
ĠMat ro
ĠBek rÃ¦
Ġgiv t
ĠFe il
ĠsÃ¸ ndre
ĠSpise kammer
um mer
Ġvi ste
ĠKronpr inds
ĠB aade
rÃ¦ d
ĠAc ter
ĠK ug
id ne
ĠSkiftet s
ĠD ar
ĠKir kes
m aa
ari ats
ĠÃĨ res
ĠSag ens
ĠLi ster
is on
gi vende
post en
Ġtilkiende give
ĠR ab
Ġbet rÃ¦
ĠPar celler
f ne
ĠFÃ¸r st
Ã¶ d
Ġop givne
aan e
ĠMi kk
Ã¶b enhavn
ĠJor derne
ĠV igtighed
hen borg
ha vere
ĠLog ie
Ġdy b
ĠE iere
Ġsikker t
ĠMÃ¸l lesk
ĠAu d
dom s
ĠMand skabet
T old
Ġudt ry
Ġslutte de
I I
ĠGe ist
ran sp
ĠfornÃ¸ dent
arbe idet
Ġst aaet
iden de
ĠbehÃ¸v es
J a
ĠfÃ¸l gelig
ĠHu use
ĠHauge plads
Ġfast sat
Ġhvor hos
Ġvigt ig
a i
Ġv ox
Ġ illum
ĠRig et
ĠSÃ¦ kke
ĠAdresse com
ĠBra s
ĠF kr
ĠKir ket
Ġre gi
ĠMah ogn
a and
ĠCred itor
ĠKiÃ¸b et
ĠD Ã¦kket
ĠBo pÃ¦l
ĠErfar ing
ĠJohan sen
Ġ177 7
Ġsvar es
ĠByg ningen
Ġan vende
ĠAf reise
ki et
ĠFor klar
Ã¦n ker
Ã¦ b
ĠA ction
Ġbe holde
dt es
ĠKon toir
ĠBi bliothe
b rev
ĠS ahl
Ã¦l det
4 0
ar et
ĠM Ã¸n
ĠDis conto
hr en
ĠDefens or
ĠRed skab
Ar be
ĠT axt
ĠApp rob
ĠEnke f
Ġl agde
Ġsyn tes
P ost
Ġaf gik
2 3
b ed
vil ket
ĠSj Ã¦l
V e
Ġfald ne
er edskab
ĠOx e
ĠJnsur gen
S ti
ĠHÃ¸i tidelig
ĠH ur
ĠindlÃ¸b ne
gaae de
ĠSkriver stue
ĠFravÃ¦r else
ĠAfdel ing
v ind
in dende
ĠD amer
ĠKlo kker
ĠHospit als
ĠW arsch
ĠThe olog
Ġf i
ĠJr land
li chen
ĠTÃ¸rv eskiÃ¦r
ĠUndt agelse
mere de
at t
ĠSkipp ere
ĠStudios us
o ste
ĠAbra ham
Ġhol landsk
ĠFrederik sberg
Ġleds aget
ĠS van
ĠEr indring
in erede
og le
ĠHe el
sen e
ande de
ĠKrig sraad
ĠBir ch
ĠB roe
Ġtil lagt
ĠKakkelov n
ĠJ ah
Ġgr undet
ĠT ver
Ġr ussisk
Ġlovbefal et
ĠGre en
ĠHier te
Ġubet yde
mÃ¦gtig et
ĠR ich
kal des
Ġa uch
Ġafg l
Ġb orte
ĠMich el
q ver
ĠRig a
ig ts
ĠLov ens
Ġkal de
ĠDeb itor
Ġn icht
Ġfle ere
ĠJnd st
ĠnÃ¸dvend ige
ĠSal ling
ĠNational b
Ġ ler
Ġ9 9
itter et
ĠEn ge
reds hed
ĠHolste in
Ã¸n s
ĠHol bek
Ġp rivate
ĠPrÃ¦ siden
ĠTh ron
ĠM Ã¦rke
Ġ11 0
Ġvedbli ver
ĠM ors
ĠHiÃ¸r ing
ĠB ass
ĠSk ulle
ĠB od
Ġfor saavidt
usen e
F Ã¸r
ĠPro tocol
ĠgrÃ¦ sses
Ġtid ligere
Ġ177 5
ĠDannebrog smand
ĠAr m
Ġgi orte
ĠK om
ĠBier g
Ġtilkiende gives
ĠCou le
t ryk
Ġm yr
ĠN Ã¦
ĠGulds med
Ġk jÃ¸bs
ĠLu x
oh n
ĠRes ult
Ġ8 7
Ġhol steen
ĠEnd nu
st al
Ġst u
ĠDannem ark
ĠT ax
ĠlÃ¸b ende
Ġn Ã¸ie
Ġskrift lig
ĠF ir
ĠDu elighed
Ġbe vÃ¦b
Ġind kom
ĠLand vÃ¦sens
ĠWe del
Ġberet tiget
Ġan holdt
ĠKomm and
eg ning
Ġ178 2
om st
ĠHandels mand
lever ede
rÃ¦n g
kom ster
Ġfrem med
Ġsi kk
ĠB ladet
ĠFÃ¦r ge
ĠComm un
ĠMod stand
ĠAuctions directeur
Ġy pper
ĠKancel li
Ġan der
ĠJnd stevnte
Ġ177 6
b or
ĠF em
Ġor ig
ĠTr in
ĠH essen
ĠCon t
ĠY n
ĠD ersom
Ġder under
Ġfri sk
ĠSold at
li m
c i
Ġund lade
Ġtils idst
Ġneds at
ĠP C
ĠLiebha vere
ĠLod der
ĠSk anderborg
1 5
ĠChrist ine
ĠE st
ĠLaur vig
os a
tr ing
Ġs pr
ĠH ul
Ġpaa fordres
a ster
ĠU le
Ġan give
Ġg ar
jen er
ĠFebru ari
ĠBli k
r am
ĠI s
ĠIn f
Ġanm Ã¦lde
ĠKann ike
Ġr Ã¸dt
ĠK asser
sb urg
ĠLiv ets
Ġbl ant
ĠFinder en
Ġd rive
ĠSvag hed
Ġs er
Ġvedbli ve
Jn specteur
ĠGods er
en terne
ast et
Ġoph Ã¦
ĠPar cel
ĠCavaller ie
ĠGeheimer aad
ĠSÃ¸ em
e ge
ĠMe ier
Ġre en
ro y
Ġn Ã¦vnte
Ġ178 1
bo derne
Ġs iel
ĠBe meldte
tte de
ĠBekrÃ¦ ftelse
m or
nes en
Ġfordeelagt ige
Ġm al
ĠDÃ¸ ttre
ĠL uf
aars ag
ar p
f old
ys sel
Ġtil lader
ĠDÃ¸ds faldet
ĠUdlÃ¦gs haver
ĠPorcel ain
skab ets
b inder
bet jent
Ġsp ec
ĠlÃ¦ se
ĠSp or
Ġforn Ã¦r
n ere
Ġantag ne
Ġforen et
E R
y et
ĠV ox
ĠKo ef
ĠForst Ã¦rk
Ġbe der
ĠUd giveren
h oved
Ġind fÃ¸res
ĠSa del
ning e
Ġu ind
os oph
in k
ĠO rig
ne berg
ĠHal m
ĠT Ã¸i
ĠAr n
Ġbort kommen
ĠStadsret ten
ĠJnf anter
vil lig
ĠPre ussiske
cer t
ĠS mer
Ġh ies
Ġu mu
ĠsÃ¸ gt
ĠHei berg
Ġo ct
ĠTor den
ĠR ost
u le
ĠStem me
ĠMeen igheder
itet et
Ġsk affe
mar ken
ĠApprob ation
ĠF Ã¸de
ĠB ele
ĠSter l
Ġbeg av
ĠAv ling
Ġsepar at
d rup
ĠTryk papiir
ĠV ah
KiÃ¸benhavn s
Ġ8 9
ĠF avn
ĠL Ã¦ster
un t
Ġun ter
Kon gen
Ġmed deles
x el
Ġry kkede
Ġv els
ui te
Ġ178 0
ec k
Ã¦g gelse
ĠR ide
Ġsk rive
ĠLÃ¦r red
N atten
ĠG ri
Ġind sendt
ĠC las
kammer et
B ek
Ã¸l ler
ĠPr Ã¸ver
O p
ĠManuf ac
ĠSognekal d
Ġbestem mes
i kke
ĠU m
mÃ¦gt ige
te st
ĠKeiser ens
Ġben ytte
ĠKarto fler
ĠOt to
ĠD isp
ĠW or
ĠPapir er
ĠF lad
Obligation er
ĠBekjendt gjÃ¸relse
ed ig
ĠdrÃ¦b te
p let
ĠCh ur
ĠKap it
skaf tet
3 0
ch es
ĠBe ck
d orff
Ġud kommer
Ġ17 0
gj orte
Ġufort Ã¸vet
Ġfor seg
ĠM ang
ĠSt randen
ĠnÃ¦rme ste
ĠSti fte
ĠDeb itorerne
Ġbeski kkede
ĠMÃ¦g ler
Ġtil intet
y se
Ġi fald
ĠEngel lÃ¦nderne
ĠGevin st
i b
ĠF Ã¸lgende
en den
Ġhast ig
fyr st
ĠCommiss arier
ĠHol sten
ĠAmer ica
ĠW Ã¼r
stÃ¦ det
Ġform ode
ĠB ad
de le
ĠK ommission
Ġaf sendt
ĠTrÃ¦ k
ĠMa yn
Ġforme entlige
S Ã¸n
Ġbl aa
Ġaf lagt
v endes
ĠC aution
Ġhaar de
up s
t u
ĠB isp
ĠVer dens
Ġnytt ige
ĠW er
Ġski Ã¸n
Ġfor vent
ĠE ed
Ġv inde
Ġher sker
ĠAlex ander
ĠAmts forvalter
Ber gen
ĠBÃ¸d ker
K i
ĠGi br
Ġt rak
ĠTor ve
omm et
ĠAtte st
c te
gaar de
ĠÃĺsterrig ske
Ġg ra
Ġover draget
ĠP lo
ĠKi Ã¸r
Ġk n
Ġg ang
ĠMich elsen
ĠCent o
ĠC am
ĠBe fuld
ĠK ur
an z
Ġt Ã¸rre
ĠfÃ¸r er
gt ige
Ġlang s
ĠD Ã¸r
ĠMaterial ier
s sel
ĠEt ats
Ġs mer
Ġudbet alt
hav et
Ġpro tocoller
ĠV immel
Ġent lediget
ĠK la
Ã¼ n
ĠQv anti
ĠLuf ten
ob ligation
Ġsk rivt
ier en
Ġhalv t
Ġoph Ã¦vet
ĠJlde brand
Ġforl ange
Ġb or
Ġafg aaer
ĠSkol er
lig viis
Den ne
ĠNe w
Ġ q
Ġk iende
Ġb ry
Ġ7 00
Ġse x
ĠAc c
Ġbehagelig en
ĠsÃ¸rg elige
mer s
Ġbort forp
vis or
ĠUro ligheder
ĠVÃ¦r net
ĠP eber
Ġh undrede
on en
alt ar
k ret
ĠB art
ĠFog derie
k ne
mo uth
ĠErke hertug
Ġge omet
ĠAdressecom toiret
ĠSti fter
ĠSand hed
Ġ ru
ĠGar de
Ġred de
ĠtiltrÃ¦ de
ĠFran kfurt
skri fter
ĠHvede meel
Ġgammel t
Ġbes Ã¸r
sp e
ens gade
ĠSÃ¦ be
Ġud fÃ¸r
si ske
ĠGou ver
Ġbet ro
er al
Ġbef ry
Ġt iende
ĠRing kiÃ¸bing
ĠBekiendt giÃ¸r
ĠR ott
ges en
Ġhvori blant
M ar
an dere
Ġ9 8
Ġvirk elige
Ġcivil e
ĠKÃ¸n ig
Ġmid del
ĠE ne
Ġberam mede
ĠFerdin and
ĠTo ug
Ġi dag
bet ient
ĠCop iist
Ġug entlig
hel st
ĠStiftamt mand
ĠBo ur
ĠtrÃ¦ de
ĠG le
ĠUniversitet et
ĠSko e
ĠComm itte
ĠB landt
an erne
ĠSÃ¸ es
ĠWil se
ĠFle ischer
Ġ177 9
ĠHovedgaard staxt
Ã¸ ers
ĠDepu teret
agt es
v a
lie uten
ĠE sc
Ġafb rÃ¦ndte
ĠSt ub
Ġk jendt
Ġanord nede
ĠJen sens
ĠSch um
qu is
Ġbeqvem me
s v
st ande
ĠHol landsk
ĠJnteressen tere
dr ess
ĠL isp
ic k
Ġ16 0
Ġib id
k ilde
Ġrester ende
ĠCit roner
ĠForn Ã¸den
Ġbl od
ĠTÃ¸n den
Ġforsam lede
ĠAd sk
ĠBet ien
Ġ14 0
ĠJ essen
ĠC asse
uler et
ou ge
Ġgr aae
Ġforlang t
ĠErich sen
Ġdit to
f ort
man s
Ġfor fÃ¦rdige
Ġbekjendtgj Ã¸re
aan ed
Ġbes atte
tion er
Ġh istor
sc ommissair
Ski pper
Ġ177 8
Ġaf se
aar en
Ġt r
var ede
ĠVÃ¦rnet ing
Ġnogen lunde
Ġgu le
Ã¸ se
Ġz ur
ĠHans datter
og en
ĠGeneral er
for uden
Ġaab nes
ĠW all
ant z
ĠFri e
ĠWarsch au
ĠDon au
Ġaf gjort
Ġheller e
ĠSed l
ĠE p
c ti
ĠHav et
ĠFolk ets
ĠP u
ist rup
Ġeen gang
ĠDes uden
ĠGrunds Ã¦tninger
ĠChrist ensdatter
Ġbyg get
ĠSum mer
ind ringer
ĠEm beder
ĠM it
Ġvist a
ĠVirk ning
st unden
ug s
Ġind skrÃ¦n
k aste
Ġperson lig
ĠUde bli
Ġd ire
ĠKi Ã¸n
br ig
ĠRe ctor
Ġang ribe
Ġt ydelig
Ġunder rettet
ĠÃĺ e
Ġski kkelig
Ġt ol
ĠBr uns
S edler
ĠU orden
Ġsaa og
ĠFor lag
Ġ rigt
ĠSeidel in
ĠTall otteriets
ĠSn ap
Ã¦g ges
ĠLy se
ons ul
Ġvar ede
ĠHann over
Ġry kke
ĠT affel
ĠGot henborg
et Ã¸i
ve ir
la c
ĠP on
ĠR od
Red skaber
ĠGie st
Ġhol den
ĠLÃ¼ t
ven sk
ĠD ri
Ġmiste de
ĠKy sten
dr age
ĠSkib ene
ĠKru dt
Ġang reb
ĠRegister ing
E nd
Ġborts olgte
ĠGrav en
Ġu mynd
Ġpluds elig
For retning
ĠSk ie
ĠStat en
Ġen de
b eg
ĠKong es
ĠCon f
Ġa dsp
ĠVimmel skaftet
Ġ10 3
cel l
ĠMatro ser
ĠGibr altar
ĠAntal let
m ange
Ġ8 1
her ren
ĠHen d
ford ret
ĠF ig
Ġbeqvem t
Ġanst undende
ĠQvart al
fÃ¸r ste
ĠRes c
Ġj uri
Ġdes lige
ĠUdlÃ¦gs havers
ĠK ors
Ġgi b
Ġbet rukne
ken er
ĠB Ã¦ster
Ã¦t telsen
ach en
ĠV old
given hed
ĠSig net
ĠP an
ĠV ir
ĠAmer ika
al tet
fog den
ĠbehÃ¸r ige
ĠJs land
l ager
ri der
ĠKl Ã¸ver
ĠSlag ter
k ur
ĠSte ge
Ġforven te
ĠT aa
ed ning
Ġhe ftig
Ġsim p
ĠH ast
ĠB aller
ĠGrÃ¦s ning
Ġind deelt
ĠRig er
ĠFrederich s
Ġsk revet
int her
ĠPlac ater
rig tig
art es
s els
st or
ĠW en
ĠGrÃ¦ v
Ġly kkelige
ĠDep ut
O g
ret ter
ĠGot t
ĠFisker ie
ĠStrÃ¸m per
st ads
em ent
Ġ8 000
ĠStifts provst
sÃ¸ gt
ĠForbedrings huus
Ġb rittiske
sk revet
Ã¦n kt
ĠJustit skassen
ch et
E N
ĠEn den
mer sken
omm el
vig er
ĠForestilling er
ar n
ĠHol bech
ĠPrÃ¦st Ã¸e
ĠUndersÃ¸g else
h re
ĠAm tet
Ġh em
Ġm alet
ĠSkuesp iller
ĠUly kke
w ig
Ġ9 5
ĠSm aa
Contoir ets
o pp
ĠHÃ¸i messe
ĠKo e
Ġan bragt
6 0
ĠSkifte kommission
ĠStor britt
ĠBu on
k orps
stÃ¦ ds
ig l
ĠAars agen
ĠPl at
ĠRet tighed
ĠJ is
aff in
c omm
ĠT el
ĠR and
Ġd ruk
ĠBestem melser
Ġp lan
Ġ13 2
Ġ177 4
ĠoverflÃ¸d ig
ĠOr gan
Ġud gjÃ¸re
Ġly kkedes
Ġr ige
Ġmodt ager
ĠStyr ke
ĠBr Ã¸n
ĠRh in
Ġfier de
k ens
l aae
Ġbes ynder
ĠM ord
ĠIn ventarium
gi ske
Ġaf give
Ġmed tager
Ġyder ligere
ĠNum mer
l Ã¸v
Ġslet te
l agen
Ġfor un
ĠPhil ip
ĠNavn et
F abri
g re
Ġled ige
Ġderi blandt
ĠVind uer
Ġring ere
Ġa m
ĠK op
ĠTron d
ver t
ĠBesk yttelse
ĠForlig elses
Ġv undet
Ġapp ro
Ġ177 3
ĠHar ver
ĠDrag oner
ĠTing sted
Ġslut tes
ĠAd gang
ĠOp h
ĠRigsbank tegn
ĠQv itter
orp or
p art
ĠG ode
ĠBog staver
lÃ¸ st
n ich
ĠRentekammer et
ant um
uni tion
hol den
sch e
sty kke
= ,
ĠK ab
ĠStadsret tens
ĠLyng bye
Ġw ir
ĠCompagn ies
ĠFragt gods
Ġv a
Ġty k
Ġ lev
ĠPrÃ¦m ier
ds borg
ĠVer tshuus
ĠJorde gods
ere m
i ra
ĠOm s
ĠH Ã¦der
ĠHj el
ĠN ak
ĠJnd retning
yes yn
ĠAn kere
ĠMar ti
ĠFal be
Ġo n
Ġkun det
Ġven skab
m eligt
ĠAdresse contoiret
ĠO li
ĠUndersaa t
ĠProv in
ĠGe vÃ¦r
ĠAab ning
Ġanbefal er
Ġi alt
ĠvedbÃ¸r lig
Ġbef inde
et ten
Ã¶ bs
Ġadskil ligt
Ġgeomet risk
Ġs vensk
ĠvÃ¦r dige
Ġli de
enter e
Ġu til
ĠBr un
ĠÃ¸ver ste
ĠVar me
ĠJnd fÃ¸rsel
Ġn ing
Ġan fÃ¸rt
Ġud lÃ¸b
H ans
for ord
q ven
ud ne
ĠSund bye
Ġs eneste
ĠForand ringer
H an
s ende
ĠUdt og
Ġop ly
ĠAn ton
ĠKong sberg
Ġforf attet
teg net
ĠKannike strÃ¦de
ĠTyl ter
st ien
Ġ11 2
ĠAr ch
ĠArti kler
ĠLem mer
Ġud gjÃ¸r
ĠPoliti et
v ne
di sk
Ġk astede
ha verne
ĠDan zig
ĠVinter en
Ġafs agte
Ġfrem st
T ydsk
Ġp at
ĠLie uten
Ġgib sede
ĠPlanke vÃ¦rk
ĠLÃ¦ se
Ġforsikr er
or dere
ap p
Ã¦l d
En gel
ec t
ĠGader ne
ĠSt ud
ant ens
ĠFd k
Ġt viv
Ġe urop
ĠMÃ¸llesk yld
ĠD ann
ĠT aler
Ġfuld stÃ¦ndig
al is
ĠCon fir
ic o
ĠCour s
ĠBrand kasse
Ġvurder et
ĠGu ine
ĠBog binder
in ets
Ġs vÃ¦r
ĠVest indiske
ĠKronpr indsens
Ã Ĩ
Ġi blant
Ã¸b te
Ġud fÃ¸re
ĠSkipp und
v ir
ĠG o
ĠBindingsvÃ¦rk s
f ader
ĠBataill oner
P r
g aaer
ĠP ud
ĠJes per
ĠW inther
Ġtilb ag
Ã¼r gen
j Ã¸r
Ġsk il
Ġafre ist
er m
ĠVÃ¦r ger
Ġeg entlig
ĠHirsch holm
ĠFe ber
ĠAmbassade ur
Ġbe ord
ĠH in
es e
ĠSt Ã¦vning
ĠVis hed
bel toft
ed t
der ende
ĠArbe ider
ĠÃĺr sted
ĠLand g
ĠLe ir
ĠPort ra
Ġfal ske
a se
ĠH im
ĠAf ske
Ġven dte
ĠSch ier
ĠDor othe
ĠHer man
Ġfore byg
ĠBestyr else
b aade
Ġud give
rÃ¦ kke
ĠEr ter
ĠDre ier
Ġefter skrevne
ĠVid nes
ĠK u
Ġaf levere
Ġforb ru
ĠBÃ¸rn s
Ġ yn
Ma jor
Ġhe elt
Ġhvor hen
ĠSte ent
Ġt i
ĠTi Ã¦re
r ine
ĠF lere
ĠChar lotte
ĠSp ar
Ġefter fÃ¸lgende
ĠUds igt
ĠKnu ds
ĠA k
ĠD ens
Ġvente de
ĠFÃ¦st nings
Ġc oule
ĠProf ession
ĠÃĺ st
Ġom talte
V or
h Ã¦
Ġn Ã¸dt
po ol
ĠKre ature
Ġs ter
ĠGemal inde
Ġuf org
ĠBes Ã¸g
Ġgu ul
ĠH eg
d Ã¸d
in specteur
lo den
ĠMinister en
ĠAd am
ĠH vi
Ġforts Ã¦tte
ĠRegn skab
ĠO lie
ĠLi delser
u ter
lig et
ĠMagaz in
I fÃ¸lge
ĠBeqvemmelig heder
huus et
Ġarrester et
ĠprÃ¦ c
Ġ9 6
ĠSaa snart
ĠKiÃ¸bstÃ¦ der
v art
hol ske
ĠStock holm
ĠDyt mersken
fal dende
ylde st
an a
ĠJver sen
n ok
Ġtil skrive
ĠTold kammer
ĠSp il
eng ene
E r
jer ing
ĠFor aar
ĠTilf redshed
Ġunder rette
hold nings
ĠEmbeds mand
ĠAn deel
ĠSp ansk
ĠRegjer ings
bring es
ĠQvanti tet
Ġwel che
ĠV ansk
Ġved varende
ĠFar ve
ĠRe ier
ĠFl ode
ĠTrÃ¦ last
ĠBorde aux
ĠS Ã¦nge
Ġkun net
Ġsyd lige
ens inde
ĠStat ens
Ġre ent
Ġly se
Ġhur tig
n else
ĠPlak aten
ĠFor retningen
ĠFrederich sberg
Ġfor gi
Ġpro c
Ġmen er
ĠQv antum
ĠMilli on
Ġover ordentlige
ĠSyg eleie
ĠSou ver
Ġr en
j erne
ĠLe er
nem melig
ĠKrÃ¦ fter
b Ã¸ger
ĠFor ts
ĠL er
ĠUnder huset
b ind
Ġst ode
Ġuds let
ĠHus ar
ĠV og
Ġop mun
sk irken
ĠF el
biÃ¸r nsen
ĠUd fÃ¸rsel
ĠF rist
ĠForklar ing
k iendt
ĠMa s
Ġcon dition
ĠFien der
Ġred det
- ,
ra b
den es
ĠPrÃ¦ ster
Ã¸ gt
Ġ9 4
ĠKoef oed
Ġu ro
Ġimodt age
ĠSach sen
Ġk orte
s edler
ĠE en
ĠKir sten
ĠLiges om
ĠColle ct
Ġsand syn
ĠLi ver
ge ist
ĠAn vende
Ġbo e
ĠUnder offic
ĠPlan ker
ĠJomf ru
Ġgiel dende
ĠK allundborg
a ber
ĠCh al
v it
ds el
Tydsk land
C ap
ĠP ligter
ĠRh inen
ĠSund hed
i vet
Ġa gt
ĠLem vig
eg aards
ĠRi ber
ĠB ran
Ġval gt
a ul
Ġhe ft
ri ske
Ġprotocoller et
der up
Ġch rist
Ġm and
ru g
ly nd
ĠLÃ¸ ven
Ã¦l der
mo der
fal den
Ġsol gte
f aste
ĠMar gar
Ġudn Ã¦vnes
Ġuds Ã¦ttes
ĠPremier lieutenant
a il
Ġud giÃ¸r
skaf ne
ski ftet
Ã¦r ende
h ald
tal es
ĠCor respon
bo ed
ĠKeiser inden
ĠOvereen sk
ĠF lÃ¦
ĠM ist
ĠFjen den
ĠHa ugen
t elige
ĠR ussisk
ĠR Ã¸nne
M in
ĠfÃ¸r ende
ĠLe je
fÃ¦st et
iel pe
gr yn
ĠBiel Ã¦gger
1 9
2 5
c ret
Ġaf giÃ¸re
ĠVe il
ol l
byr d
ĠB rest
ĠDorothe a
ĠA ctionen
ĠB Ã¶r
ĠLe ve
ĠMuur mester
Ġforf ul
Ġ12 8
ĠRyg ter
ss et
Ġkal dede
Ġst and
ĠBestrÃ¦b elser
t ende
u ro
ĠHollÃ¦nder ie
aa der
Ġand raget
ĠR Ã¸ver
ĠmÃ¸r ke
ĠS li
ĠCon rad
eller ne
FÃ¸r stkommende
Ġge w
S ecretair
Ġan kommet
ĠU g
res ch
Ġ177 1
ĠRegiment et
ĠStÃ¦ det
s omme
ĠG ust
ĠFor seg
ĠHÃ¸ eg
ĠE b
ĠHandel sh
ĠDepes cher
ĠSchul z
Ġs lig
Ġover maade
ister ne
Ġbru un
ĠKobber e
aab te
ĠDire k
ĠS ad
Ġh ier
ĠP aven
ĠGr undt
Ġans atte
ĠFor synet
Ġ10 5
Ġuds p
s vend
Ġ17 3
stiden de
st ens
f Ã¦ster
ĠTobak s
ĠSven sk
ĠL is
ĠSki Ã¦r
Ġskj Ã¸ndt
Ġnor sk
Ġber o
ĠAns igt
ĠFyr ste
Ġdeel tage
ĠVaaben stil
Ġudbet ales
ĠSubsc rip
ĠRus ser
ĠFo der
Ġ10 6
Et aten
ĠUhr mager
ĠFor veien
ĠOp stand
ĠS ange
ĠRe b
Ġsidst nÃ¦vnte
Ġbet alte
ĠFor lÃ¦gger
ĠZe it
ĠFÃ¦ nd
ĠB ach
ĠOvers Ã¦ttelse
li am
Ġan vendes
ĠSki den
ĠSk ot
Ġind sat
nem ann
c ia
ar di
Ġt ransp
ye de
Ġuh yre
Ġ yng
ĠP air
li che
Ġind taget
Ġind komme
ĠJu el
ak t
Ġopdag e
ĠTugt huus
il ighed
ĠFri d
ĠM r
Ġgj erne
s id
ol ade
Ġover lades
Ġi talien
let h
ĠLand m
ĠDecem br
ĠFrem me
Ġb ele
ĠBeg reb
ĠLad ningen
Ġh indre
el und
Ġe vig
sig else
a ft
ere fter
anta ine
ĠMiddags stunden
Ã¦nk te
h men
el sens
Arv inger
ĠAn th
ĠLov ene
I n
ĠKjÃ¸ ber
ĠGrÃ¦nd sen
ster e
ling e
Ġinds ende
ĠB co
ĠG under
ĠQv inde
di ke
Ġn Ã¸ds
land inger
Ġport ug
ĠAn det
ĠAud ien
ĠForbed ring
Ġib idem
Ġsal tet
var sel
cel Ã¦ster
Ġh aard
H vilket
ers vend
ĠB ast
se et
Ġbe fordre
ĠLaan et
ĠCarol ine
Ġfor Ã¸
ĠÃĺ yesyn
Ġ9 7
ĠVÃ¦r ket
g tet
ĠSoph ia
ĠAar ene
ĠOp dragelse
Ġtog e
Be villing
Ġbekjendtgj orte
ĠU af
ab ler
ĠNor sk
ig else
ĠD rift
2 4
Ġfal der
Ġha ft
ĠV ien
ĠOp ret
gj Ã¸res
ĠFla sker
ist ent
far ten
dress ere
l age
ĠMater ie
ĠMul ct
Ġs uite
ĠP let
ĠS Ã¶
Ġtry kkes
ĠGiest giver
ĠT Ã¸
her red
Ġuforg lem
h le
Ġdy bt
k ors
Ġv id
H am
vÃ¦r elser
ĠSkib rede
ĠProv indsen
ĠFlo den
ĠTrÃ¦ vahre
ĠTab et
ĠM Ã¸en
sk olen
befal ings
ĠVidnes byrd
ĠG unde
var s
ĠGarnison en
Ġt Ã¦nke
ĠEl sk
Ġud val
ĠsÃ¦l gende
Ġny der
ĠHalv or
ĠGylden dal
ĠL unds
Ġbe de
iser et
ĠSam mens
ĠSelskab s
ĠSch u
Ġopf ylde
ĠF jer
ĠprÃ¦di ker
bro der
ĠRott bÃ¸ll
ĠV Ã¦g
ren es
ĠSÃ¸n dagen
ĠLor enz
ĠCathar ina
Ġop rette
Ġforan lediget
Ġu delu
ĠBo ut
ĠN av
ĠM und
skriv ning
ĠGevin ster
k astede
ĠAu tor
ĠGrÃ¦ken land
ĠL omme
an el
Ġtien st
ĠHand linger
sp ro
Ġaarlig en
ĠFranz os
Ġfors v
ds er
byg ningen
ĠSpr ing
ĠTh y
Ġ177 0
ĠAdsk illige
ĠKo ff
! "
Ġtal rig
ĠSne e
Ġbrug elige
Ġ11 8
ĠBeg jering
ĠlÃ¦r t
roy erede
ĠAnd res
ĠR esk
ĠJust ice
re sten
ĠPar ter
ĠProclam ation
Ġoverbe viist
ĠfÃ¦l les
ĠKondition er
ĠSem in
Ġsk udt
ĠKon ditionerne
Ġanmel des
ĠSk agen
v ol
Ġv irke
ĠBele ir
var et
ĠSch r
Ġvidt lÃ¸
ĠLa x
stit ut
Ġind leveret
ĠMar skal
har d
ĠV o
ĠForst ander
ĠFlad strand
aa len
sk ole
k te
Her tug
Ġm Ã¸dte
ar me
ĠFyr re
ĠC amp
ĠB alle
Ġdy be
ĠRen dsborg
ĠPilest rÃ¦de
Ġfor Ã¸get
Ġopby gt
Ġyder ste
ĠnÃ¸dvend igt
ĠLand huus
Ġbes Ã¸rge
ry g
ĠSy stem
Ġbier get
ĠH und
Ġind kommen
ĠKiÃ¸b e
ĠGj Ã¦stgiver
ĠK Ã¶n
Ġpaast aaer
d aler
Ġind bragt
ĠGi Ã¦stgiver
Ġring este
ĠPlan en
ĠE i
ĠGre ven
ĠReier sen
ati s
Ġopby de
ĠK aas
Ġforlang er
ĠTÃ¸n sberg
Ġanord net
ĠConfer entsraad
y al
del and
ĠGaards plads
C orps
d ingen
ul ation
l unds
ĠAn cien
ĠS aar
ĠGouverne ur
ĠH undrede
ul ler
** **
Ġe v
Ġmang lende
Ġs aaret
Ġefter lade
ĠÃ ĸ
ann ien
ĠE ro
rav et
ĠVÃ¦r ker
ĠPa kke
ĠSk ue
ĠÃĺn sker
ap artes
ĠG lÃ¦
ĠUmynd ige
Ġfor at
ĠFrider ik
ĠOplys ninger
ov en
ende l
ĠH y
Ġf yen
ir ur
Ġunder sÃ¸ge
Ġs Ã¸nder
Ġfore viser
ĠForli is
dsk i
ĠBirket ings
ari ske
ed del
ĠJ Ã¼rgen
li c
Ġop fÃ¸res
ĠBog handling
rÃ¦ e
ĠSk atte
ĠMar se
ĠFrederik sborg
Ġl og
ĠHer ligheder
ĠvÃ¦r dig
sk y
sm aade
d ne
Ġde st
ĠS ic
ĠDanmark s
ĠBlo k
f ast
si des
ĠKl Ã¦
Ġ12 5
Ġytt ret
Ġforsik ret
ĠPrÃ¦siden ten
ou reer
d inger
ĠV els
ĠJu bel
ĠVurderingsfor retning
Ġp ra
Ġforb undne
Ġytt rede
la delig
ĠGrÃ¸n land
Ġanse er
Ġl and
ĠHÃ¸i de
viis ningen
ĠL aa
ĠLÃ¸ver dags
ĠSkov en
Ġbet im
Ġtien t
ĠToul on
ĠP av
z u
ĠSal get
ĠEl m
ĠBir ke
l is
p s
ĠAm ter
ĠdrÃ¦ bt
ĠSimon sen
Ã¦ le
Ġg avn
Ġind muret
Ġful dt
ĠE iende
ĠvÃ¦ sent
e den
ĠBay ern
f Ã¸dte
ĠN el
ĠCron borg
ser v
ĠNation er
ĠM ann
ing erne
ĠAm be
ĠOver d
Ġbid rage
Ġan fÃ¸res
Ã¸l v
ve st
k ier
ĠG jer
lo ster
ta in
ĠVen skab
on ien
ĠE get
ĠGiel ds
for retning
ĠOver be
Ġfor li
Ġe ine
ĠK avaller
ĠSt et
Ġan mÃ¦rkes
ĠGi Ã¸re
Ġlov et
Em bedet
del Ã¸n
ĠFÃ¦dren elandet
ĠHÃ¸ yer
ĠÃĺvrig hed
Ġdes aarsag
den ne
ĠBr ager
ĠSe b
Ġus Ã¦dvan
ĠBy r
ran det
ĠÃĺ del
Ġfly gtede
te minde
Under tegnede
ĠB und
ĠB all
Ġop lyst
di x
Ġvedlige holdt
ĠDurch l
Ġo der
ĠG av
iteur en
Ġi v
Ġfor skaffe
ĠW ind
Ġ7 000
ĠLo fter
ĠVogn rem
ĠMagistra t
ĠE le
Ġal les
o ster
ĠTil syn
ies en
L and
s gaard
Ġingen lunde
ĠPri iser
Ġbef ri
mester en
ĠOpp osition
ĠFar v
Ã¦v else
Ġind bet
ĠLandsoverret s
Ġbel Ã¸ber
Ġpass ere
Ġ10 7
Ġ12 000
ug ge
ĠChristian e
R edskab
an ket
Ġarrester ede
ĠAller hÃ¸ist
ĠforfÃ¦rdig et
ter en
ĠEurop as
ĠF eld
itet er
ĠHiÃ¸r ring
ĠAar gang
bo et
ĠMort ensen
tere des
O ff
ĠE ege
ĠUaf hÃ¦ng
ĠG aver
kk erne
ĠEx tr
ĠPant haver
b und
b aad
mo se
ic anske
ĠEn ker
ĠPri serne
ĠWelling ton
ing o
un dede
dr agne
ĠGeneral forsamling
sch ou
Ġd urch
ĠChristians ands
ĠP ra
by egaard
Ġafseil ede
Ġerkl Ã¦rer
ĠFor tet
kal det
st es
ĠMargar et
v ogne
ĠV an
ich en
ĠForet agende
ĠPante obligation
ĠSo el
hand lede
ĠUd gifter
ĠR avn
Ġbek oste
Ġg lem
ĠKap ellan
Ġacc ordere
er ie
ĠW Ã¸l
Ġbortsti aalet
ĠB rede
ĠG iÃ¸r
ĠBogen se
ĠH ald
ĠC hol
is ser
si der
ĠMar ke
Ġde elt
ĠSÃ¸d skende
ĠProvi ant
b art
ĠL an
h im
ĠBe ster
ĠMid ten
Ġ178 4
ĠDragki ster
ĠVic ek
ĠPrivileg ium
Ġrum melig
sk ommissair
bier g
ĠFrederich sborg
Ġbest aar
ter er
ĠCon vo
mod ighed
ĠAnders datter
ĠSÃ¸nder borg
Ġoffic ielle
ĠDat um
Ġbo ede
ĠSamt ykke
ĠMor tific
Ġord inaire
ĠbetrÃ¦ ffende
ĠL Ã¦st
Ġer holdet
ĠAnord ninger
Ġh y
ĠUd betaling
ra de
ĠOver alt
Ġa gtede
ĠOver flÃ¸d
w ar
y den
ĠP andt
Ġop bragt
l andene
ĠK ant
it anten
ĠVad mel
Ġh eder
ĠRe iser
Ġu lov
ki Ã¦r
Ġan lÃ¦gge
ĠLi in
Ġg lÃ¦de
ĠBan ken
ĠB ent
n st
Ġb rÃ¦ndte
ĠSki el
ĠTropp ers
ĠR oh
ĠVi is
ĠP ist
Ġtid lig
mar skal
ita tis
ĠL im
tem berg
Ġt orde
Ġud st
end al
j Ã¦l
ĠLeg at
b ur
ak teer
ĠMÃ¸r ch
c ken
er a
Ġdr am
ĠAd jun
Ġim Ã¸de
ĠPlan er
Ġret skafne
ĠT ur
Ġsp ansk
Ġerob ret
h usene
in air
ĠDec ret
lÃ¦n g
ĠL itter
M e
Ġne der
ĠK las
ĠK ud
Ġover st
ĠInd retninger
Ġtien lig
ĠHirsch holms
ost en
rÃ¦ kning
os se
Ġafsked iget
h ov
r aae
kr am
otter ie
ĠS ession
ĠAn mÃ¦rkninger
Ġber egnet
Ġanse elige
ĠGar ver
ĠStyr mand
Ġpligt ig
Ġer holder
ĠnÃ¦st k
Ġk lÃ¦
Ġover v
ĠKi Ã¸d
iel der
ah len
N ogle
m it
v irk
ag ere
ĠJ kke
ĠSommer en
ĠS ve
Ġ9 1
P apiir
Ġd Ã¸mte
ha ande
ĠCon trolleur
ĠAugusti i
Ġski Ã¸nt
ĠSadel mager
ĠL unde
ĠBry g
ĠHuus holdning
Ġopf yldt
A udi
ĠHjÃ¸r ring
Ġforsy ne
ĠHertugd Ã¸m
ĠPeder sens
is erede
ĠSkriv t
ĠAns var
ĠDis cip
Ġa ber
ĠVurder ing
ki sk
ĠC ir
ĠR Ã¦kke
he ste
ĠGothers gaden
Ã¸n net
for der
ĠAger dyr
fÃ¦st else
ĠAd varsel
Ġar ve
Ġforgi Ã¦ves
ĠL ast
Ġerhver vet
ĠChat oller
ĠFa ber
ĠS inde
ĠH essel
itz er
arv inger
Ġle ie
sminister en
ĠFin delÃ¸n
ĠB le
ĠN Ã¸
ĠC ommissair
ĠBegiven hed
ĠKi Ã¶benhavn
ĠSvend sen
ĠJndt Ã¦gt
tin u
Ġh Ã¦der
ĠDy b
C omm
d orph
in erne
Ġ10 4
ĠCon st
ĠV rag
Ġg lim
Ġv ent
vi k
w er
ĠTilf Ã¦ldet
Ġher over
Ġinden landske
ĠLiv r
ĠfÃ¦r dige
f le
ĠPat rio
ĠFa ders
ĠStok holm
Ġoct royerede
ĠGe istlige
Ġstille de
ĠunderstÃ¸ tte
ass es
ĠOmkost ningerne
Ġfyen ske
bring else
i dere
For retningen
Ġkal der
Ġforvalter en
ort en
os edler
Ġans Ã¦ttes
ĠGen ua
Ġforet agne
ĠlÃ¸ se
Ġs vÃ¦
Ġ11 3
Ġu middel
ĠEier ens
ĠMors Ã¸e
Ġforanst altet
Ġbefal er
ffer dt
red itorer
ron e
ĠkjÃ¸b t
b ler
Ġtal rige
ed te
ing et
be melte
ĠTo ft
ĠsÃ¦rskil t
ĠS orte
Ġsam le
min ister
sk ontoir
ĠJ agten
ĠEil ande
ĠKiÃ¸b mÃ¦nd
rÃ¦nds el
ĠJnd re
ĠFlÃ¸ ttetid
Ġerfar er
ĠLÃ¦r reder
ĠJ bra
ĠOmstÃ¦nd ighed
ĠInf anterie
st orff
Ġk iendte
ĠUd landet
ĠBes lag
Audi teur
Ġvil lig
Ã¦ sen
ĠFor e
us sel
ĠL et
Ġs yg
ĠExecutor es
olit anske
ĠOffic ier
du c
Ġb rave
ste ens
Ġan komme
eng ryn
ĠP and
ĠKon stitution
Ġfly ttet
F Ã¸lgende
b alle
Ġ16 3
ĠNation en
ĠS an
ĠMag n
a del
Ġo b
ĠC ortes
Ġop lagt
Ġenhver s
Ġen dt
ĠPar iser
Ġbebo et
ĠStatstiden den
ĠLe ip
ĠOl uf
ĠInd gangen
Ad miral
R o
Ġbred t
Ġistedet for
Ġm yndige
at ret
ĠM old
di k
z a
f el
ber ede
d ommer
y ne
ĠFrankrig s
ĠKier lighed
stÃ¦ derne
ĠR Ã¦
8 0
ĠThe il
sk at
ĠÃĺster s
Ġforme entlig
ĠDr es
Ġind d
ĠHjer te
ĠV ac
ler en
ĠAf gift
ich e
ellan ten
Ġanven dte
l Ã¦rer
aa be
7 0
ĠForp ligt
ĠKam re
ĠLisp und
ec onom
ĠArme es
ahl s
ĠSiÃ¦l land
ĠKold ing
ĠBier re
Ġanm ode
Ġt et
ĠAfdel inger
Commiss arier
ĠFor aaret
Ġeg entlige
x t
om s
ĠG eb
Ġnog ensinde
ĠTien er
ĠÃ¸ stre
ĠMiddel havet
Ġfornem ste
bre delse
ing berg
oc olade
ĠKiel dere
ĠkiÃ¸b s
Ġfor vis
vis ioner
ĠU agtet
Ġ11 4
Ġny ere
agt ninger
Ġ11 1
ĠSk uds
ĠLe hn
Dire ctionen
ĠLÃ¸g st
ĠLiv res
ĠFart Ã¸i
t rup
Ġaab nede
qv ir
fabri k
ful dt
omm es
b lad
Ġn er
Ġse eneste
M en
ĠSk ab
Ġind bef
Ġthe ol
V Ã¦r
ĠStor hertug
ĠBras ilien
K eiser
hand lere
Ġting lÃ¦st
hove det
lÃ¦g gelse
ĠHaand vÃ¦rk
Ġmedde ler
ĠDag ens
hand les
ĠReser ve
ĠBe yer
Ġforst yr
ĠPlan ter
Ġafh entes
i ed
Ġu gift
ĠBy eskriver
ĠGien stand
ĠSnap sting
ĠMarse ille
ĠByg nings
Ġtab te
ĠH on
illing er
s ler
Ġpaa lagt
ĠHu sene
Ġbeskad iget
ĠHer skab
ĠSch les
H andel
ar a
bo den
ĠAv lings
ĠhÃ¸ ye
Ġf angne
ĠTeg ning
ĠHospital et
ĠFor der
ens yssel
ĠEfterretning en
Ġg rov
yn t
ĠTr Ã¸st
Ġl yde
ĠAvls redskaber
ĠMig uel
mel de
ĠAd olph
ĠBo er
ĠOff entlige
ĠBe fordring
ĠindlÃ¸b en
ĠSkrÃ¦der mester
Ġ *
ĠUafhÃ¦ng ighed
Ġud fÃ¸rt
ĠManufac tur
n in
Ġop fÃ¸rte
Ġw ie
ĠHelsing Ã¸ers
me dens
Ġerfar et
ĠLÃ¦s ning
ita ine
ĠE ierne
Ġ11 5
ĠSter ling
ĠFier ding
Ġnet op
ĠLÃ¸ ve
Ġmu elige
ĠGal li
ĠUdt ryk
ction er
ĠB os
bru dte
ĠTyr ker
Ġred dede
fer entsraad
s med
Ġet c
vÃ¦r dighed
Ġforun dte
J nsdagen
ĠJ ul
mid dag
ĠBillet ter
ĠOvereensk omst
Ġafg aaen
Ġforsikk ret
sk ou
ĠSm ag
ver k
raa det
ve is
Ġfor rette
ĠKrigs f
Ġ176 3
ĠModt agelse
n i
Ã¸ j
anc en
Ġkra ft
re ature
Ġfal den
ĠPomp eredskab
v Ã¦g
Ġsl aae
y sen
borg ske
brÃ¸d re
ĠEsc adre
ĠS idst
Ġbe givet
Ġwir d
2 2
q vi
ĠOp mun
ĠHand ling
Ġforts Ã¦ttes
ĠÃ¸del agt
ĠBekiendt gjÃ¸relse
le ier
Ġk ol
ĠEnkef rue
r og
Ġly der
ĠG avn
Ġdies es
Ġitalien ske
ĠBl aar
ĠTÃ¸r klÃ¦der
ĠF ond
ter essen
ĠLauri z
sen g
Ġover givet
ĠCh irurg
ĠÃ ¶
d alen
ĠFÃ¦gt ning
Ġdenne m
Ġw orden
ven tion
ĠStervbo ens
ĠH ing
ĠStav anger
en zen
ĠLou is
yd ning
Ġv om
ĠP orte
lÃ¦ ste
ĠAdmiral itets
ĠB Ã¦r
Ġfast s
ĠBrig gen
Ġholsteen ske
Ã¸ yer
Ġfor leden
ĠAar ets
ĠAl l
ol is
00 00
Ġsl aaet
ĠFor syn
ĠBon itet
tr inger
ĠFoust ager
Ġforebyg ge
ĠG is
ĠSk uur
ian ske
ĠOb l
ĠF ange
ĠE in
Ġforsk revne
hr er
Ġforseg let
jen te
ĠF an
ĠOm egnen
e i
h m
Ġmel dte
Ġforts atte
ĠLiver pool
f eber
ĠSamme steds
ĠCommand ant
ĠJndst Ã¦vnte
ĠR ust
ĠkiÃ¸b e
red te
ĠChristen sens
ĠBe hag
ĠA sp
ro pper
ders ukker
g ild
Ġs ik
ill ende
ĠVel yndere
ĠBevÃ¦g elser
Ġsikk re
f inde
Ġtilst aaet
Ġt en
Ġkong l
Ġang rebet
ĠFransk es
ri m
o ch
ĠH ids
ĠBibliothe k
Ġafse ile
an fÃ¸rte
ĠLand gang
Ġdan ne
at ens
ĠUnder holdning
ĠMark ed
PrÃ¦ st
ĠB rem
ĠCon vent
ĠMajestÃ¦ ter
deel ing
Ġbestem mer
gr und
ĠL eth
med aille
ĠCommer celÃ¦ster
Ġvedlige holde
Ã¦b ne
ĠSjÃ¦l land
Ġfuld stÃ¦nd
ĠMon ark
Ġres ol
Ġm undt
ĠPi be
ĠCommiss ariats
ĠbevÃ¦b nede
red skab
ĠPaa kiendelse
ĠH yl
ĠDÃ¦kket Ã¸i
ger en
Ġsp ur
ĠSyg domme
ĠFort un
Ġs andt
Ġa siatiske
ene fic
ant es
in o
ĠParlam entet
ĠUnd vig
ĠJntel lig
er erne
sse cretair
ĠKron e
Ġfal det
ĠGren aae
g aa
de ligt
gj orde
Ġdy re
Sel skab
B yg
ĠMarsch al
ĠR affin
Ġbebo ede
ĠMedborg ere
at a
var ing
ĠHertug inden
Ġf rede
bog trykker
Ġopraab es
ari at
ĠNord re
ĠPost gaarden
Ġfuld komne
ol iti
skaff et
Ġeurop Ã¦iske
ĠD ommen
ĠbehÃ¸v ende
ĠOverflÃ¸d ighed
ĠLand stings
Ġubetyde lige
et z
Compagn ie
b il
ĠHerreds contoir
ĠStu er
Ġindtru fne
ĠTil drag
ĠJn ger
ĠK il
Ġudn Ã¦vne
ĠLog is
Ġforand ret
sam t
ĠMuur steen
B reve
ĠE vig
ĠBen z
or ge
ĠS ie
strup s
ĠtrÃ¦n ge
ĠR ulle
ĠRaad huset
sc apitain
Ġtru kket
ĠSt ang
Ġkj ende
ol ie
ĠForseg ling
ĠC r
Ġtilfreds st
ĠD ommer
ĠSta dt
Ġhand les
j Ã¦
ĠOver krig
tal er
ĠSchr Ã¸der
Ġs Ã¸r
ĠSult anen
ĠHiller Ã¸d
sp il
Ad vocat
Ġpat rio
ti k
ĠMag ters
Ġuden lands
ĠVÃ¦r tshuus
ĠDire ctor
ĠH elt
Ã¸m mes
ĠSog net
ĠHen givenhed
ĠKiÃ¸bstÃ¦ ds
ĠEt ag
ĠCol biÃ¸rnsen
ĠE li
ĠKon er
ĠÃ¦r bÃ¸d
Ġ10 8
kal dte
ĠLu c
ĠL inde
Ġc op
Ġvels ig
hed ral
ĠFolk s
ĠDy re
ĠAfske ed
aa det
Ġnord lige
ĠMandag s
ĠSchÃ¸n he
F reder
ĠC l
ĠBrÃ¸ drene
hove der
u en
Ġtil sendt
Ġbe vÃ¦
ĠSelveier gaard
Ġoffic iel
ĠVar ene
Ġformo der
Ġportug isiske
ĠT un
Ġderfor e
Al ler
ĠC ate
Ġkong elig
is che
gar de
ĠEn tre
ĠCon cur
S amling
me ste
Ġ15 000
Ġhver andre
ĠGunde lach
ĠD ol
ĠH val
C reditorerne
Ġuforglem melige
ĠG ave
ĠAlex and
Ġs endes
ĠForord ninger
stem m
ĠDom ingo
ĠBjer g
Ã¦r inger
ĠDeel ing
u ne
Ġt egne
Ham borg
k am
ĠKl Ã¸
Ġhiin t
ĠKancel lie
ĠCancelli es
den landske
ĠK our
iel p
ks al
ĠVind ovne
ĠBli kt
Ġv ir
ĠT alg
Ġbr un
h Ã¸i
Ġs ligt
Ġ35 0
eg ade
ĠBy foged
Ġre c
ĠEr nst
Ġbl aat
ĠWÃ¸l fferdt
B et
ĠJbra him
ĠBr ors
Ġve ie
av or
Ġd revet
ĠUd g
ĠRaad stu
vi iste
el ands
Ã¦g tet
Ġmarsch ere
ĠWul ff
ĠMinister iet
ĠBefuld mÃ¦gtigede
ĠStad fÃ¦stelse
or et
ĠOff er
ĠChar ac
ĠHaand bog
ĠÂ §
ien e
ĠRo es
blev ne
H oved
ĠS on
ĠC ommis
ĠUds alg
ĠBal let
ĠP otter
ĠWil liam
Ġubet ydelig
ĠHellig geist
ĠLev net
lu gt
st ene
Ġv andt
H elsing
ĠP ed
F orts
der ich
For uden
Ġhid r
ĠUng dom
ĠFor vent
Ġop tagne
ho f
Ġlat inske
ĠM y
ĠKan al
ĠKn ip
ĠfortÃ¦l ler
ĠBÃ¸nder ne
L Ã¦ster
ĠR ad
ĠSnedker mester
ĠstrÃ¦n ge
Ġu t
ĠLiebhaber nes
m al
Ġud fordres
o et
ter ing
ann t
Ġud brudt
Ġsvar er
ĠJo ch
ĠKorn vare
bo der
ki Ã¸rsel
ĠC ivil
ĠBu xer
ut ral
sm o
Ġforbe melte
ĠCoule urer
ĠFir ma
ĠE ska
Ġseil ede
Ġforvent es
ĠS op
Ġud lagt
ĠW ands
o us
t agen
ĠMal ling
Ġattr aae
ĠSla ver
in i
Ġph il
ĠPol en
ĠC lem
ap pe
ĠPublic ation
Ġind fÃ¸rte
l yng
Ġd id
Ġpaali delige
ĠBer ner
yt tet
Ġtil kommer
Efter retninger
ĠT Ã¶
ĠOver gade
ĠFransk mÃ¦ndene
ĠSÃ¦ der
ĠHer skaber
orn o
Ġhaar dt
ĠGl Ã¼ck
ĠHend rich
fordr er
ĠNapole ons
ig ten
rig s
ĠSchi Ã¸
Ġp erem
Ġop mÃ¦rk
ĠSkil der
ol len
ĠCancelli et
ĠB ly
ĠSecond lieutenant
agt ige
ĠGeneral lieutenant
ĠSide bygning
ĠÃĺvrig heden
Ġforsikk rer
st aaer
ĠK aab
klÃ¦ dt
ĠBuon aparte
Ġ11 9
ĠAd skil
ĠLe y
ĠBro en
ĠKar le
al li
ĠDer paa
ĠBiel ke
Ġde sto
Ġsil dig
ĠAm tets
ĠHj ort
ĠPilest rÃ¦det
ĠFor deele
Ġk ryd
Ġen dte
ĠSkole holder
ĠKn apper
ĠDeput ation
Ġs Ã¸n
Ġko ste
ĠLods edler
ĠD rÃ¦
Ã¸i es
ĠSkriv ter
ĠBrygger huus
for s
ynd ig
ĠFor medelst
Ġend skiÃ¸nt
Ġaf f
Ġhvor vidt
lÃ¦ s
ĠUng karl
Ġh ind
ĠA sm
it en
ĠHe in
ĠGle erup
Ġind levere
ĠS ind
mod ige
che f
ĠOrig inal
ĠFl aaden
ĠEl le
ĠGeneral st
ĠLi im
ĠMyn ter
ĠKons ul
b i
ĠBes vÃ¦r
ĠFog ed
c ommissair
l om
ĠSch ow
ita del
arl sberg
ĠAnvende lse
ĠM ine
eg i
ĠMeen ighed
ĠB ur
ĠLinieski b
Ġmal ede
ĠTry kken
ĠTil liggende
Ġo st
ĠP aar
ĠEfter aar
ĠHens igter
ĠF ang
ĠRepubli ken
ĠOver slag
Ġle de
ades lÃ¸s
ene de
Ġbed st
orden en
ĠFro st
Ġreg ner
ĠHeel tag
se else
ĠVin kel
ft ighed
ĠFlÃ¦ sk
Ġbes luttede
ĠQvÃ¦g tiende
ĠRet te
ĠCat al
ĠForstÃ¦rk ning
a iller
Ġsk ab
ĠGier t
ĠFug le
Ġsv Ã¦re
ĠBisko ppen
Ġh Ã¦n
ĠHoved stad
ĠHe il
ig o
ĠGar n
Ġerob rede
Ġk aste
bru un
ĠKÃ¸nig sberg
Collegi um
h et
Ã¦ den
Ġind skibe
j us
ĠMag as
ĠnÃ¸i ere
ĠAfgiv t
ar up
her r
ĠOps igt
ĠÃĺsterrig erne
Ġhy pp
ĠRos iner
ĠE lever
Ġk ry
ran e
Ġoven melte
ĠAdel gaden
Ġanven dt
ĠB leg
ĠT our
G aden
y ers
Ġmed ic
ĠSk rÃ¦
ĠVed lige
ĠB la
Ġfor k
ĠCon cert
ĠR Ã¸g
ĠBen dix
Ġmor tific
ĠTro skab
ĠfÃ¸ le
Ġerhver ve
2 6
ĠT anke
Ã¶r ende
ĠForsamling en
Ġafre iste
ĠR id
Ġneds atte
at tes
ĠK aal
rÃ¦n gende
Ski fte
ĠUng dommen
f ning
r ingen
Ġop fordre
Ġind lade
ĠCan al
ler up
Ġbek lÃ¦
Ġabsol ute
Ġgro ve
fordr inger
ĠSa ug
Am t
ĠGuld berg
ĠÂ§ .
us s
ĠGeneral erne
ĠConfir mation
ĠD erefter
Ġd re
ma sk
f ield
Ġv Ã¦lge
ĠIn dt
ĠV Ã¦gge
ĠK os
Ġh emmelig
Ġgr Ã¸nne
ĠProclam s
ĠStrand gaden
Ġdies er
ĠT resch
ĠBy er
der ede
Ġop bragte
k egaden
ĠUd gave
ĠFl ugten
ĠH Ã¸n
Ġst randede
ĠKirk ens
ĠM es
ĠC art
ent in
Ã¦n ds
oc iet
ĠD ist
Ġfore viist
ĠLau enborg
le y
il li
Ġu gr
ĠSec ret
ĠDoc um
Ġforbed ret
ĠStÃ¸v ler
ben terne
m enh
el let
ĠStor kors
ĠBlo ch
Ġind re
ĠPost contoir
ĠHau ger
trÃ¦ delse
Ġglim rende
ĠD egne
sk ind
Ġmen nesk
Ġbr inger
Ġberet tigede
b aarne
org en
ĠRe form
Ġhvorfor e
ĠSe ver
m ad
ĠOp fordring
ction s
ment et
ĠBÃ¸ge brÃ¦nde
ĠP in
ĠP ap
ĠSig n
Ġdire cte
Ġtol v
Ġtil l
ĠM em
D ag
la uch
ĠUl rich
ĠSkol en
ĠRis engryn
Ġskrivt lig
k ran
Arbe ide
lem entet
Ġfor faldne
nu mer
Bek iendt
ĠCh ina
Ġf jendt
Ġt rÃ¸
Ġned lagte
ĠBiÃ¸r n
Ġt raa
se bÃ¦r
ĠFor mÃ¦
ĠSepte mbr
Ġ300 00
ĠhÃ¦ ve
ĠFolk es
dr ende
ĠHove der
Ġud gives
ĠMore a
d on
aar ige
Ġl av
as sens
Ã¸v else
ĠÃ¸ st
ĠTestam enti
ĠE len
Ġk rÃ¦
ĠHart vig
vÃ¦r ne
ac e
ĠAnder sens
Ġly st
ĠKund skaber
histor ie
Ġhens igts
ĠM Ã¦rk
ĠArbe idet
ĠBir g
w ald
Ġb lo
ĠAl ens
Ġtil talt
ĠR ede
Ġe eneste
qvarteer mester
B r
ĠOm egn
gaar dens
ĠPa kker
ers lev
ĠR ath
ĠReligion s
i be
ĠBon den
ĠC itadel
hol delig
ĠC lar
ĠPoliti k
p il
ander ende
ĠU ges
Ġbes id
Ġindf Ã¸re
traa dt
ĠKl age
ĠY t
Ġvirk som
ĠUnivers itets
h s
ĠD egn
Ġfrem me
ĠtrÃ¦n gte
es er
ĠC off
Ġover lade
ĠPortra it
ĠRe k
Ġhel dig
al minde
ĠJnsurgen terne
kk ens
stand s
M Ã¸lle
Ġh Ã¸r
ĠT ob
iden skab
D ette
Ġs Ã¦tter
ĠT vende
ber ne
ĠM usi
ĠL inden
Ġfor ommel
ĠB ille
gel sen
ĠQv ad
er ing
ĠP Ã¸b
ĠHer s
Ġkost bare
ĠSu kkere
ĠAlli erede
Ġumynd ige
Ġfortrin lige
ĠÃĺiebli kket
ud an
Ġreg nes
b esk
Ã¸b t
ĠArbe id
ĠPl ouge
Ġt estam
Ġforn Ã¸y
ĠAnth on
re ben
ĠSamling er
fÃ¦rd ighed
ri tz
at holske
Ġk astet
ck s
ĠUnderhandling er
ĠSag fÃ¸rer
ĠPlads er
au ction
ĠHj ul
un dring
Ã¸l len
Ġbes e
3 3
lig es
Ġover leveret
ss ing
ĠNÃ¦r ing
ĠT usinde
Ġvest re
5 00
ĠS lu
yn de
b Ã¸lle
Ġb rede
ĠN Ã¦st
ĠHal sen
lÃ¸b et
c ass
Ġb y
Ġgj ent
Ex tra
ĠRus lands
Ġs ynder
ĠÃĨg ypten
ĠAl bert
ĠBo urde
Ġgj Ã¸res
ĠSkor steen
ul y
Ġty dsk
ĠB and
Ġbes vÃ¦r
ig ende
ĠAd jutant
S idst
ĠM ant
ig s
ĠTorve priser
ĠPante c
ĠMet al
Ġfor den
Ġre delig
Ġkj Ã¦r
ĠPi ast
Ġaf sendte
ĠM ou
ti us
ĠAfsk ed
ĠStet tin
I S
Ġpro duc
ĠH em
ĠOp syn
ĠFru gter
ĠB ist
ĠB ill
Ġsam les
ĠSta ters
or um
ĠForn Ã¸dne
ĠGust av
f jorden
st ald
Ġly s
ĠOp trin
Ġforan led
ĠBetr agtninger
Ã¦ det
ts er
Ġdag ligen
Ġtiende ydende
ĠHerred skontoir
Ġs ie
Ġs avn
ĠM Ã¦
eg ner
l aaes
Ġop v
ĠStald rum
ĠUd brud
Al t
H uset
b st
del s
ĠTy ver
ĠVester port
ĠLiv orno
ĠMil itaire
ĠHamborg er
Ġtil lades
aff eb
Ġr und
ĠUh eld
ĠBrors on
ĠTil h
ĠNove mbr
ĠTrin itatis
ĠKap ere
smo uth
Ġudt agen
Ã¦n ket
ĠOverret ten
Ġo f
est rup
ĠForb unds
Ġnytt ig
ĠSt Ã¸
ĠRe in
Ġ14 1
Ã¦nk ende
ĠFredens borg
o fte
ĠGr Ã¸
ĠBatter ier
Ġv ers
ĠLov ise
sm anden
Ġ176 9
ĠKon es
ĠGrÃ¦ ve
Ġlever er
ĠE beltoft
ti en
Ġb rÃ¦ndt
Ġaf holde
ers oner
ĠBag ger
ĠAmer ik
ĠRepar ation
ĠF j
din al
ĠResiden ce
ĠBo lig
Ġm inde
Ġkeiser lige
b jer
Ġfuld byr
ĠSig te
ĠCab inet
ĠT unge
esk ov
ĠOnsdag s
ĠS vÃ¦r
ur erede
Ġalminde ligt
skj old
ĠFeldt tog
ug aard
gj Ã¸rende
ĠKrig ens
ĠHandel ens
ĠAvis en
Ġefter haanden
n erne
ĠB lan
ĠFien dens
ed skaber
ĠHen se
Ġerst atte
jen der
vÃ¦r ket
Ġra ison
ĠLor enzen
Ġta kke
i ber
ĠSk yde
ĠSk onner
Ġubek iendt
ĠT on
Ã¦ng s
an i
ĠReg ne
h ans
ĠE sp
Ġdram atiske
Ġunder ste
ĠBe ste
Ġr om
ĠAncien net
ĠQ val
fÃ¸r elsen
ona iske
ĠForb ud
ĠSold aterne
ĠVels ign
ĠAp en
ĠtrÃ¦n gende
ĠR ob
ĠOm v
ĠProk lam
Ġind bragte
ar s
ĠVen edig
ĠCol lin
Ġforp lig
ĠN a
ind isk
ĠPi ber
n Ã¦vn
o pper
ĠBro ch
ĠBev id
ĠBÃ¸g gild
b al
ĠM unition
Ġforef indes
Ġa c
ker ig
lÃ¸ ste
ĠS Ã¸er
Ġst andse
Ġre iser
ĠOverformynder ie
ĠVÃ¦r dighed
Ġendog saa
Ġoph Ã¸re
Ã¦n dene
gen eral
Ġhon ette
Ġmo der
ĠForsi kring
i des
u ge
ĠT de
ĠBaron iet
Ġfor kyn
Ġd Ã¸e
ach er
ĠK ompagn
Ã¸n de
beret ning
ĠPeter sens
ĠVicek on
For samling
ryk te
iv ne
ĠJam es
ĠG un
yr des
air es
ĠSar din
ĠKjÃ¸b esummen
Ġube hag
ĠForlÃ¦gger en
ĠhÃ¸i ti
ĠKl are
ĠBogtrykker ie
ĠDepu teredes
ĠLÃ¸gst Ã¸er
ĠTil s
Ġ11 6
ĠHen ri
ĠTaar er
Her ved
Ġn aae
ĠQvitter ing
ĠVind u
Ã¸r lig
Ġber etter
ĠMer kur
Ġtilst aaes
Ġv Ã¦g
ĠL ige
Ġt or
ĠSam sÃ¸e
ĠRd l
Ġ23 0
ski Ã¦r
ĠDit marsken
ĠS id
Ġp anel
ĠSal om
d istri
ĠPort o
Ġ14 7
i els
Ġs laget
ĠK utter
traa dte
ĠForel Ã¦s
Ã¸ ye
ĠR heden
Ġnok som
M and
Ġudb rede
Ġsm ig
mel sen
Ġundv igt
ar meen
ĠH ot
ĠMayn z
st illing
ĠKi endelse
ĠEnd videre
k un
at z
ĠPort smouth
st aaelse
Ġh eld
ass essor
ĠForn Ã¦r
ĠBekost ninger
ĠHass ing
org an
Ġalvor lig
u agtet
Vi borg
li k
Ġlang var
ĠHaa g
Ġhiem me
ĠMar quis
ĠÃĺ sten
ĠH Ã¦n
Ġop rettes
Ġ176 4
ĠEgen skab
Ġop sat
Q varteer
ar ter
Ġ13 5
Ġt aale
Ġfor klar
ĠV a
Ġstyr tede
ĠMortific ations
Ġholdt es
Ġbehand let
ĠResc ript
ĠReg ler
ĠUger sdagen
ĠOber ste
ĠLÃ¦ ger
J talien
Ġsiel den
S tor
ĠTil sku
9 0
Ġge bro
Ġty kke
H of
ĠPot ten
Ġi dÃ¸mte
Ġp rivat
ĠJo ach
um b
Ġbest ille
ĠSir up
ĠS me
Ġuden byes
Ġbesk ytte
Ġdruk nede
ĠHaders lev
ĠO d
Sti ft
ĠSk r
ĠNak skov
ul te
Ġih re
ĠHol me
Ġopbyg get
Ġhan nem
be hag
ĠEm ig
ĠNation ens
d ug
u de
ier nes
ĠOver vÃ¦relse
ĠTyr kiet
ĠOst indiske
Ġ Ã¦re
ĠK hvn
ĠAn kers
der n
ĠF und
ĠP ly
Ġover give
Ġalt ing
olen ce
ĠKiÃ¸b enh
ĠKiÃ¸b mÃ¦ndene
Ġtil komme
ĠÃĺ rum
ĠBru d
ĠAdskil ligt
st et
ĠStift else
2 7
ĠB usch
ĠTal let
Ġ9 00
Ġfal sk
Ġtilkiende givet
ĠT et
h jem
ĠSam ler
ĠPC t
ot to
ĠHolm s
ĠArrest antinden
Over ret
am a
Ġud komme
ĠBr Ã¸g
ĠMed del
ĠH ind
Ġbel Ã¸b
ĠBom bar
2 8
ĠDorthe a
fold ige
el ius
ĠB rÃ¦nder
ĠFor d
Ġbl id
in ter
Ġved varer
lev egne
Helsing Ã¸er
ĠBet Ã¦n
befalings mand
ol t
B eg
air er
ĠS it
Ġb rÃ¦nde
ĠV esten
f od
gt ighed
ĠMat ric
M on
ĠIn vent
Ġr undt
s ind
ĠC asserer
ĠJnd komster
and sen
affeb Ã¸nner
ĠBelg ien
ĠG la
ĠV ine
ĠBout el
ĠB Ã¸nner
ĠKir sebÃ¦r
Ġb is
ĠAl s
Ġbekiendtgj Ã¸res
Ġmang le
in ation
ĠLar sens
ĠEg ypten
us er
ĠSt en
end rup
ĠG alt
Ġl Ã¦gges
ĠSp Ã¸r
ĠArme er
ĠB ane
vÃ¦sen ets
Ġki Ã¦r
ar ie
ĠK ald
Ġan lagte
os er
ĠV ande
ĠBrig ade
ĠAfs Ã¦tning
ĠKug ler
Ġsid de
el er
Ġre par
Ġan ge
ĠBo en
ĠU s
ĠMar mor
ĠSogne foged
ĠOms org
i ess
se er
Ġ12 7
Ġst Ã¸de
Ġpaa staaende
Ġsidst l
ĠLicit ations
Ġg angne
k retair
Ġbivaan e
P lan
ĠSkj Ã¦bne
ĠEngel lÃ¦nder
ĠLang es
yl land
ari erne
ĠHen rik
Ġsvar et
ĠFortÃ¦l linger
ĠK ulde
ad miral
Ġ12 3
Ġform ind
ĠViden skab
ĠSt eds
Ġind lÃ¸se
Ġtilkj Ã¶bs
Ġindb yrdes
ĠOpdag else
ĠT am
vÃ¦r die
iend om
ring e
ĠKre aturer
ĠJnge borg
ĠS viger
ĠV ands
ĠS Ã¸m
Ġs ad
ĠM ode
gar den
y stem
ie ur
Ġfin det
L ig
ĠF un
Ġmu lig
Ġmu ret
Ġfrem s
ens ioner
Ã¦nder ne
Ġforaars aget
ĠBegrav else
ien nem
ĠJnd by
ĠTil dragelse
Ġskj Ã¸n
ĠSchwe iz
ĠT vang
Ġmeer bemeldte
ĠV alen
ĠDi am
ĠTresch ow
ad a
Ġtilst aae
d Ã¸mt
red t
ĠSpan ierne
Ġtil stede
dig heder
Ġmil it
vÃ¦r t
bli ver
ĠStra x
Ġperem tor
ĠEng lÃ¦nderne
bring ende
ĠE y
Ġb rÃ¦
Ġvi iste
vex ling
ĠH il
Ġind gaaet
ĠKn ap
ĠForpagter en
ĠStam huset
Ġvi is
ĠHen hold
Ã¦v net
aab ye
Ġslut ter
s n
ĠJnd ust
ĠAalborg ske
Ġfar lig
ĠSubskri b
Ġn agel
Ġbes Ã¦tte
ĠArve fÃ¦ste
or er
he ftet
ĠUm age
ĠFog h
ĠM ur
af ten
ĠForn y
ĠFÃ¸l elser
ĠJah nsen
ĠB un
ĠSu pp
ĠK orsÃ¸er
hand let
brev ene
Ġud ru
ĠJ saa
Ġind lagt
Ġfar lige
ĠSed del
ĠForpagt nings
T ra
ĠMat r
ĠHav en
ĠBe hold
Ġinds endes
ĠCarac teer
ĠCollegi um
Ġtilende bragt
ĠD yd
ĠJ m
Ġa a
ĠN im
ĠSt uds
ĠOr dens
Ġ lem
is ion
Ġunder kastet
Ġfry gte
Ġuop holdelig
Ã¦t t
Ġfat tig
ĠFor trin
ĠAfgiv ter
ĠF iin
Ġfor lÃ¸b
Ġan bet
ĠPo tte
ĠAlder dom
ĠGrÃ¦nds erne
gj er
ĠRo e
Ġforesk river
Ġforb unden
ru kken
ĠÃĺ j
ĠSam f
itter ede
ĠMon t
ĠTak nemmelig
ĠD aler
ĠFor ti
stÃ¸ ber
ri de
Ġav let
ĠN Ã¸g
T he
ĠHuus et
ĠFÃ¦ ster
ĠProvst ie
Ġtil byder
ĠRo den
ĠAuctions stÃ¦det
Ġforbru dt
ĠStr aa
Ġv olds
lige vel
gjÃ¸r elser
ĠAnord ning
il er
dr en
Ġbef uld
ĠSold in
ĠConfer ence
ĠOph Ã¦velse
ĠAnciennet et
Ġh il
Ġhv i
Ġsk u
um p
Ġuds Ã¦tte
ar de
ĠK asserer
ur te
ĠMal lag
ĠBeting elser
j Ã¦ger
Ġs on
ĠH age
ĠForm ynder
Ġom en
Krig s
Ġudbred t
Ġpligt ige
ĠCommun ic
Ġs lu
ĠT rib
byg ger
qu ist
ĠChrist i
Ġan gives
ĠGr Ã¸nne
ĠFÃ¦l led
ir er
Ã¸ ster
ĠF our
ĠBr am
ĠKy sterne
ĠRigsbank daler
bet ien
bli ve
Ġbef andtes
Ġindry kkes
fi ord
eg nes
ĠTil slaget
ĠNyt aars
ĠBevid nelse
S iden
ĠFor strand
Ġbev id
ĠLux dorph
ĠSaa vel
ĠErke b
G r
d igt
p un
ĠJyl lands
ĠJn sp
lid te
ĠSj ette
k a
ands et
stitution elle
ĠBourde aux
Ġse ile
Ġforf attede
Ġvedlige holdte
ĠDistric ts
Ġt unge
ĠPanter et
Ġal li
ac teur
ĠSig ende
Ġt alt
R us
omm ers
ĠHandelsh uset
k Ã¸n
or dt
ĠMyn t
M ad
ĠV ater
Ġind vortes
ĠPhil osoph
Ġforsikk rede
le ve
Ġan viist
Ġmat ric
ĠMe x
ĠPro test
ĠSel skaber
ĠCons istor
Ġmed bragt
i f
v irke
ds om
ĠHolm ens
Ġfiendt lig
Fran kerig
Ġport o
ĠL ond
ĠTilb ud
ĠÃ¶ n
ĠJnd retninger
ĠOr t
ĠPost dage
ĠNation alg
ĠWÃ¼r temberg
ĠVeil edning
ĠLand manden
ĠSte ph
ĠKaa ber
ĠVedlige holdelse
K irke
Ġford um
ĠSkuds maal
st at
Ġnatur lige
r ere
ig ere
Ġki Ã¦re
od der
inde de
ha and
ĠHenrich sen
ĠProdu cter
ĠSubscrip tion
ĠF iel
Ġbry de
Ġalt onaiske
ĠKru se
Ġun ds
ĠStervbo egaarden
ĠGrev inde
ĠJndbyg gere
ĠWor m
ĠC ur
ĠSter v
ĠCat t
Ġyder st
ĠD ets
ĠProclama tis
Ġforsik re
Ġ13 4
ĠLÃ¸ kke
ĠHj orth
Ġind tage
ĠLars datter
ĠStor herren
ĠnÃ¦rme st
orpor al
l ande
et il
ĠJnd brud
Ġforsvar lig
Ġaver terede
ĠF ust
ĠK ast
ende el
ĠC ob
ich s
ĠAmt manden
lut ninger
har dt
ic us
Ġstad fÃ¦stet
ab il
t tes
Ġ12 4
ĠF ah
akkelov ne
ĠActor s
ĠB aaden
ĠLÃ¼ beck
Ġn orden
ĠUnderret ter
ĠSkot land
ĠFor mel
vÃ¦r re
Efter retning
Ġ176 2
ĠT ide
ĠPaar Ã¸rende
ge ant
Ġ11 7
ĠRas mu
ĠAss istent
ĠKol on
Ġmang ler
Ġuly kkelig
Proc urator
ro ede
ĠEfter lever
Ã¦n dt
ĠRig es
t ings
ed der
ĠF ron
Ġbef unden
ĠFor hÃ¸r
ĠW as
Ġhem melige
ĠSte ens
ĠFreder icia
ĠArving ers
Ġextra ord
ar en
ĠBaa ds
ĠHÃ¸itidelig hed
ĠKon stantinopel
Ã¦m pe
ĠBist and
jen esten
Ġbru ne
ĠSmer te
al sk
Ġfi ine
ri an
ĠFors igtighed
Ġvist nok
al itet
Ġfry gter
ĠVex t
Ã¸i ende
ĠGr aa
is ende
Ġg lade
ug le
ĠEgen skaber
2 9
n ytt
or tere
tin enti
vo x
fyr sten
Ġbetr agte
Ġfor uro
ĠDes er
S e
Ġl ode
yr es
ĠUd by
Ġ16 8
ĠProk lama
Ġudt agne
Ġhjem me
ĠS midt
Ġ14 4
Ġform elig
mÃ¦rk ning
ĠColle ction
ĠRentekammer s
Ġkost et
P ort
ĠOl sdatter
ĠFi ol
bud ne
ĠJnstru menter
ĠKier ul
C asse
ĠSk rÃ¦k
ĠNo te
ĠHof s
ĠTr Ã¸ie
m ing
Ġ rev
ĠGods es
ĠBi bel
ĠEfter tiden
st Ã¸mmer
ĠVi dere
Ġ20 6
ĠFri ed
Ġp ants
Ġsk ien
giv t
ĠAars ager
olog iske
Ġforh indre
Ġb age
ti ch
S und
ĠPeder s
Ġop gives
Ġ23 6
ĠprÃ¦ gtig
Ġl ad
k und
ĠHel bred
ĠMis sion
ĠLi ste
up er
Ġbes Ã¸ge
Ste det
ĠMog ens
ĠF ur
trÃ¦ de
u li
ĠV Ã¦nge
ĠFÃ¦dr eland
ĠLys gaard
T h
ĠJon as
ĠTim es
ĠAlmu en
Ġb jer
ĠF Ã¸dder
ĠLad ninger
in ch
Ġind vars
ĠStervbo er
sch en
Ġtilk iendt
ĠCatalog er
ĠS yl
ĠFrederich shald
ĠBruns vig
red i
Ġpol ske
Ġbetim elig
Ġt ales
he m
Ġny s
Ġbeskad igede
ĠSch mid
ĠGeneral en
ĠDi van
b rÃ¦nder
u c
om iske
ĠTold bod
ĠHaa bet
ĠJes u
Ġl Ã¦nger
ĠSkipper en
ĠJoach im
ur endahl
ĠVogn en
Ġhiem komne
ĠExtr aret
N ye
Ġbehand le
ĠO ven
kom sten
ĠKaab ber
br yg
ĠHe fter
ĠTestam ent
i as
ĠS ved
ĠsÃ¦l ger
ning ens
ĠTy v
T iende
v id
ut hen
ĠTransport skibe
de ler
Ġi agt
sk uur
ĠV ild
SÃ¸n dagen
Ġo tte
Ġm aaned
ĠAarh undrede
Ġi r
ĠRom an
ĠApen rade
n o
ĠW itt
teg ning
mÃ¦n ds
st ol
ĠB Ã¸l
yt tere
ĠDres den
ĠMar cus
sk reven
ere mon
pp el
ĠLy on
byg ninger
T iden
in delser
for si
Ġr aabte
ĠReg ninger
ĠNy egaard
ĠUdgiv ter
Ġorig in
Ġb ad
sp un
Ġsal tede
ĠFug l
ĠHu der
Ġbel Ã¸be
ĠArve pr
ĠB entz
ĠCant on
ĠFÃ¸ds el
y ser
ĠAl ter
ĠTirsdag s
tiden den
ĠJ arlsberg
Ġ13 8
ĠOpf yl
ĠSm yr
Ġpri is
Ġufor s
ĠAller ede
ĠPiast re
Ġtil lÃ¦gges
Ġk rig
ĠBar k
Ġtjen er
Ġ ilde
lag s
ĠArme ens
ĠVar de
Ġudbet ale
ĠsÃ¸n den
ĠHense ender
ĠL un
ĠDatter s
ĠBekiendtgiÃ¸r elses
Ġg el
ĠMed hold
ĠBer th
ĠFran tz
Ġ25 00
Off ic
Ġt ion
ĠAc tie
ĠBar sel
ĠCompagn iet
ĠH ad
Ġleds agede
ĠMatric ul
Ġej us
Ġfrem lagte
Ġske ede
lo e
ĠBor up
rig hed
skriv es
ĠFredag s
Ġmor alske
Ãĺ ster
ĠKlÃ¸ cker
B o
ĠS avn
Ġ14 3
ĠVogn mand
Ġgiel de
m Ã¦ldte
Ġhen te
ĠK oureer
ĠN Ã¦s
ĠSk al
ĠHen ning
ĠNe er
ĠDurch lauch
ĠLitter atur
sp lan
ĠBal last
ĠLieut n
u ret
dr on
or v
ger aad
ĠJÃ¼rgen sen
Ġat te
ĠBrev posten
ĠAnord ningerne
Ġbortforp agtet
ĠT egne
ĠTh erm
Ġt jene
ĠAns Ã¸g
ĠFad derne
ĠSchÃ¸nhe yder
re ist
Ġan givet
ĠNatur en
h me
Ġle vede
h ne
ĠCla udi
Ġfrygt elig
ĠLiebhaver nes
dr ages
ĠHolsteen ske
Ġnaad igst
am tet
Ġk ier
ĠEl ling
ĠJndt Ã¦gter
ĠLe vet
f u
Ġsk yde
ĠTra ppe
ĠSt utter
ĠPoh len
ĠJern p
ĠApp ellanten
ĠT Ã¦nke
ĠStabel l
ĠTrond hiem
Ġom sider
ĠRyg gen
ĠJnds idder
b be
Ġs teg
Ġstra ffes
ĠSpec iess
ĠR ub
pp et
ĠP ul
En hver
rigt ige
f Ã¸d
ĠT age
ĠH unde
ĠUd la
ĠGar den
u k
Ġud fÃ¸res
ĠUd kast
skriv ter
ĠCor vet
ĠCond olence
h alt
Ġan fÃ¸re
ĠCh ocolade
ĠBar cell
agen der
C assen
ĠBon apartes
ĠLo ftet
ĠF Ã¸
aa ge
Ã¦l le
Ġ12 1
som t
ĠS Ã¸gning
ĠAn giv
Ġan tager
Ġforbed rede
ĠnÃ¸i agtig
id an
ĠudstÃ¦ de
Ã¦nd te
Ġfor uly
ĠT apper
Ġhidtil vÃ¦rende
Ġdr og
ĠSpÃ¸rg sm
ar ac
ĠLÃ¦se bog
ĠTry kke
ĠWo chen
j Ã¦r
ĠMartin i
ĠBer egning
ĠBiel ker
r in
Ġd rev
ĠUd seende
Ġsv ag
ĠNyt aar
Ġtil lagte
ĠsÃ¸ ges
ap it
ĠFuld m
ĠV aar
Ġover ladt
en dt
es ch
ĠChar lot
en a
ĠS us
Ġe iner
ĠKi ende
Ġgra tis
d orf
omm ere
ĠAmts provst
Ġnatur ligviis
er k
ĠE ger
oh r
ĠCom oed
Ġd rist
it ten
um me
g ning
o ft
ĠW ig
ĠSÃ¸r ensdatter
ĠKiÃ¸ber ne
ĠParlam ent
ĠHest ene
ĠForsi kk
ĠTildrag elser
ed ahl
ĠKl ager
ĠNÃ¸d vend
Ġf Ã¶l
ĠPrÃ¦ ten
ĠO sten
Ġj e
rum ent
ĠKlÃ¦ des
ol i
ĠTimer s
ĠF iendt
ĠR ov
Ġind vendig
Ġin ner
Ġfors endes
ĠAfhandling er
ĠD ok
Ġover t
ĠTr omp
ĠforelÃ¸b ig
ĠEl ler
ĠMallag a
sp osten
ĠRaa ds
po sterne
n aad
ĠK ilde
ĠProtocol len
Lig eledes
lem ann
ĠLe op
ĠSel mer
cl ar
w art
Ġfor trÃ¦
Ġ13 6
Ġant agen
ĠJ blandt
Ġr aae
ĠHam burg
h yg
kj ende
Ġillum ineret
ĠMo ders
ĠKirk egaard
ĠLeip zig
Ġforommel dte
Ġbe mÃ¦gtiget
ĠEl len
ĠAk adem
o se
ĠÃĨ d
Ġret mÃ¦ssige
y rede
ĠD omme
Ġst oer
sam mes
ĠEv angel
ĠTr om
Ġregi steret
ĠKammer et
Ġindtru ffen
ĠForpagt ningen
den en
ĠKr ager
ĠFattig vÃ¦senet
Ġv og
Ã¦ng den
ĠLi ter
ĠPet ter
ĠCapit aler
ested t
ĠChol era
ĠSch ack
ĠBrig ger
Ġpatrio tiske
ĠprÃ¦c ise
ĠKrigsf anger
M id
ĠJ Ã¸vrigt
Ġmaa delig
ĠQvar antaine
Ġfor Ã¸ge
ĠSad olin
Ġal meen
oh l
ĠHÃ¸ ker
ĠVinkel tag
Ġ12 9
el len
Ġm un
Ġfor drer
Ġl Ã¦rer
Ġud fÃ¸rte
ĠCap itaine
ĠNicola y
ĠM ons
us in
ĠBad stu
ĠSta k
ĠEx ammen
m Ã¸r
Ġst ige
ĠBy tte
Ġfrem lagt
M ag
ĠP engene
ĠAdkomst brevene
ĠNab o
w al
ĠKi ste
ĠForts Ã¦ttelse
ĠAn befal
ĠKoff ardi
is c
ĠChristian sen
ĠVel giÃ¸r
ĠSk inder
ĠGe ograph
Ġal levegne
Ass essor
verti mod
ĠKrog h
ĠPascha en
ĠRud kiÃ¸bing
b ber
ĠH ager
ĠFor Ã¦ring
ĠAr endal
ĠHal ve
ĠAdjun ct
Ġg ribe
ĠFon ds
en burg
ĠHer ved
ĠUnder kiendelse
hav en
Her re
Ġafseil et
li tt
ha us
ĠKap ital
Ġamer ikanske
Ġ16 9
ĠOpmun tring
kran tz
mu ende
ĠJ gaar
ĠMar ine
ste gn
ĠO ran
ĠNeder lag
ĠH agen
Ġforskjel lig
L iges
ĠS Ã¸g
la k
ĠSe ild
ĠLov giv
ĠQv inder
Ġg et
ĠSam mes
orp ser
field ske
ĠJu ri
Ġlov givende
g reb
Ġt aaler
ĠEs ca
Ġd ip
ĠEm bedet
Ġindf undet
ĠOmkost ning
ĠP leie
Ġind sendte
ĠUnder skrevne
ĠSp i
ĠTro ppe
Ġb are
ĠMa c
un get
ret telig
vi den
ĠFyen ske
Ġinteress ante
ĠEfterlever ske
se es
ĠOl d
ĠWul f
or i
Ġbek om
ĠEmig ran
ĠGien nem
ĠTing stedet
ĠMun ke
ĠAnst alt
aal ne
Contoir s
ĠJam a
ĠBr ussel
tr er
ĠKiÃ¸ber e
ĠHuus geraad
vig s
Ġlovlig en
Ġ10 9
ĠChat ol
ĠSkib scapitain
ĠS ands
ĠskrÃ¦ kkelig
h ing
ĠBo ul
ĠTr ang
ĠBry l
Ã¸r klÃ¦der
Ġry kket
ĠnÃ¸ds aget
u ger
Ġ12 6
ĠTy ve
ĠKe is
ĠMold au
Ġl agte
ĠindtrÃ¦ ffe
ĠVognrem isse
Ġ18 4
far ende
ĠFolke m
is ation
ĠBro ders
ĠF Ã¸d
Ġn es
ĠVÃ¦ sen
ĠStiftet s
ĠC adet
Ġjuri diske
ut r
mu rede
ĠLotter ies
Ġbefal e
ĠC ura
skj Ã¸ndt
ed ie
ĠRe eb
ĠLeil igheder
ff el
ĠVeir et
ĠJustiti en
lever ing
ĠTract at
Ġno ch
Ġe ier
Ġhen lagt
ĠCon c
ĠFranzos erne
j o
viis ninger
ĠHiel pe
ĠJoch um
Ġalli erede
Ġhol dende
iÃ¸b ing
rib ution
Ġindry kket
Ġb rÃ¦n
org er
Ġ15 5
ĠK a
Ġbed r
ĠS av
Ġvar m
Ġtal te
Ġmods at
ĠGouver nem
Ġaf bet
Ġih iel
ĠHerredsfog derie
ĠPud dersukker
L a
et e
Ġl ands
Ġud lagte
Ġre el
Pro f
ĠTilbage komst
Ġt raf
Ġtilh Ã¸re
il len
Ġf yldest
ĠT ingen
Ġd ar
fÃ¸l ger
ĠHatte mager
ĠKon en
Ġanbefal e
hus ets
rÃ¦n ge
ĠTaar n
ĠP el
ĠJ Ã¸
k ong
ĠKar eth
Ġc om
ĠHertugd ommene
Ġytt re
Ġm k
ĠStue huus
S tr
Ġt jent
eg er
ari et
ĠVind ovn
ĠRed acteur
B ar
r Ã¸e
ĠG ene
esk ind
ĠHoff er
Ġsm ag
ĠByet ing
s in
Ġfor nu
Ġindf andt
ĠVansk eligheder
c omp
Ġ yde
Ġf avor
ĠLaur sen
sk arl
ĠFor en
Ġk e
Ġul dne
qvar teret
q vet
ĠLi bha
ĠResk ript
Ġf undne
h es
Ġ organ
ĠBl ye
Ġen ige
ĠV ordingborg
ch al
ĠKn ut
ĠLo e
ĠSund heds
ĠR othe
ĠTh orn
Ġle g
ĠGrÃ¦ ker
ĠBu en
ĠL ag
Ġud fÃ¦rdig
Ġd ri
ĠSkomager mester
m iner
ĠSl ave
rÃ¦d der
ĠK ommer
Ġher skende
iger es
ĠAndres en
st aa
ĠSever in
ĠOmv urder
ĠR ent
ĠB Ã¶
Ġudbred te
ĠmÃ¸r k
y det
Ġ rÃ¦
Ġt ot
ĠBorg erne
ĠNav ar
Ġ yt
ĠLin ier
v og
ĠÃ¸n sk
ĠCar stens
ĠFornÃ¸den heder
Efter at
mon t
ĠForsvar s
Told kammer
ĠSalom on
ĠGier ning
Par is
Ġbefry gte
ĠEng lands
St at
ĠHorns yld
k ort
Ġp ry
ĠAmager torv
ĠF oss
ĠUd fÃ¸relse
skyld ige
ĠTilh Ã¦ngere
ĠStor vi
ĠForvalter en
ĠKlare boderne
T rÃ¦er
Ġop rigtig
le ans
yl der
oner et
ris erne
Ġst Ã¸dte
Au ctionen
ĠEvig heden
ĠA astrup
ĠP ach
Ġu und
ĠW is
au er
Ġhistor iske
st s
ĠK reds
Ġt usinde
ĠE rik
Ġl Ã¦ng
ub ye
ĠHertugdÃ¸m mene
tinenti er
ĠFÃ¦nd rik
ĠHÃ¸n se
K l
sk udt
ĠLiv regiment
ĠBÃ¸ hmen
ĠBul l
ker et
ĠV ang
m und
Ġover hovedet
lys es
ĠJ om
Ġ16 4
Ġbo es
Ġundt agne
Ġbyg ge
ĠMis forn
ĠSkiden strÃ¦det
Ġbort kommet
Ġbest ilt
h in
ste derne
ĠBag last
ho e
ĠGrÃ¦ ske
ĠSk arp
Ġbo endes
Ġgiel der
M Ã¸dte
en c
eg ler
mel dt
ut her
Ġt abe
Ġ13 3
yt tes
ĠFÃ¸l else
f re
Ġs Ã¸rge
ag ers
ĠN er
Ġned lÃ¦gge
ĠForbry delse
ĠCh amp
ĠNo t
ĠSkov foged
Ġri dende
ĠMÃ¼n chen
ĠW inding
Ġbort taget
ĠD id
ĠSÃ¸n den
Ġsimp le
ĠBenz on
y ds
Ġl o
ĠLands mÃ¦nd
vit tighed
g am
Ġl oger
ĠKancelli eraad
ĠWands beck
g a
ĠFor huset
ann a
ĠHj Ã¦l
ĠPr am
ĠEnke mad
Ġerind res
ĠToug vÃ¦rk
ĠAv ant
el de
Ġsk revne
ĠAu c
ĠBar bar
ĠTrÃ¦ l
ĠKjÃ¸ kk
Ġleds age
ĠL ak
ĠFlens burg
ĠSchu bo
5 5
Fran krig
ĠUndvig elsen
ds v
Ġhiem kommen
ĠBetÃ¦n kning
Ã¸ det
slag ne
ĠOper ationer
Ġf Ã¦ngs
ĠG lar
ah n
Ġbe viist
Ġd agen
Ġud leveret
ĠPr es
ĠBek ym
Ġindst Ã¦vnes
ĠkjÃ¸b e
ĠMed aille
P lads
ĠD ed
esk iÃ¸bing
ĠT vist
ĠLe x
Ġ15 9
ĠRen terne
g in
Ġop tage
Ġhvil er
ĠNÃ¸r gaard
ĠGiert rud
ĠS ynder
ĠLÃ¦r reds
Ġs adt
Ġr aade
ĠRigsbank penge
ĠPrÃ¦di ken
li st
Ġmodt agne
ire de
Ġber ette
prÃ¦ st
ĠAdmiral itetet
gre en
ĠDi urendahl
ĠL amp
Ġbort dÃ¸de
Ã¦st et
ĠBen ene
ĠBass esen
Ġb on
ĠMad am
eski be
ĠSammens vÃ¦r
ere des
ĠAm und
ĠSmyr na
ĠArbeids mand
ĠCandid atus
ation erne
ĠusÃ¦dvan lig
Ġeen stemm
ĠSpanien s
ĠOb serv
ĠFortÃ¦l ling
ĠBombar de
ĠJ mellem
ĠDom kirke
ĠSkiftecommission en
ĠExam en
ĠCir cul
ĠC ord
ĠVe ier
z ar
ĠH Ã¦ste
ĠF aner
ĠV andel
ele ver
ĠJn stitut
Ã¸m mede
ĠKorn varer
Ġubek iendte
ĠÃĺv re
ĠTapper hed
Ġh Ã¦vet
Ġbru gelig
ĠRe vent
Ġ21 0
ĠÃ¸v re
h agen
ĠRe yse
lÃ¸ ber
ĠGram mati
ĠS unds
ĠD ands
it he
ber ger
ĠNordamer ika
ar ti
Ġbe Ã¦re
ic on
lighed s
ĠAmer ikanske
ĠNationalb ank
ĠF iende
ĠFrem skri
ĠPal lads
ĠDamp skibet
ĠBarcell ona
st raf
Ġan k
ĠKl ingberg
sch irurg
Ġford Ã¦r
ĠkiÃ¸b es
Ġop vÃ¦
au sen
b unden
ĠMand folk
ĠKanon skud
Ġval gte
Ġraison abel
ĠAn givelse
ĠJn den
Ġikkun s
Ġspur gte
ĠLever ance
ĠB urg
vil lie
Ġ24 0
ĠAger land
yp tiske
ĠBil led
c ast
ĠFor nu
Ġ13 7
ĠS val
Ġf abri
ĠUd bredelse
L ondon
p und
Ġan stÃ¦ndig
ad jutant
ĠRegjering ens
S amme
Ġfor lÃ¦gges
Lie uten
ĠW ang
to k
qv id
bet al
Ġfores laaet
ĠophÃ¦ vede
ne st
ĠCh ines
ĠAllerhÃ¸ist samme
Ġal ligevel
ĠÃĺie med
ĠBager ovn
av l
Ġuds Ã¦lges
Sk ulde
Ġbe gi
ĠKi eld
ĠNe utral
ĠOverbe viisning
ĠD ub
Ġud brÃ¸d
ĠRo yal
ĠAas um
Ġbe viser
ĠHÃ¦nder ne
ĠJnteressen t
bind ingsvÃ¦rk
ĠB landinger
ĠSkib ets
Ski b
ĠRevolution en
ĠJesper sen
t vivl
Ġt aal
ie der
J oh
ĠF ede
els ers
Ġtil tales
ĠV ensyssel
Ã¦v ner
ĠPr indsens
ĠHau ch
ast ian
ĠNed re
ĠSult an
ĠBrÃ¦ndeviins vÃ¦rk
be en
oller up
ĠHerreds skriver
ĠKli p
ag elsen
ĠFri eder
Ret tighed
Ġv ac
Ġa gende
ab et
Ġ16 00
ĠFattig kasse
ĠmÃ¦rk vÃ¦rdige
ind ingen
ĠCla sses
ĠPant havere
ĠD ra
ĠD rivt
ĠT og
Ġ13 9
Ġelsk elige
on n
ĠJ de
ĠJ hÃ¦nde
ĠJÃ¸rgen sens
ĠTra kt
ĠForet agelse
ĠVaanings huus
L Ã¦st
der a
ĠKn Ã¦
ĠBa um
ĠForvent ning
c an
Ġhav te
ĠAl man
ĠForm yndere
iss et
S al
d ommens
ĠF ahr
Ġven dt
ĠSo ve
Ġappro beret
d o
En ke
S ver
ĠO nd
ĠEng lÃ¦nder
Ġtilveie bringe
Ġv ove
Ġbort gaaet
ĠKorn et
I nd
ig erne
ĠSt rÃ¦kning
lie ut
ĠHalvtag s
ĠMari boe
ĠHas le
B ed
de st
ĠV it
ĠCre ature
Ġost indiske
Ġo v
il den
ĠH agel
Ġan trÃ¦
Ġm Ã¦l
ĠP anden
ĠBa j
b ret
k ende
ann iske
iet te
Ġtry kke
ĠSchwe itz
Ġa sse
ĠCon to
lÃ¦ nd
ĠHa ds
N aar
S ter
ĠSt ru
ĠKo pper
ĠK omp
Ġi aar
ĠW esten
ĠKong ressen
ĠTronhiem s
Ġs ield
ĠH ve
ĠVeir mÃ¸lle
dski Ã¸nt
ĠH esten
ĠCon stantin
Ġbekiendtgi Ã¸r
Ġtil tagende
ĠRe h
Ġz um
ĠFabri c
ĠTorsdag s
ĠDisp osition
forord nede
ĠS jel
Ġfor vand
im mer
ĠVe ie
ĠRing kjÃ¸bing
Ġanmo det
Ġl in
rup s
Ġret fÃ¦rdig
ĠStab s
Ġud rust
Ġbehand les
f ry
Ġf rig
ĠSamt lige
ĠCitadel let
ĠRasmu sen
m Ã¦rket
ĠStor men
ĠOpdag elsen
ĠMagn us
ĠC ic
ĠMa st
to fte
ĠOm lÃ¸b
qu et
ĠBorg en
f Ã¦lde
ĠU t
ĠRasmus sens
ĠElm quist
Ġb lan
ag s
ĠT art
K lÃ¦der
T Ã¸mmer
ĠEt ages
Ã¦g tede
ĠLaur s
ĠLandsoverret ten
ĠH all
ĠP lÃ¸
iti v
ĠTab ende
ĠSer vi
Ġforb udet
st on
ĠOl ding
ĠUly kkelige
ĠRegister ings
f red
dahl s
Ġi hÃ¦nde
m b
o ug
ed re
Ġad dressere
ĠFattig es
Ġful gt
Ġko stede
Ġspr ang
ĠP est
ĠVaabenstil stand
ti m
A dresse
el skab
ĠN ett
Ġberet tes
ĠlÃ¦ ser
re cht
Ġom st
ĠCap tain
Ġopdag ede
on te
ter n
ber eder
Ġud g
Ġud af
iss ing
ĠKry ds
P enge
ĠF il
ri a
Ġaller underdan
ĠRug en
g ne
ĠH vis
Ã¦l v
ĠC av
ĠGeneral post
ĠSkri ftet
ĠC asser
Ġforst aae
ĠTaknemmelig hed
p ligt
in ing
ĠKlÃ¸ver frÃ¸e
ĠR inge
Ġdes vÃ¦rre
ĠBry gge
ĠUr ter
ĠNÃ¸d vendig
ĠCab inets
ade er
ĠHus ets
ĠLivs arvinger
Ġudtry kkelig
u iller
ĠPrÃ¦ tens
ĠCit anterne
Ġforti ener
k ontoir
he it
ung ne
Ġs und
Ġfor syn
Ġunder tegnet
ĠHalv delen
ĠNye borg
Ġro ligt
Ġsik re
Ġsaakal dede
i Ã¦
ĠS ab
Ġret mÃ¦ssig
Ġgebro kken
Ġloger ende
2 1
p or
Ġind sam
ĠSyd amer
k iedel
Ġop fordret
Ġ16 6
Ġform aae
ĠKar akteer
Ġub esk
p hen
Ġfar et
ĠVÃ¦ ver
ĠfornÃ¸y elig
ĠDi derich
it tre
ĠAf gifter
ĠLy ksal
Ġinde holdt
ĠindtrÃ¦ de
h orn
off er
ĠJnfanter iet
Ġud deelt
Ġel sket
ĠstÃ¦rk ere
fri ed
ĠOpp eb
ĠLol lands
ĠSam tale
ĠSen atet
ĠKiÃ¸kk entÃ¸i
Ġl ovede
ĠHÃ¸ is
Ġ22 0
ĠBag ge
alen der
Ġ es
Ġ15 7
ĠUden byes
ĠFier de
Ġg aaende
ati sk
ĠStifts bogtrykker
ĠP esten
ĠG aa
us iske
ĠAf g
Ġbegyn des
Ġful den
Ġneds Ã¦tte
ĠindlÃ¸b et
Ġen delige
Ġg ave
Ġj or
Ġindst randede
Hertug en
ĠTet ens
ĠR ach
Ġmarsch erede
Ġiv rig
ĠOn de
g elser
ĠKobber stykker
ĠMun k
ĠMargaret ha
ĠForelÃ¦s ninger
ĠHerre gaard
ĠMon iteuren
ĠUni form
Ġbebo er
ĠDann else
ĠAlexand rien
Ski bet
18 0
ĠF ire
ĠJnd skud
ĠMahogn i
ĠUd faldet
ighed s
Ġaf sat
Ġu alminde
Ġbel agt
ĠGien stande
Ġop tages
ĠFry d
ĠÃĺvrig hedens
ĠDamp skib
ĠBo elig
Ġkj Ã¦re
ĠPortug isiske
ĠFÃ¦ng s
Ġang aae
Ġbem ynd
Ġunder tiden
Ġ14 8
Ġi medens
iend omme
ĠHovedstaden s
ĠCorrespon den
p u
ĠV eder
Ġoph Ã¸rt
ĠSÃ¸ren sens
ist iske
ĠBr es
ĠKiÃ¸bstÃ¦ derne
ĠSkat kammer
Ġdip lom
k ningen
ĠBli ch
ĠForhandling er
strÃ¸m per
ĠAudien ts
lÃ¦ng st
E l
T id
ĠBort gang
Ġtilst illet
ĠGra der
ĠOrlog s
ĠT alen
ĠKong et
ĠJoh nsen
rich t
ĠUle ilighed
A v
ĠD aad
ol on
Ġbesk jÃ¦
ĠMas sen
Ġs lagne
ĠDivision s
Ġfrugt bar
ĠopmÃ¦rk som
ien den
ĠkjÃ¸b es
Ġvent elig
ĠGalt hen
ĠT and
Ġbes idder
ĠGe be
ĠThe atret
ĠSil kegaden
Ġhand ler
anke de
v Ã¦re
ĠBr ol
ĠD im
ĠT jener
ĠCollecteur er
Ġkryd se
n Ã¦
ĠPrivileg ier
ĠSic ilien
ĠConcur s
f ru
t ed
ĠHuus holder
ĠTri est
G ods
om er
Ġsid der
illet ter
Ġforbe holdes
ĠSved sker
m aad
ĠTold boden
Ġ400 00
ĠGouverne uren
ĠVertshuus holder
ĠQ vÃ¦rne
Ġbekjendt giÃ¸res
Ġoply ste
mar ch
ĠLands dommer
ĠOl sens
Ġaf hÃ¦n
ĠP ov
ĠSt rid
ĠVicekon gen
D r
sk ar
ĠHer ren
ĠRas ch
Ġh ist
Ġfor ord
Ġbe vare
ĠSÃ¸ ndre
ĠChristopher sen
Ġforvis set
v inde
ĠQ vi
Ġne ap
ĠT alle
Ġber Ã¸vet
c ommiss
Ġans var
ĠRigsbank sedler
Ġulov lig
ĠBog lade
ĠAnne x
ĠRosen borg
ĠArtiller iet
ĠPun kter
Ġsim pel
Ġbort le
ĠOver huset
ĠDet asch
ĠDer for
ĠA gen
rav ede
Ġpaali delig
ĠSchum acher
S E
p else
fter e
Ġbr and
ĠG ens
ĠLe iren
ĠExemp ler
ĠRu ug
e il
Ġop kom
ĠDr am
Ġdan net
ĠGjen nem
dre de
Ġopr Ã¸r
ĠTag steen
ĠO ste
igt ig
ĠAdministra tion
ĠSt ene
men terne
Ġg ade
ĠExpedition en
Ġmatric uleret
ĠDÃ¸ dens
ĠHa ug
b ak
Ġind rette
ĠStat holder
Ġri melig
ĠC ass
Ã¸i ske
ĠtrÃ¦ ffe
Ġden gang
ĠC ort
dre ven
ĠFl aa
ĠEx pr
ĠMedlem merne
ĠKielder en
Ġvest lige
ĠMahogn ie
ĠP au
ĠPak huse
ĠT orn
Ġtilh Ã¶rende
ĠNy torv
ĠSiÃ¦l lands
Ġt red
ĠUnderret ten
di ken
Ġse en
ĠWe yle
ĠHand ske
far e
ĠMin er
ven nen
ner up
ĠAlminde lige
ĠSkilder ier
ar die
at ningen
ĠVer k
ĠHus um
Ġmist Ã¦nk
Ġforg yldt
ĠForsk iel
Ġt vertimod
Ġud p
ĠKrig skib
ĠSv in
Ġmennesk elige
ĠB randen
Ġbev idne
ĠJ Ã¦g
Ġsaa et
ov et
ĠUd lÃ¸b
ĠGe el
vent et
Ġom ring
ĠTro e
ĠHolsteen sk
Ġfine ste
ĠP ors
ĠChrist oph
byg get
Ġ183 4
ĠFr om
ĠHoff mann
Ġh ielpe
Ġg aard
ĠTilf Ã¸iende
ĠtilstrÃ¦ kkeligt
Ġpublic eret
ĠBer tel
ĠTegl hÃ¦ngt
ĠS Ã¶n
Ġmed fÃ¸rer
br yder
rag ende
ĠJor dens
ĠJndbyg gerne
ĠSÃ¦nge klÃ¦der
ĠS lang
ĠAn fÃ¸rsel
ĠUd nÃ¦vn
ĠAdmiral gaden
ĠSyg dommen
ĠF u
ĠLÃ¦r ere
ĠWal lach
ĠfÃ¸ ler
ĠSvan e
3 6
ĠTÃ¶ nder
ĠkiÃ¸b t
ĠSvag heder
ĠCommis sioner
ĠAl les
Ġforel agt
ĠBuen os
ĠChrist ne
Ġfor lÃ¦ngst
ĠMa ster
be styr
ĠSe e
Ġander ledes
ĠLiim fjorden
Ġb ere
ag ens
Ġst al
Ġunder veis
ĠAmal ia
li en
mod ig
Ġl es
ĠJn form
ĠOl der
Ġpoliti sk
au f
ĠSÃ¸ stre
Ġkost bar
ĠLandsby en
ĠStorvi z
re gel
Ġski kket
ĠUnderhandling erne
ĠL aas
Ġein em
ĠSky ts
g ene
ĠL um
Ġk omp
ch el
ĠOp vart
ligheder ne
st ron
Ġsaa mange
ich mann
ĠAugust enborg
Ġblod ige
U hr
Ġv ak
ĠSki Ã¸n
ĠÃĺ erne
Ġindh egnede
Ġelsk te
Ġs jel
ĠEge bindingsvÃ¦rk
k aal
ĠBrand forsi
giÃ¸r elser
ĠnÃ¦r mede
ĠSkib sk
ĠPer le
ĠT raad
vÃ¦rd igt
g s
ĠC a
leg ge
r aab
sk ning
ĠR ol
ĠCas par
ĠO econom
enh uus
ĠSÃ¸ nd
Ġoven anfÃ¸rte
ĠNÃ¸rre port
ĠÃĨgte fÃ¦l
Ġd av
ĠAcadem ie
ĠIs land
T yr
k y
ĠD aa
ĠR oth
Be handling
ĠAn sku
C he
ĠBr Ã¼
Ġgr undede
ĠBebo erne
Ġen g
Ġom handlede
stÃ¦ nder
ĠRegiments qvarteermester
ĠKro hn
Ġud la
ĠRosen krantz
ĠPlo ve
c es
Ġv and
ĠUd rust
ĠNett eld
f a
let te
ian s
ĠRe i
ĠHo pper
ki Ã¸d
ĠAd mir
u v
an es
ĠKud sk
sk irke
ĠW el
Ġugr undet
kal dt
Ġ15 6
Ġud bragt
Ġindkal dt
ĠPar terne
ĠMos es
is es
Ġbet re
ĠSam uel
Ġbr Ã¸d
Ġ ing
Ġk iender
for stander
ĠKan ter
ĠKavaller ie
Ġmundt lig
ĠUd huse
Ġalvor lige
Auction er
ĠJustiti ens
ĠF angne
ĠSk aal
ens ch
Ġfornem me
is ere
ĠBjer ge
sen borg
Ġvar me
tor vet
Ġun Ã¸d
par ter
Ġund vigte
ĠsÃ¦dvan ligt
ĠEmb ed
ĠLandg ilde
Ġan n
haver en
Ġu sk
rÃ¦ s
Ġunder dan
ĠSkib sb
Ġmang foldige
ĠKi Ã¸l
p rov
st ru
ĠBind ings
ĠRi o
ĠHistor ien
ĠVaan huus
ĠS aad
ĠKi ers
Ġtilh Ã¸rte
ĠSpeciess edler
ĠFremskri dt
ĠChrist end
sel skab
L otterie
a um
hau pt
ĠStak it
le ben
ĠTil gode
Ġoph Ã¸rer
Ġh ug
sl ager
mach ung
k asserer
ier re
Ġtien lige
ĠGreen aae
Ġfavor able
ĠR Ã¼
Ġn Ã¦gte
k irk
ĠJ Ã¸der
ĠU gen
ari o
ĠTÃ¦nke maade
raa der
ĠA tt
Ġp aan
ĠOffic ererne
en Ã¦vnte
gj eld
Ġpro visor
ĠExam in
b rop
ab l
ĠEnke kasse
al ier
ĠFl od
Ġforand re
Der om
ĠO lesen
ĠFÃ¦st ninger
ĠVex ler
Ġforbli ver
ĠR Ã¸n
ĠhÃ¸iti delige
Red igeres
ĠMe mel
ĠFuld kommen
Ġforful gte
ĠLandhuus holdnings
ĠBrem en
ang et
Ġ183 7
ĠChef en
tz er
ĠKle in
Ã¦ ts
ĠN aa
skaff else
ĠBrÃ¸g ger
Ġb re
im enter
ĠBl Ã¼
ĠWilhelm ine
Ġfor unde
Ġmel den
Ġtal rigt
Ġtru ede
ĠA pper
ĠR yttere
ĠFor stand
ĠMa sse
ĠSand vigen
ĠMichael is
ĠHot el
or a
Ġlet tere
PrÃ¦ dik
Ġsield ne
ĠVi ing
ĠStÃ¦ derne
s ere
Ġvansk elig
Ġtilfor ladelig
Ġ ordentlige
ĠWall Ã¸e
Ġm on
ind ret
ent ligen
yer ske
ĠMarsch en
Ġom liggende
ĠTil sk
ĠKjÃ¸b mÃ¦ndene
ĠLands bye
over s
ĠHa ver
Ġopf Ã¸re
ĠF elt
Ġforanst alte
ĠNeer gaard
Ġbef Ã¦ste
Ġdag lige
ĠPeters burg
Ġal ts
Ġr Ã¸get
ĠMask iner
d als
ĠJnd fald
ĠMag ister
ĠKÃ¶n igl
Ġmed bringe
ion en
ĠGrÃ¦ kernes
ĠRed ning
Ġmedic inske
an iske
Ġfor auction
ĠBe y
Sver rig
Ġg reb
ĠJuli ane
ess es
ĠCor fu
Ġforg yldte
ste ene
ĠSk in
ĠHol ck
Ġpanel ede
ĠT rÃ¦ngende
Ġ12 2
ĠophÃ¦ ve
ĠV inde
Ġl aver
ĠFader en
ĠPoh l
e ster
Ġm ede
ĠCapitain en
B l
Ġm est
ĠRepublik ens
ĠMedic in
Ġbeord ret
ĠforfÃ¦rdig es
ge ben
Ġl ave
ĠBog handlere
ĠPrinds reg
ĠDirecteur er
k ielder
stien esten
Ġst randet
Ġfore faldet
ĠÃĺvrig heds
Ġfor ber
ĠAn cher
ob ber
Ġ183 8
ĠBest illinger
to pp
em od
Ġven der
D Ã¸de
Ġans aae
Ġmang en
Ġein es
Ġfem te
P ri
Ġv entet
ĠUn garn
Rus land
ri ber
lem me
ĠLe ien
ĠBye fogden
ĠStat sminister
ĠIn teressen
ĠHas sel
ĠBÃ¸rn ene
ig tet
ĠTor sk
ĠTyr ol
Ġbevil gede
f loden
Ġb Ã¦rer
ĠH ug
ch n
ura t
Ġuds Ã¦tter
ĠGam le
ĠEv ne
ĠQu ar
ĠLig et
ĠHelsing borg
Ġro elig
ĠD Ã¶
ĠPort ens
ater ial
Ġt ak
ĠM ind
for mer
ĠStor fyrst
Ġ177 2
ĠCompagn ier
ĠCas per
V ahre
Ã¦ kkede
Ġp lynd
Ġk log
ĠSÃ¦ by
ĠGren adeer
ĠFÃ¦dren eland
ĠB eng
ĠAc ti
Ġforest aae
rÃ¦nds ende
Ġtil falde
ĠSch anderborg
op ulerede
d ning
Ġunder kaste
Ġind heftet
ĠAr chi
iel sen
ĠSch am
ĠEx er
hal ten
qvi p
ag erne
ĠN ar
ĠO ster
Ġd Ã¸mme
akk erne
Ġv ol
Ġbivaan ede
c our
ĠPal ais
Ġb lotte
ĠB undt
Ġp ers
ĠFamil ies
Ch irurg
Ġdu elige
ĠWar de
ĠM ods
Ġal l
ĠAr ket
ĠGarnis ons
ĠBou te
ĠRud kjÃ¸bing
ĠNy et
ĠCan ning
ĠNicola us
Ġud deelte
Ġop sp
Ġmis ly
Ġil ede
ĠHim len
ociet et
Ġm Ã¦
ĠBer telsen
ĠM eld
ĠM ynd
ĠRab at
P oliti
Ġefter di
om t
ĠBrand redskab
ĠBentz on
B ye
ant ning
ĠUden landske
me ere
ĠAn ner
ĠCathar ine
Ġopr aabe
Ġporto frie
ĠAf holdelse
ĠBoe have
ĠRaffin ade
br yde
ĠMÃ¸n ster
ĠÃ¦rbÃ¸d igst
T i
b lade
riv elser
Ġfrem lÃ¦gge
ĠKronprinds esse
f en
il s
Ġtru ffet
Sp anien
Ġm ilde
Ã¦r en
Ġri ig
commission en
ĠPaul sen
Ġhies igen
ĠT Ã¸y
Ġ14 6
ĠSil ket
re ussen
Ġbru dt
eb og
ĠHens igten
Ġres er
ĠDel ing
Ġstem me
Ny lig
ĠDu c
ĠSkj e
ĠBouti k
ĠSkinder gaden
ĠF ane
ĠTh aarup
ĠTol der
ĠForbed ringer
ĠSin del
s agt
ĠK ok
Ġforaars agede
ĠfortrÃ¦ ff
Ġi klÃ¦dt
ĠE strup
ĠLand mand
Ġ14 5
ĠJÃ¸r g
ĠWe ide
Ġud gjorde
ĠBo el
bog handler
Ġforts at
ĠbekrÃ¦ ftet
C ar
G rev
le hn
ĠSch lesvig
ĠVilkaar ene
Ġsynder lig
ĠAn fÃ¸rer
um ent
Ġskade lige
Ġorigin ale
Ġ Ã¸de
Ġtraa dte
ĠNÃ¸dvend ighed
ĠBe fri
Ġr Ã¸mme
ĠA li
ĠSch al
hav de
fter retninger
ĠHen neberg
Ġbo et
bar n
k urator
p sen
is berg
ĠHol men
ow s
ian e
Ġ15 3
ĠGouver n
ĠvidtlÃ¸ ftig
ĠÃĺj eb
ĠOpvart ning
h ier
em ber
Ġans laaes
ĠJes ui
ĠCo ch
k ninger
ĠR ubler
Ġbek lage
ĠTh ye
Ġsv age
ĠN an
Ġg al
Ġ15 4
lÃ¸s ning
ĠExemplar et
P as
ge st
ĠW ir
ĠRet fÃ¦rdighed
ĠLÃ¸b et
ĠPly mouth
sk yl
Ã¦r vÃ¦rdighed
Ġved vare
ĠHar boe
ĠCommission s
ĠStifte forvalter
ĠS iette
ĠAnd r
Ġs avne
ĠD ern
ĠJ dÃ¸mte
hol men
ĠTil veie
ct a
P eder
ĠD Ã¸rre
hol tz
ĠBo eck
ĠEngel lands
Ġass urerede
B rÃ¦nde
Ġud vortes
ĠCommand anten
Ġs j
cass ator
ĠF eg
viis nings
ĠTro es
Ġfort jener
ĠEurop Ã¦iske
ust rup
Ã¶ re
ĠAlt ing
ĠHer lighed
ĠD um
ĠT rip
tegn else
Ġattr aaer
Ġlog erer
ĠGang en
ĠForm aal
ĠHov eds
ĠA bel
Ġ500 00
Ġbem Ã¦rket
ĠLicit ationen
ĠSeb astian
Ġpaa taget
ĠSp ille
ĠHoved bygning
Ġopf yldte
G e
ĠCon vention
Ġfe il
Bed ste
Ġf Ã¸des
ĠSkriv ning
ĠJnteressen terne
ĠWol ff
ĠBoutel lier
p ec
ki endes
Ġ19 0
ĠR Ã¸m
ian o
Ġoffentlig en
ĠCat hedral
k le
k reds
h aar
Ã¸i elig
ĠF en
Ġpass elig
ĠLÃ¦s ere
â Ģ
Ġ âĢ
ĠD up
est rÃ¦det
fÃ¸r ere
ĠâĢ ĵ
G ivet
Ġde l
rak te
an o
re isen
ra th
Ġdes uagtet
Ġge gen
ĠJndt ryk
Og saa
t ons
Ġg ed
Ġind gaae
b ladet
ĠSand syn
dire ctionen
ĠAct u
Ster vbo
PrÃ¦ ste
Ġrum melige
g elige
Ġsk adeslÃ¸s
Ġr ene
ost rup
brop lads
K n
S lag
Ġaf lagde
ĠBes lutninger
ĠBonde gaard
ĠResult at
atter s
ĠKal ve
ĠN ie
Ġl Ã¦ste
ĠBesid delser
Ġchrist elige
ĠOpret telse
ĠGebe et
ĠH es
ĠB inds
S ummen
V Ã¦rk
Ġun dsk
ĠKirket iende
Ġp asse
Ġn at
ĠAf giÃ¸relse
ĠHel ene
ĠHÃ¸ie ste
ĠJe ppe
Ġnogen ledes
k teur
ĠM Ã¸dte
ĠBel tet
ĠPat ri
ĠB rum
ĠCate chet
ĠAr endahl
ĠAf drag
ek teur
ĠTÃ¸mmer mand
ĠForet agender
ĠQvad rat
ĠVen ners
ĠD yn
ĠD ine
ĠG ol
ĠKle ins
ĠFl ugt
ĠHe den
ĠKanon baade
ĠAn kl
omm elige
ĠUn ter
ĠAmal i
Ġpaa anket
Ġk jendte
ĠPost papiir
qu er
ĠD ue
Ġ14 000
a ske
v iede
ĠR hed
ĠTe x
Ġsmer telige
Ġf re
ĠB lads
Ġfor kastet
ĠAd rian
Ġforn yet
Ġvirk somme
ĠHÃ¸r krÃ¦mmer
ĠGale ase
Ġvenskab elig
om helst
ĠK all
ĠBo ens
Ġne utr
ĠE del
T IS
Ġtil la
lig ger
ki Ã¸n
ĠMis brug
ĠFour age
c en
ĠEn gen
Ġkomm ander
dr og
Ġindf inder
he ders
Ġme ubler
ĠPante bogen
7 5
ĠAf seil
Ġny dt
Ġtien ende
Ġyder mere
l Ã¦re
st ensen
Ġfor holds
3 5
h iel
on i
.. .
Ġinds atte
ĠWe il
T hi
Ġr er
ĠPant haverne
f ag
ut z
ĠHo ver
ĠCar dinal
ĠtilstrÃ¦ kkelige
uris diction
ĠComp toir
ĠBat av
ĠTilb ag
ĠTel eg
Ġs ag
il ie
Ġm ah
ĠStr als
Ġuaf brudt
H auge
kl are
ĠBrev posterne
ĠSouver ain
V andagen
ger sen
Ġq val
ten borg
ĠHÃ¸y hed
ĠRe vision
ĠSag s
ĠVid ner
Ġs yge
ĠO tte
omm erne
ĠUd huus
ski Ã¸r
Ġ100 000
ĠSkov rider
ĠTids rum
ĠSl up
ĠDig te
Ġfores log
se cret
ĠBirk s
Ġforsik rede
Ġypper lig
J gaar
oc um
ĠHerreds contoiret
ĠHÃ¸i broplads
ĠCit antens
Ġrigt ige
ĠStiftsbogtrykker iet
ĠN id
ĠEng bund
ĠJÃ¸r gens
ĠHer mann
h un
Ã¸ es
Ġ183 9
ank es
ĠForb und
ĠHaders leb
i ver
Ġa gtet
ĠW ith
Ġan gik
Ġom t
ment s
ĠTer miner
ĠLey lighed
ler ie
ĠMat t
ĠForder ungen
Ġse yn
Ġ176 8
ĠForel Ã¦ggelse
ĠPlo ug
i pp
ag us
ĠL af
ĠLor ent
ĠOrgan ist
st av
lig ge
li us
ĠFin mark
ĠMel is
Ġudbet alte
ĠPar ret
ĠRig sdag
lys ning
ĠFÃ¸ds els
g las
Ġs a
Ġf jer
ĠDer om
Ġly kkes
ĠDyr kning
Ġmyr det
ĠDe pe
for retninger
Ġtilst undende
Ġu paa
ĠAn seelse
id a
ce p
Ġforb enÃ¦vnte
y k
ug sÃ¸e
que ur
ĠKiÃ¸kk enh
ĠUdebli velse
T vende
Ġaf t
ĠTing huus
ĠThor up
ĠPen ges
Ġvansk eligt
3 2
V ar
Ġpaa boende
ĠFor val
ĠNy kiÃ¸bing
ĠLis pd
ĠSog nede
ĠStorbritt annien
ĠSop ha
ĠS ande
il te
ĠB Ã¼r
ĠMe in
ĠLyst huus
ĠFr il
ĠArbe yde
3 4
ĠM Ã¦nds
Ġ25 000
ĠÃĺster gaard
otter ies
ĠScho ubye
ĠOverd rev
ĠA si
Ġu der
ari atet
ĠFl ot
ĠJndt Ã¦g
ĠPass age
ĠOr leans
Ġbef indende
ĠKam mere
ĠGlar mester
ĠFor g
Ġan tog
Ġimodt ages
ĠR otter
ĠSt Ã¦nger
ĠSch j
ĠSch ar
ĠPa ket
Ã¸ds fald
ĠCal ais
ĠC eremon
Ġ nede
tz e
ĠFrue kirke
End nu
ĠMist anke
Ġm Ã¦rkede
ĠT Ã¦r
ĠLÃ¦r de
ĠTegl tag
g ange
l Ã¸n
or ds
ĠA sse
rÃ¦n gelse
ĠHor nemann
sd ahl
ĠMaler ier
ĠW oer
Ã¦ng te
ĠSardin ien
ĠLeop old
ĠK Ã¦m
ĠAnd ragende
ĠFry den
ĠN els
ĠMin uter
ĠBrygger s
vi dende
ĠLade gaard
hau sen
Ġt urde
ti ds
ĠLy bek
ĠUn ge
ĠTyr kernes
Ġob ser
ĠOpfyl delse
ĠRi eg
et Ã¸ier
un ic
Ġu r
Ġl Ã¦gger
ru es
ĠRo ligheden
ĠBorger skab
Ġconstitu erede
ĠLandm aaler
ĠCharac teer
T obak
w itz
Ġ qu
ĠT av
ĠEr lÃ¦ggelse
Ġform ener
ĠFriderich s
ĠskrÃ¦ kkelige
y kker
Ġsp ille
ĠNel lemann
Ġer n
Ã¦r t
Ġperemtor ie
ĠEl ben
ĠDri kke
S or
Ġefter nÃ¦vnte
ffen di
EN T
ig iennem
il ig
Ġf ede
Ġund lader
ĠCancelli st
ĠKamp en
Ġ13 00
Ġafg aaede
ion s
Ġtro et
c ent
Ġs lesvig
kk el
ĠSe yl
ĠHuus mÃ¦nd
ĠEngel Ã¦nderne
olle borg
Ġbe mÃ¦gtige
her rer
ĠKrager Ã¸e
Ġfor der
ĠSp iger
Ġ13 1
ĠBud skab
ĠVil helm
ĠYn g
il ia
Ġb ittre
ĠRe fs
ha ugen
ĠVel Ã¦dle
ĠCavaller iet
mer n
ĠBeting else
dal ene
C om
Ġanbefal ede
ĠCarac ter
ari sk
ĠVol den
Ġtilkjende give
Ġl aan
Ġforsam let
Ġh Ã¦ves
ĠFaa re
ĠAf stand
ĠCol umb
Ã¶n landske
ĠSkoemager mester
ĠHjel p
ĠS olen
ĠL agen
Ġbl om
heder ne
Ã¦gt ige
c urator
z z
for retningen
Ġned re
ĠVidenskaber nes
ĠLever ancen
ĠHvor ledes
ĠLiebhaver es
Ġf ol
ĠVand mÃ¸lle
Ġmar ch
ĠforÃ¸ gede
Ġan giver
ĠKunst ner
ĠAl lar
Ġbem Ã¦rke
ĠUnderret s
Ġan holdte
Ġl ove
Ġkund gjÃ¸res
c apitain
eg let
Ġan de
ss els
ĠSubskri benterne
ĠReb ellerne
ĠBoul ogne
ed rag
ĠJord skyld
Collegi et
ĠMeier ie
C itanten
t sen
Ġ Ã¸mme
Ġt Ã¦l
ĠM Ã¦r
ĠGr and
Ġtilh Ã¸rt
ĠP ag
ĠV aab
ĠStÃ¦nder ne
st ager
ĠJnd igo
ĠOm slag
ĠQv in
ĠUdgang en
ĠUden lands
Ġopn aaet
PrÃ¦dik anterne
Ġtil talte
ĠT ings
ĠR ot
Ġsk arp
Ġvor den
yld ninger
Ġbesk reven
u hre
Ġn a
for b
br un
Ġumiddel bar
ĠVelsign else
yr en
ĠArbe idere
ĠPlak at
b aaden
Ġo c
ĠA hle
ski ftede
Ġi for
Ġp rak
Ġom by
Ġover leverede
ĠCou rier
ĠD igt
ch ie
ung s
es um
Ġn aaet
ation al
ĠDeel en
Ġtyr kisk
tocol len
ĠAction ens
lac at
ĠF Ã¸dte
ĠPach a
7 6
ĠT au
ĠG lands
Ġom hyg
Ġin s
ec orps
ĠTryk te
Ġny ligen
ĠVadmel s
ĠM eget
ĠK as
ft iget
ĠTil sides
yr st
Ġtilb udet
marsch al
Ġover s
ĠGaar der
ĠÃĺ re
Ġbehag eligt
har m
Ġtal ede
Kong elig
Ġbe mÃ¦rkninger
Ġop sl
Ġhidr Ã¸re
im s
ĠÃ¸del agte
ĠOvers v
Ġfjendt lige
ĠT ang
kal delse
ĠRosen stand
2 00
Ġal d
En g
Ġha and
ĠBarn ets
Ġb landet
Ġm a
Ġm ene
Ġind rettes
igt ige
Ġforst Ã¦rke
rÃ¦b te
ĠforÃ¸ ges
ĠH Ã¸v
ĠK havn
Ġfra bedes
gang s
Ġ183 6
ĠGrÃ¸nne gade
h ang
am in
ĠSÃ¸n s
ĠKan e
Ġconfir merede
ĠBelg rad
ĠfÃ¸rst nÃ¦vnte
ĠFrugt hauge
skib es
C our
f in
ĠEng l
ĠHÃ¸eg h
Ġm r
ĠAr sen
ĠAn liggende
ĠprÃ¦ gtige
kj Ã¦r
ĠHoved bygningen
hold ningen
ĠKeiser inde
Ġafb rÃ¦ndt
Ġud f
yr er
en en
li id
ĠDeb atter
yen ing
ĠVal get
ĠSkrÃ¦ ders
B oe
ĠFor dele
ĠBe viislig
ĠFl indt
Ġmu rede
ĠTy re
ĠKun ster
g rib
s ager
ĠFor mand
ĠSt orth
Ġe m
ĠSp ies
ĠBr ende
ĠBro ck
ĠStu derende
ĠVid ne
Engel land
Ġl ing
Ġud bedes
ĠMar s
ĠKo ch
Ġsnar ere
ar den
id se
Ġher for
Ġsm it
ĠFor undring
Ġsam mens
ier g
ĠDre yer
ĠSne es
Ġmods atte
el aden
dt s
Ġ16 5
Ġafh entet
ĠEiendoms ret
ĠUdlÃ¦gshaver ens
ĠbeklÃ¦ dt
ĠSy ssel
ĠFin land
r ild
el st
ĠAf betaling
ĠVÃ¦rtshuus holder
ĠBr agn
Ġlet telig
ĠNic ol
ĠFly gt
ĠForny else
ĠSt ands
Ġbort r
ĠHalvor sen
ĠClas ser
or ie
ĠS Ã¦t
ĠD ant
ĠP les
Ġher imod
Ġ9 000
vil la
ska ffen
ĠBag gaarden
ĠDeparte menter
ot z
prÃ¦ sident
em ann
Ġoffent ligt
ĠSÃ¸r ge
ĠSign al
t ten
Ġde ele
c ten
Ġsk yld
h ler
ĠH om
ĠT est
aar ig
ĠW id
ĠSte den
ĠHul l
ĠEro bring
ĠTilgode havende
l aaer
ĠS ander
ĠHer z
ski ft
Ġforf ly
le genhed
Keiser en
Ġp av
um per
ĠKar et
ĠBevilling en
ĠRasmus datter
Ġli der
st Ã¸i
ĠAn ti
enh agen
ĠBryst et
Ġtil overs
ĠC ens
bo er
ĠPun kt
Ġbesynder lig
Ġbe viis
Ġre elle
beret tigede
ĠGevÃ¦r er
J ylland
Ġn aaede
ĠRo bert
ĠN eds
ĠJn g
ĠJuli us
ĠNeder landene
ĠTun is
am en
ĠN et
pr og
ser et
Ġbet roe
ĠKjÃ¸b stÃ¦d
Ġved blev
Ġmaa ske
ammer et
Ġtilf Ã¸iede
ĠHvil e
Ġbem Ã¦rkede
ĠFrieder ich
b sen
u pper
mester e
ĠAnn am
ĠForh aab
ĠKommand o
ĠHjÃ¦l p
ag hed
Ġfore faldne
ĠVester broe
ĠHo ft
ĠhÃ¸ yt
V and
aar n
Ġend da
ig jen
ĠBe cker
ĠAngiv elser
ĠCh or
este det
ĠAdresse contoir
ĠNe um
ĠForst aaelse
ĠBlikt Ã¸i
ar est
Ġg lÃ¦
Ġbier gede
plan ker
Ġi mel
ĠSog ner
ĠGeist ligheden
ĠN is
ĠHerred stings
ĠBetien te
Ġbeord rede
ĠNyet orv
ĠCon tre
ĠBorger gaden
ĠTilf lugt
ĠPoliti eret
ĠHus arer
ry ges
ĠFornÃ¸den hed
reditorer nes
ĠGeel mu
ĠR und
ĠSki p
ĠJacob sens
qv Ã¦g
handel en
ĠAhle feldt
il la
agt ighed
ĠPer u
ĠMis for
sch er
Ã¸y else
ĠForsamling s
ĠKeiser lig
ĠLÃ¦ng der
ĠÃĺ res
ĠE f
Ġu vis
li tz
Ġ16 2
ĠFran ce
ĠSÃ¸ gende
ĠAss urance
ĠDig ter
Ġdan nede
pass erede
Ġfor fÃ¸lge
Ġn Ã¸dte
ĠTil fÃ¸rsel
ĠPr ag
Ġ21 8
ski Ã¸ndt
Ġfor holdes
ĠSch le
ĠFla ske
Ġopn aae
ĠQvantitet er
s ing
er ende
ĠD all
ĠJnd beretning
Ġ15 2
ĠKron borg
ĠBol i
Ġs alt
Ġaab ent
ĠModer en
el la
ĠD os
me inen
ĠPr indser
ĠMo se
Ġex ister
Ġsk aff
ĠAl vor
ĠAf rik
ĠOr det
Ġudval gte
v inge
Ġo nd
Ġu ventet
ĠMag rethe
kost ninger
ĠTing stue
Ġnord amer
ing ers
ier es
lÃ¦ ge
Ġerfar ede
ĠÃĺdel Ã¦ggelse
g o
ran ge
ĠSte in
ĠRet terne
ĠStrÃ¸m sÃ¸e
Ġaf handle
ĠO ri
ĠSch immel
Ġforsvar ede
4 5
D ersom
h und
in us
ĠR ah
Ã¸r klÃ¦de
ĠAnmel delser
Ġuop sig
ĠDepartement et
6 6
Ġde ser
ĠB enefic
ĠT ap
sel en
ĠOver vei
Ġste eg
ĠAn m
Ã¶ de
Ġf litt
Ġv Ã¦l
ĠP itt
ĠAr men
Ġperson lige
Ġyn dede
Ġmaaned lig
ĠB elt
Ġaf giver
li ver
ĠChrist ens
Ġhen lagte
Ġoven staaende
ĠPrinds essen
ta ine
forsamling en
ĠOprÃ¸r erne
ĠAnt ver
ĠstrÃ¦n g
and ser
Ġforest ille
Ġtilst ille
ĠGesandt skab
Ġkund giÃ¸res
ĠPon topp
ĠSkiÃ¦r pelse
ĠTilsides Ã¦ttelse
Ġm Ã¸der
Ġbek lag
Ar rest
ĠTol v
Ġforsikk re
Ġfrygt elige
ĠR ou
ĠMar ien
ĠhÃ¸ j
ĠAs ien
ĠGlÃ¦ des
ĠEle ph
Ġfor ed
Ġ15 8
ĠHÃ¸i heder
ĠScho us
b rÃ¦ndsel
Ġgi ven
ĠLe on
Ġpro te
ĠRoh de
ĠViis dom
Ġtil lod
ĠKjer teminde
Ġal len
ĠStem pel
L otteriets
Ġt ra
ĠV Ã¦d
for f
Ġkon fir
ĠLege me
j order
Ġo ftere
Ġ17 1
teg ods
ĠUl den
ĠsÃ¦rskil dt
ĠBeleir ing
ĠJndby delse
Ġ18 9
ĠForfatter ens
D isse
ĠT j
Ġd reven
li ste
ĠProclam as
Ġkund gjort
ra ds
Ġd isp
hu use
Ġbesid de
Ġaf ben
Ġsamme stÃ¦ds
ĠP iem
is al
ure ur
Ġlev et
Ġm et
ĠKiÃ¸b sted
ĠFransk mÃ¦nd
ĠDar dan
ĠPr agt
ĠNationalb anken
ĠSki k
yn dt
ĠMajest et
ĠGe vÃ¦
Ġmu lige
ĠGrev skab
ĠSlÃ¦ de
ĠDronning lund
ĠFrederichsberg gaden
ĠFormÃ¦ ling
ĠStrals und
Ġh Ã¶
ĠKjÃ¸b mÃ¦nd
ĠY ork
ĠForpligt else
Ġud stedt
Ġbli de
ĠVi olin
ĠNy kjÃ¸bing
ĠPortion er
ĠRaa det
Ġnagel faste
Ġgi erne
ĠHÃ¸ sten
Ġfly gte
lever ingen
ĠCreditor ers
ĠbevÃ¦ ge
Ġo l
ĠR ace
Ġu ble
Ġfrem vise
mÃ¦n denes
ĠLÃ¦g ds
ĠJe an
corps et
cast le
ĠFri villige
ĠÃĨ bler
ati v
li es
ĠLiebhaber es
u lere
Ġm ag
Ġud gangne
mel der
Ġvar er
ĠUd skrift
ĠJnd komne
ĠJnd kiÃ¸rsel
Ġ17 17
ĠLe j
ĠHa us
Ġ45 0
ĠBil Ã¦gger
Ġindry kkede
ĠPrÃ¦di kener
ĠLyksal ighed
ro en
vil de
ĠMag dalene
agte de
ĠHÃ¸ist samme
ĠMun ch
Ġch ines
brÃ¦nde viin
ĠSteent Ã¸y
sk ol
ĠFor man
Ġsk rev
ĠMand at
Ġbev Ã¦g
ĠCat rine
ĠJorde bogen
i derne
ĠBar b
ct at
h vil
r om
s und
Ġan givne
ĠCol let
ĠDi visioner
Ġvigt igt
ĠFig urer
y ret
re en
ĠForsk ands
y des
ĠT jen
ĠComm oder
gier ninger
ĠCong o
D an
p tions
ĠHaand vÃ¦rks
Ġforeg aaet
ĠStue uhr
bring elsen
ĠManden s
Ġsy v
3 8
u x
v ok
Ġ26 0
Ġkj Ã¸re
G ode
se cretair
ĠPar lement
ĠGeneral krig
Ġned st
ĠKjÃ¦r lighed
ĠW em
ĠOver vÃ¦relser
Ġfordre de
bjer g
ĠPors grund
r else
Ġtviv ler
port en
sl Ã¸v
ĠvÃ¦ b
ĠAa en
Ass urance
ĠFor bere
ĠFrankerig s
Ã¦sen et
p ubli
Ġud arbeidet
ry der
ĠFÃ¦drelandet s
ĠMikk elsdag
ĠN ec
Ġd revne
ĠStÃ¸v ring
Ġrec ommen
Bekiendt giÃ¸relser
ul aire
ĠMon te
Ġhaa bede
ĠJom fr
m as
er ier
Ã¦ kning
Ġbev irke
ĠhÃ¸itidelig holdt
sk rig
ĠPri se
ĠSteen gier
me ed
ĠTrÃ¦ vare
mo dentlig
ĠHuusholder ske
ĠAar inger
ĠBog samling
Ġsp Ã¸r
omf rue
ĠBred de
Ġf o
Ġb yde
ĠB reg
Ġp let
Ġe der
Ġher udi
Ġ16 7
Ġanden steds
ĠCap pel
l sen
Ġs ur
ĠSk aden
ĠUn ger
ĠTiden s
ĠBor re
ĠSpe il
s yge
or teret
Ġover levere
ĠLyst spil
ĠHal le
Ġendelig en
ĠCommissionair er
Ġ14 9
ĠMennesk et
F Ã¸lge
f o
ĠB rÃ¦de
eg iment
ĠDec ision
ĠPh ysi
ĠKnut zen
Ġs li
pr Ã¼
Ġbes ee
Ġgr Ã¸nt
ĠBatter ie
ĠStub be
Ġo tt
ran de
Ġf are
Ġover ra
Ġforn ye
Ġcont rib
ĠResult atet
Ġcondition erede
ĠBÃ¶r sen
n at
ĠVar et
berg gaard
ĠGod se
ĠKat t
ĠLys et
ĠLÃ¼t tich
Aller underdanigst
ĠKnip linger
h Ã¸v
ĠM Ã¸der
ĠW esen
ĠHolme strand
ĠB rittiske
Ġr aad
ĠBel Ã¸n
ĠGud me
Ġuaf hÃ¦ng
d se
Ġf est
ĠAl meen
ĠSter boe
ess ing
Ġgav es
Ġanbefal et
Ġneap olitanske
ĠL as
Ġsom helst
eg ninger
Et atens
Ġcommander ende
ĠBrager nÃ¦s
ĠSelveiergaard mand
ĠÃĨgtefÃ¦l le
Ġa delige
Ġud skiftet
ĠJnd ien
ĠLe h
Ġmiddel maad
Ã¸ erne
ian a
Ġalt for
Ġge hÃ¸r
ĠPige bÃ¸rn
Ġtv inge
ĠAnsÃ¸g ninger
ĠT emp
ĠR ati
br ands
Ġpro tocol
ĠG ad
ĠG alle
ĠOct av
ĠO des
ĠLy kÃ¸n
ĠFÃ¦r dighed
Ã¦ kker
Ġkun st
ĠDÃ¸ds boe
ĠTak sigelse
ĠTur in
Ġgrov t
Ġyt trer
abl isse
) ;
ret tens
Ġbek ost
ĠJnd ry
ĠFyr ster
ordent ligt
Ġord inair
Ġanseet e
ĠUdebli vende
Ġifor veien
o ppen
Ġber egnes
Ġsol id
Ġgunst ige
ĠS nesen
Ġt yde
Ġaf skaffet
ĠG ies
th or
ĠFo er
ĠBanc osedler
Ġb a
fri hed
ĠComoed ie
H vo
lig ende
Ġbe holdt
ri min
Ġe ens
Ġud viste
ĠKrig sministeren
ĠChar ge
ĠFier dinger
ĠDyt marsken
p riserne
ĠHu ust
ĠBier ge
ĠForbry delser
ĠBragn Ã¦s
ĠV ig
ĠTil hÃ¸rende
ĠBog lader
ĠEnke manden
sb rug
ĠHe stem
Ġbefal inger
ĠHorn um
Ġej ende
ĠOvereen stemmelse
ĠÃĺdel Ã¦g
Ġm ode
ly de
ĠFrem deles
Ġb yder
om bar
Ġaf st
ĠPaa skud
J ust
O lie
k lo
Ġpaa ankede
ĠU dr
arbe ider
ĠKlÃ¦de boderne
ĠKjÃ¸ber en
Ġan lÃ¦gges
ĠBe de
Ġbort dÃ¸d
Ġyng ste
k jendt
re det
Ġ21 2
ĠTilb aget
Ġs yl
ĠS ilde
Ġforand rede
Ġa ande
lÃ¦g gende
ĠJnst rument
qvar ter
Ġ ledes
ĠBe vil
Ġgj or
ĠCarl sen
Ġbero ende
ĠmÃ¦l des
Ġv idst
on de
ĠD ah
ĠT one
ĠMe dens
ĠFl am
ĠBag age
ĠBir ker
Ġex p
ĠP le
ĠRegiering ens
ĠSteph an
Ġbe holder
Ã¸v rig
Ġallerunderdan igste
dr inger
Ġfri villige
ĠHel ena
ĠFolk ene
ĠPommer n
Ġphil osoph
k else
ĠK ummer
del ing
ari a
Ġben aadet
Ġlever ede
Ġmortific eret
ĠW ille
enh Ã¦nd
ĠBar ne
ĠDistri cter
ĠTobak sp
ĠH Ã¶
ĠFran c
ĠP osition
is mus
ĠAn gel
ĠKl og
ĠmÃ¦rk vÃ¦rdig
ĠLiter atur
ĠS ynd
ĠE ds
ĠDe yen
ĠEx c
ĠSorenskriver ie
ĠMand ler
Ġdes sen
ĠOvervei else
ĠS vÃ¦rd
Ġh jer
Ġi f
Ġved holdende
ĠUnderoffic eer
ĠR antz
ĠSt aa
ĠnÃ¦r mer
Ġindf ri
kong elige
ĠF angen
ĠRe alis
ĠFr Ã¸e
ĠAltona er
Tor v
Ski ftet
Ġalts ammen
ĠConstitution en
Ġcoule urte
ĠApper tinentier
E ffecter
Ġtilb Ã¸rlig
ĠKron en
ĠGul v
ĠStore hed
l os
ven ner
gar ns
Ġforst Ã¦rket
ĠskiÃ¸nne ste
ĠO ve
ĠOverkrig scommissair
m angel
ran ders
Ġbef undet
ĠOpr indelse
ĠColon ier
ĠR enten
Ġu tro
us om
ro d
m egen
or es
ig te
Ġfore kommende
ĠFÃ¦l leds
Ġbese es
ĠC eder
Ġun de
ĠBag gesen
Her med
Bog trykker
ĠKre atur
Ġev ige
ĠFuldkommen hed
Ġpaa budne
Ġud gaae
lem mer
ĠKan alen
ĠCand is
Ġhistor isk
Ġudval gt
ĠK lit
Ġu trÃ¦
ac ob
ĠSe h
feldt s
uth or
g aaes
als gaard
ĠJndt agelse
ĠBul let
ĠRent eskriver
Ġi mmer
Ġtien te
ĠSto kke
ĠBern storff
Ġforti ene
ĠE ff
ĠU en
ĠVester vold
l up
sm Ã¦ndene
ĠHammer ich
T ien
Ġst andset
Ġud giÃ¸re
ĠZ in
ĠH vet
ĠMalt a
Ġf ader
ĠSÃ¸ dring
ĠLÃ¦g d
Ġdiplom atiske
ĠSÃ¸n nen
ĠBat alli
ĠReligion en
Ġv ige
tal en
ĠGar der
ĠTÃ¸mmer mester
Ġsti aalet
ĠSer v
ĠRem onte
ĠWulf sberg
ra ft
Ġl andede
ĠUnder gang
Ġt Ã¸rt
ĠE jer
Ġpaa t
Ġr Ã¸
Ġbes Ã¸gte
Ġsidst meldte
ĠJl lum
ĠP f
Ġunder rettede
ĠAn komsten
Ġforbe holder
Ġ X
st ik
ĠAn viisningen
rig sk
ut t
ĠMen inger
ĠKjÃ¸b stÃ¦der
ĠProv ind
A N
ĠP asser
ĠE cker
Ġsk ar
ĠKlo kkes
ĠForf Ã¸l
Jnd hold
ĠFor vir
las sen
ĠLÃ¸n nen
Ġgunst ig
Ġopmun tre
Freder ik
Ġfor lader
ĠEfterretning erne
O ber
ĠA strup
ĠB jÃ¸r
ak ter
Ġf Ã¸ie
ĠP ati
ĠDe kret
ved kommende
Ġfri villig
Ã¸y et
ĠSche en
ĠGj eld
Ad jutant
ĠJntel ligen
Ġindvars les
ĠBekym ring
ĠA hr
sk atten
ĠT ode
Ġra sk
Ġder en
ĠÃĺv rige
ĠCommitte e
ĠOfficier er
ĠTingen es
che ster
Ġubetyde ligt
Ġa cta
ĠBerg s
Ġan sÃ¸gt
ĠUd stÃ¦
ĠBar net
ĠPen ne
ĠBod il
Ġypper lige
Ġtilintet gjort
ĠCh ri
ĠRdlr s
ĠHers leb
j a
k ir
ĠSe villa
Ġ23 7
ge m
ĠWien er
ĠTol strup
ĠKaper fÃ¸rer
ĠSubsc rib
D agen
at o
Ġk jender
ĠUnder skrift
ĠHo b
Ġfrem bringe
ĠMe ch
qu es
ĠCent ner
ĠHede vig
ĠKrag h
ĠHin rich
h len
Ġk atholske
ĠDr en
ĠFrederich sen
ĠFremgang smaade
Ġplan tet
ĠHager up
ĠMa ss
ĠOp drag
ĠProc ura
ĠLy dighed
Ġtilf Ã¸iet
ĠQvart als
ĠTri um
ĠGuine iske
ĠKlas sel
ĠT aus
Ã¸d re
Ã¶ res
ĠDegne bo
ĠÃ¸st lige
or st
Ã¦ dre
lig ning
ĠE ven
Ã¦r vÃ¦rdige
ĠFor varing
Ġforest illet
Ġfor res
ĠR el
ĠFor men
ĠMath iesen
ĠSchubo the
ĠS Ã¸v
Ġt Ã¦nker
ĠVel stand
ĠAdministra tionen
gt igt
inde lige
ĠSkil derie
ĠRek ru
Ġheld ige
D is
ĠFien derne
ĠK art
ĠVi ine
ĠAnst rÃ¦ngelse
Ġil and
ĠfÃ¶l gende
s Ã¦d
Ġover satte
ĠNe u
ĠLÃ¦s Ã¸e
Ġsk am
tag s
Ġborger lig
4 4
ĠD Ã¸ren
ĠL ab
ĠSt oer
ĠForsamling er
ĠBund ter
ĠHoved qvarteret
ĠSÃ¦ deland
ĠB ug
Ġud gik
Ski be
ĠLandsoverret spro
Ġperson el
ĠT akkel
ĠTom t
Ġu an
ĠTran s
Ġ20 9
ĠAmer ic
ĠKjÃ¸kk entÃ¸i
V ER
g rav
ĠE jus
ent il
ĠMa dera
ĠFyrsten d
ĠProklam ation
j ul
ĠV art
ĠMajest at
ĠDurchlauch tighed
C onsul
ĠT oget
Ġn en
Ġstem p
ĠUorden er
Pr inds
N u
ĠJn spe
ĠvÃ¦r d
Collegi o
ĠLandsby er
ĠH emmelig
ver ede
ĠW Ã¦r
ĠOm hÃ¦ng
ĠStift elser
ĠFrederiksberg gaden
Ġbeski kke
fuld mÃ¦gtig
Ġarbe ider
ĠAmali egaden
al ten
ĠFor fald
ret telse
ĠAr ne
Ġaller hÃ¸ist
ĠAm m
ĠHof boghandler
ĠQv ind
ĠDragki ste
Ġde les
ĠF edder
Ġme ster
ĠBl aa
ĠCons uler
Ġopby gte
dsv aade
ĠAal b
ĠHam bro
ĠNÃ¸ gel
b rit
Ġind ste
lem t
Ġbesk revne
ĠHvil ke
ĠhÃ¦ ftet
Ġarrester e
ĠReprÃ¦sent anter
ich te
ĠKor skirke
ĠFallit boes
ĠLou ise
A dsk
q vent
ĠH Ã¸ns
Ġer gangne
Ġover d
ĠHat ting
Ġst Ã¸dt
ĠAt ter
ĠSchier up
n ens
p a
ĠdÃ¸de lige
ave er
fri t
ĠBour bon
hov der
ĠWallach iet
D Ã¸bte
Ġfrede lige
ĠMatt hias
G od
V ore
Ġhvil e
Ġbem Ã¦rker
ĠTron en
ed age
ce er
ting ent
Ġanmel der
par ten
ĠSkole gaden
ĠPÃ¸b elen
is si
Ġforb uden
Ġafs laaet
ĠHing st
ĠK olle
Ġme este
ĠKrigs assessor
ĠKat tes
Ġuund gaa
es edler
Ġan bragte
be stem
ĠSp ids
ĠSer geant
ĠR l
ĠVah renes
ĠTrib un
ĠWeide mann
ĠM unden
Ġbet iene
ĠHo bro
ĠBestyr elsen
b orde
borg er
Ġvar et
ĠArbe j
ĠLÃ¼t ken
L ov
ĠD andse
Ġla ant
Ġkl art
h t
Ġh at
Ġd ine
ĠBe eg
Ġ32 5
Ud gives
ĠCandid at
Ġneutr ale
Ġd Ã¦kke
ĠBro er
ĠEtag ie
Ġf oer
Ġtil skrevet
Ġind givet
Ġet abler
Ġubehag elige
ĠFornÃ¦r melse
ĠJama ica
R anders
h Ã¸re
skaber ne
ĠDistri kt
Ġeg enhÃ¦nd
ĠBech mann
ĠQv ier
ĠFortegn elsen
ĠSeil ere
ĠStal de
f oed
n ach
ĠKron ens
Ġsaakal det
ĠGeograph ie
ĠSt endrup
ĠFre y
Ġforb ig
ĠforlÃ¸b ne
ĠO vn
us es
Ġal vise
ĠAnst rÃ¦ng
ĠSvag elighed
Ġoppeb ie
ĠNÃ¦rings vei
Ġangreb ne
Ġtilla ans
an tet
Ġt egnet
Ġv idenskab
ĠC ub
ĠJtalien ske
Ġ ran
byg gelse
ild sen
Ġar ri
ĠRusser nes
Ġasse ureret
ĠPrindsreg enten
ĠDern Ã¦st
enhavn ske
Ġbort leie
ĠMat th
ĠForb indelser
Ġefter lader
Ġbet Ã¦nkt
ĠRe qvir
ĠG abri
ĠN Ã¦ste
deel es
Ġbes Ã¸gt
ĠSchw ar
Ġpaa gaaende
Ġn Ã¦gtet
Ġefter try
ĠAar er
Ġfors Ã¸gt
Ġafs atte
ĠL omm
re ich
ĠR im
mus ik
ĠBed rager
ĠudfÃ¦rdig et
H Ã¸i
ĠOp standen
delig hed
ĠRo er
Forvalter e
ste den
ly ste
omp eredskab
Ġber gen
ĠBlÃ¼ cher
ĠKleins med
Ġ14 2
Ġaaben bar
ĠForholds regel
Ġan rettet
Ġskrift lige
3 9
g ten
ĠGr un
ĠPas ha
naad igst
Pas cha
h alv
ĠFor es
rÃ¦n gte
ĠKur ve
ĠN Ã¦tter
Ġunder skrevet
ĠPrÃ¦ f
ĠFac on
aterial ier
t ningen
ĠW alter
ĠSkri b
Ġyder meere
ĠStatstiden dens
virk ning
m i
ĠS h
Ġg ende
dag er
Ġ27 0
ĠDel in
Proc lama
F l
u rede
red itor
ĠPrin z
C it
ĠM yndige
Ġ18 5
ĠOm fang
ĠPrÃ¦ numer
istor ie
ĠMaa den
le sted
ĠBo esen
qve ur
ĠBruun s
ĠRigs gjeld
es sioner
Ġ18 8
la us
yr de
ĠUnder viisnings
ĠHe ide
Ġforful gt
v agt
Ġtil melde
Ġe inen
ĠLi ber
Ġthe ologiske
ĠLoc ale
ĠU for
ort o
ĠVe ed
C ancel
V ogn
ĠR olle
li det
Ã¸i sk
ĠFl Ã¸de
ĠMilit Ã¦r
ĠColding huus
ym n
lig er
ĠUd giver
ĠSti ern
ĠUndersÃ¸g elser
ĠS Ã¶l
ĠSk ild
ĠPar lementet
ĠSam vittighed
ĠMat he
h ord
Ġb all
at aill
ĠSt ar
ĠSp ek
ĠBr ag
Ġ28 0
Ã¦m pet
! !
aa ds
ĠHan steen
Ġhand let
ĠTaa re
N r
b an
Ġb Ã¦res
ĠM Ã¸ie
ĠHart mann
ĠprÃ¦ cl
Con stantinopel
7 7
Ġsam ment
Ġ14 00
Ġfor uds
ing el
ĠG el
av et
ĠmÃ¦rk elige
ĠRaadstu eskriver
T o
ĠFor skud
Ġtilf unden
ĠBeqvemmelig hed
ĠCatal onien
Ġm as
ĠLande vei
stra kt
m Ã¦rke
ĠPr esse
ĠCit ron
Ġmodtog es
ki ste
ĠKrig sminister
ĠA ra
Ġfor arbeidet
Ġud beder
ĠMad rit
Ġdes foruden
ĠNye havn
ĠfortÃ¦l les
ĠCont ribution
p as
ĠR at
ĠE yl
ĠSidst nÃ¦vnte
B landt
ĠOver gaden
ĠM order
Ġp leie
ĠV ill
ĠHen stand
Ġbef rie
ĠPers ona
ĠVel gaaende
ĠudstÃ¦ des
ĠstrÃ¦nge ste
um gaard
Ġ20 5
Ġcon stitutionelle
ĠMennesk ers
ĠfuldstÃ¦nd ige
ĠK og
elig heden
ĠSe x
ĠComm ande
ĠforfÃ¦rdige de
Ġs lÃ¦
ĠG id
ĠJn stitu
au diteur
ĠLeg ation
ĠSli be
Ġtil t
ĠMo sk
ĠMart he
Ġarbe idet
ĠThor sen
Ġdeel te
ĠLet telse
ĠSove kammer
Ġfrem for
Ġforest illede
Be fordringer
ĠJlde brÃ¦ndsel
ĠAnstrÃ¦ng elser
Ġg lad
ĠPrin ts
mask ine
ĠVater land
ĠSammensvÃ¦r gelse
ĠExamin atus
w n
Ġ19 9
ĠEge berg
in ere
ĠR av
Ġu efter
up gaard
Ġgr aa
ĠtilstÃ¦de vÃ¦rende
f leth
ĠLi unge
ĠCarl s
Ġopfordre de
ĠTract aten
Ġoppeb Ã¦res
sk endes
ĠKi ellerup
ĠBrager nes
Ã¦ kk
Ġfor under
ĠSt ampe
men nesk
Ġ183 5
ĠoprÃ¸r ske
Ġlaver e
Ġindkal der
ĠBru de
th usi
ax ten
ĠAuk tions
ĠfortÃ¦l le
ĠSpor on
it Ã¸ren
ĠMar c
yl des
bli k
Ġbestand ige
ĠFÃ¦e huus
ĠStorhertug en
ĠmÃ¦ gtig
ĠSch n
ĠSkibs fart
L ands
ĠC e
ru kket
Ġop lÃ¦ste
ĠGi ed
ĠforelÃ¸b igen
Ġproc lam
ĠDeser teur
ĠKlokkes let
Ġaf deelt
Ġgu ult
Ġph ysi
4 8
b ens
y ens
Ġopf undet
ĠSpe yle
ĠKred itorer
ĠHvi id
Ãĺster rig
c ours
g le
Ġbekiendtgj Ã¸re
ĠIn gen
hal m
j Ã¸rn
borg s
ĠDag leier
ĠStra sburg
Ġpriis dÃ¸mte
Ã¸b ler
ĠAl tsaa
Ġr elig
ĠFamil ien
befal ing
parte mentet
Ã¦m p
ĠVac c
Ġlangvar ig
Ġderi blant
Ġski kkelige
ĠEurop Ã¦
ĠApothe k
Ġfjer de
J ens
Ġfor r
ĠD egnen
ĠÃĨ l
ĠBas el
Ġind see
ster ede
ĠLe vin
Ġli ber
ĠStÃ¸rr elser
Ġbehand lede
ĠReeb slager
Ġb udet
ĠH inds
Ġra sende
ĠG lÃ¦der
be dende
ek ter
Ġi ber
Ġmed tage
ir es
Ġom f
la del
Ġre gier
Ġber g
ĠDÃ¸ds boet
ĠSkol ens
bech s
Ġpra c
q ui
hen tede
ĠHerred Ã¸mme
ĠKrig st
ĠHel te
Ġ176 7
ĠJnsur re
ĠV Ã¦gter
ĠSkri ve
ĠÃĨr Ã¸
ĠPed ro
ĠT Ã¸ier
ĠSk yg
Ġr unde
ĠKobber smed
Ġindry kke
eske er
Ġaf vÃ¦rge
Ġp o
ĠAn tagelse
ĠBr ink
ĠBank osedler
ĠLivr ente
ĠP ds
ĠGi Ã¸d
beret tiget
ĠH ende
ĠSch ne
anden s
For lÃ¸b
ĠStift elsen
ill on
Ġforli ist
Ġualminde lig
det te
ĠObligation en
ĠEs sen
ĠYt tringer
ĠDub lin
fry gt
Ġind beret
Ġher skede
ĠMo del
St aden
H vad
av re
ĠBer ry
ĠCar d
ĠCar Ã¸e
ĠAns igtet
ĠSu hr
hal b
ĠCong ressen
ĠFÃ¦drenelandet s
Ġu pass
Ġst Ã¸
Ġmin des
Con dition
iv id
fle cter
Ġs aar
ĠL ader
Ġunder handle
Ġhe ftige
ĠElen dighed
der nes
ĠHÃ¸ yeste
ĠhÃ¸ je
ĠJern k
Ġfors Ã¸ge
Ġskj Ã¸nt
Ġry d
ĠBataill ons
Ġbid raget
ch ts
ĠGr Ã¸de
ĠStorm gaden
prÃ¼ che
Ġtil g
Ġher lige
ĠEn ighed
vend ige
Ġw e
B es
ĠMan i
ĠNation s
min ist
ĠCorn elius
r olleborg
Ã¸r s
Ġn Ã¸
ĠMand sp
Ġme ente
y esen
Ġan fÃ¸rer
ĠBo t
ĠRe en
ĠPat ent
ĠindlÃ¸b e
ĠNeutral itet
SE M
Ġmed bragte
Ġford ob
Ġg le
far s
ĠTo fte
Ġa dressere
ĠL on
Ġand agen
ba kker
ĠOpf indelse
ĠMask ine
ĠB lÃ¦
Ġu oph
ĠKr arup
ĠVin ters
ĠPand te
st olen
ĠB ret
ti dende
v ing
ĠL eds
Ġop ret
ĠKat hol
ich ten
ĠArvinger nes
Ġsp Ã¸rge
Ar me
Ġinteress ant
ĠPist oler
ĠK alv
Ġop var
Ġ176 5
ĠStats raadet
iv es
Ġstem plet
ĠAllar m
" ,
ĠNation ers
ĠSchi ve
ĠHus es
Ġmedde ele
ĠLat inske
ĠErkeb isk
ĠViing aard
Ġk li
ber s
Ġud fly
val d
ĠHandels betjent
ĠTilsku ere
Ġpav elige
ĠT Ã¦nder
stÃ¦nd ighed
ĠJÃ¦g ere
L ord
ĠD au
far er
bro en
Ġfry gtede
ĠGem ahl
ĠKab inet
4 6
ĠT aal
ĠCan alen
ĠStem ning
ĠMore au
ĠOtt om
Ġde c
ĠB land
Ġfor Ã¦ret
ul ff
Ġj uni
tor ium
Ġ15 1
ĠHÃ¸i Ã¦rvÃ¦rdighed
ĠLu erne
apir er
k loster
Ġden de
ĠT ot
ĠW ad
Ġbel giske
ĠBelÃ¸b et
ĠStil hed
ĠOdes sa
Ġ Ã¦d
Ġved varede
Ġud leveres
ĠKir ch
ĠBl u
ĠTrond hjem
ĠGlÃ¼ck stadt
r and
ĠW illum
ĠBe holdning
Ġantag elige
giel dende
us ing
Ġefter lyst
ĠSand heden
u der
ĠA aben
ĠHer paa
ĠMag dalen
ĠEnkemad ame
ĠS abel
Ġsamt lig
ĠAl gaden
ĠMar oc
yr and
ĠMad sens
Ġforts Ã¦tter
ĠLan des
Ġneder ste
ĠUdnÃ¦vn else
ĠTilsk uer
ĠM uus
ĠE ich
Ġsk reven
Ġ21 1
ĠHal ling
ĠWin ter
ĠKi Ã¸re
fÃ¸r tes
Ã¸rg sel
ĠMal ke
Ġcomm itteret
ĠKlip fisk
C olle
Ġt em
ĠTid spun
ĠIn den
Ġforplig tet
C omp
s mÃ¦nd
Ġh Ã¸res
ĠAf reg
ĠtrÃ¦ kker
in em
ĠA xel
ĠMÃ¦g ling
ĠMagaz iner
ĠMay land
Ġs Ã¸lv
Ġaf gjÃ¸re
Ġan ne
ĠBÃ¸ der
ĠAnker to
ĠunderstÃ¸ ttet
ĠReb eller
ĠDepe cher
ĠMar sk
ĠMed ailler
ĠMog ensen
Ġbergen ske
T ing
u ction
ĠN agel
Ġe ie
ĠFattig vÃ¦sen
ĠSognede gn
be er
ou verne
ĠBes var
ĠmÃ¦rk elig
ĠYn dest
ĠF jorden
ĠB aag
ĠTh ur
ĠBli cher
ĠLÃ¸b e
ĠPanthaver nes
F rue
b anen
c as
Ġen dtes
Ġfra taget
ĠTrÃ¦ fning
ĠComm anden
ĠMyn dt
Ġbetr agtes
ĠSeild ug
Ġfor handles
Ġbed Ã¸mme
ĠAlb recht
ĠOverret tens
ĠHolbek s
Ġarri veret
B landinger
aa genhed
ĠK iedel
Ġbe bu
ĠUd deeling
ĠJnd skrÃ¦n
Ġbest ride
ĠMich els
Ġt rue
ĠR inger
ĠO v
lade lige
ĠBag huset
ĠFranker ige
rip ter
ĠBegrav elses
Ġresol vere
S vend
S ee
ĠD ur
ĠL ow
li eb
ĠNew castle
ĠConvo y
Ġje vn
Ġind r
ĠPr om
Ġ22 5
ĠOst ende
ĠUrte kram
d og
t hed
ĠAf h
ic ip
Ġ21 6
P reussen
el bst
ĠT um
ul s
ĠW ed
ĠJnd b
ĠKir kerne
ĠG a
ĠKn iv
ĠBang s
Ġbefri et
S ec
h egning
Ġin for
ĠS inds
ver es
ĠKiÃ¸kk ener
ch em
Ġbest rÃ¦
ĠFru es
Ġend skjÃ¸ndt
ĠSti erne
Ġbru ger
Ġsm al
Ġm uur
Ġaf leveret
ĠR af
ab else
ĠBes idder
ĠSteen strup
ĠTron e
Ġtil falder
ĠR Ã¸get
ĠAn c
ob belt
ĠAuctions con
Ġne ste
ph ia
Ġty ve
Ġforsikr es
Joh an
Ġbetre ffende
K akkelovne
Ã¸r sels
hol denhed
ĠSm aae
akk es
Ġfly de
ĠPak boder
ĠMyn ster
Ġsu ff
K ar
u sk
il dt
ov a
Ġmilit air
Ġcon tinu
ĠHar mon
ĠSen ne
ĠBuch arest
F ri
Ġforsk rÃ¦
Ġned lagde
ĠCas sel
ĠVaret Ã¦gt
Ġaf giÃ¸rende
ĠOver lÃ¦rer
riv ende
rÃ¦n gt
Efter syn
ĠDoc t
ĠVir gin
am s
Ġu skiftet
Ġeen lig
ĠDrag Ã¸e
ĠHeg elund
ĠWesen berg
Ġsp ise
ĠS mid
ĠJ stands
ĠSen at
Ġadsp redte
ĠAr g
ĠW eg
ry kker
Ġc or
Ġbeg ave
ĠSÃ¶l v
G ang
re i
au en
Ġsub skri
ĠSÃ¸nder hald
ĠKlas ser
et tes
le gi
Ġumu eligt
ĠAnbefal inger
ĠBeviislig heder
t mann
Ġf lade
ĠB rÃ¦
si al
lem enter
Ġmel det
ĠCapit ulation
ĠContra ct
ĠMa sker
ĠLandm il
ĠPist ol
ĠS ac
Ġf Ã¸de
ĠAuction ens
ĠGud st
sty ve
Ġforti ente
ages en
ĠCorps et
ĠBri x
ĠFri herre
ĠGods ets
ĠAft Ã¦gt
Ġjuri disk
7 9
Ġi delig
ĠL ist
og es
mÃ¦ss igt
ĠbrÃ¦n dende
L ys
Ġv esten
ver sen
ti dig
di kke
ĠRe ich
ĠPet ition
ĠH indringer
Ġpaa viser
os c
dr agt
yld ighed
Ġkon gel
ĠPolitie mester
ĠWas hing
n ier
Ġf angen
li dende
Ġlov g
Ġresp ek
Ġfor dres
Ġn Ã¦vne
ĠU veir
tid ige
ĠCla u
Ġtilf Ã¸ie
ĠFast landet
ĠKand id
ĠGrÃ¦ken lands
ĠLevet z
Ġud levere
ĠColon ne
ĠnÃ¸i agt
Ġforber Ã¸rte
Ġmiddelmaad ig
s sen
Ġl assen
Ġind give
ĠEfter s
ĠSp is
ĠSkiftesamling er
k ynd
ĠF as
ari ol
ĠÃĺv else
ĠForslag et
ĠSverrig s
ĠStubbe kiÃ¸bing
Ġanse eligt
ĠMel k
ĠKier teminde
ĠHier ter
Ġcomp et
ĠAnt vor
b ank
f ug
ĠR ast
Ġk ron
ĠSal ic
ĠSkib sted
ĠKj Ã¸d
ĠGot tor
ĠOps loe
7 8
b rede
r el
Ġfor klare
li cher
ĠPat ron
ĠBay onne
ĠFan Ã¸e
ĠFormel ys
g ie
ĠÃĺ strup
Ġaller ne
ĠMe ub
ĠLÃ¸ fte
Ġhe fter
ĠJord skj
Ġopb rÃ¦ndt
Arv ingerne
ĠSt kt
ĠI l
ĠPerson en
lieut n
H a
ĠK ran
ĠEx cell
Ġgrund murede
u els
ĠS lut
re ste
Ġvenskab elige
j Ã¸d
Ġu givt
Ġinds luttet
ĠM ere
Ġpaa g
ges pil
ĠSche els
ĠVah rene
Ġomst Ã¦n
Ġs ank
ĠB unden
ĠBr Ã¼n
ĠSyn ge
a e
ri ften
ĠSk am
ĠNy ested
stÃ¦nd igheder
3 1
A ff
n y
ĠW es
ader ie
ĠutrÃ¦ tt
ge fÃ¦r
ĠKorn brÃ¦ndeviin
ĠConf ect
ĠDetasch ement
Ġer holdte
ĠReg ens
ĠJnd ian
ĠDannebrog e
skj Ã¦r
ĠSkue plads
ĠValen cia
Ġa kk
il ian
Ġind vik
Ġop of
Ġ11 00
Ġhenh Ã¸re
ĠvÃ¦sent lige
Ġindskibe de
ĠSindel ag
ĠD ro
ĠUd p
ĠÃĺster port
J acob
Ġe ders
ĠEm p
ĠFortun strÃ¦de
Ġf od
ĠK eller
ĠK adet
Ġfra kommen
Ġunder rettes
ĠHo ch
ĠBer Ã¸mmelse
Ġla dte
Ġ32 4
ĠStrand bred
ĠUnderoffic erer
N iels
ĠN ing
ser en
ĠNy delse
ĠFriderich sborg
ĠFla sken
isten ce
ĠNeg er
at um
Ġbet Ã¦nk
ĠSte vn
ĠJagt tager
Ġdeel tagende
Ġanord nings
ĠSmede mester
N e
f lod
ĠKl Ã¦d
ĠPrin cip
ĠArch ip
l Ã¸d
Ġop rigtige
ĠDag lig
Ġret skaffen
ĠHertugd ommet
g ien
ĠC all
Ġunder vise
fordr ende
ĠVe y
Ġbef Ã¸iet
ĠPor ter
ĠCandid ater
irur gi
ĠklÃ¦ dt
Ġ Ã¸ie
Ġt omme
Ġaf staae
lem ager
ĠTh ors
ĠTold kasserer
ĠAng rebet
ĠVirk ninger
ĠSkyld ige
ĠBank ens
ĠSol ens
Ġbar n
ĠBis mer
Ġne st
ĠBl ods
ĠHalv sÃ¸
V er
Ġt egnede
la p
as er
ĠHer med
ĠSe kretair
ĠTÃ¸r klÃ¦de
ĠTheolog i
d y
ĠAn hang
sp rÃ¦
vÃ¦rk erne
ĠKorn vahre
ĠKn ab
Ġfort re
stÃ¸ dende
F ol
hol ts
Ġi vÃ¦rks
Ġaf d
ol et
ĠMar iane
sch aft
ĠBoute iller
Ġd im
ĠEfter aaret
ĠBo ye
skriv else
stitu eret
Ġforaars age
Ġtilbag ele
Ġf yldt
ĠF Ã¼r
ĠJ Ã¸de
ĠKrig ere
ĠThe m
ĠHertugd Ã¸mmet
Ġcondition eret
Ġs tegne
Ġbe kommet
Ġhel lig
ĠMul kt
ĠÃ¸del Ã¦gge
lieuten ants
ĠVo igt
ĠT villing
dr eng
ĠVin k
ĠRepar ti
a ins
Ġv Ã¦kke
Ġaf givne
Ġaf brudt
var ius
ĠMe il
ĠlÃ¸ st
ĠAnnam melse
Ġh i
ĠH id
Sk ov
ĠFriderich sberg
ĠHvil ken
ĠVaabenstil standen
f ier
Ġt rÃ¦der
ra ff
ĠStervbo estedet
ĠVindu erne
ĠBrum mer
Ġi vÃ¦rk
ĠÃĺr n
ĠbesÃ¸r ger
haupt mand
on y
Ġbortsti aalen
ĠBÃ¶r n
ĠJÃ¸rg ensdatter
A vertissement
ĠP dt
ĠBrand lidte
ĠFar verie
ĠG ers
ik ansk
ĠErfar inger
Ġstad fÃ¦ste
ĠopvÃ¦ kke
Ġansvar lig
Ġm us
ĠD usin
ĠAmt stuen
Ġ600 00
ĠCon tinu
ĠGrÃ¦ ven
ph ysi
Sel skabet
ĠSkie pper
d rÃ¦
ĠD Ã¦k
ĠTold betient
Ġein ige
Ġudelu kkende
ĠMeddel else
Ġun ytt
ĠEiend ommens
ĠKlub ben
ĠTver gade
ĠL uther
ĠBrÃ¦nde huus
ĠHÃ¦ ders
ĠA ch
Ġn Ã¦re
ist rÃ¦de
Ġlige over
ĠVind ues
ĠBir the
ĠFart Ã¸iet
ĠNÃ¸dvendig heden
Ġbemynd iget
Ġa uthor
Ġt ax
Ġen er
ĠC irca
Ġer lagt
ĠG rov
ol s
omm elig
ĠUly kker
Ġforbed re
ĠFeld bereder
u ts
ĠT aller
ĠÃĺl l
ĠKirkes anger
ĠBÃ¼r ger
S agen
Ġf ange
la ss
ĠÃĨ del
ĠFÃ¸l gerne
ĠEiende le
Ġ Ã¦g
ĠFor mer
ĠMar ch
ĠKoffardi eskibe
o ts
est aaende
ĠAl strup
ĠRegn skabs
ĠVic tor
Ġhypp ige
ĠStuds gaard
ĠFedder sen
Ġs unde
ĠCon seil
ĠTÃ¸nder n
O st
g ed
Ġudslet tes
ĠFiol strÃ¦de
S ogne
ĠH og
En ken
ĠWe ich
ĠAlm ue
oule me
Ġforanled igede
A mer
Ġm Ã¸dt
ĠM under
Ã¸r st
ĠVÃ¦rd ien
Ġv Ã¦lges
Ġefter staaende
Ġ17 2
Ġj ur
ĠBag erne
ĠNe i
Ġpre ussisk
ĠEcker n
ĠL il
ĠSt ige
ĠudlÃ¸b en
u ti
ĠS inding
Ġu tal
ĠGr uner
ĠCap el
Ġtils lagen
Ġtil byde
ĠFor rÃ¦der
vÃ¦ gt
ĠSn ar
ĠHjer ter
ĠGene ver
ĠFor Ã¦ringer
B rev
T axt
eg ang
ĠLin ien
Ġsen der
Ġ32 0
ĠAg re
tryk t
ĠGrÃ¸ fter
ĠPro p
Ġ20 7
ĠMark eds
ĠPorcella ins
hug ger
ĠBaj on
Ġaf holdet
le bye
Ġpaa ful
Ġal drende
fal ds
ĠMaan e
Ġvel ind
stÃ¦nd ige
ĠKj Ã¸n
ĠY nd
ĠHolbech s
Ã¸r lige
Ġmaa deligt
ĠUd gaaede
Ġinde holdes
Ġbil ligt
Ġskyl dende
Ġtru kken
ĠlÃ¸ ber
Forvalter en
ĠJnvent arii
o tte
ĠS eg
ag ier
ĠPaa lÃ¦g
ĠPaa tegning
Ġtilb agel
ĠGuld medaille
ĠSchles ien
ĠLond ons
arac ter
Ġoc con
S er
l av
ĠB am
Ġfor byde
ster er
ĠVind ing
Ġver ds
ĠRÃ¸ gt
u erede
il et
al ers
ro et
Ġret sind
ĠBrÃ¦nder ie
a illes
n itz
ĠL uth
ti et
ĠMar qvis
handling er
ĠlÃ¸b et
ĠGren ader
Ġerk iendt
Ġsj eld
ĠTaus hed
s um
ĠFor siden
ĠKrig sm
ĠhÃ¦ vede
ĠVa sker
ĠFabric ius
ĠLand vÃ¦senet
Ġ20 2
ĠSi vert
vor ne
Ġuro lige
ind ig
Ġhvor meget
Bek jendt
Ġsteg et
ĠDardan ellerne
led ningen
Ġforb udt
ĠBisp ensgade
K j
og t
ĠSt oc
ĠSum men
ĠLinieski bet
ĠHandske mager
Ġu rigtig
Ġop slagne
ĠGesand tere
ĠJun ta
Ġoply se
ĠJ ak
li min
ĠUd vi
ĠThe od
ĠMun icip
ĠThy gesen
ĠMagas iner
Ġomhyg gelig
t rede
ck el
Ġuds Ã¸gte
ĠBager mester
ĠPhil ladel
ĠSammen komst
Ġt apper
gl um
ĠHur tighed
Ġrom erske
Ġe iede
ĠW ahl
ĠFal sen
ĠJs landsk
ĠskjÃ¸nne ste
Ġbedr Ã¸v
t ret
ĠFort abelse
Ġde p
ĠD ir
gier ning
ĠindskrÃ¦n ke
C ommis
o ppe
Ġm agtes
Ġv ovede
Ġ20 4
Auction s
ĠF esten
ĠSt Ã¸d
ĠMen ig
ĠDid rich
Ġs us
Ġ20 8
ĠMed doms
ĠIs landske
ĠE nder
av is
Ġop lÃ¦st
Ġfort jente
Ġorig inal
li ster
Ġ18 6
au p
Ġand rage
ĠStor brit
ĠPers ien
aff en
ĠAntver pen
Ġra tific
ĠJngen ieur
Ġerk jendt
ĠElsk elig
ĠF ul
eg r
me ister
Ġre gel
ĠÃĺster rige
ĠSag o
Ġtil Eftersyn
Ġaf leveres
ĠTil trÃ¦
ĠAf gangne
ĠTÃ¸nder s
ĠAng ouleme
ĠLaur vigen
ĠKbhvn s
ĠSkibsk apitain
P rovst
c at
ĠG Ã¶
ĠPost vogn
ĠC ru
Ġd river
ĠSÃ¸lv medaille
inden s
ĠBet y
sc ri
Ġafsked igede
Ġyng re
il ianske
ĠÃĺ ye
ĠNatur ens
ĠWest ph
ĠLicitations stedet
U agtet
ĠF ak
ĠL ah
ĠTil hÃ¸r
ĠOp fÃ¸relse
Ġ19 3
ĠMin det
ĠFrederich stad
Ġindb undne
Ġtry kkende
ĠStal der
ĠMikk el
ĠOrig in
Ġoverst iger
en ne
sen der
ac on
qu en
ĠTÃ¸rve mose
Ġdyre bare
ar ds
ĠSt ade
aar de
ber ts
ĠÃĺ in
ĠBlich feldt
9 8
ne v
ĠSt an
ĠGar anti
p lader
ĠB ond
ĠT red
la dende
ĠBeng alen
j est
ens id
ĠBog try
ĠHerre det
ĠHjÃ¸r ing
lig hedens
ro pperne
ĠHo hen
ĠGeneral adjutant
ĠJan it
lÃ¦g tede
ĠSkib stÃ¸mmer
ĠKap el
Ġholsteen sk
j ec
il lan
ĠAns prÃ¼che
ĠSen ator
ĠStiftamt manden
c um
Ġp as
Ġk ar
ĠReg el
ĠMe den
ĠSal en
ĠOb el
an ere
Ġf anget
sk ere
ĠT Ã¦lle
he de
ĠBorger en
Ġumu ligt
f esten
Ġpaa ankes
ff ede
ĠI I
Ġ23 3
offic erer
c rone
ĠP sal
ĠO tter
ĠCar stensen
Ġbl ande
Ġang reben
ĠStri digheder
A ctor
ĠA ands
str ende
ĠKanon erne
Ġforef undne
Ġdruk net
Ġe ene
ĠKonger ige
Ġstyr te
Ġom komne
ĠBo der
ĠÃ¸ sten
it tr
ĠRab bek
Ġanbet roede
Ġomen dskiÃ¸nt
Ġjor diske
i erede
k or
Ġaf dÃ¸d
ĠStr aaet
ĠÃ¸ster rigsk
ĠParlam ents
Ã¦ stkommende
Ġud lov
ĠMa de
ĠPrÃ¦ste gaarden
Ġvente des
Ġgien sid
ĠFÃ¦ dre
Ġoven for
Ġve x
ĠtÃ¦l ler
T Ã¸y
ĠR ommer
Ġu gi
it ation
ĠEm an
ĠBaron esse
Ġelsk elig
ĠTrykke fri
Ġefter lod
ĠHel lighed
Ġoph Ã¸iede
Ġude staaende
........ ........
ĠS anger
ĠT aget
la uget
ĠGaarden e
sp ri
Ã¸g else
Ġmin ister
ĠHeste stald
ĠfÃ¦r digt
ĠAlm indingen
ĠProvin c
lÃ¦s ning
qvid ations
Ġf ah
Ġb al
Ġfor de
ĠFor legenhed
ĠSpec erier
reg ne
ĠMagistra tens
inister en
5 6
ĠR inds
ĠCon cer
yld ning
Ġmind st
ĠJns urg
Liges om
S to
ĠTil stÃ¦de
val g
ĠApothe ket
ĠBier ring
ĠFog den
ĠL amme
eb et
ĠHe ft
lys ende
ĠUds igter
ĠSecond l
Ġind av
Ġfra sti
Ã¦n gt
ĠLande iendom
ĠEiendoms gaard
Ġqv art
ĠK Ã¸
ĠOp orto
ĠGar d
ĠTab eller
ĠStrÃ¸m men
ĠLaug s
ru er
Ġj ern
ĠHoved gaardens
ĠAc ten
ĠPl ov
ĠFarv egaden
H este
Ġer kjende
komm iss
dr agen
dr oner
ĠRo ch
Ġufor and
ĠForsikk ring
ĠBety denhed
an tiske
ĠM age
ĠSch aarup
Ġfrem satte
ĠS vig
am met
Ġop giver
ĠLy d
ĠJustiti arius
Ġkol de
ĠLand mÃ¦nd
Ġforb lev
Ġdr aget
ĠFruenti m
Ve xel
Ġmyr dede
ĠDuc ater
ĠGaard fÃ¦ster
ĠFors Ã¦t
ĠFyr vÃ¦rker
ĠMy lius
L Ã¸
ĠK ie
tr aad
ĠSti il
Ġtru fne
ĠModt agelsen
ĠConsistor ial
ĠProvind sial
For m
bry delse
herr ens
Ã¦ kken
ar is
ĠU delu
ĠSen gen
ĠudfÃ¸r lig
Ġaande lige
R es
b udet
ĠC ammer
ich ts
St and
gr unden
ĠHÃ¸r frÃ¸e
Ġfores laae
giel den
tryk te
ĠQval itet
o is
Ġd atter
ĠSk ar
trÃ¦ e
ĠProvst inde
ĠDant zig
Ġm ende
Ġud Ã¸ve
ten e
ĠEx pl
Ġsp iste
ĠSÃ¸e folk
ĠSiellands fars
al iter
Ġmed gaaende
ĠSt Ã¦r
la ug
els iner
ĠW h
Ġforel Ã¦gge
Ġstri bet
Ġresol veret
ĠA deler
ĠP ret
ĠP ry
Ġl Ã¸d
Ġ16 000
ĠTr Ã¸
Ġskj Ã¦nke
b ane
Ġd o
mid dagen
ĠSe igl
Ġand res
ĠAp ost
Ġpaast od
Ġk rÃ¦n
Ġhav n
em and
ĠBo els
uld re
Ã¸v es
ĠLade gaards
ĠA hl
ĠSch m
Ġ16 1
ĠVe yen
jene ster
Ġfor mere
ĠBar om
ĠForn Ã¸yelse
Ġind bringende
ĠW old
Ġsamt ykke
ĠÃĺster riis
ĠSko lev
Ġforskiel lig
ĠRap port
Ġbefuld mÃ¦gtiget
ĠArchip el
ri ca
ĠUds Ã¦den
Ġforstyr re
ĠFÃ¦lled skab
ĠM am
Ġfor ski
sp ekteur
Ġsti kke
ĠM aar
ĠKong res
ĠSch ol
Ġpri vil
ĠDal mati
ĠÃĺjeb lik
v elige
Ġb ra
Ġbesk rive
Ġskade lig
Dis conto
ch ers
ĠSlesvig ske
skaff ede
vÃ¦rdig heder
Ġindberet tet
p tionen
Ġ19 6
ĠForp oster
Ġel ske
ĠGothers gade
K ommission
ĠBÃ¸r glum
Ġsp Ã¦r
ĠTy ven
Ġindb udne
ĠStuden terne
ĠBlok ade
Ġud lo
ĠSki Ã¸de
ĠPro tocoller
ĠSÃ¸lv vÃ¦rdie
ĠFri heds
ĠMennesk ets
ĠHolsten sk
ĠTalle yrand
c itanten
Ġbe gier
ĠFor egi
ĠAu cti
ĠOm trent
Ã¦g ler
ĠExtra ct
Ġjuni or
m ig
w ad
sen deren
ĠOver givelse
ĠComm od
pet er
ĠbekrÃ¦ fte
D age
Ġaf givet
re iste
ol te
rÃ¦ delse
art korn
ĠSe ir
ĠOver fald
Ġoph Ã¸rte
ĠSpan ier
Ġbrug bar
ĠFangen skab
4 3
den deel
ski fte
ĠMer k
Ġsol l
ĠSkil dring
Ġblod ig
or en
Ġr ende
ou se
ĠZ i
Ġpants at
ĠLovgiv ning
Ġforsyn es
ĠNels on
m Ã¸llen
ĠK otz
ĠU ret
ĠSe cher
ĠSp re
St Ã¦det
ĠSÃ¦l geren
ĠLauri tz
ĠJourn aler
9 5
k apitain
ĠSt rÃ¦ng
ĠUnder s
ĠDepu ter
ĠHÃ¦ fte
Ġhuus lige
ĠAuctionscon ditionerne
i ker
Ġs ens
ĠS ene
ĠG ent
ĠRe visor
ĠNÃ¸r lyng
ba y
Ġmid ler
ĠGrundt axt
en cer
ĠB rit
Ġ21 5
Ġly kkeligt
ĠRest ancer
P lacat
il der
ar erne
ĠB ugge
St ed
b Ã¸
dr essen
ĠFin marken
Ġher ske
Ġover tage
ĠSamling en
kj Ã¸rsel
ĠLauri tzen
ĠThron en
ĠF ravÃ¦rende
ic t
Ġgaae de
ĠDy der
ĠOx hovder
ĠVÃ¦ xt
Ġkra ftig
Ġstu kket
ĠAdrian opel
v on
Ġs Ã¸de
ĠH ag
ch ten
ĠRe al
ah rer
ĠQvÃ¦g ti
Ġstri dende
Ġcommander er
ĠMuur svend
Ġcomm andere
Ġoverbe vise
ĠTj Ã¦re
ĠStorehed inge
D atter
ĠAn part
For ord
kost ningerne
ben Ã¦vnte
k jer
l ung
ĠC affebÃ¸nner
hol delsen
Ġfore faldt
ĠLÃ¦g ter
ĠPun cter
ĠAvls gaard
ĠGunder sen
Ġkonfir meret
i ven
Ġden en
Ġind skibet
ĠBort reise
ĠRosen Ã¸rn
ell ung
ĠKiÃ¸kkenh auge
b uden
on ds
ĠV eter
ĠSch iel
Ġr ens
ĠFran k
ĠTy sk
Ġki endes
ĠUdby tte
d ar
ĠS vende
Ġfor enes
ĠE qvip
ĠAn dag
ĠDirection ens
ĠSognekal det
et ers
ĠB ande
ki ster
tra ct
Ġsen est
ĠHar ve
ĠMer c
Ġforl ode
ĠOper a
ĠJ ur
ĠN atte
for hen
ĠFal ken
Ġskj Ã¦nket
Aar gang
ĠJorde bog
ĠKjer lighed
Ġtilkjende gives
ĠThron e
ĠCr amer
ĠE ck
Ã¸r v
kr oner
ĠFabri tius
ĠLÃ¦ ss
ĠSchw art
ĠByr de
S Ã¸lv
Ġfor lagt
ĠD ug
ĠSÃ¸lv tÃ¸i
Ġtil traadt
ĠM ure
sk ue
ĠT ved
Ġn un
ĠHalv broder
ĠJÃ¦ger corps
ĠEst ablisse
ĠBundt mager
r ol
aade de
ĠSkj Ã¸n
ĠLangel ands
ĠSÃ¸d skendes
ĠK ours
ĠJ yd
ĠC orporal
ĠOm h
far ve
ĠTeg ninger
ĠReprÃ¦sent ant
Ġopv akt
ĠbrÃ¦ kket
sel ben
ĠHel lum
ĠHospital skirken
ĠFornu ft
a ur
ier get
ĠBu re
ĠCal mar
ollegi et
Jnd kaldes
ĠDepartement s
ĠF ield
Ġfor holde
ĠAss ur
Ġkon nen
ĠBrÃ¦ndeviinsbrÃ¦nder ie
ĠD isk
Ġg ud
ĠBrygger ie
Ġubek jendt
Ġf atte
ĠO ds
Ġind kommet
ad vocat
ĠSkib es
bar hed
ĠMalm Ã¸e
V ac
ĠAlb um
Ġlet ten
ĠLux em
minister en
ĠJndust rie
n um
ĠM etter
ĠE re
ĠNÃ¸r ager
ĠLÃ¼ tz
tsch al
ĠTru ds
t Ã¸mmer
Ġs ang
Ġs Ã¦re
ĠudstÃ¦ d
ĠTilb agere
Ġvir ket
Ġb enefic
Ġaf dÃ¸des
Ġom givet
ĠHe ede
An st
d lr
p es
ĠM use
ĠK ing
ĠG unst
ri tiske
ĠSk ill
tag elser
ĠHÃ¸i heds
ĠPublic ations
Ġbesynder lige
ĠUdla delser
C opulerede
L isten
dr ager
Ġkj Ã¸rte
Ġd ad
ie ves
Ġ23 2
ĠRo ed
ĠGrav ens
ĠSkonner t
Ġobser vere
Ġfor val
ĠE sch
Ġg ru
Ġbeg rav
Ġse ine
ĠSam mel
ĠProv sten
Ġih m
vogn en
Ġbjer get
ĠBarsel seng
H en
ĠL otto
Ġg aa
Ġr Ã¸rende
ĠHÃ¸ iden
olog ie
Ġfe ed
Ġafseil er
ĠS at
ĠMo er
ĠKap eren
sti kker
ĠOpbuds boes
Ġrig elig
ĠH Ã¦st
Ġme hr
Ġopb rÃ¦ndte
ĠJÃ¦ger sborg
ĠRa un
ĠKram bod
ĠDirector ium
nytt ige
Ġder s
Ġind byde
vi der
For s
ĠDi pl
ĠCour erer
Ġmor alsk
kun sten
Slag else
ch te
ĠAr rester
ĠEfter ret
ĠOp sigelse
ĠDeb ats
eck len
ĠFÃ¸d derne
Ġbe mÃ¦rkning
ĠKiÃ¦r lighed
a iner
ger et
anc o
Ġillum inerede
Ġtilfredsst ille
ĠHÃ¦n delse
ĠBatav ia
ĠBoli var
ar es
Ġfor ha
ĠP alle
Ġnaad igste
m il
al der
yt ten
ĠKronprindsens gade
Ġl ag
af tet
ĠNy erup
ĠRig sdagen
ĠTy ran
cha ft
olog isk
ĠFÃ¦gt ninger
ĠF ou
be st
ĠSch ytte
Ġfore kommer
y gtede
dt il
ent ens
Ġbek lager
ĠBek iend
ĠDronning borg
ĠJver sens
kn ive
L i
ĠT ers
ĠC assen
strÃ¦ kning
ĠBesk i
Ġtru er
ĠS essionen
Ġf ral
ĠAm nest
Ġro lige
dres ser
ĠEli as
9 6
Ġ yd
ĠRÃ¸ vere
ĠMani fest
S am
h est
ĠP ich
Ġse y
ĠJern baand
anst alter
ĠKonget iende
ĠÃĺin ene
t Ã¦nkende
w o
ĠSk ul
ins on
Ġsti ftet
ĠHammer um
Ġdies en
8 8
Ġtil lig
Ġd am
pr ing
Ġ24 4
ĠCar g
Ġmuelig en
c eret
vi de
ach ten
ĠLÃ¦r dom
Ġuind lÃ¸ste
r Ã¸d
ĠD ons
ĠT us
av len
ĠFor enede
ĠSte phen
ĠHol lÃ¦nderne
ĠOrden en
ĠMester e
ĠWester gaard
Ġ19 5
ĠbesÃ¸r get
ĠBogstaver ne
Ġtviv le
Qvarteer mester
L Ã¦r
ĠM Ã¦rker
ĠTien esten
ĠOran ien
flecter ende
ĠC ors
Ġber oer
ach siske
ĠBru gen
ĠTien den
ĠVel villie
Ġtilf Ã¦l
raa ds
Hol steen
ĠMynter gaden
ĠJntelligen z
ĠC er
ien ts
ĠMich elsdag
k ed
m me
ĠA sk
av es
Ġber Ã¸vede
ĠBet rÃ¦k
ĠKrig stienesten
ĠCarl os
ĠVal pladsen
Ġtjen lig
ĠStutter ie
ĠKÃ¦m ner
V el
Ġi hr
ti dens
Ġt vang
ĠA sch
ĠK ay
Ġbest yre
ĠCapitain erne
ĠKo kk
gr unde
ĠKloster et
ĠTegl vÃ¦rk
Ġfru gtes
ĠSÃ¸em agt
ag terne
ĠR an
ĠstrÃ¦ kker
Ġbetro et
N ational
ĠH under
Ã¸r gede
eg es
Ġud gaaet
ĠTra ver
ĠBed Ã¦kning
ĠGesand ten
ĠL ier
Ġg rebet
Ã¸b et
Ġud deele
Ġver meinen
ĠSubskrib entere
ĠM ir
ĠHol beck
Ġfrem lÃ¦gges
ĠWe in
ĠBra het
Ġra sede
ĠRec ru
Ġhaard na
ĠB ade
Ã¦l dende
ĠBorger skabet
ĠKnud sens
Ġford rive
Ġby gt
Ġn Ã¸ieste
Ġ18 000
del serne
ĠFordring ers
ĠBomuld stÃ¸
ĠLege ms
ĠBrol Ã¦gger
1 00
Ġb itter
Ġk r
ĠTil bygning
sp riis
ill else
ĠSÃ¸e farende
ĠforfÃ¦rdig er
Ġmyr de
k adet
Ġt ap
at ol
ĠSÃ¸ et
ĠPl um
Ġf yldte
ĠUd skrivt
ĠAug sburg
lan der
Ġufor n
ĠÃĨgteskab s
stien este
ĠS ur
ĠS au
ĠT ul
ĠtrÃ¦n gt
Ġanst illede
ĠCoule ur
Ġregier ende
Ġop fordres
lÃ¦ gt
ven tede
vil lighed
sten en
ĠBÃ¸ndergods et
ĠTilbag elever
ĠBelÃ¸n ninger
ĠS ant
fter ne
ĠFl Ã¸y
ĠMex ico
m Ã¦rker
Ġe f
oner ende
ĠSam taler
kiÃ¸b ings
Sk river
Ġtilst aaer
ĠkiÃ¸b te
Ġanst illet
ĠNeder gade
ĠAl d
ĠHoved par
clusi ve
Ġin vi
ĠWil son
Ġtilf Ã¸ies
ĠFeldt marskal
VÃ¦r elser
ĠUdstÃ¦ delse
Ġan kommende
ĠOr kan
Ġforb inde
ĠBom ber
spec t
ĠStue huset
ĠAdministra tor
ĠSchmid ts
ĠJndry kkelse
ĠQvind folk
n Ã¸d
ĠK ate
ĠLand inspecteur
Ġver st
Ġul ti
Byg ning
ĠFolkem Ã¦ngde
ĠMathe mati
ĠKotz eb
x e
ĠPrÃ¦di ke
ĠHi ort
Ġforuly kkede
ĠPontopp idan
h vis
ĠC ra
Ġg aden
m alet
ĠBe hr
ĠHuus holdnings
Ġfrem mes
ĠBek annt
ĠSlÃ¦ der
ĠVol dsom
Forts Ã¦ttelsen
dr ings
Ġj ede
Ġlig get
ĠJn cassator
ĠArveret tighed
ĠStrand ings
Ã¼r n
Ġkeiser l
D ie
Ġb uden
Ġbe i
ĠOver skud
Ġbest yr
ĠAd jut
fr Ã¸
ĠDistri k
Tyr kiet
g od
n el
ĠUd lÃ¦nd
ĠTropper nes
adem iske
ĠBirket ing
vind uer
Ġpaan y
le in
ĠR ys
Ġp leier
Ġind leveres
Ġr Ã¸rt
ĠHv idt
ĠKra k
ĠNÃ¸r res
ag o
Ġv ant
ĠK affebÃ¸nner
ĠJ us
av a
ĠSk uldre
ants leren
ĠSkarp sk
g ra
eski b
Ar meen
ĠSar a
ĠOt tes
ĠB aar
Ã¸n nede
ĠAarh und
arme e
Ġbon orum
w en
Ġv it
ĠU til
ĠKi ole
Ã¸g de
yt terne
Ġbeqvem melig
kers vend
r ang
ĠN Ã¸i
Ġbeh Ã¸vede
ĠSm ug
Mon iteuren
ed ige
ĠV atters
Ġbort tage
Ġvel giÃ¸rende
ĠJndt og
ĠRÃ¸d der
u eret
Ġinde havende
ĠGes ch
Ġ176 6
ĠNed gang
ĠT ons
agt else
Ã¦n kes
ĠUd fÃ¸relsen
sc rip
rÃ¦nds er
ĠRich ter
Ġafbet ale
ĠAugust a
ĠBeg yndere
ĠGe orge
7 4
A nder
ĠFor be
Ġud deles
Ġ23 1
Ġ19 1
ĠPhilladel phia
ĠB illes
Ġtil sendte
ĠN on
sel den
vel baarne
ĠMater ier
bon den
ĠChirurg us
Ġomring et
ĠUnder skrivt
Ġber ygtede
ĠPrinds erne
ĠBra un
Ġudsp redt
ĠJsaa c
ĠKeis ers
ĠGr ave
ĠRati fic
ĠForegi vende
t Ã¸y
w ich
Ġtil d
re gaard
ĠSkifte commiss
ĠCreditorer nes
ĠPerson ers
ĠMaa s
ĠPrin c
Ny elig
Corps et
ĠPantec reditorernes
ĠD Ã¶d
av iske
ĠSk aane
us se
ĠStat sp
lÃ¸ w
istri a
ĠOmkostning ers
9 9
ĠH egn
ĠB ah
ĠD rÃ¦bte
ĠRet our
ĠHelliggeist strÃ¦de
ĠÃĨd le
ĠRe flecterende
ĠJan ei
gjÃ¸r elsen
Ġtru et
ĠKanon ade
Ġbe giver
komm ent
ĠÃĺ ren
ĠRe e
ĠFred rik
ĠHand sker
Ġvis es
ĠbesÃ¸r ges
Handel s
Ġbortle iet
i or
ĠH Ã¼
ĠP amp
ĠP ensioner
fal des
ĠBorger skolen
ĠPoliti em
ĠhÃ¦n gt
ĠDiam anter
ĠHalvsÃ¸ ster
i at
k o
ĠCon tr
ĠGi ver
ĠMark erne
ĠMedborg eres
ĠPreus sens
ĠRotter dam
ĠSalic ath
ĠD iet
sk ilde
ĠG aase
Ġpaa vises
ĠBirg itte
ĠSpÃ¸rgsm aalet
Ġind deelte
ĠEfter t
ĠJern tÃ¸i
ĠJustit z
bl aae
Ġdies e
el eg
ĠTab el
ĠBen j
ĠOplag s
Ġattr aaes
sal tet
Ġfah ret
o te
ĠT ud
Ã¸ve der
Ġafsked iges
h atte
l iner
y a
ĠU k
kal d
eld st
ĠEg gers
Ġtru ende
ĠAnmel delsen
ĠSkie ppe
ir ket
ĠJnd ivid
ĠSiel landske
ĠForbry dere
Ġtilkjende givet
le st
ĠL isten
Ġan skaffe
ĠW issing
ich er
ĠSal air
ĠConvent en
ĠK ock
ĠCapitain er
ĠAb on
blev en
ĠM iss
ĠK rum
ust obak
ĠBr on
Ġla dt
ĠQvist gaard
le ff
ĠPro visioner
ĠRe bel
ĠPrÃ¦ ti
ĠJan itsch
h v
Ġdet tes
ĠFor esp
art igen
ĠKjÃ¸benhavn sposten
bek s
ĠTyver ier
ĠDos in
? )
m aale
aa ber
Ġfor vol
Ġop lÃ¸st
ĠSam menh
ĠTry kker
ĠÃ¸ie bli
Ġsjeld ne
K ontoir
ĠG as
ĠPrÃ¦ sterne
Ġ21 4
Ġtilk iendte
ĠDel en
ĠKug le
ĠUndersaat tere
Ġv inder
al m
ĠSk rig
met ofte
ĠKat alog
ĠLyn ilden
Ġseen ere
H ar
m ond
ast es
lÃ¸ ses
ĠBlikt Ã¸y
Ġejus dem
K iel
ĠG yl
Ġu Ã¦gte
Ġg avne
ĠVÃ¦r di
ĠHandels huus
ĠFi or
ĠSven strup
ograph iske
f unden
ĠEn kelte
Ġ24 5
Ġle ed
anter nes
ĠTieneste pige
ĠKbh avn
ĠNeap olitanske
ĠFerdin ands
Ġsimp elt
7 2
kt Ã¸i
ĠBu gt
Her reder
ĠSorg en
ĠMÃ¸ det
ĠCong res
ĠGrammati k
Ġfortre ff
ĠSt org
ĠJnd ledning
Ġfat tet
ĠTax ten
ĠSchles wig
ĠJanei ro
m uget
Ġbe vÃ¦r
us ion
hol z
ĠGe v
Ġret ir
ĠMarie boe
h Ã¸y
al je
li ve
Ġunder sÃ¸gt
Ġ21 3
Ġbes aae
ĠDi Ã¦t
ĠKo kke
ĠPrivat breve
t roe
kal k
ĠMe er
Ġtils vare
ĠHerr ens
Ġbet ing
ĠHuus holdningen
Ġsavn es
ĠLorent zen
Ġover sk
Ġforn yede
ĠForstÃ¦rk ninger
ĠGabri el
am enter
est rÃ¦de
ĠCon ven
Ġhol sten
ĠBag siden
ĠFreg atte
ĠUndersaat ters
ĠFinmark ske
kl Ã¦ring
ific erede
Ġuind skrÃ¦n
ĠMisforn Ã¸ielse
ĠAf b
For rige
skriv ninger
ĠFort ro
Ġnor diske
Ġhiem it
Ġstemp lede
Ġv over
ĠR aab
bel ske
ĠSammen ligning
ĠStift stidende
ĠKlÃ¦de krÃ¦mmer
An gaaende
ĠExecution s
Em bede
aa gen
Ġunder kastede
ĠUd skib
ĠPat ro
Ġberet tet
Ġerhver vede
ĠTromp eter
ĠFormen ing
p ital
ĠAn sp
Ġman n
ĠSogn ets
ĠVil dt
ĠLo fts
ĠArrest anterne
Ġra ff
ĠunÃ¸d ig
ĠEyl ande
F riske
ĠM eth
Ġind ber
var d
Ġc ir
Ġtilst illede
ĠAdel en
ĠRud olph
ĠLÃ¦re bog
le gen
ĠZ ach
ĠEnhver s
ĠGammel torv
ĠÃĺsterriis Ã¸er
Ġbeg unst
ĠmÃ¦rk eligt
ĠKloster s
ĠVansk elighed
e ur
h vidt
ĠB rÃ¦n
Ġfor mer
Ġgj em
ron ningen
ĠTy kkelse
ĠPoliti ets
Ġ33 0
ĠHuusmand s
u et
ĠS Ã¦dvan
ĠG ut
op er
ĠInd skud
Ġkon st
li r
Ġgj ensid
res p
datter s
Ar ti
ĠRigsb anken
ĠVal entin
Ġtilgode havende
sk on
Ġst il
lige maade
Ġud viser
Ġsti fte
ĠGyldendal ske
Ġinner halb
ĠR ens
am mede
ĠJl dsvaade
ĠSlÃ¦gt ninge
ais on
ĠHur ra
li on
ĠLe van
ĠSta der
Ġpr Ã¸ve
Ġude blive
b in
be viser
bo erne
ven dt
ĠUd vik
ĠstÃ¸rste delen
Ġsmukke ste
Ġfork yndte
ĠS ul
ag ger
Ġn aa
Ġind anket
Ġbet al
Ġbetydelig ste
Ġanbefal es
ĠB rÃ¦ndsel
ĠG und
ĠSt amp
ĠbevÃ¦g et
el skede
Ã¸m ret
ĠEr hver
Ġpubli qve
a dte
ĠS aabye
ĠC irk
Ġop fordrer
ĠUd gift
ass ing
ĠMil ling
ĠVind ue
ĠFattig vÃ¦sens
fol kning
Ġtilveie bragt
ĠHvi de
Ġglem me
K ours
Ġk rist
Ġl en
bo urg
Ġaller hÃ¸
ĠSp Ã¦r
Ġbes vare
ĠRo se
ĠPo ts
ĠGi ft
ĠThi ele
ĠGale asen
TIS SEM
Ġblom strende
ĠJordskj Ã¦lv
r oller
Ġl utter
Ã¸m melige
ĠJlde br
ĠAlli ance
Ġsandsyn ligviis
ĠDok umenter
st andere
ĠHer skabet
lo fter
ĠBag s
ĠTold betjent
ĠZ ahl
ĠGien parter
chi old
ĠKompagn ie
m ind
r agt
ĠT empel
Ġpaa faldende
ĠHer lu
ĠJn t
gaard mand
ĠSto el
ĠMÃ¸r k
ĠKe yser
ĠDol lar
ĠA x
ĠD otter
Ġan er
ĠJn qvisition
ĠVol ont
ĠNÃ¦ se
ĠHÃ¸nse huus
c ompagn
y ork
Ġc um
ĠFar er
Ġerkl Ã¦res
Ġtilst aaede
ĠMos se
n ah
ĠL ac
gen d
Ġ24 7
ĠÃ¸ ve
ĠGre gers
ĠJnge fÃ¦r
vok at
ĠBrahet rolleborg
l d
ĠK eg
Ġind hente
Ġud given
ĠTh rane
ĠAalborg huus
ĠTr und
ĠVel behag
ĠGesand ter
m eg
Ġm Ã¦gtige
ĠH ale
sk ninger
ĠSt Ã¸r
ĠRet fÃ¦rdig
mark ed
ĠtrÃ¦n ger
arbeide de
ĠSky des
ĠByr der
ĠCommunic ation
Ġfor men
ĠT ir
and rup
Ġpaa lÃ¦gges
ĠN antes
ĠFran s
Ġudt rukne
ĠtrÃ¦ ffes
Ġanordnings mÃ¦ssig
a kken
j ende
Ġi hrer
Ġud fordrende
ĠOr gel
Ġfort jene
ĠHaders lef
ĠWen ds
z iger
ĠFor tale
ĠDep os
ĠDepes che
bi bliothe
Ġexp eder
B lade
E iend
F rÃ¸e
Ġfor v
ĠV au
ĠSt rÃ¦det
ch irurg
ĠBeret ningen
ĠStra ffe
ĠSlang erup
z el
an et
Ġli idt
Ġne stkommende
ĠPas ch
ĠNatur historie
ĠMÃ¸r ke
ĠRa sk
Ġspec iel
ĠSve istrup
ĠSydamer ika
Ġprovisor iske
Ġv akt
ĠG ed
sp lads
ĠUh re
Ã¦r ere
ĠKiÃ¸b manden
Ġ20 1
ati ver
ĠSkov ene
ĠChristians und
Ġneds ab
ĠPlant age
Ġproduc ere
ĠMetter nich
o es
hol ter
Ġover faldet
Ġbek ym
ĠMe yers
Ġstor mende
ĠSÃ¦ k
ĠFrem stilling
ĠbekrÃ¦ ftede
Ġbefri ede
A c
b ne
m t
Ġop t
Ġforb udne
ĠUds agn
ĠbekrÃ¦ ftes
ĠEnkef rues
ĠCoch rane
ocum enterne
f elt
ĠM Ã¦ngden
ĠK assen
Ġaf reise
Ġbe mÃ¦gtigede
Ġn ur
ele er
ĠMennesk es
ĠPoul sens
8 6
b els
u mer
il lo
al ds
Ġu over
Ġbes lutte
ĠPension ist
Ġauf ge
j eg
ĠS lagt
kk els
ot tet
Ġvel gjÃ¸rende
ĠGi Ã¦s
ĠSv ine
kj Ã¸n
Ġaver teres
ĠOrgan isation
igjen nem
L in
m Ã¼
ĠS aal
on iske
ĠK ien
ĠK ande
ĠSk aaler
Ġfra skil
ĠAr ent
Ġaller under
An den
ĠAuk tionen
F ort
ag ersvend
ĠK inder
ĠK lau
Ġin clusive
ĠQv Ã¦st
edag s
ĠAff aire
ĠÃ¦del modige
ĠBirketings ret
Ġfornu ftig
ĠF ide
ĠT ort
Ġhan n
ĠEfter tryk
ĠStat ssecretair
ĠTal enter
Ġgrund ig
ĠReis endes
Ġmid dag
elig ere
Ġ22 6
ĠJe psen
Ġamer icanske
Sidst leden
ĠSÃ¸g smaal
k nings
Ġlig t
ĠEman uel
re is
Ġud krÃ¦
Ġover gav
ĠSti velse
ĠAft ale
Ġaver teret
Ġd ans
Ġud sted
ĠSpr Ã¸i
ĠChar les
Ġseil et
ĠLyn ge
ĠHimmel en
ĠUdfÃ¸rsel en
Ġm Ã¦rke
ĠL ichten
ind styve
ĠnÃ¦r ved
ĠDeel tag
ĠRi me
ĠWi vet
fel ds
Ġopsp Ã¸rge
ĠWashing ton
N Ã¦stkommende
b uch
Ġind kiÃ¸b
ryk t
ĠFr elser
ĠGj orde
ĠsÃ¦rskil te
ĠForsk jel
Ġtot al
ĠlÃ¦ng st
Ġrelig i
Ġfor ne
rÃ¦ es
lem ents
ĠStervbo erne
ĠLie b
ĠLaan e
Ġcomm unic
ĠBisko pper
distri ct
ĠOppeb Ã¸rsel
Ġfulden dt
H artkorn
n Ã¦r
ĠM sts
ĠLand vÃ¦sen
kast else
ĠProdu kter
ĠUroligheder ne
Ġmr kt
il ds
En deel
s else
der er
Ġbe fordret
Ġu vidende
dre ier
ss und
ĠStr aae
ĠLu de
ĠDebitor es
ĠJÃ¸ derne
ĠSp ads
kker t
ĠHÃ¸r lÃ¦r
ĠKaar de
Fabri k
ĠForpligt elser
Ġsildig ere
ĠFried rich
es sens
ĠF ing
ĠEn thusi
ĠAuctions stederne
ĠMo den
ĠStuden ter
Ġnatur lig
ĠKrist ian
al ens
ske er
ĠEng els
kel mann
ĠSkol erne
ĠPal mer
ahr s
ĠEiende ele
ĠV ask
Ġom tr
Ġover dragne
ĠViborg s
ĠGu er
Ġsammen lig
ĠZe uthen
ĠÃĨres legi
ry kke
ĠRe ber
ĠHol ter
ĠLands Over
ĠNye kirke
Ġra ske
ĠBestrÃ¦b else
ĠBekiendtgiÃ¸r elser
Ġumynd ig
ĠForvir ring
for me
ĠFar edag
ĠSpring gaden
enc eraad
ĠM ens
ĠKiÃ¸b esum
ĠFri heden
Ġderfor uden
usi kal
ĠRÃ¸d bye
eske e
Ġindbet ale
ĠK alle
Ġaf hÃ¦nde
ĠT Ã¶n
ĠJ our
ĠI V
ĠKjÃ¸benhavn ske
Ġq vÃ¦
Ġind g
ĠDe els
Ġbet ids
Prof essor
el in
Ġf Ã¸iet
ar ist
ĠR ind
ĠV ist
is isk
Ġlig eg
tr es
ĠBag gaard
lad se
Ġmang lede
Ġmis forn
maa tte
ĠkrÃ¦ ve
Ġn Ã¦vner
Ġmed taget
um pe
ft elsen
Ġbest illes
ĠKlo kke
Ġreg net
Ġfat tes
ott rup
ĠSax kiÃ¸bing
ĠWall is
ĠSandsyn lighed
ĠForskands ninger
J ern
Ġbeg ravet
ĠLands over
ĠAnsku elser
R em
b atter
Ġf Ã¦ste
ĠAr resten
ĠLÃ¦ng sel
ĠHon ning
ĠRede lighed
f Ã¸dt
st bydende
ĠC lo
ĠVagt mester
Ġlu kkede
ĠRantz au
B Ã¸rn
ĠSÃ¸ren skriver
isch ers
ĠDalmati en
u ppe
ĠAar stid
ach t
mÃ¦rk else
ĠKor skirken
ĠColon ner
Ġindd revet
ĠLex icon
ĠOlder mand
H Ã¸
n Ã¸dder
ĠA agesen
Ġk iÃ¸r
Ġfra bedende
ĠHol bergs
ĠTro eskab
ĠNy s
ĠSv ov
kon sten
ĠPreus serne
ĠDirek tionen
Ġyd m
Ġf Ã¶d
Ġt app
ĠK in
is sel
ĠOver haand
ĠNe ppe
Sk ulle
ĠindtrÃ¦ ffer
ĠAlmu esk
Ġudslet tet
Ġt un
Ġbefal es
ĠPortug als
Ġfr omme
ĠStyk g
ĠhÃ¸r tes
Ġfor bydes
av it
Ġ18 7
ĠW ater
ĠBe folkning
ĠHan den
For p
ĠFeil tagelse
ĠindskrÃ¦n ket
ĠH aard
ĠV raget
Ġuden landsk
ĠSv oger
Ġspec ielle
Ã¦tt elser
r ens
Ġfor resten
Ġaf vex
ver ts
ord re
ĠSy v
ĠVaanings huset
F red
b orn
ĠN Ã¼rn
Ġmid dagen
ĠKÃ¶n ig
ĠOm hu
Ġib d
ĠBryst syge
ĠDocum ente
ĠMartini que
Ġh ied
ĠP ens
ĠSkifte Commission
ess al
ĠLind berg
Ġtienst ligst
ĠomstÃ¦n delig
v as
Ġb aaret
ĠB ugten
Ġop satte
Ġlig ner
ess erne
Ġnyt ter
Ġfor lÃ¦n
Ġaf vÃ¦b
ĠN il
Ġind leverede
Ġud fordre
for e
mar ke
ĠÃĨ nder
Ste en
B ro
Ġi tte
ĠB ommen
ri ks
ĠHer til
ĠPar cellen
Sk ole
ĠAb bed
ĠFry senborg
Ġerhver ves
ĠNytaars gave
ag h
ĠL Ã¶
Ġg yld
ĠTegne bog
ĠMandat arius
ĠJak ob
ĠUdelu kkelse
Ġ ,
Ġen ig
og raf
ĠKi Ã¦re
Ã¸n nes
ĠSp er
Ġfrem met
ĠNy sted
ĠBro wn
Ġtro faste
ĠGj Ã¸r
ĠCommand oen
Ġt aa
Ġt Ã¦nkte
ul ationen
gen es
ĠMag de
Ġw ar
ĠDu k
Ġarbe ides
Ġforg ieves
Ġopst illede
hvor i
ĠDirek tor
ĠUnder viisningen
ĠSch el
ĠVer ona
ĠMorgen st
Ġmer k
Ġon de
Sund bye
F Ã¸rste
Ġsk ille
lev et
ĠPla dse
ĠBorg ers
Ġanmo der
ĠMÃ¼n ster
ĠBart hol
ĠPerle gryn
F rider
j omfrue
ĠTil vÃ¦relse
ĠBes ynder
skri ption
ĠOl s
ĠFrider ica
ĠArvepr indsen
ĠDipl om
k len
al i
Dire ction
Che f
Ġt ie
ĠH ue
re ctor
ĠP os
ĠV eg
ĠN eb
Ġlig ne
ĠSv inds
ĠSchi b
ĠSchi fter
ba kken
Ġudtry kkelige
ĠHaandvÃ¦rk ere
ĠHenri ette
ĠUdvi delse
b eds
ĠL ann
Ġinden landsk
ĠMin a
ĠTyr kisk
Ġfordeelagt igt
az in
nÃ¦ ss
ĠStevn s
V arer
Ã¸r gende
Ġan hÃ¸re
bo ets
ĠJnd vend
ĠStrand strÃ¦de
ĠRost ock
betal ingen
raff in
Ġs lag
ĠF ers
Ġer kiende
ud g
ĠVi kker
ĠSi eg
Ġsol len
Ġpar ti
ĠKab inets
ĠSkiel skiÃ¸r
Ġfuldkomne ste
Ġkomp let
M it
ĠC ogn
Ġl id
ĠFrederik shald
ĠVel Ã¦rvÃ¦rdige
V are
b ad
sk ier
Ġn i
ĠRe im
Ã¸m melig
ĠCar sten
ĠSkibs farten
h Ã¸e
ĠU fors
ĠEfter mand
ĠOp hav
ann ah
ĠPet ri
ĠWe y
Ġtilf Ã¸ier
issen berg
ĠFast ing
ĠfornÃ¦r melige
Ġagt vÃ¦rdige
ĠEnthusi as
a kke
ĠMe ersk
St ue
ĠBetal ings
Ġcommander ede
ĠFÃ¦gt ningen
ĠH els
ĠSta ver
tt rup
ĠPol ske
Ġhalv anden
Ġforest iller
Ġcomplet te
Collegi i
Or denen
stri bet
ĠSpring vand
Ġindbet alt
ĠOmvurder ing
Ġbre ed
Sec ret
G ud
T redagen
Ġud holde
Ġud rette
gen er
skaff es
k unst
Ã¸ gende
ĠP aler
ĠG az
ĠEn er
Ġvel che
con trolleur
Ġste gen
Ġdybe ste
Ġubesk riv
ĠU vis
ĠBye fog
sb lade
Ġgr unde
itet en
ĠLaur bÃ¦r
ĠUnderstÃ¸ tt
ĠBuch wald
ĠStrÃ¦ng hed
C redi
Ġer meldte
ĠAar Ã¸e
Ġ22 8
ĠSi derne
ĠMinister ial
kam re
A tte
in delsen
Ġi hren
on erne
ĠP ile
nem ent
ĠoverflÃ¸d igt
ĠHospitals forstander
ĠSÃ¶ e
Ġrimelig viis
H and
ĠHer tel
Ġre publi
ĠSÃ¸lv m
Ġske edte
ĠRig dom
KiÃ¸b mand
Ġi steden
ĠV ald
Ġfrem bragt
air en
ĠMol s
ĠHede marken
fe il
b age
Ġtil stÃ¸dende
ĠD Ã¸bte
ĠP ind
ĠL ug
ĠEfter ladte
for ening
ĠOp gang
Ġfore faldende
ĠDronning lunds
ific eret
Ġfi irk
ĠÃĺdelÃ¦g gelser
i od
y kket
en se
ĠE yer
gi vere
ĠCh er
Ġbehagelig ste
ĠFier dingen
ĠSchum la
A p
K b
ĠS ohn
ĠB oller
ĠRe pr
ĠGr aae
ĠDr agt
Ġro es
Ġent led
Ġeenstemm ig
g ent
Ġl Ã¦n
amt lige
ĠstÃ¦rke ste
ĠBre mer
ĠVers ailles
ĠClem men
ĠGaranti e
T idende
ĠH yld
al tede
ĠJ bsen
ler es
ĠDr Ã¸b
Ġmodt agen
folk ene
ĠD as
bo ere
try kke
ĠMol de
fÃ¦rdige de
ĠSÃ¦l gende
ĠLÃ¦ng den
ĠvidtlÃ¸ ftige
ĠPohl ske
ĠSk e
Ġvil d
ĠBer edskab
Ġlov for
Ġfremst ille
ĠBent zen
Ġudrust es
Dan mark
o ul
id dende
ĠDe vise
Ġover een
ly ttelse
ĠBar m
akkelov n
ĠHelsing Ã¸r
ĠVÃ¦rk ets
ĠAcc ord
b rÃ¦ndte
n g
Ġs agte
ĠSt und
Ġl ub
mÃ¦ ster
Et at
ĠHier m
ĠRand rup
q vist
Ġud bragte
Ġud vendig
ĠGr ene
.) .
Ġang re
Ġben yttet
Forts Ã¦ttelse
ĠYt tring
S ukker
ar o
ĠK agen
ĠD Ã¸l
fÃ¸r sels
ĠHammer slaget
ĠSteent ag
ĠFj ende
Ġextraord inaire
y ve
ĠF jendt
ĠL illi
ĠTil d
ĠTil forordnede
ĠÃ¸v et
ĠRegiment ets
handler ne
ĠLat in
Ġudru ste
ĠHav anna
Ġbef undne
ĠSteen berg
ĠGod iche
ĠHun ger
ĠBred gaden
ĠGeheime con
ĠK lever
al let
ĠR oss
ou pe
ĠHel le
str ands
ĠMarg ret
ĠOrlog skibe
ĠArch iv
ĠStalder um
ĠB ess
Ġtil sk
ĠG ener
Ġmed io
ĠBe fordr
ĠBar beer
klÃ¦ d
ĠUng doms
Regiment et
ĠCent rum
ĠBorgemester e
Ġforvent ende
ĠLeh mann
o be
s for
Ġt egner
Ġm usikal
ĠSt ry
ch ou
Ġsp are
ĠVel fÃ¦rd
anst undende
l ust
ĠS Ã¸b
ĠT ha
Ġefter lyses
ĠMa in
Ġop reist
Ad ministra
po ster
ĠFalster s
ĠSultan ens
3 00
and o
ĠSt ation
ch mann
me yer
ic i
Ġrede lige
voc aten
ĠTÃ¸rve jord
ĠMou ri
D i
ĠM agen
sk oe
ri ol
Con fer
mag le
ĠsvÃ¦r t
st ader
el li
Ġalle haande
Ġpr omp
ĠPort ene
ph abet
Ã¶l ge
Ġskien ket
p ut
ĠKap t
Ġstri bede
Ġva er
ĠPro ft
ĠAt la
Ġudm Ã¦rker
ĠPal me
ĠSlots gaden
ĠForh Ã¸ielse
ĠPrÃ¦ten tion
Ġh Ã¦nge
ĠRo che
ĠGodt giÃ¸relse
ĠGrundt vig
ĠLinden borg
ĠB rÃ¦d
al terne
ĠP ande
ĠSch l
ĠFors Ã¸mmelse
ĠBrev et
ult ur
ĠAmer icanske
Ġkl age
D istri
ĠB jÃ¸rn
Ġgi orde
ĠJnf ant
siden ten
ĠUniversitet ets
Ġmods Ã¦tte
ĠHerredsfog den
ĠEjus d
Ġetabler et
ĠTrund hiem
ĠKiÃ¸b en
ĠHar den
ĠY der
ĠAab ye
am ent
Ġbe det
ĠCh i
Ġber egne
ĠArme ek
kt Ã¸r
Ġtilk jendt
Ġ176 1
Ġaabne des
Ġerst attet
Ġsy ssels
ĠFrie hed
ĠH aan
ĠH yp
Ġg ele
ĠAmt huus
ĠHe ster
Ġbekiendtgj Ã¸r
bli vende
Ġad vare
ĠstrÃ¦ be
ĠAnc ona
6 5
ĠW ill
si sk
Ġford ret
gers lev
ĠCorrespon dent
ĠJnsurg ent
ul tet
art ens
ĠUd bye
ĠMe he
ĠEl lers
ĠSenge stÃ¦der
Ġafs ende
ĠtrÃ¦ kkes
Ġforan fÃ¸rste
ĠFi orden
Ġbyg ges
Ġudvi k
Ġstr eng
f org
Ġb rav
ol de
ĠFor bryder
ĠBr og
syn lig
n ie
ĠF aaes
Ġaf handles
ĠGrÃ¦ kere
ĠFisk ere
ĠMel ke
ĠCommitte en
ĠFor fÃ¦rdig
tes p
lÃ¸b ende
Ġforh Ã¸iet
ĠKons um
ĠAdmir alen
Ġf ur
ĠH atten
ĠP op
Ġind bemeldte
Contoir er
ĠOlden burg
Ġforti ent
ĠudfÃ¸r ligere
ĠvÃ¦sent lig
ĠStÃ¸ tte
J ourn
ĠV aars
is ant
Ġhvor mange
ĠBy tings
ug get
Ġc ap
ĠSal peter
ĠFr andsen
ĠKom d
ĠKil der
ĠMant ua
in nen
ĠM egler
ĠAuction sdagen
ĠLeg ion
Ġbetr agtet
Ġcop ulerede
ĠK aff
vi et
Ġse iner
Ġinder ligste
v ands
w egen
und bye
Ġ21 9
Ġafh ielpe
ĠJndtÃ¦g ten
ĠPrÃ¦ti osa
b as
Ġm ild
om ed
ĠT rÃ¦ng
ĠJ mod
Ġud ryd
Ġhe den
ĠbehÃ¸r igen
ĠPan tegods
un na
ĠC os
gi ften
Ġ24 9
ĠFriderich shald
ĠArbeids vogne
ĠM ecklen
ĠT vÃ¦r
ĠNat han
St Ã¦vning
ĠAgerdyr kning
k ap
v ige
ĠS nu
ĠP ille
ĠP igerne
bo ur
ĠKirke st
ĠDren gen
se y
ari ate
all is
ĠAfgr Ã¸den
Or den
H ave
ĠTax ations
Ġev angel
ĠSoel berg
ĠFur re
ĠPrÃ¦tens ion
ĠAfh ent
o i
Ġtil kiendes
Ġunder s
ĠTieneste karl
Ġsl agen
ĠVidenskaber s
K ap
Ġom kom
ĠTil hold
ĠPar ap
Ġlov mÃ¦ssig
Ã¸g erne
sch i
Ġsal ige
Ġsl aaes
or terede
Ġm ale
ĠF aste
ĠM esse
Ġfor retter
ĠE gteskab
ĠOver gang
ĠHerred sting
akk els
ĠBest al
ĠBli ver
kast es
ĠViden de
ĠHjer tet
Ġsjel den
F al
R ug
k onsul
ĠP ave
ĠR igst
ĠMar e
ĠUr b
Ġgew artigen
Ġp le
ou ver
ĠFri m
ĠKron er
ĠJndvaan er
Ġdr oge
ĠGevin sterne
ĠKrÃ¦ mmer
ĠSopha er
Ġinfor mere
ĠM urat
ĠE id
ĠSki ft
ska be
ĠKirk egaarden
Ġsus pen
J ord
ĠC ai
Ã¦g gende
Ġfrem ad
Ġbes varede
ĠMaa let
Ġav anc
ĠEb beltoft
ĠCorresponden ce
p apir
t eligt
ĠR ie
ĠNat ura
ĠHam mel
ĠRom erske
Reg imenter
ĠTra ppen
ĠDam erne
ĠNeap olit
ĠKlog skab
F isk
d otter
al ig
ĠGul den
ĠRepubli ks
ĠSÃ¸ster s
lov en
ĠOpret telsen
Ġudru stede
Ġeftertry kkelig
ĠDelin qvent
M ark
ĠR og
els et
ĠAd ler
ĠStor me
ĠHandels betient
Ġbev og
ĠDahl s
ĠGodt gjÃ¸relse
ĠLandvÃ¦sens commissair
bur ger
4 2
c ript
ĠG or
ĠG jel
Ġu ventede
be ste
ĠHan e
ĠUd vand
For retninger
ĠMalt ha
Jnd sendt
ĠBefri else
h at
Ġ Ã¦ng
ĠB us
Ġv aage
ĠR ul
ĠSk rÃ¦dder
Ġre qvir
ĠRet ning
isk ammer
sh uset
ĠAvant garde
Ġcontrib u
y ste
Ġm yn
Ġu ret
Ġud vex
ĠKl ar
ĠVen ding
bre det
ĠVah rer
Ġbetro ede
V en
ĠS ine
li v
ĠLeie vaan
ollegi um
ĠKirk egaden
et en
Ġi ch
ĠT ouge
ĠNo k
Ġmu ligen
ĠInd gang
ĠBra b
Ġvirkelig en
Mid del
Ġo ft
ĠÃĺ de
Ġre ele
Ġbesk ie
klÃ¦ dte
ĠBen Ã¦vn
ĠMig uels
ĠDisp achen
G rÃ¦
Ġf ind
Ġaf fordre
ĠOver auditeur
Ġ20 3
ater s
ĠBesk yldninger
Ġneds Ã¦ttes
ĠOvers igt
Ġops Ã¦tte
s ige
ĠAss ist
ĠKat teg
ĠNÃ¦ ss
Ġgavn lig
l at
Ġa s
ĠH yd
ĠV Ã¦l
ind kaldes
ĠW eder
ĠBo ston
ob belte
ĠVar erne
ĠSkifte j
otter iet
ĠUl strup
arbe i
ĠReligion ens
ĠPrÃ¦di k
irur giske
ĠMaroc co
id ag
Ġal let
ent iner
ss al
ĠBet Ã¦nk
ĠBest illing
Ġistand s
ĠClas sen
Ġfasts Ã¦ttes
Ġm agel
ĠV oss
ak te
Ġsm aat
Ġtro ds
Lie ut
ĠstrÃ¦ kke
ĠBrandforsi kk
o y
Ġde cret
ĠR aben
un ker
ĠPar ma
ĠForb ittr
gar d
ĠSÃ¸nder lyng
ĠBekjendt gjÃ¸relser
ĠbevÃ¦b net
ĠNÃ¦st en
ĠMeddoms mÃ¦nd
b ort
Ġo hne
Ġm achen
ĠSk aan
ĠOp komst
ĠOver general
Ġ25 6
ĠQvar ter
ĠJon sen
ĠFjer ding
mu uret
ĠMed li
ĠPost ens
ĠLin iet
ĠFr am
ĠResiden tz
kj Ã¸d
ĠAutor itet
ĠFor edrag
Ġsig tet
ct aten
ĠTra cteur
Ġav lede
ĠFrederikshavn s
ĠS uper
ah ren
Ġbed Ã¦kket
ĠFar ten
ĠEftermiddag s
ĠKiÃ¸bstÃ¦ den
Ġforsikk res
ĠMang ler
ĠD over
ul ar
est ad
ord on
8 5
Ġs es
Ġn ation
ĠVar ighed
Ġpr Ã¸vet
ĠVil la
ĠClas sel
Ġcoule urt
Var sel
E ffendi
n ung
ĠH inder
ĠF old
Ġtil skrives
Ġ23 5
ĠVel baarne
ĠFattig huus
Ġforven tede
Ġfor tiden
ĠL ot
vÃ¦r net
ĠSep ar
Ġbl andede
Ġudsted te
Ġ ile
for raad
ĠAf gjÃ¸relse
sh Ã¸i
ĠMess ina
Ġafsk y
ĠGiel den
ĠSkiden strÃ¦de
v agten
in ten
ĠV ende
ang s
Ġborts Ã¦l
ĠTrÃ¦ erne
ĠKj ellerup
ĠBrev post
ĠJnds igt
ĠHver v
ĠVold gaden
p erson
ĠJ ar
ĠG aller
Ã¦r de
ber es
Ġst yre
ur ter
riv elsen
Ġhen rettede
ĠFyr reb
ĠCommer c
Ġstri de
ĠLev ninger
ĠChur fyrsten
ĠStakit vÃ¦rk
Ġverds lige
g aver
al get
ĠL ens
ĠPro vision
ĠvÃ¦r re
ĠHar d
Ġgar nis
ĠRid dere
isal p
S ager
ĠAn holt
stem t
Ġ25 5
ĠEr indringer
ĠAmts prov
ĠRegent skabet
stron om
S idste
ĠJ ligemaade
ĠStads hauptmand
ĠVest indisk
ĠÃĺsterrig s
stri dige
Ġp oet
Ġind lem
ĠTil staaelse
ĠAd m
Ġski Ã¸ndt
Ġanst ille
ĠAvlings redskaber
Ġufors Ã¸rgede
3 7
f Ã¸rende
Ġfor meret
ĠOp holds
ĠTydsk lands
ĠT an
ĠLe ctor
ly ndre
ĠByg gryn
ĠFol io
ĠSkiftebehandling en
ĠFast hed
mach t
ĠHein rich
f urt
ed ire
Ġt ig
Ġ26 2
Ġve ster
Ġford ums
Ġgl atte
Aff aires
x en
ĠJ ung
ri fter
ĠO ch
ĠAn holdelse
ĠLand t
ut a
ĠFl inter
Ġafs luttet
ĠCommission ens
ĠSil istria
ĠCre aturer
ĠKoff ardie
ĠAfrik a
Ġa gere
Ġb elig
ĠB com
ĠG an
ĠBe h
ĠFo den
ĠMu sket
ĠÃ¦ skes
Ġtilfredsst illende
ĠVidenskab elighed
ĠR ammer
ation ens
ĠMon ument
ĠSmith s
ĠJhÃ¦nde haveren
ĠK Ã¼
ĠR Ã¸de
and i
ĠG all
ket ter
sÃ¸ es
ĠHamp e
ĠErkl Ã¦ringer
Ġraa ds
ĠUle y
Ġforauction eres
ĠKlau en
B rig
ĠB astrup
ĠReg lement
ac t
Ġ19 4
ĠEm bar
th ers
ĠLande mÃ¦rket
ĠTal ent
ĠTol den
ĠDav idsen
lieuten anter
Ġappro berede
ĠAmnest ie
Ġu frie
ĠHa y
ĠNordamer ica
ĠLamp er
or up
Ã¸v st
ĠDec lar
ĠÃĨ gt
ĠLomm ebog
Ġuefter rettelig
ster ets
ĠW it
ĠMed fÃ¸r
Ġfore viste
ĠKorn s
ĠTugt huset
ĠVox lys
ĠServ ien
ner et
rag ter
ĠRegn skaber
ĠNeap olis
s holm
Ġunder holde
ĠBan ker
ĠEget Ã¸mmer
ĠK Ã¦
kk ers
ur erne
Ġover gaaer
pp es
pp ens
Ġgi fte
fart Ã¸ier
ĠBillet terne
fyrst elige
ritz lev
ĠSpÃ¸r smaal
Ġuforand ret
c terede
r Ã¸m
Ġpaa lagte
ĠAl ling
ĠAd komster
ĠTer ri
ĠBekiend tere
ĠS ier
ĠP om
ĠV all
Ġg ras
Ġop lÃ¦r
ant zer
ĠGj est
ĠnÃ¸d ig
Ġrespek tive
k re
ar dt
Ġmed fÃ¸re
Ġd is
Ġk iere
ĠAn nu
ĠEfter m
ĠMen igheden
ĠVen skabs
ĠComm itteret
per t
ĠOff ere
ĠBroder sen
ĠGra ver
ĠForraad n
ĠBcom k
ĠK yl
ĠV es
Ġn Ã¸des
ĠOp byggelse
ĠKat hedral
Ġdri kke
ĠDollar s
j et
Ġm Ã¸
ĠT Ã¦
mÃ¦ le
Ġinde staaer
Ġlat insk
ĠOxe kiÃ¸d
Ġunderdan igst
ĠNec kelmann
ĠP Ã¸l
agt ningen
di ctionen
handling erne
ĠBergen ske
ĠUng dommens
Ġtry kkede
ĠLomme uhr
Freder ich
Ġejus d
forf atning
f ningen
ĠS ud
ĠT rav
ĠPro ven
Ġbort komne
ĠOr ds
ĠContoir ets
ĠTÃ¸rve huus
ĠBierg ene
for slag
Ã¦v nede
ĠBag ges
Ġw ollen
ĠMon itÃ¸ren
ĠSkibs liste
ĠJntellig ent
Ġvolds omme
ĠMedicin Ã¦
hord lehn
ĠKay ser
Ġ24 3
Ġ22 3
ĠSukker raffin
ĠSkriver stuen
Ġprivileg eret
ĠL aag
ĠStift elsens
bes lag
ĠPot aske
ĠTri er
ĠTrondhiem s
ĠD alsgaard
Ġop brudt
ĠW raae
ry kket
ĠÃĺ stre
ĠLy kken
ĠMan chester
Ġtils ende
Ġafh Ã¦ng
Ġerob re
ĠReprÃ¦sent antere
ĠEget rÃ¦er
ĠQuar antaine
Ġchines iske
b esen
Ġover sv
ĠSte v
ĠKjÃ¸b stÃ¦derne
ĠForord n
ĠtilstrÃ¦ kke
last et
ĠConsum ptions
ĠQvitter inger
Ġstand sede
Ġindbef attet
ĠSpÃ¸rgsm aale
ĠContinu ation
G odt
f und
ar der
ĠF ab
ĠF jor
ĠFor stue
Ġl ande
ommen d
Ġfors Ã¸gte
Ġ200 000
ĠFabri qve
ĠdrÃ¦ be
ĠKram vahre
ĠJsen kram
n on
ĠB old
ok ra
ĠFattig vÃ¦senets
Ġtru ffen
stil fÃ¦lde
ĠLÃ¦g erne
ĠKommission en
ĠDist r
Ġrev olution
Ġf ir
Ġfor try
ĠT en
ĠSt age
ĠTh un
ĠKjÃ¸b stÃ¦ds
Ġble gede
Ret ter
ĠÃĺr bek
ĠbekrÃ¦ fter
ĠOrlog skib
ĠAudien ce
ĠKierul f
ĠUen ighed
C or
ĠB Ã¸get
ĠV II
ĠLe ire
Ġstra f
hold ne
Ġforh ind
Ġvansk elige
Eng land
N or
Ġs ov
Ġt akkes
Ġtil deelt
der i
ĠT u
Ġind skibes
ent ved
Ã¸ds el
Ud giveren
P eter
Ġind dr
ĠPaa grib
yd ige
Ġlette de
ĠFlor enz
Ġrigt igt
ĠMargaret he
Ġs ye
ĠS ocietet
Ġb Ã¸d
ĠH unden
Ġfra beder
Ġop lÃ¦
Ġ22 4
ĠKjÃ¸b et
ĠMid nat
ĠCour sen
ĠJs Ã¦r
Ġfar ligt
ĠCollegi o
ĠN iss
ĠFor se
Ġan tre
ien er
ien te
Ġud kommende
skab elige
ĠUnder skov
ĠJu ell
ĠTold boed
Ġsyn kende
ĠSy rien
ĠDo us
ĠJstands Ã¦ttelse
P riis
ene ster
ĠNy boe
ĠPo ste
ĠKrigs ret
ĠGj Ã¸d
ĠLind ved
ĠHaders leben
Ġforuly kket
Ġaf marsch
Ġbe vises
Ġl aa
ĠBer ger
Ġ23 8
ĠBed r
ĠCop ulerede
ĠCatt uner
s y
ĠV idt
ind ie
Ġover bragt
ĠPar ade
ĠLiv garden
ĠÃ¸n sket
ĠBrand directeur
ĠGer hard
bu xer
ĠPÃ¸b el
Ġba yerske
m ord
Ġm i
ĠF ern
ĠF ax
ĠG reg
ĠW ors
ĠBo hn
ĠMand al
ĠMai i
ĠBet ydning
sÃ¸ ges
Ġindtru ffet
ĠSteengier der
h usen
ĠJ h
ĠJ blant
ten berg
Ġmaa l
ĠLand sen
ĠRug meel
ĠRest rup
ific ation
ĠKop iist
ĠglÃ¦de lige
ĠChamp agne
Ġplynd ret
K asse
ĠA ler
ĠG inding
ĠSt rÃ¦
ĠGr Ã¶nlandske
ĠJnd k
ow n
Ġfly gtet
ĠCast lere
ĠSchul den
ĠFlo der
ĠFinants erne
Ġdyb ts
vir ket
ĠM aling
Ġn inger
Ġber Ã¸mt
ĠEr kiendt
Ġbr unt
Ġlige for
ĠVogn mager
ĠSub sid
in ationen
ĠSp inde
deel inger
ĠJnd ste
Ġbes varet
amil ie
Ġ** ****
kon e
ĠsÃ¸r get
ĠVelgiÃ¸r er
ĠHvet boe
ĠKl agen
bo w
Ġmaa de
ĠSe k
bek iendt
ants ler
ĠMus sel
ĠBil sted
bef indende
ĠAllerhÃ¸ist sammes
ĠDrÃ¦ gtighed
Ġforfly ttet
ĠRah bek
nah me
N orge
Ġh indringer
ĠE ft
Ġpaa lydende
ĠKon vo
ĠBrev vexling
ĠGu de
Ġrum meligt
ĠTredie deel
Ġoverst ige
por tion
Ġtil lÃ¦gge
og ed
Ġst und
ĠOp fÃ¸r
Ġc i
ĠBr Ã¸de
holder en
ĠSag erne
ĠFar en
ante de
Ġbel Ã¸nnet
ĠhÃ¦ ft
Ġvog te
ĠMeersk ums
Ġlovfor melig
L yst
Ġde le
der ing
ĠL ommet
for de
ĠfÃ¸l te
Ġ26 6
ĠBor det
othe e
Ġfle este
Ġnordamer ikanske
Ã¦kk ener
f at
k us
y delse
Ġfor byder
Ġop d
Ġop tagen
prÃ¦ diken
Ġve ier
plan tet
giel ds
ĠGri m
Ġmeubler et
ĠL iden
Ġved taget
it us
En delig
stil stand
ĠRytter ie
Ġindste v
Ġm osa
ĠF liid
Ġfor talte
ĠR uller
ind ighed
Ġst akkels
Ġud sendte
bo en
ud sk
ĠArme ecorps
ĠFal ck
ĠRegiment schirurg
ĠFreds under
ĠTver huus
Beg ravede
Ġmun ter
H el
ĠStift befalingsmand
ĠAt hen
Til talte
ĠNavne vÃ¦rdie
Ġseil bar
ĠGrunds Ã¦tning
sa ft
quis ition
ĠMem o
Ġs Ã¶r
Ġh atte
Ġl atter
ĠMa ch
ĠHenning sen
de mar
ĠP ern
Ã¸i elighed
kr one
ĠPrÃ¦ ses
ĠLin n
ĠAss istence
ĠLÃ¦ gen
ĠStrÃ¸m pe
ĠBan ke
ĠConst ant
ĠBirg ithe
ĠA achen
Ã¸r et
Ġbeg rÃ¦de
ss edler
Ã¶ e
ĠHier tet
ĠLegiti m
ĠSamf und
ĠFiendt ligheder
S eddel
re ber
ĠG ir
ve der
ord nede
ĠEnke mand
ater nes
ĠBenj amin
Ġtapp re
ĠEn kens
vi denhed
iel ds
order es
Ġdr ager
Ġforeg ivne
ĠBank sedler
clar erede
ĠAgen ter
K an
in os
Ġan dere
Ġan erk
Ġc ar
ĠGeneral itetet
ĠOm kreds
ĠhÃ¸ yst
ĠRaad ighed
ĠViborg er
ĠCompagn i
ĠOn s
Ġlin nede
ĠForhaab ninger
k yndige
Ġs un
Ġk jer
Ġind kjÃ¸b
ĠHer res
ĠVi se
ĠKjÃ¸b stad
ĠBrev ig
ĠBed Ã¸mmelse
ĠMagistra ts
lÃ¸s hed
ĠPun sch
ĠFores atte
ĠÃ¦d ru
M aaned
P h
Ġh aab
om e
ĠJ os
ĠHistor ier
ĠRegim enterne
pass age
ĠAcadem iet
ĠClau sens
Ġb ie
gi o
ĠAr en
ĠVe emod
Ġbef Ã¦stet
ĠRas p
sse er
ĠSo ult
ĠKomm andeur
ĠSyn et
ĠOpposition en
Ġliber ale
F uld
Ġa k
Ġl indre
ĠEfter komm
ĠOver hof
ĠSte ff
af dÃ¸de
Ġgl at
ĠKro ppen
sku dte
ĠantrÃ¦ ffe
ĠForval tning
ar ges
Ġm ager
ĠSk adeslÃ¸s
ĠHol lands
ĠBorger mester
ĠGem ene
Ġopst illet
hvor af
ĠTrÃ¦k ningen
besk rivelse
ĠConto i
ĠUdvik ling
ĠLann g
T iender
Ġen der
Ġl aane
ĠBer the
Ġforn Ã¸iet
Ġge ist
qver ede
ĠKutter brig
ĠLagen er
C at
ĠR ye
manden s
ĠhÃ¦ ftig
ĠForfatter e
ĠAct a
ĠKu ffer
ĠKiende tegn
ĠOmvurder ings
ĠM Ã¸bler
Ġher lig
Ġgjen op
ĠPetersborg er
ĠRh insk
er ner
Ġf Ã¸iede
ĠFor te
ĠPost kontoir
ĠSÃ¦ den
ĠPre ussisk
ĠQvar te
ĠCond itor
Ġhur tige
ĠGalli z
ĠStraa tag
l aaede
ĠM ohr
jÃ¸b ing
Ġcon ser
tig en
Ġad minist
ĠLang balle
Ġsl aaer
ĠStÃ¦nder nes
bier get
ĠAa e
ĠOtt ing
Ġkry dser
Ġdav on
ĠP yr
ĠSel etÃ¸i
ĠMil d
ĠNye kjÃ¸bing
ĠArbeids vogn
ĠForen ingen
Ġupaa tvivl
ĠÃ¦g yptiske
ĠCarg aison
h ul
ĠP unds
ĠHorn bech
Ġforel agte
Ġzur Ã¼ck
Ġrecommen deret
ĠEftert anke
ĠF inger
ol es
ra der
Ã¸de lige
ĠJnd komst
Ġ25 4
Ġpro test
Ġtro fast
ĠKanoner nes
du un
ĠKam rene
Ġtid lige
ĠKrig er
ce pt
Ġfort jent
ĠKjÃ¸ ge
ĠTre fning
sto el
Ġlu kket
ĠCass a
ky sten
Ġved komme
Ġan ti
ĠHalv t
Ġudm Ã¦rke
ĠLÃ¦ng st
Ġyn k
ĠChal se
ĠBielke fag
aa dt
ĠC t
Ġan kommer
Ġber Ã¸ve
Ġ19 8
ĠGot tschal
ĠJs landske
9 4
f iske
ĠL Ã¦nker
Ġover drages
ĠBe varing
ser ende
ĠNe y
mag ersvend
ĠLieuten anter
Ġtil dÃ¸mt
ĠJ oen
li vet
ur p
ĠAn fald
ĠMar stal
jen ds
ĠÃ¸ ien
ĠBern th
ĠWer ner
ĠKla sses
ĠOpdrag elses
h Ã¸veder
ĠK ut
og saa
la teur
Ġuden tvivl
ĠJnd fÃ¸relse
ĠKj Ã¦lder
Her reds
ĠBirk eskriver
ĠOphold steder
ĠFÃ¦r Ã¸erne
ĠTag vinduer
Ġudsp redte
ĠRust ninger
Ġgjent agne
sn it
ĠReqvir enten
l aar
ĠT orger
Ġg aar
Ġud virke
ab elt
ĠTil trÃ¦delse
Ġlig iti
Ġbes adt
ĠMus el
Ġnyelig en
hem atiske
st ole
sk illing
sk yldig
Ġcon fisk
mo is
ĠBev og
ĠPhil os
ĠCollegi i
ĠEjer en
B ank
Ġpaa tager
ĠV oc
ge me
ĠSk agens
ĠTids skrift
Ġarbeide de
ĠStands ning
acon us
H vem
Ġind bringe
Ġus and
ĠDivan et
ĠAnm Ã¦l
TISSEM ENT
Ġ5 50
ug ler
ass erede
ĠBra hes
Ġug unst
ĠJomfru erne
Ġved kommer
ĠSk aber
Ġtilb aget
ĠGud um
ĠDie b
Ġsch lesvig
bestyr er
9 2
D eres
f ange
ĠF lade
ĠP omer
ĠSk a
ĠUd skift
ĠHol ten
ĠFran co
ĠHen ry
ĠPerson el
ĠHavn ene
Ġtjen lige
ĠunderstÃ¸ ttede
ĠGis lum
ĠJnform ation
ĠRÃ¸gt obak
ĠJyd land
D u
b eliggende
c ts
m aan
Ġtil le
ĠM yr
im ar
ĠTer p
ĠCapit alen
beret ninger
ĠMinist renes
Ġsandsyn lig
Ġiber egnet
Ġf ro
ut rup
Ġbel Ã¸nne
ĠBrig skib
ĠFa j
Ġudvi des
ĠKommand ant
ĠfuldstÃ¦nd igt
Extra ct
ĠBadstu estrÃ¦det
F reg
k tion
ĠR au
Ġud gaaer
la dene
ĠSlet te
ĠZ immer
ĠTestam entet
S em
Ġi stem
ĠP elt
ĠO vne
Ã¸l ger
Ġop pe
val dsen
ĠHen r
Ġkal dt
ĠStifts befalingsmand
ĠDit lev
pri is
ĠJagt tagelse
Ġthe oret
Ġudb reder
ĠFrid rich
Ã¦ dr
Ġtil bringe
ĠN ik
Ġud vand
ĠEfter fÃ¸lger
ĠLand gods
ĠGeneral g
ĠLyst havere
ĠFr elsers
ĠOff entlig
ĠVogn mands
ĠAlli eredes
c ar
Ġs jÃ¦l
ĠSch and
ĠNy egade
ĠOffic e
ĠFyen sk
ĠMenneske er
fl aade
ĠKram boed
ĠHy sken
Ġvelsig ne
ĠAdressecontoir ets
er iet
ĠV ier
ĠW ins
Ġbort fÃ¸rt
Ġsid dende
ĠSch ub
ĠAm me
Ã¦vn tes
Ġ22 1
orter es
ĠEb besen
ĠBres lau
ĠArbej ds
ĠKnab ro
Ġminister ielle
D Ã¸dsfald
Ġf lÃ¸
ĠFor v
ĠHer holdt
Ġfrem t
ĠSchi Ã¸nning
ĠKjÃ¸ bere
ĠJsen krÃ¦mmer
Ġoverv Ã¦re
Ġank rede
Ġfor anstalt
vÃ¦r ns
Ġned b
bru ger
ĠfÃ¸d de
ĠSiel landsk
Ġfortrin ligste
ĠGru bbe
ĠGuine er
ĠHerredstings dommen
Ġhied urch
a w
g ades
est i
Ġaller fÃ¸rste
Ġ19 2
Ġord ineret
Ġforand res
ĠExer ceer
el lem
ĠF jord
ĠHÃ¸ ye
over ske
trÃ¦ der
ĠFÃ¸rst nÃ¦vnte
Ġskrivt lige
ĠA qv
ĠH Ã¸rg
Ġfor Ã¸vrigt
ĠEn igheden
lag es
ĠUnderret terne
Ġneden staaende
ĠMonar ken
Ġoct ro
ĠSme den
kirk ens
Ġlaan te
ĠArmeek orps
R affin
b om
ĠL s
Ġan f
ik us
ĠArbe yds
ĠRÃ¸ mer
Ġforti et
ask ine
pro c
bryg gen
ĠB ig
Ġtil falden
ĠL es
Ġind givne
Ġj ed
ĠSm it
ms lev
Ġstr enge
ĠKancelli et
m at
ar ch
ĠKl ingen
ĠBe undring
lÃ¦ ger
Ġsin det
ĠSe kret
ĠOver trÃ¦delse
ĠLe i
Ġ25 2
ĠNÃ¦r vÃ¦rende
Pro tocollen
ĠLit th
Sp ec
aa ser
ĠP rivate
av nede
ind ige
Ġ18 40
ĠAar e
ĠBesvar else
C asserer
ĠT is
ĠJ ahr
ĠG rue
Ġsaa lydende
ĠDe ichmann
Ġforme ener
ĠBud de
ĠFÃ¦dr elands
ĠBred der
Ġudvi de
Ġkra ftige
ĠTrom le
Ġpry det
Ġslesvig ske
Ġuundgaa elig
ĠSkyg ge
n avn
ic er
Ġr aab
ron a
ĠSÃ¸l ler
Af gangne
ĠRÃ¸ st
ĠProcent o
ĠNab oer
n ig
ed o
Ġaf lÃ¦gger
ens chiold
Ġc ol
ĠRe den
ĠUd mÃ¦rkelse
ĠMad ras
ĠKn uth
ĠÃĨr Ã¸e
Ġih nen
ĠZeit ung
ĠGouvernem ent
Ġnat ura
ĠKlit gaard
Ġlovg yldige
ĠA ber
av isen
ĠFreder ikke
ĠHalv deel
Af ten
ĠTilbaget og
ĠBure au
ĠReim uth
N Ã¦r
t ran
ĠS nart
ĠD Ã¼
Ġind tal
Ġst Ã¸der
Ġud sendt
ĠVen et
ĠAb ild
ĠGre gersen
Kong elige
ĠKronprinds essen
ĠSjel land
Ġbortr Ã¸mt
m ets
Ġn Ã¸ye
Ġom talt
ĠKon tra
Ġly delig
Ġgr aat
Ġindst randet
Ġbortforp agte
ĠRegens burg
ĠLuth ers
D ommen
Ġh use
ĠG ymn
Ġbe boe
Ġan fort
vÃ¦r ger
Ġr el
Ġaar ige
aller up
ĠCit antinden
ĠUr ne
ĠMiddel gade
Ġcommander es
ĠÃĺsters Ã¸isk
Ġdrist ige
7 3
b ager
Ġst ryges
ĠPro tok
Ġle gge
ĠRo ugsÃ¸e
ĠHav de
dire ction
ĠkjÃ¸b te
Ġimodt aget
ĠÃ¦r lig
ĠLÃ¸v te
Ġrige ste
Ġofficiel t
ĠKos akker
ĠSchimmel mann
b ag
Ġb ange
ĠD ommere
Ġom tale
ling ende
ĠFri heder
Ġtilb Ã¸d
ĠTrÃ¦ tte
ĠKirke strÃ¦de
ĠSn or
Ġforel Ã¦ste
Ġvolds om
ĠBullet in
h ammer
Ġ ed
ders lev
ĠTh une
hen seende
ĠMe jer
yd ningen
ĠJord sk
ĠTransport en
ĠspÃ¸r ger
ĠE di
ĠN am
Ġved liggende
ens ation
yl lands
ĠI fÃ¸lge
Ġforvalter ens
Ġper iod
Ġsandsyn ligt
ĠOversv Ã¸m
A VER
er ingen
Ġs um
Ġt us
ĠM oh
ĠP lynd
ĠL ong
ĠBet ient
Ġne sten
ĠWil ster
Commission s
ĠOrd bog
ĠChe m
stra tion
Ġnytt igt
ĠGers dorff
k ru
er st
Ġa parte
ĠD esp
ĠR aae
and ring
ĠMk r
ĠStift elses
Ġhon net
ĠÃ¸ster s
pedition en
ĠGevin sten
ĠLever andeur
ĠSkonner ten
ĠBryl lup
s indede
w itsch
ĠP harm
Ġn Ã¸de
ĠFor rige
Ġefter ladende
ĠW ensyssel
ft igede
ĠStat sk
ĠHar p
ĠWil lem
ĠRevolution s
hÃ¦ ve
ĠBle ch
ĠCancellies ecretair
ĠTidspun kt
Ġfor lig
Ġpr om
Ġforbe holden
ĠHolste ens
Ġaaben bare
ĠTe il
Ġhenven dt
ĠBos n
tze hoe
ĠStraaet ag
ĠV agten
ĠProc esses
sp er
ĠLov s
ĠPla der
ĠStat ur
Ġge h
ĠMaal tid
Ġtjen st
Ġamer ikansk
ĠHim lens
ĠEtag ier
BrÃ¦nde viin
eladen de
ĠMunicip al
r ar
Ġfor j
ĠFor viisning
Ġst re
ĠMa uri
ĠAf skaffelse
Ġre cht
Ġsel ges
Ġfort alt
ĠGu adel
ĠKb hn
ĠPer ler
Ġbyg gede
Ġfier dendeel
ĠBefuld mÃ¦gtiget
comm ander
ĠMehe med
C reature
Ġaf si
ĠJ erslev
Ġud leverede
ĠStads secret
ĠSogne fogden
ĠFuld byr
ĠChe fer
Ġty kt
ĠFlÃ¸i els
ĠHvid berg
ĠMarke det
ĠFlaa des
R as
S il
f sen
Ġh immel
Ġd Ã¦mpet
Ġle iet
ĠMich a
skaff enhed
ĠRest ance
ĠLav dag
ĠW inde
eder ne
ĠJu els
ĠHof tidende
ĠMe ening
Ġforet ager
Ġaar ig
ĠBorger krig
ĠRec ommend
b ande
Ġend skiÃ¸ndt
si de
ĠNye ste
ĠUld all
ĠAcadem ies
Ġon dt
Ġvelsig net
ĠMagdalen a
Ġs ne
ĠT angen
li isberg
ĠRb tegn
Ġtilb ages
ĠÃĺster r
ĠFrem med
ek jÃ¸d
Ġ36 0
ĠFabri ker
ĠHest etÃ¸i
ĠSlu ppen
H or
Ġvil lige
ĠEng ene
Ġski Ã¸d
ĠBrev ene
ĠCor unna
tis me
Ġforsam le
il ligt
Ġb os
ĠB rÃ¦nd
ĠT ve
Ġg ravet
au ra
ĠLe ier
ĠBog s
ĠHerre gaards
ĠInf anter
ĠLieuten anterne
Ġkry ds
ĠQvin tin
M Ã¸ller
d inge
ĠL ue
Ġmed bringer
ĠFran ken
Ġoph Ã¸iet
ĠKul den
ĠCate ch
ĠTrip olis
5 8
Ġt ag
la ub
ĠFr else
ĠJustitsraad inde
Ġformind ske
b us
g ader
k unde
ĠA rist
ĠF rig
Ġfor lÃ¸st
Ġud l
ĠfÃ¸r tes
Ġvar meste
Ġ17 00
ĠChristian i
tes se
ĠThe er
ĠSÃ¸e krig
ĠMatros erne
ĠForsi kr
ĠJordlod der
ĠSkuespil huset
ĠHeil mann
Ġsalt ed
ĠPsal me
f ade
ĠFor agt
Efter middag
Ġforesk revet
Ġ35 00
ĠStad feldt
ĠNak skou
ĠSemin arist
Ġudrust et
Ġmosa iske
h vilket
ol den
sch ef
ĠHel bredelse
ĠGien standen
Ġnaad ige
Ġklar e
ĠSit u
Ġv ovet
ĠFor hen
ĠGr usom
Ġ24 00
Ġanmel det
ĠSkol es
Regiment s
Ġuh eld
ĠOper ation
Ġta ber
Ġhind rede
O n
S ub
p lig
Ġv idende
aan et
ĠNy lig
Ġphilosoph iske
u ar
il i
Ġt es
ĠA ale
ĠK rige
ĠJ as
ĠE ffec
Ġud skiftede
Ġ23 4
ĠFort vivl
ĠMÃ¼ller s
ĠudlÃ¸b ne
ĠFranc is
l el
ĠA ast
ĠV ille
ĠSt re
ner en
sch we
Ġbes aaet
ĠÃĨr bÃ¸d
ĠFart Ã¸yer
ĠKanon eer
ĠElsk elige
Ġindav lede
ĠS ha
ĠB Ã¦l
Ġtilb udt
ĠCapitain s
ĠCor resp
ĠÃĺie meed
Raad inde
ĠArtiller i
Ġgjen d
ĠLivs fare
Ġmuelig ste
ĠHessel berg
Liges aa
ĠKotzeb ue
9 3
rÃ¦ fter
rÃ¦ kket
Ġl andet
est ald
ĠBo urg
ĠArbe iderne
ĠFuld mÃ¦gtige
Aar s
ĠTom e
Ġoccon omiske
R yg
Ġ Ã¦v
ĠR anz
ĠN anne
ĠU ssing
esk rivelse
ven dene
ĠVÃ¦r t
Ġfors Ã¦ttes
ĠSum me
ĠGier n
ĠPal udan
ĠGrÃ¸n s
ĠSchne ider
b ris
z ow
ĠP asse
ĠChrist ina
Ġfrem lÃ¦ggende
sp enge
ĠHa x
Ġcon f
Ġinde staae
.... .
ĠBal ling
ĠTermin en
ĠLÃ¦g det
ĠstrÃ¦n gt
ĠPublik ums
ĠJnfanter ier
Sidst afvigte
Ġfuldbyr des
ĠRevent low
p oena
Ġd Ã¸er
Ġg ros
ĠBel le
ek onom
ĠSchul tz
ĠHÃ¦r en
Str Ã¸m
o fr
v idne
Ġm ark
ĠR ende
Ġ21 7
ĠRenter s
ĠRy berg
ĠPolitie kammer
ĠRap ee
s ser
ĠB in
Ġtil faldt
ĠK ommiss
ĠE ie
Ġd Ã¸mmes
at os
und re
ĠDec or
Ġski kkede
Ġadskil lig
Re isende
ĠOpfÃ¸rsel sen
forder t
H vil
Ġs lap
il lig
ing es
ĠW inds
ĠOver m
sp ersoner
ĠVester aae
Con ferentsraad
ĠFÃ¦st ningerne
ĠHvor for
ĠÃ¸del Ã¦ggende
Ġundv ige
ĠTilstÃ¦de vÃ¦rende
w an
ĠH et
ret tighed
ĠTh an
ĠMag ts
ĠStilling er
ĠJnteressen ter
ĠJernp omperedskab
k opper
ol iske
li o
ĠU behag
um ber
ry kkede
ĠÃĺ yne
Ġbort f
Ġre yst
ĠLands Overret
ĠFÃ¦r d
uri us
ĠNetteld uger
l ange
ĠW ich
Ġbet egnede
au enborg
ĠEiend ommes
utter al
ĠUle il
ĠVidt lÃ¸
t ninger
Ġf isk
ed len
Ġfor meldte
Ġp und
Ġover bringe
ot a
gel Ã¸n
Ġ24 6
ĠJohannes en
int sen
Ġinteress ere
ĠGuine a
Ġaf brudte
ĠHol ger
ĠCap ers
ĠHof tidenden
ĠRi det
Her af
ĠBaden s
ĠManufac t
ĠPakke post
ĠhÃ¦der lige
t old
ĠSt ill
Ġg rÃ¦ndser
ĠBe vis
br ingen
yn ter
ĠMÃ¸l lev
Ġafs Ã¦tte
ĠBrev skaber
rip tet
Ġofte st
marsch en
fi ords
ĠStabel en
nich sen
do ter
Ġudlov es
ĠS aff
ĠT anken
ir t
ĠCon n
ĠJnd lÃ¸bet
ĠKrig ser
ĠBrÃ¸nd um
ĠAdkomst breve
bon de
ĠBruns viger
ĠPotte mager
Ġf attede
Ġf jerne
it air
Ġin des
res en
ĠStand ha
ĠBu hl
ho ug
Ġmist Ã¦nkte
ĠVild far
N yt
o fter
ĠS mu
ĠN ag
Ġind falder
ĠCon tingent
dire kteur
ail len
Ġminde lig
Ġsmig rer
ĠWig elsen
ĠA am
ist rÃ¦det
Ġbeg ges
ĠSta ti
ia sen
ĠForÃ¦l dres
ĠKred i
ĠNÃ¦s bye
ĠFlam sk
ĠbestrÃ¦ be
ĠS ommers
ĠF am
ĠF ind
Ġfor viist
den des
ĠL en
Ġud for
Ġover ordentligt
Ġmen neske
Ġ26 5
ĠMe kan
sm Ã¸r
ĠBorger vÃ¦b
ĠFyr ret
forn Ã¸den
ĠBeen klÃ¦der
Sti fts
S ession
k in
Ġble get
ĠEnd skiÃ¸nt
ĠMaler ie
ĠForesp Ã¸rgsel
Ġovereen stemmende
Ġtil tager
Ġud brudte
ier et
ĠVe yr
ĠBes par
fog der
ĠEl ven
ĠPremier l
ĠJorde iendomme
Ġstem t
Ġbar b
plan ter
Ġtv ungen
ĠPrÃ¦tens ioner
Ġom s
Ġvar ig
esk j
ĠChristian iÃ¦
af ler
ĠArv el
ĠFr ands
ĠOplag et
mag ere
ĠConvo i
ĠBreg entved
ĠBomuldstÃ¸ ier
ĠHarden berg
iel ker
ĠSÃ¸ el
ĠViden skabs
ĠForhandling erne
Ġtienst lig
ĠForti enester
ĠGeelmu yden
N ord
l le
il igen
ĠR amme
and sede
ĠL ed
id dere
ir ten
ir up
fÃ¦r ds
Ġafs jun
Ġfort ro
Ġ176 0
ĠJndt il
ĠBaller up
Ġkol dt
Ġindber ette
ĠC rimin
ĠTo sk
Ġkon fisk
ĠMassen a
ĠExpr esser
ĠMandsp erson
A yres
f reds
ĠFor Ã¸gelse
ort el
ĠAl teret
Ġbort falder
ĠMajest ets
ĠJoh ns
ĠAfsk eds
Ġglem t
Ġfasts Ã¦tte
ĠBrÃ¼ ssel
Ġprivil ig
ĠK ah
ĠSt ro
ĠLÃ¸ kken
ĠForf lyttelse
Ġreg ulaire
ĠSyn s
ĠErkeb isp
M inister
S um
u be
Ġtil syn
Ġtil bragt
re den
sk el
is erne
um met
ĠPrÃ¦ste gaards
ĠLanges und
ĠGierning smanden
R ing
Ġs achsiske
ĠTh estrup
ĠDer ved
Ġindh entet
Ġfrugt bare
ĠLevetz au
Ġugi fte
ĠCai ro
ar ken
ĠF ine
ĠFor stÃ¦derne
fÃ¸r erne
Ã¸v elser
Ġstrax en
ĠHel l
ĠPoliti ebet
ĠKor respon
Ġforbed res
Ġstyr tet
Ġsyd lig
li sterne
ĠBil len
ĠSenne p
Ġpaaful gte
ĠBeski kkelse
F rem
t her
Ġ ros
Ġer agtet
nd rup
ĠKon t
sc ontoiret
ĠAller hÃ¸ieste
Ġudvi det
ĠudlÃ¸b et
Ġsmag fulde
ĠHemmelig hed
J mellem
k amp
Ġ rettet
Ġst ak
pr ene
Ġbed Ã¦kkede
ĠLa w
ĠJndvaan ernes
ĠRev ne
ĠMah on
ĠStang jern
ĠOmegn ens
ĠEy ere
D amp
d ings
h unde
ĠB als
Ġv indes
ĠAlt on
ĠTÃ¸n ningen
offic eer
ĠGru be
ĠDyb de
ĠMeub el
U ds
m ess
ĠJ el
Ġsaa de
Ġst iller
ĠAl drig
Ġbet ryg
ĠBer egninger
ĠSi bber
ĠUdlÃ¦g ger
ĠFarv ande
c erede
j ect
in th
ĠK ryd
ster n
ĠKon ster
ĠOp n
kom toiret
ĠMaa tte
ĠPal a
ĠLaug dag
ĠSto ch
ĠNab oe
ĠSkor steens
ĠSlagter mester
ĠOttes en
Ġi fÃ¸rt
Ġaf holden
ĠFor me
ĠW ag
hvor ved
ĠLÃ¸v strÃ¦det
ĠVindu et
ĠRet tig
ĠOl ds
esp il
ĠSy m
ĠStifts overret
ĠBÃ¸rne bÃ¸rn
ĠTract ater
ĠKarle kammer
Ġdav Ã¦rende
ĠFlot ille
b illede
il en
ĠD riv
ĠFor skrifter
ro es
Ġover rakte
um ann
ĠPr og
lut tes
ĠBu x
ĠMiddel som
Ġdyr t
ĠKiers gaard
Ġan vise
ud abil
ĠÃ¸iebli kkelig
Ġfor ener
mel serne
ĠTold forvalter
ĠAns Ã¦ttelse
ĠSpec ie
hÃ¸ ker
iis ning
ĠNel li
7 1
fÃ¸r de
ĠFri es
ĠKr Ã¸l
ĠPlan te
Ġvurder es
Stervbo e
ĠForraadn elses
S lutningen
s lef
ĠF k
ĠP undt
Ġu stem
ier er
skab elig
ĠGeneral s
Ġli v
ĠOrden er
ĠVaan ing
ĠVien er
ĠTilveie bringelse
ĠBevil gning
Arme e
ĠSkarpsk ytter
Ġb lÃ¦
Ġv iss
ĠT Ã¸mme
Ġu si
ĠFor stÃ¦der
ĠUnder try
ĠChristian ss
Ġ25 3
ĠAns lag
ĠStue pige
ĠColon ie
ĠSchwe itzer
ĠLyn ild
ĠLaurvig s
ĠForts Ã¦ttelsen
ĠMarke veien
ĠPatrio ter
ĠJndust ri
Ġgyld ne
c au
ĠH yre
ĠU videnhed
ĠPet um
ĠÃĺv elser
Ġsti aalne
ĠCas sens
Ġdyr ke
ĠBegivenheder ne
ĠGeist lighed
Stor britt
Sund by
Ã¸ ven
el v
be viis
mar ker
Ġstra ffet
ĠSm ak
ĠHerr n
ĠGri se
ĠFig ur
Ġvarm t
ĠTaal modighed
ĠK ind
mand ler
gj Ã¶r
ĠOver samt
ĠSi del
Ã¸rr else
ĠDel b
ĠTheod or
in te
ĠL oh
Ġl Ã¸v
avn s
ĠRe aler
ĠOm en
ĠForord ningerne
ĠMor al
Ġindt re
kj endelse
ĠÃĺvrig heder
Ġuvis se
ĠM ik
ĠL ighed
ĠInd hegning
Ġundt ages
ĠCommiss arierne
ĠJnstru ctioner
ĠBielÃ¦gger ovne
ĠTrium ph
Ġt akker
ĠC od
se c
Ã¦r ingen
ĠVi ol
les ens
ĠKobber kiedel
ford riv
pon erede
ĠfornÃ¦r met
ĠJntellig entz
Ġtestam ent
ĠCollin s
9 1
ĠA N
Ġaf vises
ru ck
Ġend ver
ĠRe ver
Ġ26 4
ĠKn ive
ĠBel l
ĠKru kker
Ġoppeb Ã¦re
D ito
S amtlige
s huus
ĠF uhr
ĠT ommers
Ġu bes
ĠRet skaffenhed
ĠNy havn
ĠHel m
ĠTran qve
ĠAb sch
Ġmist Ã¦nkt
ĠFlÃ¸ tte
Ġspr inge
Ġverst ordenen
ig aard
av ler
ind ingsvÃ¦rk
ge berg
Ġaar ligt
ĠTien derne
Ġret tere
hus es
Ġforseg lede
ĠFÃ¦ster en
ĠUdrust ning
K lo
aa ger
Ġh Ã¦ngte
Ġfor muende
Ġaf sted
Ġc atholske
ĠI II
ĠFl int
ĠHoved lande
Ġz iret
ĠForm at
ĠHyl lested
ĠWem metofte
ĠViingaard strÃ¦det
Ġi finde
ĠA br
Ġu lige
tag elsen
ĠTro ds
gar ten
ĠBra sch
ĠKomm itte
ĠJÃ¦ger spriis
ĠAsp arges
Ġmarch ere
aa re
el te
Ġp a
ĠG ry
Ġk ortere
Ġunder holdende
Ġvel bemeldte
sm aalet
ĠHiÃ¸r ne
Ġhel brede
ĠTÃ¸mmer svend
ĠAdministra tions
Ma jest
ĠSmer ter
G aar
le ilighed
ĠV anter
del Ã¸b
ĠCon rector
ĠHerred sp
ĠGi bs
Ġadsp li
Ġforstyr ret
ĠNeds Ã¦ttelse
h vad
Ġs ow
sted gaard
ĠJacob i
Ġben yttes
hÃ¸ ft
parte ment
ĠSÃ¦de korn
Ġneder landske
ĠMagas in
Ġol den
s and
y ning
ĠA h
Ġv rim
Ġn an
ĠSt amme
els ch
orps et
ĠOffic er
ĠBi fald
ĠResolution er
leg ges
Ġopn aaes
Plan ker
ĠCharlot tenborg
ĠFiendt lighederne
ĠGouvern Ã¸r
6 4
T er
ĠK astrup
vi ske
ĠFri ch
Ġbekjendtgj Ã¸rende
ĠFal ch
ĠKr ampe
ĠMort ens
Ãĺ v
ĠFjen dens
Ġtilfor ladelige
besk rivelser
6 8
Ġb rÃ¦kke
ĠC orp
Ġk nu
Ġ22 2
Sk at
Ġtilbag eg
ĠHon or
hagen a
Ober st
ĠMosk au
Ġv idne
Ġind i
ĠPla de
For middag
ĠNe ust
ĠLu ne
hÃ¸ sten
ĠUge blad
Ġindsam let
ĠStorviz iren
Ġretsind ige
ĠBekannt machung
h age
ĠBe bre
ĠÃĺ ien
rev elige
Ġsp iller
Ġbekiendtgj ordt
byg mester
ĠUds Ã¦ttelse
ĠFem te
ĠFeg tning
ĠSpre ck
N Ã¸r
o ti
s ol
al us
ch rist
ber n
ĠNo ti
Ġfores lagne
ĠKred it
ĠGraa brÃ¸dre
ĠTrappe huus
ĠErkiendt lighed
ĠKi sten
enhavn s
ari as
Ġber oe
ĠLov kynd
ĠTyr k
Ġfly tte
Ġass uerede
ĠAnt wer
ĠEngellÃ¦nder e
ĠMynd ighed
ĠrÃ¸ gede
ĠJanit skar
ĠMedli denhed
d um
ĠRe jer
ac ker
Ġanmel te
Ġwel cher
ĠWin kel
Ġbenytte de
Ġusk yldig
ĠBoel sted
u me
mel det
esk oe
Ġfore falde
ĠSÃ¸nder gade
ĠTransp ar
Ġwie der
ĠS ale
ĠP ou
ĠVi v
th es
Ġtilf ulde
Ġhens ov
ĠDocum ent
V idenskab
k jÃ¸bs
p engene
Ã¦ er
ar re
ĠMod vind
arti kler
Ġh eglet
Ġk old
ĠHer t
ĠTil bere
ĠHe inen
ĠBud get
rit us
ĠJor ds
ĠStem p
ĠEntre e
Ġhiemme hÃ¸rende
ĠNÃ¸g ler
ĠLandsoverretspro kurator
d Ã¦d
Ġv in
ĠT sch
ĠAf ben
ss ager
ĠHav annah
stÃ¦nd igt
ĠBatter ierne
ĠStorbritt anien
Ġundsk ylde
ĠSkiftej urisdiction
K hvn
i ken
ĠD ruk
ĠSp alte
ĠPort rum
ĠBrÃ¦ndeviin stÃ¸i
ĠSupp lic
Ġforholds mÃ¦ssig
ĠBlu hme
Ġtil lagde
Ġind seer
huus gaden
Ġske ed
ĠprÃ¦ sen
ĠLÃ¸s ning
.... ..
Ġhand lede
ĠGrÃ¦s nings
Adsk illige
E ieren
g rave
ĠS le
el et
Ġfor ret
ĠR th
Ġg an
Ġg lÃ¦der
ĠDi v
ĠBirk ed
ĠBestyr er
ĠTobaks fabri
ĠDiscip le
Ġtak nem
ĠSÃ¸v n
g aul
ig ets
Ã¦ dig
am mes
Ġer melte
Ġst yrede
ul l
Ġbet egnet
ĠOver lÃ¦g
ĠBog stav
Ġsub scri
lever er
ĠGien tofte
Mad ame
Ġprak tiske
ĠÃĨrÃ¸ eskiÃ¸bing
Ġstund om
W ien
Ġaf ski
Ġaf lÃ¦gges
ĠFor ter
Ġg ys
Ġind byder
Ġpro vi
ĠRets dag
ĠBoghandler ne
ĠIndt og
ĠmistÃ¦nk elige
Ġuoph Ã¸rlig
ĠBedr Ã¸velse
Ġbe fordres
Ġn ot
let s
ogn a
ĠBrand c
ĠSubskri ptionen
ĠPlet ter
ĠVinters Ã¦d
Ã¦ ter
Ġg aaen
Ġst eds
Ġfrem sat
ĠHof raad
Ġber edt
ĠhÃ¸ yeste
Ġalminde ligen
ĠInd stevnte
ĠisÃ¦r deleshed
ĠBerg enhuus
enz a
ĠSchar ling
Ġtilsyn eladende
Ġt Ã¦r
ĠV as
Ġsk ede
ĠW essel
ĠÃĺ ver
eb ye
ĠVogn skuur
je del
ĠKru d
ĠKonstitution en
Ġkrig erske
ĠVart penge
ĠKiÃ¦re ste
ĠB rÃ¦dder
ap pet
ĠMed virkning
lo ft
ĠLyst sted
ĠTer ra
ĠCor fic
ĠBier get
ĠAng aaende
ĠColon ial
Ġrum me
histor ien
ĠSchle gel
G ryn
Ã¦ be
ron d
ĠSkri fte
Ġad varet
ĠExemp l
ĠoverflÃ¸d ige
ĠAfhent else
er de
ĠB asse
ra det
op e
Ġbeg aaede
ĠPaa sk
Ġcon stit
Ġcon cur
Ġw Ã¼r
vÃ¦rdig ste
brÃ¦nder ie
Ġtap re
B u
S ild
ĠAn skaffelse
Ġre yse
Ġber egnede
Ġhen givne
Ġgodt gjort
ĠDi aconus
ĠKjÃ¸bmand s
ĠSvar et
ĠFug ls
ĠMonar ch
Ġhind ret
Ġuble gede
Ġp lyndre
jen igen
ĠnÃ¦r liggende
iser es
Ġgodt gjÃ¸re
ĠLÃ¦r rets
ĠForst aden
ĠBestem melsen
ĠHi ul
ĠRhin bred
mask iner
P l
ĠJ ahre
Ġpaa dÃ¸mte
ĠV inge
Ã¦l ds
ĠSer ask
fÃ¦st es
ĠAgerdyr kningen
ĠEff ekter
ĠForbittr else
H e
a ug
ĠH ist
ĠB Ã¦nke
yn dser
ugt ende
ĠBrende viin
ĠSt af
Ġan e
For tegnelse
ĠBid strup
ĠConsum tion
ĠKul torvet
ĠÃ¶n sker
ĠfÃ¦ngs lede
ĠJldebr anden
S lot
ĠA ri
ĠD ies
ve z
ĠHol berg
far vede
Ã¦rk es
Ġli tter
ĠHertug ens
ĠVind skib
ĠFug lesk
ĠPin neberg
Ġforkyn de
ĠMortifications dom
ĠuafhÃ¦ng ig
ĠDieb itsch
R ente
Ġh urt
ĠP lig
is a
ĠDet ail
lÃ¸b e
Ġsol ide
ĠMun ck
tsch irurg
ĠvÃ¦g rede
Ġbefuld mÃ¦gtigede
ĠÃ¶n ske
ĠTilveie bringelsen
Arrest anten
ĠNÃ¸i agtighed
4 00
t ler
st ier
ĠJ il
ĠV igt
pp o
Ġ22 9
ĠBes ke
ĠFra drag
ĠMel bye
ĠBleg dam
ĠBoels mand
K apitain
f lÃ¸
Ġde clar
st an
Ġud gav
ĠTil standen
by gt
isk op
Ġ27 5
lÃ¸b en
Ġbeviislig en
Ġligesaa vel
ĠTe xt
ĠTrÃ¦e vare
Saa vel
ĠD Ã¦m
Ġg ods
lev ad
Ġfore havende
ĠEl v
ĠTold inspecteur
Ġsi Ã¦l
ĠRepubli kan
Ġbro derede
Ġfl Ã¸i
ĠFron tesp
ĠmistÃ¦nk elig
skue pladsen
b at
v olds
ĠR un
ĠV este
Ġud sk
ĠAn fÃ¸rere
ĠBe der
Ġmen es
Ġ25 8
ĠSand heder
ĠTol k
ĠLind holm
Cap it
Ap othe
O le
ĠA stronom
Ġden n
ĠD ommens
ien ten
Ã¦l et
ĠGr Ã¸v
ĠVen ne
ĠKunst nere
ĠQvar terer
ĠDommer en
Ġpers iske
kir chen
es ens
on tes
ĠP ater
ĠMar sel
Ġgi Ã¸rende
Ġhol d
Ġinden for
ĠSogn ers
Ġ29 0
asser et
Ġski Ã¦nke
ĠConfer ents
ĠBomulds garn
ĠOpfÃ¸r selse
Ġfor Ã¸n
ĠK ommen
ĠR Ã¦v
Ġpaa lÃ¦gge
mod ninger
bru ne
ĠBern t
ĠBart h
Ġalles lags
ĠRÃ¦ ds
ĠKattes undet
ĠJernk akkelovne
c ap
ĠB ut
ĠP ec
atter ne
ĠJnd i
ĠSta terne
ĠPo sen
fang st
ĠColon ierne
Ġ800 00
ĠPhilosoph ie
ĠCeder feld
ĠRaf n
Ġpromp te
ĠFaj ance
Ġv andre
ĠAn viisninger
ĠBer tr
nem an
Ġre gj
ĠPo pp
ĠPhil ipp
Post en
ĠBÃ¸dker mester
ĠLim a
ĠGeneralst ab
ĠChines iske
ĠNan qv
Ġtil drog
Ġud v
ĠFri sch
Ġbes p
Ġbef Ã¦st
Ġlegiti meret
ĠFi ord
Kon ge
ĠHind sted
ĠGuadel oupe
ĠStandha ftighed
F ru
Ġb at
Ġaf gjÃ¸rende
Ġom vex
ĠSe y
gen sen
Ġre ed
Ġforet og
ĠStor herrens
Ġaar s
ĠHaand vÃ¦rker
Ġforbe holdt
ĠGul vet
ĠCarol ina
Ġtv unget
Ġhvi id
Ġsku dte
ĠReparti tion
6 00
c ere
m Ã¸ller
Ġtil faldne
ĠD orph
ĠBo yesen
ĠSch ade
ĠOver gaard
eb en
ĠThe at
Ġtestam enter
Bekjendt gjÃ¸relser
ĠHerlu fs
ĠD aar
sk asse
ĠJern vÃ¦rk
Ġfrygt eligt
Ġanmode de
B eret
h ung
ĠL p
Ġn on
Ġud finde
pp ede
Ġber ed
ĠHel lige
ĠFien ds
spec tor
Ġpublic ation
ĠSammenh Ã¦ng
ĠSÃ¦dvan e
ĠF igen
ĠF erslev
ĠV ilde
ĠSt jer
os sen
Ġover taget
ĠSti k
ĠDÃ¸ des
Ġforb ie
ĠOx ekjÃ¸d
Ġauthor iserede
y dens
ĠDom stol
inder en
ĠAdresse komtoiret
ĠMennesk ene
ĠJagt tagelser
ĠSir tzer
Ġvox en
lieuten anterne
Ġforkyn dt
ĠRei mer
ĠEnthusias me
ĠTranqve bar
C an
N yeste
Ġt ri
ĠA ds
Ġbort fÃ¦stet
ĠBÃ¸ sse
Ġoven paa
ĠHalv parten
ĠRaadhuus strÃ¦det
Ġforaars ager
ĠTorden veir
ĠChristend om
Ġprotocol lir
T irsdag
t Ã¸ier
Ġt Ã¦kket
ar iel
ĠP ig
ĠL aden
Ġn Ã¦gtede
ĠCon tor
ĠÃĺ ens
Ġhvil kens
ĠNor mann
ĠRed a
Ġkon stitutionelle
ĠÃ¦l d
ĠJuris dictionen
Ġuop sagt
ĠLav endel
korps et
Ġdest om
ĠPav elige
Ġern Ã¦re
ĠSkiftecommiss arier
ĠJour dan
ĠPaler mo
F ar
a ine
p oliti
ĠA gter
lig n
ve mber
Ã¦l ling
ĠOver trÃ¦
ĠSte enh
ss Ã¸n
ĠLÃ¦ ser
Ski bs
ĠMaa ler
ĠÃ¸del agde
spri sen
ĠUfors igtighed
Ġfor ladte
Ġd up
Ġunder tegnedes
.) ,
Ġkund gjorte
ĠFÃ¦stning ens
Ġvox ne
ĠTilsku erne
Ġblan k
ĠC orpser
Compagn iet
ĠPair s
Ġopv akte
ĠAkadem ie
fru gter
ĠGemahl inde
H aand
Ġfor rettes
la ter
Ġmaa t
ski bs
ĠTids fordriv
Ġfordeelagt igste
Ny borg
ĠRost ed
ĠProfession s
ĠEska dron
Ġlangvar ige
Ġflitt ig
ĠJllum ination
ĠMarc ussen
Ġforanstalt es
Ġtil taget
ĠM eg
ster os
Ġbet age
ĠSch er
ki Ã¸nnet
ĠInd re
ĠAss ign
ĠGis sel
ĠKonsum tions
6 3
kk elser
Ġvil kaar
ĠKiÃ¸b stad
ĠfÃ¸l ges
ĠSÃ¸r gespil
ill ant
Ġski Ã¦nket
ĠSprog Ã¸e
ĠOpb ud
Ġindbet alte
ĠUs and
ĠCatt un
Ġtaal elig
ĠEdel toft
h ielp
z i
ig elser
ĠH af
ĠR estved
ĠL ap
Ġbe ge
Ġg o
ve iret
Ġlig el
ĠCap udan
sb og
Ġforb indt
Ġfuld komment
reg n
Ġnavn ligen
hl ensch
ĠFÃ¸r stkommende
ĠSÃ¦l skabet
Ġforsvar et
Ġrigtig nok
ĠGrÃ¦v skabet
ĠGrenader er
Ġh Ã¦v
ĠH aars
ĠKon fer
Ġop lyses
Ġform aaede
Ġaab ner
Ġsmer telig
ĠÃ¦dru elig
h ls
Ġs orter
Ġf Ã¦st
ĠH ed
Ġud r
ad o
Ġindf rie
ĠSu cc
Ġry kker
ĠHjÃ¸r ne
Ġdat o
ĠKarto ffel
Ġforsv unden
Mid ler
Ġtil traadte
ang ivne
ĠMand kiÃ¸n
ĠFri estedt
sm us
bel l
Sk ind
ĠhÃ¦ ver
ĠCathedral skole
ĠCollet t
ĠCastlere agh
ĠFor aars
Ġind bringer
ĠOver magt
Ġ( ?)
Ġsp ads
hi ul
Ġver k
ĠPak huset
ĠFÃ¦r gel
Jn gen
Ġha anden
ĠMÃ¦g lerne
Ġforanst altede
ĠHur tig
Ġkiende lig
HÃ¸i messe
ĠDeclar ation
5 2
U dt
ĠA ande
Ġbe boende
esk ole
ĠUd levering
Ġli ig
ĠBÃ¸rn enes
ĠOber sten
bru get
Ġfort viv
ĠBest ellung
Hol land
att ende
Ġsiel landske
ĠFang erne
Ġligiti mere
m ud
Ġfri tages
ĠMo e
ĠSl av
ĠPlan ens
qu eb
ĠTiende ydende
ĠRang forord
Ġtv ungne
ĠJnfanter i
H avre
ĠM otto
ĠT aars
Ġd ir
Ġan lagde
ĠMan e
ĠVel gierninger
Ġforest aaer
ĠGj Ã¦ster
ĠDem on
Ġforh Ã¸ies
ĠÃĨgte folk
ĠTaa ge
[...]
