{"[PAD]":0,"[UNK]":1,"[CLS]":2,"[SEP]":3,"[MASK]":4,"<S>":5,"<T>":6,"!":7,"\"":8,"#":9,"$":10,"%":11,"&":12,"'":13,"(":14,")":15,"*":16,"+":17,",":18,"-":19,".":20,"/":21,"0":22,"1":23,"2":24,"3":25,"4":26,"5":27,"6":28,"7":29,"8":30,"9":31,":":32,";":33,"<":34,"=":35,">":36,"?":37,"@":38,"A":39,"B":40,"C":41,"D":42,"E":43,"F":44,"G":45,"H":46,"I":47,"J":48,"K":49,"L":50,"M":51,"N":52,"O":53,"P":54,"Q":55,"R":56,"S":57,"T":58,"U":59,"V":60,"W":61,"X":62,"Y":63,"Z":64,"[":65,"\\":66,"]":67,"^":68,"_":69,"`":70,"a":71,"b":72,"c":73,"d":74,"e":75,"f":76,"g":77,"h":78,"i":79,"j":80,"k":81,"l":82,"m":83,"n":84,"o":85,"p":86,"q":87,"r":88,"s":89,"t":90,"u":91,"v":92,"w":93,"x":94,"y":95,"z":96,"{":97,"|":98,"}":99,"~":100,"¡":101,"¢":102,"£":103,"¤":104,"¥":105,"¦":106,"§":107,"¨":108,"©":109,"ª":110,"«":111,"¬":112,"®":113,"¯":114,"°":115,"±":116,"²":117,"³":118,"´":119,"µ":120,"¶":121,"·":122,"¸":123,"¹":124,"º":125,"»":126,"¼":127,"½":128,"¾":129,"¿":130,"À":131,"Á":132,"Â":133,"Ã":134,"Ä":135,"Å":136,"Æ":137,"Ç":138,"È":139,"É":140,"Ê":141,"Ë":142,"Ì":143,"Í":144,"Î":145,"Ï":146,"Ð":147,"Ñ":148,"Ò":149,"Ó":150,"Ô":151,"Õ":152,"Ö":153,"×":154,"Ø":155,"Ù":156,"Ú":157,"Û":158,"Ü":159,"Ý":160,"Þ":161,"ß":162,"à":163,"á":164,"â":165,"ã":166,"ä":167,"å":168,"æ":169,"ç":170,"è":171,"é":172,"ê":173,"ë":174,"ì":175,"í":176,"î":177,"ï":178,"ð":179,"ñ":180,"ò":181,"ó":182,"ô":183,"õ":184,"ö":185,"÷":186,"ø":187,"ù":188,"ú":189,"û":190,"ü":191,"ý":192,"þ":193,"ÿ":194,"Ā":195,"ā":196,"Ă":197,"ă":198,"Ą":199,"ą":200,"Ć":201,"ć":202,"Ĉ":203,"ĉ":204,"Ċ":205,"ċ":206,"Č":207,"č":208,"Ď":209,"ď":210,"Đ":211,"đ":212,"Ē":213,"ē":214,"Ĕ":215,"ĕ":216,"Ė":217,"ė":218,"Ę":219,"ę":220,"Ě":221,"ě":222,"Ĝ":223,"ĝ":224,"Ğ":225,"ğ":226,"Ġ":227,"ġ":228,"Ģ":229,"ģ":230,"Ĥ":231,"ĥ":232,"Ħ":233,"ħ":234,"Ĩ":235,"ĩ":236,"Ī":237,"ī":238,"Ĭ":239,"ĭ":240,"Į":241,"į":242,"İ":243,"ı":244,"Ĳ":245,"ĳ":246,"Ĵ":247,"ĵ":248,"Ķ":249,"ķ":250,"ĸ":251,"Ĺ":252,"ĺ":253,"Ļ":254,"ļ":255,"Ľ":256,"ľ":257,"Ŀ":258,"ŀ":259,"Ł":260,"ł":261,"Ń":262,"de":263,"er":264,"en":265,"or":266,"an":267,"Ġs":268,"Ġde":269,"Ġo":270,"Ġa":271,"in":272,"st":273,"Ã¸":274,"et":275,"ig":276,"aa":277,"ĠS":278,"il":279,"el":280,"Ġf":281,"ed":282,"Ġh":283,"Ġog":284,"Ã¦":285,"Ġi":286,"Ġt":287,"ar":288,"es":289,"ĠA":290,"Ġb":291,"Ġm":292,"ĠH":293,"om":294,"ag":295,"ĠF":296,"ĠB":297,"Ġv":298,"on":299,"te":300,"Ġtil":301,"ĠM":302,"Ġ1":303,"der":304,"Ġfor":305,"ĠK":306,"ing":307,"Ġden":308,"al":309,"Ġaf":310,"re":311,"ter":312,"den":313,"Ġat":314,"ĠD":315,"ne":316,"sk":317,"ĠP":318,"le":319,"ĠT":320,"ĠR":321,"Ġen":322,"and":323,"lig":324,"ĠL":325,"Ġp":326,"ĠJ":327,"ende":328,"ver":329,"un":330,"ĠC":331,"am":332,"Ġer":333,"ĠG":334,"ti":335,"ĠE":336,"Ã¸r":337,"ol":338,"Ġ2":339,"se":340,"av":341,"Ġpaa":342,"ĠV":343,"ste":344,"Ġbe":345,"Ġsom":346,"ri":347,"Ġn":348,"Ġmed":349,"ra":350,"ĠN":351,"og":352,"is":353,"ler":354,"Ġder":355,"ĠO":356,"Ġd":357,"Ã¦r":358,"id":359,"fter":360,"ning":361,"sen":362,"at":363,"Ġu":364,"ind":365,"ge":366,"Ġdet":367,"omm":368,"kk":369,"ĠFor":370,"Ġved":371,"ĠSt":372,"li":373,"Ġk":374,"Ġg":375,"tion":376,"it":377,"ske":378,"ĠSk":379,"eg":380,"ch":381,"aar":382,"dt":383,"Ġhv":384,"Ġ3":385,"ie":386,"us":387,"ve":388,"Ġe":389,"ro":390,"Ġal":391,"rÃ¦":392,"ir":393,"Ġan":394,"des":395,"me":396,"elig":397,"ĠU":398,"ien":399,"Ġsk":400,"ber":401,"Ġl":402,"Ġsaa":403,"Ġsam":404,"ds":405,"ret":406,"Ġind":407,"Ã¸b":408,"Ġsig":409,"Ġst":410,"Ġhav":411,"ens":412,"Ġom":413,"Ġfra":414,"det":415,"ru":416,"ur":417,"ort":418,"ang":419,"Ġun":420,"Ġhar":421,"lige":422,"ul":423,"Ġud":424,"ent":425,"Ġher":426,"Ġefter":427,"ĠAu":428,"os":429,"00":430,"Ġ18":431,"ster":432,"dag":433,"Ġ-":434,"komm":435,"Ġet":436,"mel":437,"ere":438,"Ã¸l":439,"kke":440,"Ġhan":441,"la":442,"od":443,"org":444,"Ġ4":445,"del":446,"hol":447,"ĠMa":448,"gi":449,"ction":450,"be":451,"nd":452,"ĠKi":453,"ĠDe":454,"erne":455,"nder":456,"age":457,"ov":458,"Ġunder":459,"eller":460,"ab":461,"ĠKon":462,"Ġbli":463,"ff":464,"ĠAar":465,"as":466,"dr":467,"Ġhvor":468,"ten":469,"Ġover":470,"ĠAuction":471,"ĠSki":472,"hed":473,"ger":474,"ige":475,"ĠEn":476,"else":477,"Ġhave":478,"Ġeller":479,"red":480,"ier":481,"Ġ5":482,"Ġvil":483,"ke":484,"ĠfÃ¸r":485,"els":486,"avn":487,"Ġop":488,"tet":489,"Ġhos":490,"borg":491,"mer":492,"Ġere":493,"ĠAr":494,"ĠAn":495,"est":496,"vi":497,"dte":498,"ĠGaar":499,"ĠKl":500,"Ġderes":501,"he":502,"Ġikke":503,"ĠEfter":504,"Ġ6":505,"Ã¸n":506,"gt":507,"ved":508,"Ġnog":509,"ling":510,"Ġvar":511,"uus":512,"ĠW":513,"aae":514,"aad":515,"ĠHr":516,"land":517,"Ġsamt":518,"for":519,"ĠBe":520,"Ã¦l":521,"br":522,"dagen":523,"um":524,"to":525,"ĠAl":526,"kommende":527,"ĠCh":528,"ĠKong":529,"ts":530,"ĠKiÃ¸b":531,"ye":532,"ĠMar":533,"Ġkan":534,"lev":535,"mid":536,".,":537,"Ġ17":538,"Ã¦re":539,"ĠPro":540,"ĠÃ":541,"ĠHan":542,"ad":543,"agt":544,"yn":545,"Ġin":546,"ĠNo":547,"Ġsamme":548,"ap":549,"bo":550,"ĠCon":551,"Ġ10":552,"enh":553,"ist":554,"Ġdenne":555,"ran":556,"Ġ.":557,"tte":558,"und":559,"ene":560,"ĠHer":561,"Ġbliver":562,"lÃ¦":563,"di":564,"Ġskal":565,"ry":566,"Ġda":567,"Ġalle":568,"let":569,"Ġ12":570,"gende":571,"rist":572,"Ġend":573,"em":574,"Ã¸de":575,"rig":576,"Ġ8":577,"Ġman":578,"Ã¸d":579,"pr":580,"ers":581,"ft":582,"esk":583,"si":584,"ant":585,"enhavn":586,"ust":587,"vÃ¦r":588,"ĠTil":589,"ade":590,"ede":591,"pp":592,"ĠRd":593,"ĠBy":594,"Ġgi":595,"ĠDen":596,"ug":597,"Ġbek":598,"elige":599,"Ġsin":600,"Ã¦n":601,"Ġmen":602,"ord":603,"kal":604,"ĠAf":605,"Ã¸re":606,"ets":607,"ven":608,"ĠChrist":609,"agen":610,"retning":611,"Ġblev":612,"ĠBo":613,"Ġ7":614,"ager":615,"Ġmaa":616,"Ġj":617,"nes":618,"ĠvÃ¦re":619,"inger":620,"Ġherved":621,"Ġkun":622,"ot":623,"ĠRb":624,"ele":625,"ĠÃĺ":626,"ation":627,"art":628,"gaar":629,"inde":630,"Ġhans":631,"aden":632,"ĠSe":633,"ĠLand":634,"iden":635,"rem":636,"mand":637,"iendt":638,"Ġ9":639,"sel":640,"Ġhvil":641,"ud":642,"ic":643,"Ġbort":644,"Ġlig":645,"ut":646,"ĠRbd":647,"Ġvi":648,"Ġaller":649,"ĠMk":650,"stkommende":651,"Ġnu":652,"lem":653,"huus":654,"iel":655,"ĠTid":656,"lag":657,"ser":658,"gen":659,"til":660,"Ġ11":661,"ĠMand":662,"Ã¸i":663,"skab":664,"Ġdem":665,"yr":666,"ĠUnder":667,"ĠOp":668,"var":669,"yl":670,"Ġsid":671,"Ġc":672,"ket":673,"vis":674,"Ã¦t":675,"fte":676,"Ġbet":677,"ĠSch":678,"gj":679,"Ġbeh":680,"ĠOver":681,"ken":682,"gang":683,"ĠSp":684,"Ġr":685,"ian":686,"ĠKiÃ¸benhavn":687,"ĠRe":688,"im":689,"Ġmig":690,"ĠHo":691,"aaende":692,"fal":693,"ker":694,"kker":695,"jen":696,"ost":697,"ĠUd":698,"Ã¦v":699,"Ġudi":700,"Ġhavde":701,"orn":702,"Ġindkal":703,"Ġuden":704,"lr":705,"ito":706,"ĠMaj":707,"ore":708,"Ġdette":709,"ĠJn":710,"ĠDag":711,"aget":712,"ĠGaarden":713,"ĠAm":714,"rev":715,"atter":716,"isse":717,"ĠReg":718,"ine":719,"deel":720,"eder":721,"Ġoff":722,"au":723,"vil":724,"ob":725,"med":726,"by":727,"ĠSog":728,"ener":729,"ninger":730,"ĠJu":731,"ĠVar":732,"ĠGr":733,"ĠJnd":734,"ĠFormid":735,"Ġblive":736,"Ġham":737,"ĠProc":738,"Ġmaatte":739,"gel":740,"Ã¦st":741,"ings":742,"Ġ181":743,"ĠSte":744,"Ġbest":745,"ich":746,"tor":747,"Ġoffent":748,"Ġjeg":749,"meldte":750,"ĠLe":751,"Ġ182":752,"ĠBer":753,"anske":754,"Ġbekiendt":755,"ĠPar":756,"eds":757,"ĠHol":758,"ly":759,"ĠfÃ¸rstkommende":760,"sdagen":761,"Ġhol":762,"mod":763,"ub":764,"Ã¸m":765,"hver":766,"sens":767,"ec":768,"ĠBr":769,"toir":770,"Ã¸rende":771,"uld":772,"ide":773,"ĠSter":774,"Ġinden":775,"ges":776,"berg":777,"nem":778,"viis":779,"aade":780,"nu":781,"Ġ(":782,"stem":783,"jÃ¸b":784,"Ġskul":785,"Ã¸lge":786,"dere":787,"aaer":788,"ĠEt":789,"ammer":790,"ĠGaard":791,"Ġmel":792,"000":793,"nede":794,"anden":795,"gaard":796,"ĠChristian":797,"eget":798,"Ġ14":799,"Ã¸e":800,"teg":801,"eneral":802,"Ġ15":803,"ki":804,"ingen":805,"ode":806,"ĠfÃ¸rste":807,"ĠTdr":808,"saa":809,"af":810,"ĠRdlr":811,"ĠVed":812,"fÃ¸r":813,"op":814,"dende":815,"uni":816,"ĠEfterretning":817,"ĠApr":818,"ast":819,"ders":820,"Ġ16":821,"ĠApril":822,"Ġ20":823,"ner":824,"ha":825,"ari":826,"delse":827,"ĠvÃ¦r":828,"ĠOc":829,"dition":830,"kr":831,"ĠGeneral":832,"ighed":833,"igt":834,"ĠOm":835,"ĠHuus":836,"Ġdisse":837,"Ġborts":838,"vbo":839,"ĠLi":840,"ale":841,"ĠI":842,"Ã¦g":843,"Ã¸v":844,"old":845,"val":846,"ĠStervbo":847,"hand":848,"ĠJuni":849,"tr":850,"Ġfaa":851,"ĠTh":852,"ĠSkifte":853,"ĠVi":854,"ĠPrÃ¦":855,"riv":856,"Ġre":857,"ĠFran":858,"ligt":859,"Ġsidste":860,"rÃ¦n":861,"ĠAug":862,"Ġhver":863,"eb":864,"Ġnoget":865,"Ġ13":866,"mber":867,"dre":868,"ĠJuli":869,"kom":870,"Ġville":871,"net":872,"alt":873,"Ġand":874,"ĠFre":875,"Ġvor":876,"Ġbeg":877,"ĠFag":878,"odt":879,"ĠRet":880,"ĠLy":881,"stÃ¦":882,"ĠBog":883,"ah":884,"ik":885,"hen":886,"Ġoffentlig":887,"Ġgj":888,"Ġfrem":889,"ĠSti":890,"Ġnogle":891,"ommis":892,"iske":893,"die":894,"Ġtilh":895,"Ġdito":896,"ĠJan":897,"Ġendnu":898,"Ġny":899,"Ġmeget":900,"ĠDec":901,"Ã¸res":902,"rige":903,"ĠfÃ¸l":904,"Ġsel":905,"ĠHans":906,"ron":907,"Ã¦vn":908,"ĠMen":909,"ĠSep":910,"Ġ180":911,"ou":912,"heder":913,"ĠDet":914,"uden":915,"vet":916,"oh":917,"Ġnogen":918,"este":919,"ange":920,"ods":921,"ac":922,"ledes":923,"bet":924,"tes":925,"men":926,"ann":927,"ĠAugust":928,"ĠQ":929,"ĠSta":930,"pper":931,"ue":932,"ĠVarsel":933,"Ġtillige":934,"ĠPri":935,"ĠVÃ¦r":936,"rup":937,"Ġ24":938,"ningen":939,"ĠHÃ¸":940,"Ġanden":941,"ĠnÃ¦r":942,"Ġse":943,"ĠKir":944,"ĠSÃ¸l":945,"vig":946,"elser":947,"ĠVe":948,"Ġandre":949,"ĠKongelige":950,"oner":951,"les":952,"ĠPr":953,"ande":954,"lÃ¦g":955,"ĠAd":956,"iend":957,"ĠCap":958,"Ġanmel":959,"omp":960,"Ġlov":961,"ĠSÃ¸lv":962,"ĠHof":963,"ĠArv":964,"Ġsaav":965,"syn":966,"Den":967,"ĠFl":968,"ĠHs":969,"anc":970,"sp":971,"Ġnye":972,"omme":973,"ire":974,"Ġbemeldte":975,"mere":976,"Ġalt":977,"ĠCondition":978,"iser":979,"ille":980,"ĠByg":981,"ia":982,"ĠUger":983,"ĠAal":984,"Ġ30":985,"Ã¸g":986,"ĠDage":987,"ss":988,"ĠMan":989,"ĠGang":990,"Ã¶":991,"sion":992,"endes":993,"itor":994,"igst":995,"tag":996,"ĠtilhÃ¸rende":997,"lam":998,"ĠOcto":999,"Ġselv":1000,"iet":1001,"mÃ¦":1002,"dÃ¸de":1003,"Ġig":1004,"Ġ22":1005,"Ġ:":1006,"Ġ179":1007,"up":1008,"Ġmin":1009,"ĠEx":1010,"ĠFri":1011,"ĠPaa":1012,"Ġdog":1013,"ĠMajest":1014,"ĠDeel":1015,"oved":1016,"enge":1017,"valter":1018,"dan":1019,"Ġimod":1020,"Ġallern":1021,"Ġafg":1022,"ura":1023,"Ġnaar":1024,"Ġle":1025,"rav":1026,"rede":1027,"ĠEiend":1028,"mar":1029,"ĠOr":1030,"ĠDan":1031,"paa":1032,"ensen":1033,"inden":1034,"eliggende":1035,"delig":1036,"Ġogsaa":1037,"ess":1038,"mester":1039,"lere":1040,"Ġ25":1041,"ĠSogn":1042,"olgt":1043,"ĠAalborg":1044,"rue":1045,"atte":1046,"ommer":1047,"ĠMaan":1048,"air":1049,"Ġvilde":1050,"Ġindkaldes":1051,"ĠBÃ¸r":1052,"Ġenhver":1053,"mellem":1054,"jer":1055,"Ġbeliggende":1056,"isk":1057,"ader":1058,"Ġallernaad":1059,"dig":1060,"ĠHerred":1061,"Ġmod":1062,"sch":1063,"lan":1064,"Ġanmelde":1065,"Ġvel":1066,"mu":1067,"vende":1068,"holdes":1069,"ĠMÃ¸l":1070,"ak":1071,"ĠOctober":1072,"ĠSted":1073,"ring":1074,"Ġforn":1075,"Ġbekiendtgi":1076,"aan":1077,"ĠHoved":1078,"ass":1079,"ĠJoh":1080,"Ġtilb":1081,"tegnede":1082,"ĠfÃ¸lgende":1083,"Ġstore":1084,"Ġ26":1085,"her":1086,"ĠSam":1087,"far":1088,"ĠPeder":1089,"Ġstra":1090,"Ã¦ng":1091,"ĠFormiddagen":1092,"komme":1093,"ĠMai":1094,"len":1095,"ĠMe":1096,"ĠEftermid":1097,"Ġimellem":1098,"Ġ21":1099,"sted":1100,"Ġber":1101,"ĠFordr":1102,"Ġhvad":1103,"ĠPet":1104,"dsk":1105,"ĠJanu":1106,"ĠÃĨ":1107,"ĠMad":1108,"erede":1109,"ĠBeg":1110,"Ġ23":1111,"sten":1112,"Ġhvilket":1113,"Ġ19":1114,"gade":1115,"Ġkunde":1116,"Ġvare":1117,"ĠAmt":1118,"Ã¦vnte":1119,"ĠhÃ¸":1120,"ern":1121,"som":1122,"hold":1123,"ĠvÃ¦ret":1124,"Ġstor":1125,"Ġbes":1126,"Ã¼":1127,"ĠMed":1128,"ĠHen":1129,"raad":1130,"Ġsit":1131,"aaet":1132,"Ã¦rk":1133,"ĠBet":1134,"urator":1135,"kken":1136,"Ġendeel":1137,"ĠRaad":1138,"Ġvidere":1139,"ĠDÃ¸":1140,"Ġsaaledes":1141,"Ġhen":1142,"Ã¸nder":1143,"Ġ28":1144,"oc":1145,"ski":1146,"Ġfaae":1147,"terne":1148,"ĠNor":1149,"ĠKrig":1150,"Ġsiden":1151,"eledes":1152,"Ġhvis":1153,"Ġme":1154,"ftet":1155,"Ġske":1156,"ĠKjÃ¸b":1157,"ĠStads":1158,"ĠSal":1159,"Ġund":1160,"gte":1161,"aab":1162,"Ġfaaes":1163,"Ġafgang":1164,"Ġ&":1165,"ita":1166,"ska":1167,"ĠLie":1168,"irk":1169,"esse":1170,"Ġstrax":1171,"ĠTro":1172,"uset":1173,"Ġliges":1174,"ĠLands":1175,"teur":1176,"ĠafdÃ¸de":1177,"ald":1178,"ĠSÃ¸n":1179,"ĠDom":1180,"Ġskulle":1181,"ĠBoe":1182,"ĠHart":1183,"ĠnÃ¦":1184,"ĠLov":1185,"lo":1186,"ĠRo":1187,"Ġforet":1188,"Ġgode":1189,"Ġgod":1190,"dense":1191,"Ġpr":1192,"ĠDr":1193,"tal":1194,"handling":1195,"ĠSkib":1196,"dens":1197,"ĠCred":1198,"tt":1199,"ĠSel":1200,"ĠFreder":1201,"Ġbo":1202,"Ġflere":1203,"ĠPla":1204,"ister":1205,"over":1206,"ĠHa":1207,"ĠBes":1208,"ĠFeb":1209,"jendt":1210,"Ġform":1211,"ontoir":1212,"orte":1213,"deles":1214,"ĠHav":1215,"Ġfran":1216,"ĠFebru":1217,"For":1218,"hav":1219,"ĠArvinger":1220,"korn":1221,"ĠProclam":1222,"Ġkunne":1223,"ĠTi":1224,"stand":1225,"lut":1226,"vÃ¦rk":1227,"ĠEr":1228,"ĠAuctions":1229,"ĠNi":1230,"Ġ27":1231,"vÃ¦rende":1232,"ĠTor":1233,"ĠFormiddag":1234,"ĠBye":1235,"Ġcon":1236,"ĠEngel":1237,"ĠSlag":1238,"ach":1239,"Ġingen":1240,"Ġli":1241,"Ġ100":1242,"kket":1243,"ce":1244,"ies":1245,"ĠKammer":1246,"ĠLÃ¸":1247,"alv":1248,"Ã¦d":1249,"ommission":1250,"ĠStaden":1251,"andet":1252,"Ġdes":1253,"Ġbestem":1254,"Ġbortsolgt":1255,"get":1256,"ĠFÃ¸lge":1257,"En":1258,"ĠVedkommende":1259,"illige":1260,"Ġgam":1261,"kommen":1262,"ommen":1263,"lade":1264,"Ġtilbage":1265,"ĠNy":1266,"ente":1267,"ĠHartkorn":1268,"ĠOdense":1269,"andt":1270,"eret":1271,"eiser":1272,"Ġforhen":1273,"holde":1274,"aler":1275,"ĠHandel":1276,"led":1277,"ĠBar":1278,"ĠSlet":1279,"Ġbleven":1280,"ĠGe":1281,"lÃ¸b":1282,"Ã¦lges":1283,"ĠPost":1284,"ĠUgers":1285,"ĠMarts":1286,"under":1287,"ĠByen":1288,"ise":1289,"enter":1290,"ĠbekiendtgiÃ¸res":1291,"ĠSepte":1292,"Ġafgangne":1293,"ĠLyst":1294,"ĠNr":1295,"giv":1296,"ĠDecem":1297,"Ġskulde":1298,"iti":1299,"skri":1300,"ages":1301,"ĠCar":1302,"ĠFors":1303,"ole":1304,"ĠEng":1305,"ĠEnke":1306,"aal":1307,"inds":1308,"orde":1309,"lie":1310,"Ġfordre":1311,"ĠmÃ¸de":1312,"tug":1313,"idt":1314,"tii":1315,"hr":1316,"ĠStat":1317,"yg":1318,"ĠVen":1319,"holm":1320,"ĠDer":1321,"Ã¦s":1322,"ryk":1323,"ĠFred":1324,"ck":1325,"ĠNove":1326,"ĠJens":1327,"Ġ29":1328,"ĠRig":1329,"raf":1330,"tig":1331,"Ġos":1332,"ĠDags":1333,"ĠFordringer":1334,"viislig":1335,"Ġmelde":1336,"eligt":1337,"orp":1338,"res":1339,"Ġ\"":1340,"ĠMid":1341,"fog":1342,"ĠJohan":1343,"ĠProclama":1344,"ĠSeptember":1345,"yd":1346,"derne":1347,"Ġhvilken":1348,"Ġmange":1349,"Ġfore":1350,"Ã¸er":1351,"itorer":1352,"ĠSide":1353,"our":1354,"rette":1355,"Ġei":1356,"ĠDecember":1357,"ĠAlt":1358,"ion":1359,"Ġfri":1360,"Ġenten":1361,"elsen":1362,"ĠKongen":1363,"fra":1364,"datter":1365,"tbr":1366,"ĠLiv":1367,"Ġbestaaende":1368,"Ġbeviislig":1369,"dede":1370,"Ġmaae":1371,"yld":1372,"ĠKeiser":1373,"ĠTrÃ¦":1374,"ĠJern":1375,"egne":1376,"Ġinde":1377,"ĠStor":1378,"ĠMin":1379,"ĠFol":1380,"ĠSogne":1381,"bye":1382,"gaden":1383,"Ġvon":1384,"ĠÃĺster":1385,"Ġhele":1386,"Ġbl":1387,"holdt":1388,"rettet":1389,"ĠNovember":1390,"Ġbef":1391,"ĠQv":1392,"Ġsine":1393,"ĠBorg":1394,"ĠNiels":1395,"Ġallernaadigst":1396,"ĠbÃ¸r":1397,"holder":1398,"Ã¸rre":1399,"itain":1400,"ĠEftersyn":1401,"Ġmind":1402,"Ġsaavel":1403,"strÃ¦":1404,"Ġbed":1405,"try":1406,"ĠJunii":1407,"Ġfranske":1408,"ĠJust":1409,"minde":1410,"undet":1411,"ĠMil":1412,"ancel":1413,".)":1414,"mann":1415,"ĠSkpr":1416,"Ġhvori":1417,"ĠEl":1418,"ĠStift":1419,"kl":1420,"Ġallerede":1421,"ĠAnder":1422,"Ġforinden":1423,"Ġnem":1424,"Ġsaadan":1425,"ĠPers":1426,"uur":1427,"Ġkal":1428,"boe":1429,"Ġbesk":1430,"sb":1431,"lÃ¸":1432,"end":1433,"lang":1434,"ĠSÃ¸r":1435,"prÃ¦":1436,"Ġforrige":1437,"ĠAarhuus":1438,"las":1439,"Ġfors":1440,"ĠAlb":1441,"Ġsp":1442,"ĠPeter":1443,"ĠOl":1444,"orden":1445,"eld":1446,"Ġhvilke":1447,"ĠMag":1448,"ĠSÃ¸":1449,"ĠPort":1450,"ct":1451,"Ġlade":1452,"landt":1453,"ĠLin":1454,"ĠÃ¸v":1455,"ĠKongel":1456,"Ġsidst":1457,"tra":1458,"Ġ178":1459,"uten":1460,"ogn":1461,"Ved":1462,"aver":1463,"ĠKan":1464,"Ġandet":1465,"roe":1466,"skaber":1467,"ĠAuctionen":1468,"hi":1469,"ond":1470,"ĠProcurator":1471,"ĠGrund":1472,"ĠJulii":1473,"Ġligeledes":1474,"all":1475,"ĠBek":1476,"sraad":1477,"strup":1478,"viser":1479,"amil":1480,"Ġnemlig":1481,"Ġafholdes":1482,"Ġ183":1483,"sm":1484,"ĠConditionerne":1485,"Ġigien":1486,"inder":1487,"yde":1488,"Ġboende":1489,"lighed":1490,"Ġbegge":1491,"ĠCol":1492,"aff":1493,"ĠProv":1494,"ĠAars":1495,"Efter":1496,"ander":1497,"Ġhe":1498,"Ġengel":1499,"ution":1500,"trent":1501,"trÃ¦":1502,"ĠBÃ¸rn":1503,"ladt":1504,"..":1505,"Ġmit":1506,"ĠContoir":1507,"Ġlovlig":1508,"ĠHe":1509,"ands":1510,"Ġang":1511,"rich":1512,"tage":1513,"Ġforb":1514,"ĠHansen":1515,"ĠSor":1516,"klÃ¦":1517,"vede":1518,"revne":1519,"ĠSi":1520,"heden":1521,"ĠFamil":1522,"Ġbehage":1523,"ĠJanuar":1524,"ĠhÃ¸i":1525,"ĠGrÃ¦":1526,"ĠComp":1527,"Ġdanske":1528,"ĠKiÃ¸bmand":1529,"vend":1530,"agn":1531,"indes":1532,"urg":1533,"sker":1534,"Ġadsk":1535,"ĠKar":1536,"Ġbehag":1537,"ĠArme":1538,"ĠÃ¸n":1539,"ussi":1540,"Ġforme":1541,"ĠHertug":1542,"ĠLar":1543,"Ġmodt":1544,".;":1545,"Ġ31":1546,"vise":1547,"Ġbekjendt":1548,"rÃ¦nde":1549,"ĠSkibe":1550,"edler":1551,"ĠGods":1552,"nsdagen":1553,"ĠEftermiddagen":1554,"Ġlang":1555,"illet":1556,"fÃ¸lge":1557,"lagt":1558,"ĠUn":1559,"trykker":1560,"ĠKorn":1561,"vÃ¦":1562,"Ġomtrent":1563,"arii":1564,"Ġ50":1565,"Ġaar":1566,"ĠEm":1567,"ĠFr":1568,"uds":1569,"ĠKirke":1570,"fÃ¦r":1571,"ĠFÃ¦":1572,"ahl":1573,"ĠMajestÃ¦t":1574,"ater":1575,"Ġly":1576,"unden":1577,"inge":1578,"ĠEier":1579,"Ġhendes":1580,"amp":1581,"ynd":1582,"ĠJac":1583,"Ġdens":1584,"Ġmu":1585,"Ġbekiendtgj":1586,"ĠMÃ¸ller":1587,"gtig":1588,"irsdagen":1589,"ĠNat":1590,"ĠDÃ¸den":1591,"ĠDat":1592,"aard":1593,"stedet":1594,"ĠKiÃ¸":1595,"ĠSty":1596,"ĠTiden":1597,"stue":1598,"Ġsal":1599,"mark":1600,"ĠFebruar":1601,"ĠNavn":1602,"ĠHv":1603,"sh":1604,"ĠKlo":1605,"Ġeen":1606,"ĠStervboe":1607,"melse":1608,"steen":1609,"ĠSag":1610,"aling":1611,"ĠFru":1612,"ĠPd":1613,"ĠMaade":1614,"ĠDa":1615,"anter":1616,"Ġble":1617,"giÃ¸re":1618,"foged":1619,"Ġbefal":1620,"agte":1621,"ĠBind":1622,"dresse":1623,"igste":1624,"ona":1625,"rum":1626,"Ã¸rste":1627,"ĠStr":1628,"Ġdertil":1629,"ĠDito":1630,"amling":1631,"Ġtilligemed":1632,"Ġindf":1633,"veret":1634,"ĠSm":1635,"rer":1636,"ĠRas":1637,"Ġforvalter":1638,"ĠRes":1639,"essen":1640,"par":1641,"ĠCancel":1642,"ĠBro":1643,"iÃ¸r":1644,"villing":1645,"Ġgr":1646,"ĠnÃ¦rmere":1647,"ĠStadsret":1648,"ĠArbe":1649,"Ġmere":1650,"igheder":1651,"bha":1652,"landske":1653,"ok":1654,"Ġderfor":1655,"ĠprÃ¦":1656,"Ġforsk":1657,"vent":1658,"ĠMaaned":1659,"Ġne":1660,"ĠPrÃ¦ste":1661,"ĠKn":1662,"ĠJacob":1663,"Ġned":1664,"Ã¸des":1665,"mus":1666,"Ġgive":1667,"Ġla":1668,"ĠAt":1669,"Ġbr":1670,"itet":1671,"ĠSelskab":1672,"Ġkom":1673,"lands":1674,"Ġbru":1675,"Ġundertegnede":1676,"tid":1677,"elt":1678,"ati":1679,"ill":1680,"ĠTropper":1681,"Ġgodt":1682,"ĠFd":1683,"ĠLoven":1684,"Ġanse":1685,"delst":1686,"Ġderi":1687,"ĠComm":1688,"byg":1689,"iment":1690,"bli":1691,"Ġholdes":1692,"melte":1693,"ĠBogtrykker":1694,"unde":1695,"ĠlÃ¦st":1696,"ild":1697,"ĠLa":1698,"lede":1699,"vere":1700,"ĠFe":1701,"orps":1702,"ĠJÃ¸r":1703,"egen":1704,"Ġbetale":1705,"ĠAnd":1706,"Ġhvoraf":1707,"ĠDato":1708,"ĠKiÃ¸benhavns":1709,"ĠLandet":1710,"Ġtage":1711,"Ġbil":1712,"fald":1713,"aten":1714,"Ġligesom":1715,"ĠNiel":1716,"ĠDeb":1717,"kt":1718,"utenant":1719,"ĠMuur":1720,"ĠHust":1721,"Ġsen":1722,"ĠBru":1723,"ĠKob":1724,"Ġerfar":1725,"ĠDatter":1726,"havende":1727,"Ġindtil":1728,"ĠThe":1729,"ĠLiebha":1730,"ubli":1731,"ĠSkov":1732,"steds":1733,"auge":1734,"Ġtilk":1735,"ĠKrav":1736,"ĠCat":1737,"Ġhun":1738,"ĠLig":1739,"Ġadskillige":1740,"komne":1741,"use":1742,"ĠGrev":1743,"mes":1744,"reve":1745,"ĠHerreds":1746,"ĠAc":1747,"ĠHÃ¸i":1748,"ĠNov":1749,"ĠPol":1750,"Ġbleve":1751,"ĠGange":1752,"ĠÃ¸vrige":1753,"ĠnÃ¦st":1754,"ĠBud":1755,"ĠViborg":1756,"ĠOber":1757,"ĠBag":1758,"Ġhid":1759,"ĠVor":1760,"van":1761,"bar":1762,"illing":1763,"qve":1764,"Ġw":1765,"vises":1766,"ĠBÃ¸":1767,"Ġlige":1768,"ĠSkri":1769,"ĠBort":1770,"iem":1771,"nings":1772,"ĠHeste":1773,"ĠStkr":1774,"iner":1775,"ommiss":1776,"Ġ=":1777,"ĠBl":1778,"stÃ¦nd":1779,"tere":1780,"ĠBevilling":1781,"ĠOb":1782,"ĠSaa":1783,"mmer":1784,"ĠBrand":1785,"vn":1786,"ĠFdkr":1787,"ledning":1788,"Ġmindre":1789,"Ġtaget":1790,"ynder":1791,"ette":1792,"ĠRug":1793,"ph":1794,"Ġz":1795,"ĠKobber":1796,"per":1797,"ĠTy":1798,"Ġ177":1799,"ĠRi":1800,"Ġdeels":1801,"ĠAger":1802,"dÃ¸des":1803,"klÃ¦der":1804,"cel":1805,"Ġhvorved":1806,"ĠBon":1807,"kost":1808,"kiÃ¸b":1809,"ĠTien":1810,"melig":1811,"ĠfÃ¸rst":1812,"Ġfuld":1813,"ĠPo":1814,"ĠFrederik":1815,"asse":1816,"Ġderom":1817,"Ġuds":1818,"efter":1819,"tz":1820,"ĠKjÃ¸benhavn":1821,"ĠSkriv":1822,"Ġsm":1823,"Ġge":1824,"Ġindrettet":1825,"che":1826,"ĠAdresse":1827,"ĠSÃ¦":1828,"Ġ40":1829,"ons":1830,"ĠJustit":1831,"ors":1832,"ĠFra":1833,"ĠProf":1834,"mo":1835,"ussiske":1836,"ĠOff":1837,"ĠnÃ¦stkommende":1838,"Ġbekjendtgj":1839,"ĠHam":1840,"Ġgammel":1841,"ĠNorge":1842,"ĠHerre":1843,"lene":1844,"Contoir":1845,"Ã¦lge":1846,"ppe":1847,"ĠJÃ¸rgen":1848,"Ġvedkommende":1849,"ĠAften":1850,"ĠNe":1851,"ank":1852,"Ġhaver":1853,"order":1854,"Ã¸ie":1855,"tens":1856,"ligation":1857,"ĠMat":1858,"nen":1859,"bs":1860,"abri":1861,"give":1862,"ĠFuld":1863,"ition":1864,"ile":1865,"ĠAfdÃ¸des":1866,"ilde":1867,"Ġalminde":1868,"Ġbillig":1869,"ĠFamilie":1870,"ĠBetaling":1871,"iin":1872,"Ġfal":1873,"midler":1874,"iÃ¸b":1875,"ĠWe":1876,"Ġbekomme":1877,"ca":1878,"itter":1879,"ĠGi":1880,"De":1881,"Ġgiv":1882,"Ġar":1883,"ĠSkiftet":1884,"kammer":1885,"ĠSeptbr":1886,"ĠNielsen":1887,"ment":1888,"ĠAnledning":1889,"ĠBorger":1890,"ĠNÃ¦r":1891,"essor":1892,"asser":1893,"Ġto":1894,"ĠMartii":1895,"ĠFal":1896,"Ã¦lde":1897,"viin":1898,"ĠStedet":1899,"ĠJord":1900,"bru":1901,"ĠSogneprÃ¦":1902,"Ġski":1903,"ĠHel":1904,"Ġudn":1905,"ĠMo":1906,"nart":1907,"ĠKr":1908,"lu":1909,"ĠÃ¸":1910,"Ġgjort":1911,"ĠKap":1912,"ĠAuctioner":1913,"ĠParti":1914,"ĠFrem":1915,"ĠFar":1916,"ĠGar":1917,"mede":1918,"ĠRasmus":1919,"ĠTold":1920,"dant":1921,"ĠNation":1922,"Ġpro":1923,"huset":1924,"Ġderved":1925,"kommes":1926,"ingsvÃ¦rk":1927,"anders":1928,"ĠKonge":1929,"ĠKiel":1930,"ĠVer":1931,"Ġbehagelig":1932,"ĠAns":1933,"ĠEg":1934,"sat":1935,"Ġkomme":1936,"Ġslet":1937,"Ġoven":1938,"Ġengelske":1939,"**":1940,"liggende":1941,"yt":1942,"ĠForb":1943,"stemmelse":1944,"Ã¦der":1945,"udi":1946,"ĠConditioner":1947,"Ġbestaaer":1948,"ĠBrÃ¦nde":1949,"Ġlader":1950,"ĠInd":1951,"ĠBoet":1952,"Ã¦tte":1953,"ĠCapitain":1954,"Ġforuden":1955,"Ġderaf":1956,"ĠNovbr":1957,"ĠJensen":1958,"Ġigjen":1959,"Ġvore":1960,"lad":1961,"ansk":1962,"ĠParis":1963,"ĠSenge":1964,"ĠTr":1965,"Ġhin":1966,"ĠPlac":1967,"Ġderpaa":1968,"ĠDecbr":1969,"Ġsaadant":1970,"ĠDanmark":1971,"ĠFolk":1972,"ĠTd":1973,"ĠFrue":1974,"ĠKj":1975,"met":1976,"gter":1977,"Ġallene":1978,"ung":1979,"assen":1980,"ui":1981,"nesk":1982,"ĠSlags":1983,"min":1984,"ĠEfterretninger":1985,"ĠOmkost":1986,"Ġantag":1987,"ĠMandagen":1988,"ĠHj":1989,"cher":1990,"seende":1991,"ĠAlle":1992,"ĠVel":1993,"giÃ¸r":1994,"ĠSpec":1995,"ĠTids":1996,"als":1997,"ĠgiÃ¸re":1998,"Ġskeer":1999,"teer":2000,"Fra":2001,"ĠFrider":2002,"ĠnÃ¦ste":2003,"ĠsÃ¦r":2004,"ĠBry":2005,"ĠOg":2006,"eng":2007,"Ġtien":2008,"Ã¦ttes":2009,"ĠBoets":2010,"akk":2011,"gjÃ¸re":2012,"otter":2013,"ĠPriis":2014,"esp":2015,"Ġ200":2016,"ĠCompagn":2017,"yen":2018,"Ġis":2019,"ĠVester":2020,"Ġendog":2021,"yer":2022,"pet":2023,"kkelig":2024,"igen":2025,"ĠUndertegnede":2026,"ĠHens":2027,"ĠTilf":2028,"mir":2029,"Ret":2030,"elsom":2031,"stad":2032,"ulde":2033,"th":2034,"ĠdÃ¸de":2035,"sdag":2036,"Ġstaaer":2037,"ĠBel":2038,"Ġsyn":2039,"ĠVand":2040,"ĠBesk":2041,"Ġgaae":2042,"yst":2043,"angel":2044,"givet":2045,"Ġene":2046,"ĠZ":2047,"ĠBehandling":2048,"ĠSu":2049,"Ã¦rke":2050,"ĠMark":2051,"taget":2052,"sse":2053,"ĠRanders":2054,"Ġligesaa":2055,"Ġaarlig":2056,"stit":2057,"ĠDire":2058,"ĠEftermiddag":2059,"Ġ32":2060,"ĠFyr":2061,"ĠMon":2062,"fts":2063,"ĠHar":2064,"ĠChristen":2065,"krig":2066,"mÃ¦gtig":2067,"ĠAvis":2068,"aste":2069,"ĠWil":2070,"ĠBindingsvÃ¦rk":2071,"urder":2072,"Ã¦ring":2073,"Ġdere":2074,"ĠRus":2075,"Ġsmu":2076,"dom":2077,"ĠSteen":2078,"Ġhalv":2079,"Ã¸rer":2080,"Ġthi":2081,"ĠGuld":2082,"ĠPrinds":2083,"ĠKongens":2084,"ĠCreditorer":2085,"ĠSl":2086,"ow":2087,"ĠGot":2088,"Da":2089,"vare":2090,"ĠVil":2091,"ĠEiendom":2092,"Ġsaavelsom":2093,"ĠDi":2094,"ĠDu":2095,"ĠvÃ¦rende":2096,"ĠEtager":2097,"Ã¸mmer":2098,"Ã¦rer":2099,"emp":2100,"Ġy":2101,"man":2102,"Ġforetaget":2103,"Ġopb":2104,"ĠLysthavende":2105,"cl":2106,"gger":2107,"Ġhinanden":2108,"ben":2109,"anten":2110,"ĠEtage":2111,"ris":2112,"Ġoffentlige":2113,"usi":2114,"Ġdets":2115,"ĠfÃ¸d":2116,"Ã¸ver":2117,"ĠDenne":2118,"ĠTÃ¸nder":2119,"ĠForlÃ¸b":2120,"Ġintet":2121,"ĠHustrue":2122,"ong":2123,"dige":2124,"Ġbemelte":2125,"jÃ¸bs":2126,"pe":2127,"ĠHalv":2128,"ĠForf":2129,"ĠMorg":2130,"ax":2131,"ĠPlan":2132,"ĠSogneprÃ¦st":2133,"Ġper":2134,"mÃ¦nd":2135,"mÃ¦rk":2136,"Ġfindes":2137,"ĠJl":2138,"ĠbeviisliggiÃ¸re":2139,"ma":2140,"sberg":2141,"Ġformedelst":2142,"ĠFranske":2143,"istor":2144,"Ġbevise":2145,"ĠbortsÃ¦lges":2146,"Ġaab":2147,"ĠRbdlr":2148,"St":2149,"Ġderefter":2150,"vor":2151,"Ġindfinde":2152,"ĠStervboet":2153,"iss":2154,"dent":2155,"cteur":2156,"lys":2157,"gaarden":2158,"chen":2159,"ĠHuset":2160,"alen":2161,"erer":2162,"ĠHaand":2163,"ĠPenge":2164,"Ġvorde":2165,"alg":2166,"iir":2167,"olle":2168,"ĠHos":2169,"ame":2170,"idder":2171,"sc":2172,"ĠMajestÃ¦":2173,"Ġstaaende":2174,"viisning":2175,"eldt":2176,"ĠKongelig":2177,"Ġkaldet":2178,"giver":2179,"ttet":2180,"rigt":2181,"ĠRegiment":2182,"ĠdÃ¸d":2183,"ĠStand":2184,"str":2185,"ĠBygning":2186,"ĠisÃ¦r":2187,"Ġtro":2188,"ĠLo":2189,"ĠIn":2190,"ĠAltona":2191,"ĠstÃ¸rste":2192,"ĠGaden":2193,"Ġbestemt":2194,"ĠKo":2195,"Et":2196,"ĠTyr":2197,"ondon":2198,"ĠForp":2199,"ydelig":2200,"gelse":2201,"jel":2202,"ĠKron":2203,"ĠBu":2204,"fr":2205,"ĠSÃ¸e":2206,"Ġfaaet":2207,"ĠOverret":2208,"ave":2209,"ĠUl":2210,"Ġmellem":2211,"ĠsÃ¦lges":2212,"iller":2213,"ĠVegne":2214,"ĠfornÃ¦vnte":2215,"ĠAuctionsstedet":2216,"handler":2217,"ĠEnhver":2218,"ĠHauge":2219,"bydende":2220,"ĠBor":2221,"ĠSy":2222,"ĠBogtrykkeriet":2223,"ĠVÃ¦relser":2224,"Ġsammesteds":2225,"ĠFrederich":2226,"ĠsÃ¸":2227,"Ġret":2228,"ydske":2229,"blandt":2230,"kel":2231,"esten":2232,"anst":2233,"Ġoph":2234,"ĠChristiania":2235,"ante":2236,"Ã¦dvan":2237,"Ġvirk":2238,"ĠAv":2239,"bek":2240,"Ã¸dt":2241,"Ã¦ngde":2242,"Under":2243,"ĠMaji":2244,"Ġallernaadigste":2245,"iget":2246,"ĠPoliti":2247,"ĠHenseende":2248,"ĠForord":2249,"Ã¦nder":2250,"mager":2251,"ĠNye":2252,"rop":2253,"ĠOnsdagen":2254,"miral":2255,"iger":2256,"bog":2257,"Det":2258,"ĠMagt":2259,"ĠOmkostninger":2260,"ĠFebr":2261,"ĠMennesk":2262,"eens":2263,"ned":2264,"ĠVin":2265,"ĠMinister":2266,"kning":2267,"redie":2268,"bel":2269,"ĠGaards":2270,"Ġforlang":2271,"ĠAndre":2272,"ĠOffic":2273,"ĠCancelli":2274,"levende":2275,"ĠTo":2276,"ortil":2277,"tsaa":2278,"Ġopr":2279,"ĠSec":2280,"ĠNÃ¸rre":2281,"ĠDanske":2282,"Ġafs":2283,"Ġhertil":2284,"ĠNog":2285,"ĠKlokken":2286,"vaan":2287,"ĠhÃ¸ie":2288,"pd":2289,"Ġven":2290,"vers":2291,"ek":2292,"ctionen":2293,"ĠAaret":2294,"ĠRaadstue":2295,"ĠMich":2296,"uf":2297,"ĠfÃ¦l":2298,"ĠSiel":2299,"ĠAnders":2300,"ĠTing":2301,"unds":2302,"ĠTeg":2303,"ĠCarl":2304,"burg":2305,"Ġatter":2306,"Ġgamle":2307,"Ã¦tning":2308,"ĠEiendomme":2309,"agne":2310,"lads":2311,"Ġdennes":2312,"ĠGes":2313,"rest":2314,"ĠStifts":2315,"ĠLiebhaber":2316,"ĠHandels":2317,"skabet":2318,"ligen":2319,"ĠHavre":2320,"ĠNord":2321,"ĠSorter":2322,"underdan":2323,"lar":2324,"apiir":2325,"enti":2326,"iste":2327,"komst":2328,"ĠAlen":2329,"ĠDep":2330,"ĠSkipper":2331,"fÃ¸rt":2332,"ĠLondon":2333,"qvem":2334,"tede":2335,"Ġsub":2336,"ĠMi":2337,"ĠTÃ¸n":2338,"ĠSÃ¸ren":2339,"ĠPersoner":2340,"ĠTirsdagen":2341,"ĠSr":2342,"Ġsee":2343,"qu":2344,"Ġbekommes":2345,"teret":2346,"Ġhvortil":2347,"ros":2348,"Sk":2349,"Ġel":2350,"Paa":2351,"gr":2352,"Ġhavende":2353,"ĠBa":2354,"Ã¸nne":2355,"Ġformene":2356,"akkel":2357,"Ġerholde":2358,"ĠVenner":2359,"ĠUdlÃ¦g":2360,"Ġsil":2361,"ĠPor":2362,"na":2363,"ip":2364,"ĠFreg":2365,"ĠstÃ¦rk":2366,"ĠAnne":2367,"fÃ¸rte":2368,"ĠBrev":2369,"gaards":2370,"Ġtryk":2371,"Ġerfares":2372,"Ġve":2373,"ĠMaaneder":2374,"ĠLÃ¸ver":2375,"Ġerkl":2376,"Ġganske":2377,"ĠDagen":2378,"midlertid":2379,"ĠLars":2380,"ĠThom":2381,"Ġgives":2382,"ĠLande":2383,"ĠFat":2384,"ĠSpan":2385,"ĠPriser":2386,"ĠHiÃ¸r":2387,"avne":2388,"Ġvorder":2389,"telse":2390,"ĠTab":2391,"ĠMajestÃ¦ts":2392,"sam":2393,"Ġhu":2394,"othe":2395,"kiende":2396,"ĠEieren":2397,"ĠObligation":2398,"Ġpass":2399,"Ġholdt":2400,"Ġindb":2401,"aller":2402,"fordr":2403,"Ġ60":2404,"ĠTÃ¸r":2405,"ĠArmee":2406,"Ġ;":2407,"Ġben":2408,"ĠSedler":2409,"Ġzu":2410,"ĠCommission":2411,"ĠVind":2412,"luttet":2413,"ĠBerg":2414,"Ġbeski":2415,"ĠRegjer":2416,"Ġtvende":2417,"ĠOle":2418,"Ġaltsaa":2419,"agtet":2420,"Ġbekiendtgjort":2421,"Ġsamtlige":2422,"ĠHor":2423,"Ġagter":2424,"ĠHolm":2425,"ĠDron":2426,"andagen":2427,"haanden":2428,"ĠVogn":2429,"leden":2430,"ĠtilkjÃ¸bs":2431,"kkede":2432,"Af":2433,"tegn":2434,"Ġdag":2435,"Ġindkaldede":2436,"Ġforsi":2437,"ĠRegier":2438,"Ġlegi":2439,"lin":2440,"ĠBygninger":2441,"dene":2442,"ix":2443,"ĠUnderretning":2444,"Ġ1817":2445,"Ġbedste":2446,"Ġellers":2447,"ftes":2448,"bragt":2449,"underdanigst":2450,"ĠChristensen":2451,"Ġbevil":2452,"ans":2453,"ĠJanuarii":2454,"ĠVedkommendes":2455,"herre":2456,"arium":2457,"ĠPrem":2458,"ĠRom":2459,"Ġfort":2460,"Ġbestemte":2461,"Ġhidtil":2462,"Ġreg":2463,"ĠLeie":2464,"lutning":2465,"arv":2466,"Ġlegiti":2467,"Ġforesk":2468,"ĠGud":2469,"ĠMorgen":2470,"Her":2471,"Ã¸y":2472,"Til":2473,"Ġperpet":2474,"leds":2475,"Ġdie":2476,"Ġfinde":2477,"ĠnÃ¦rvÃ¦rende":2478,"befal":2479,"ĠudstÃ¦":2480,"reg":2481,"ĠKone":2482,"ĠKiÃ¸bs":2483,"ĠSlÃ¦":2484,"atur":2485,"ĠgjÃ¸re":2486,"Ġladet":2487,"Ã¸rg":2488,"reb":2489,"Ġhvem":2490,"Ġhuj":2491,"sborg":2492,"ital":2493,"irca":2494,"ĠEiendommen":2495,"lod":2496,"Commission":2497,"Ġaldeles":2498,"Ã¦nge":2499,"ĠOmstÃ¦nd":2500,"clusi":2501,"ĠifÃ¸lge":2502,"Ã¶r":2503,"ĠArveret":2504,"imod":2505,"ĠHÃ¸ie":2506,"ĠBorts":2507,"aars":2508,"ĠsÃ¦dvan":2509,"Ġliden":2510,"Ch":2511,"elsing":2512,"Ã¸dte":2513,"Ġgik":2514,"ĠHal":2515,"ĠDette":2516,"ider":2517,"off":2518,"eneste":2519,"Ġmeere":2520,"ĠCla":2521,"gods":2522,"ĠnÃ¦sten":2523,"Ġlidet":2524,"Ã¦nd":2525,"anger":2526,"ĠSv":2527,"Ġstillet":2528,"ult":2529,"ĠVurder":2530,"akkelov":2531,"ĠLÃ¦s":2532,"ĠTran":2533,"ales":2534,"ĠTieneste":2535,"sÃ¸":2536,"ĠForm":2537,"ren":2538,"ĠBir":2539,"ĠDeres":2540,"ĠPedersen":2541,"Ġabs":2542,"Ġad":2543,"ĠFredagen":2544,"ĠKrigs":2545,"oph":2546,"Ġfast":2547,"Ġgiver":2548,"stu":2549,"Ġerholdes":2550,"ĠRing":2551,"ĠCons":2552,"ĠSil":2553,"ĠLÃ¸s":2554,"Ã¦vnt":2555,"ĠSteder":2556,"ĠFuldmÃ¦gtig":2557,"Ġfremkomme":2558,"bydes":2559,"ĠbeviisliggjÃ¸re":2560,"ĠPlacaten":2561,"Con":2562,"Ã¦ster":2563,"ĠTer":2564,"varteer":2565,"kes":2566,"fer":2567,"ĠForvalter":2568,"Ġhel":2569,"elses":2570,"Ġ300":2571,"eski":2572,"ĠJustitsraad":2573,"ĠSkifter":2574,"Ġperpetui":2575,"ĠMess":2576,"ĠAndersen":2577,"Ġabsol":2578,"ĠMarie":2579,"Ġhende":2580,"Ġforest":2581,"ĠUds":2582,"oen":2583,"Ġfly":2584,"eraad":2585,"entii":2586,"Ġdermed":2587,"Ġanvises":2588,"ĠTidender":2589,"reds":2590,"ĠSum":2591,"skriver":2592,"Ġhenvende":2593,"gar":2594,"istra":2595,"ĠNaade":2596,"ĠByens":2597,"ĠPre":2598,"ĠSkade":2599,"ĠProvst":2600,"ravÃ¦r":2601,"ĠBeret":2602,"Ġmine":2603,"ĠPetersen":2604,"ĠAdmiral":2605,"ĠSold":2606,"ĠCit":2607,"Ã¸den":2608,"ĠLu":2609,"ĠbekjendtgjÃ¸res":2610,"Ġvigt":2611,"ĠLÃ¦r":2612,"Ġholde":2613,"ĠLod":2614,"stre":2615,"astor":2616,"ĠSvend":2617,"ĠSpr":2618,"Ġnylig":2619,"rÃ¦der":2620,"istri":2621,"ations":2622,"ĠRidder":2623,"Ġvente":2624,"Ġcirca":2625,"ĠHu":2626,"ina":2627,"Ġgivet":2628,"Ġstort":2629,"lever":2630,"Ġsynes":2631,"Ġallerunderdanigst":2632,"ĠSand":2633,"ogne":2634,"Ġlegitimere":2635,"Ġhavt":2636,"ĠBest":2637,"vist":2638,"itorerne":2639,"ĠSkole":2640,"ĠFÃ¦st":2641,"lÃ¦gge":2642,"lse":2643,"ĠLund":2644,"Ġim":2645,"Ġbel":2646,"Ġhvorefter":2647,"undt":2648,"ĠDebitorer":2649,"ĠStu":2650,"ids":2651,"ĠJorder":2652,"ĠBrÃ¦ndeviin":2653,"lesvig":2654,"Ġ36":2655,"ĠOplys":2656,"ubler":2657,"ĠSkibet":2658,"Ġskyl":2659,"hel":2660,"har":2661,"unst":2662,"iende":2663,"Ġrette":2664,"KiÃ¸b":2665,"Ġbetydelig":2666,"ĠEmb":2667,"ĠJnf":2668,"Ġangaaende":2669,"Ġskj":2670,"strÃ¦de":2671,"ĠFrankrig":2672,"ĠPl":2673,"ĠViin":2674,"Ã¸mte":2675,"gjÃ¸r":2676,"Ġindkalde":2677,"Ã¸dne":2678,"Ġderimod":2679,"boende":2680,"Ã¦rket":2681,"ĠprÃ¦clusi":2682,"olution":2683,"ĠMÃ¸lle":2684,"fic":2685,"Ġbring":2686,"ĠRente":2687,"retair":2688,"lÃ¦nder":2689,"ĠMedlem":2690,"ĠDÃ¸d":2691,"ĠBerling":2692,"Ġnyt":2693,"ĠKiÃ¸benhavnske":2694,"river":2695,"Ġhvorpaa":2696,"ĠPerson":2697,"Ã¸gning":2698,"retninger":2699,"ĠDoc":2700,"kkelige":2701,"ĠFin":2702,"ĠLigeledes":2703,"fri":2704,"ys":2705,"ĠProfessor":2706,"shavn":2707,"ĠKanoner":2708,"ĠfÃ¦lleds":2709,"Ġskeet":2710,"ĠOctbr":2711,"Ã¸lgende":2712,"Ġtilf":2713,"hn":2714,"alle":2715,"lasse":2716,"ĠTilfÃ¦lde":2717,"ĠBergen":2718,"ĠbortsÃ¦lge":2719,"Ġheller":2720,"ĠHerrer":2721,"verne":2722,"ĠPastor":2723,"Ġsilentii":2724,"tige":2725,"ĠTorsdagen":2726,"rag":2727,"ĠLaan":2728,"ĠFabri":2729,"ĠOberst":2730,"ĠHamborg":2731,"ĠHand":2732,"Mandagen":2733,"ĠMajor":2734,"ĠBreve":2735,"Ã¸rte":2736,"ĠKielder":2737,"qv":2738,"kerne":2739,"ĠBirk":2740,"ins":2741,"ĠDÃ¸ds":2742,"ĠPa":2743,"agelse":2744,"iets":2745,"ĠHolsteen":2746,"Ġligger":2747,"ĠByes":2748,"ĠRed":2749,"Ã¦de":2750,"Ġans":2751,"ĠBebo":2752,"tem":2753,"ĠSkibs":2754,"agtning":2755,"gede":2756,"tale":2757,"ĠFriderich":2758,"Ġudt":2759,"Ġopraab":2760,"ĠHelsing":2761,"Ġ1819":2762,"ĠOrd":2763,"ĠLeil":2764,"ĠForn":2765,"stÃ¸":2766,"ĠFald":2767,"ĠudnÃ¦vnt":2768,"ĠVest":2769,"Ġbetyde":2770,"Ġnok":2771,"ĠDou":2772,"Ġ80":2773,"ĠFisk":2774,"ĠFien":2775,"ĠPlads":2776,"ĠOmstÃ¦ndigheder":2777,"Ġblevne":2778,"Ġkort":2779,"Ar":2780,"Ġtredie":2781,"tiske":2782,"vigte":2783,"ĠMer":2784,"Ġendelig":2785,"ĠHÃ¸r":2786,"ĠMessing":2787,"agttage":2788,"itz":2789,"ĠBom":2790,"ĠsÃ¦rdeles":2791,"ĠMart":2792,"Hos":2793,"ĠFordring":2794,"ial":2795,"ierne":2796,"skede":2797,"rad":2798,"....":2799,"ĠAviser":2800,"Ġsnart":2801,"ĠUr":2802,"ĠMadame":2803,"Ġeneste":2804,"ĠArving":2805,"ĠSko":2806,"ĠColle":2807,"indsen":2808,"Ġhermed":2809,"ĠDit":2810,"Ġ1823":2811,"ĠSamme":2812,"ĠfÃ¸lge":2813,"ĠKeiseren":2814,"Ġunderhaanden":2815,"ĠBaron":2816,"Ġsolgt":2817,"ĠPrÃ¦stegaard":2818,"Ġtre":2819,"ĠHÃ¸iester":2820,"ĠAntal":2821,"ĠHertugen":2822,"urop":2823,"ĠSÃ¸nder":2824,"ĠLad":2825,"ĠAftenen":2826,"bl":2827,"Ã¦gt":2828,"ĠKakkelov":2829,"tiden":2830,"Ã¸ve":2831,"Ġver":2832,"Ġ1820":2833,"ĠHvil":2834,"ĠSkj":2835,"skriv":2836,"ĠLÃ¸sÃ¸re":2837,"ĠSub":2838,"nÃ¦vnte":2839,"Ġtrykte":2840,"redagen":2841,"ĠSengeklÃ¦der":2842,"ordent":2843,"ters":2844,"ĠBroder":2845,"ĠKjÃ¸bmand":2846,"ĠFebruarii":2847,"ĠHavn":2848,"ĠVurderings":2849,"eth":2850,"kommet":2851,"Ġforst":2852,"ĠArve":2853,"ĠVort":2854,"ĠMal":2855,"ĠMiddel":2856,"Ġopbuden":2857,"ĠArbeide":2858,"Ġforetages":2859,"ĠGj":2860,"ĠSkol":2861,"omf":2862,"synet":2863,"enhed":2864,"ĠBekiendt":2865,"Ġlod":2866,"Ġabsolut":2867,"Ġblot":2868,"Ġforeskrevne":2869,"landsk":2870,"Ġ35":2871,"ĠFader":2872,"Ġfordi":2873,"Ã¸ds":2874,"ĠMennesker":2875,"ĠSyg":2876,"ahre":2877,"ĠSpanien":2878,"Ġ176":2879,"rettede":2880,"elighed":2881,"ladte":2882,"ĠJndvaan":2883,"Ġtilst":2884,"ĠOrdre":2885,"agde":2886,"entlig":2887,"ĠTÃ¸mmer":2888,"videre":2889,"ĠJeg":2890,"ĠBesÃ¦tning":2891,"ĠtrÃ¦":2892,"entes":2893,"ĠTryk":2894,"ium":2895,"ĠKra":2896,"venske":2897,"ĠCor":2898,"ĠJnter":2899,"lagte":2900,"Ġ48":2901,"ĠAmts":2902,"egaard":2903,"revet":2904,"irke":2905,"ĠEngelske":2906,"ommissair":2907,"Tor":2908,"ĠstÃ¸rre":2909,"ĠFrugt":2910,"ceur":2911,"ĠPubli":2912,"ĠKammerherre":2913,"Ġ1000":2914,"ĠAss":2915,"Ġkand":2916,"ĠExemp":2917,"Reg":2918,"Ġjo":2919,".\"":2920,"ĠFaar":2921,"Ġsted":2922,"At":2923,"ants":2924,"ĠPartie":2925,"Ġvist":2926,"ĠÃ¸nsker":2927,"Ġlille":2928,"ure":2929,"ĠFransk":2930,"gier":2931,"Ġsiger":2932,"ĠBra":2933,"ield":2934,"Ġsi":2935,"ĠBegyn":2936,"ĠBÃ¸ger":2937,"ĠAp":2938,"Ġlangt":2939,"ĠArrest":2940,"midt":2941,"Ã¦ste":2942,"ĠÃĺie":2943,"ĠReise":2944,"ĠBat":2945,"Ġbeqvem":2946,"broe":2947,"Tirsdagen":2948,"terede":2949,"Ġbaade":2950,"stiden":2951,"ĠBÃ¸nder":2952,"ĠMÃ¦ngde":2953,"form":2954,"ĠChar":2955,"spec":2956,"estam":2957,"ĠDouceur":2958,"ĠPoul":2959,"esen":2960,"vileg":2961,"ĠForand":2962,"KiÃ¸benhavn":2963,"ĠdrÃ¦":2964,"ĠMod":2965,"delsen":2966,"ĠEmbeds":2967,"ĠAlder":2968,"Ġpri":2969,"ĠExec":2970,"ĠTin":2971,"ĠLÃ¦":2972,"Ġegen":2973,"Ġansees":2974,"ĠBorde":2975,"ĠCand":2976,"hos":2977,"Ġblandt":2978,"talien":2979,"ĠTra":2980,"Ġfundet":2981,"Ġro":2982,"ĠBen":2983,"ĠStad":2984,"Ġstaae":2985,"ĠSlot":2986,"Ġsidstleden":2987,"fÃ¸rsel":2988,"Ġfrie":2989,"fir":2990,"ĠSommer":2991,"Ġankommen":2992,"oller":2993,"ĠAndreas":2994,"Ġbillige":2995,"ĠOphold":2996,"ĠY":2997,"ĠFo":2998,"ĠWi":2999,"ĠSkifteret":3000,"ĠfornÃ¸dne":3001,"ĠÃĺv":3002,"Ġbeskikket":3003,"Ã¸rt":3004,"ĠGaardens":3005,"Ġ500":3006,"staaende":3007,"ĠSamling":3008,"retningen":3009,"ĠTarv":3010,"Ã¸lle":3011,"ĠAb":3012,"ffec":3013,"ĠMel":3014,"Ġlet":3015,"contoir":3016,"vel":3017,"ĠMiil":3018,"Ġdr":3019,"ĠHorsens":3020,"ĠKnud":3021,"arbe":3022,"log":3023,"kkes":3024,"Ġdy":3025,"amer":3026,"Ġderfra":3027,"aaes":3028,"Al":3029,"skibe":3030,"ĠFruenti":3031,"Ġvirkelig":3032,"Ġsammes":3033,"delser":3034,"ĠCour":3035,"ĠDanne":3036,"pri":3037,"con":3038,"ĠRenter":3039,"ĠBrig":3040,"iendte":3041,"ĠHenrich":3042,"hÃ¦n":3043,"ĠByefoged":3044,"ĠHosp":3045,"ĠFyen":3046,"ĠBier":3047,"deelt":3048,"Ġhed":3049,"ĠOvereens":3050,"ĠFort":3051,"Raad":3052,"ĠCredi":3053,"ĠStats":3054,"trin":3055,"ĠOlsen":3056,"Christ":3057,"Ġex":3058,"Ġunge":3059,"Ġiboende":3060,"Ġkomm":3061,"ĠHest":3062,"ĠBal":3063,"brog":3064,"raa":3065,"neske":3066,"ĠHerreders":3067,"ĠOplysning":3068,"Ġsort":3069,"manden":3070,"ĠSom":3071,"Ġdu":3072,"gives":3073,"ravÃ¦rende":3074,"Ġindeholder":3075,"bro":3076,"ks":3077,"ĠAnsÃ¸gning":3078,"Ġ33":3079,"givne":3080,"skib":3081,"ĠBrug":3082,"ĠHuse":3083,"Onsdagen":3084,"ĠGesandt":3085,"Ġ1818":3086,"zen":3087,"ĠLarsen":3088,"ffe":3089,"ĠBerlingske":3090,"are":3091,"ĠKiÃ¸kken":3092,"Ġstedse":3093,"Ġrussiske":3094,"Fredagen":3095,"ĠGu":3096,"ĠVinter":3097,"ĠÃĨre":3098,"skrevne":3099,"aaben":3100,"oena":3101,"Ġforskjel":3102,"eer":3103,"ho":3104,"ĠFranker":3105,"ĠEnde":3106,"Ġforf":3107,"ĠCancellieraad":3108,"ĠbehÃ¸r":3109,"lund":3110,"lieutenant":3111,"Ã¸mt":3112,"Ġfik":3113,"ĠLord":3114,"ellan":3115,"Ġsaasom":3116,"ĠfÃ¸lger":3117,"mÃ¦n":3118,"anstalt":3119,"ĠBrÃ¸d":3120,"ats":3121,"Ġhujus":3122,"ĠOst":3123,"ĠFattig":3124,"Ã¦ttelse":3125,"ĠPh":3126,"Ġalmindelige":3127,"ĠMangel":3128,"ĠOvereensstemmelse":3129,"Ġhvid":3130,"slag":3131,"ĠBrÃ¸":3132,"Ski":3133,"ĠKÃ¸er":3134,"Ġformo":3135,"ĠPeters":3136,"antin":3137,"Ġhvorfor":3138,"ĠForlang":3139,"ĠMeubler":3140,"ĠPrÃ¦st":3141,"gaae":3142,"Ġtab":3143,"Ġforbe":3144,"Ġbem":3145,"ĠSagen":3146,"ĠMor":3147,"ĠRosen":3148,"strÃ¦det":3149,"Ġhal":3150,"ĠJomf":3151,"Ġforeg":3152,"Ġnor":3153,"Ġ1792":3154,"Ġkommen":3155,"ĠMaa":3156,"isen":3157,"ĠLeilighed":3158,"dags":3159,"ĠHvede":3160,"veien":3161,"fol":3162,"ĠSkp":3163,"lÃ¦gges":3164,"Ġsat":3165,"ĠOn":3166,"ĠtiltrÃ¦":3167,"rivelse":3168,"ĠSig":3169,"Ġopraabt":3170,"fÃ¦rdig":3171,"Ġforan":3172,"adt":3173,"ĠMilli":3174,"kiÃ¸bing":3175,"ĠGaardmand":3176,"Ġgjorde":3177,"Ġtilladt":3178,"Ġafholdt":3179,"giÃ¸relse":3180,"ĠDrag":3181,"ernes":3182,"Ġankom":3183,"ance":3184,"ĠTilstand":3185,"vin":3186,"ditionerne":3187,"Ġhiem":3188,"ĠTron":3189,"feldt":3190,"Ġsvar":3191,"jun":3192,"ĠForhold":3193,"ĠBegi":3194,"lutte":3195,"indre":3196,"vÃ¦sen":3197,"rov":3198,"ta":3199,"ĠSlesvig":3200,"ningerne":3201,"ĠThi":3202,"usen":3203,"ĠChe":3204,"tter":3205,"Ġbragt":3206,"Ġafgaaet":3207,"isp":3208,"--":3209,"ĠNatten":3210,"Ġhvide":3211,"amme":3212,"Ġcontra":3213,"ĠArtil":3214,"ĠPante":3215,"ĠKb":3216,"Ã¦rede":3217,"ĠnÃ¸d":3218,"ĠFruentimmer":3219,"ĠPas":3220,"Ġdaglig":3221,"din":3222,"ĠForlangende":3223,"Ġinds":3224,"ĠStue":3225,"Ġbegyn":3226,"mÃ¦ss":3227,"iges":3228,"sd":3229,"sterne":3230,"uler":3231,"ĠStrand":3232,"elserne":3233,"Ġra":3234,"kaar":3235,"rip":3236,"ĠKiÃ¸bstÃ¦":3237,"muur":3238,"Ġsaadanne":3239,"eskab":3240,"Ġimidlertid":3241,"kring":3242,"ĠCancellie":3243,"Ġfine":3244,"Ġfiin":3245,"ĠHÃ¸yst":3246,"Ġres":3247,"ĠBefal":3248,"ĠLeg":3249,"ĠForst":3250,"ĠPant":3251,"Ġopf":3252,"lÃ¸se":3253,"ffecter":3254,"ĠHerredsfoged":3255,"Ġstille":3256,"Ġalmindelig":3257,"ls":3258,"Ġbi":3259,"ĠMÃ¼":3260,"Ġpoena":3261,"ĠHoff":3262,"inen":3263,"lader":3264,"skyld":3265,"atning":3266,"gl":3267,"ĠHiÃ¸rnet":3268,"ane":3269,"Ġkj":3270,"Ġtilkiende":3271,"atiske":3272,"ĠUdgang":3273,"gield":3274,"ĠStykker":3275,"obak":3276,"Ġherom":3277,"atten":3278,"Ġ1822":3279,"ĠLÃ¸verdagen":3280,"Ġey":3281,"Ġherfra":3282,"Ã¸nt":3283,"Torsdagen":3284,"Ġ1811":3285,"sty":3286,"pÃ¦l":3287,"Ã¸ier":3288,"ĠMands":3289,"ael":3290,"Ġbeste":3291,"ĠLic":3292,"ĠSikker":3293,"ĠRigsb":3294,"Ã¦ret":3295,"ĠlÃ¦s":3296,"ĠHistor":3297,"sendt":3298,"Ġbedre":3299,"Ġefterladt":3300,"ĠSÃ¸rensen":3301,"alog":3302,"Ġudm":3303,"laden":3304,"ĠBÃ¸rsen":3305,"Ġmeest":3306,"ĠAmer":3307,"affe":3308,"ĠGier":3309,"Ġindkaldte":3310,"ĠLang":3311,"ĠfravÃ¦rende":3312,"rÃ¦nds":3313,"rik":3314,"ĠMenneske":3315,"Ġ)":3316,"ĠUni":3317,"talte":3318,"Ġ70":3319,"lÃ¦de":3320,"ĠCompagnie":3321,"ĠDannebrog":3322,"verie":3323,"uth":3324,"Ġkong":3325,"ĠChristians":3326,"Ġtog":3327,"ĠEurop":3328,"Ġtilliggende":3329,"Ġ34":3330,"Ã¸mme":3331,"drig":3332,"uer":3333,"Ġengelsk":3334,"ĠÃĨr":3335,"Ġdob":3336,"ession":3337,"Ġgaaer":3338,"ĠTestam":3339,"ĠSprog":3340,"ĠSn":3341,"ĠArtiller":3342,"undne":3343,"ĠDistri":3344,"ĠAng":3345,"ĠStadsrets":3346,"ĠDronning":3347,"egnet":3348,"ĠÃĺsterrig":3349,"ĠlÃ¸b":3350,"ate":3351,"Ġtal":3352,"ĠHiel":3353,"ĠKal":3354,"egl":3355,"ventarium":3356,"ĠFÃ¦dr":3357,"viist":3358,"Ġhaves":3359,"fÃ¦rd":3360,"kar":3361,"sken":3362,"stantin":3363,"Ġderover":3364,"dam":3365,"ationer":3366,"tel":3367,"vand":3368,"Ġmegen":3369,"ĠHÃ¸e":3370,"je":3371,"Ġ1824":3372,"ĠtilkiÃ¸b":3373,"Ġanmo":3374,"ĠFortegn":3375,"Ġtru":3376,"Ġsammen":3377,"ĠThomas":3378,"ton":3379,"ĠCapit":3380,"rive":3381,"ĠLaur":3382,"tighed":3383,"Christian":3384,"ĠQvist":3385,"specteur":3386,"Ġmang":3387,"ĠSukker":3388,"standen":3389,"ius":3390,"Ġberam":3391,"cc":3392,"fl":3393,"Ġbetaler":3394,"ĠHÃ¸ist":3395,"ĠSelskabet":3396,"ppen":3397,"Ġdesuden":3398,"ĠNatur":3399,"Ġrede":3400,"ĠOrden":3401,"ĠSkrivelse":3402,"Ġmodtage":3403,"Ġhens":3404,"sting":3405,"ĠSchmidt":3406,"ĠSikkerhed":3407,"ĠSkiftes":3408,"agter":3409,"Ġfle":3410,"ĠfÃ¸rend":3411,"viv":3412,"mende":3413,"Ġforsynet":3414,"ĠRusland":3415,"Ã¸rr":3416,"ĠBonde":3417,"Ġ1810":3418,"ĠVaaben":3419,"entet":3420,"oss":3421,"Ġry":3422,"skes":3423,"Ġmindste":3424,"Ġbringe":3425,"ĠGuds":3426,"abel":3427,"ĠRy":3428,"Ġindt":3429,"ĠPrior":3430,"ĠEge":3431,"ĠpC":3432,"ĠStole":3433,"Ġendvidere":3434,"jor":3435,"ns":3436,"lende":3437,"ĠJo":3438,"opel":3439,"eskilde":3440,"ĠDem":3441,"toc":3442,"Ġsmaae":3443,"ĠBefaling":3444,"Ġhvert":3445,"ĠAfdÃ¸de":3446,"ĠPal":3447,"Ġbebo":3448,"plads":3449,"Ġmueligt":3450,"bragte":3451,"ĠBed":3452,"hei":3453,"ĠDig":3454,"ammen":3455,"ĠGlas":3456,"Ġmelder":3457,"ĠPremier":3458,"yng":3459,"Ġtils":3460,"ussen":3461,"ĠFog":3462,"Ġbestand":3463,"ĠTider":3464,"ĠLau":3465,"ĠBestemmelse":3466,"serne":3467,"lÃ¦n":3468,"nis":3469,"Man":3470,"ĠTal":3471,"cur":3472,"ladelse":3473,"ĠSpe":3474,"ĠGre":3475,"Ã¼r":3476,"ĠStadens":3477,"rid":3478,"fÃ¸res":3479,"Ġheri":3480,"Ġgav":3481,"Ġskee":3482,"apitain":3483,"rib":3484,"igtighed":3485,"iv":3486,"ĠNorske":3487,"Ġful":3488,"ĠNic":3489,"itets":3490,"ĠTÃ¸nde":3491,"Ġfandt":3492,"Ġefterladte":3493,"snart":3494,"ĠSalt":3495,"Ġnavn":3496,"Ġlever":3497,"indiske":3498,"holdende":3499,"ĠResiden":3500,"Ġneds":3501,"ĠModer":3502,"ĠJndt":3503,"ĠStald":3504,"ĠNÃ¸r":3505,"Ġbehager":3506,"hÃ¸r":3507,"Ġoveralt":3508,"ĠSver":3509,"ĠSo":3510,"ĠBeviis":3511,"ĠOpb":3512,"ĠRep":3513,"ĠCro":3514,"ola":3515,"ĠEnd":3516,"ĠBrygger":3517,"Ġvide":3518,"ĠPer":3519,"Ġbefaling":3520,"ĠgrÃ¦":3521,"igede":3522,"holdte":3523,"Ġ1821":3524,"ĠGul":3525,"ĠDepu":3526,"ĠhÃ¸y":3527,"ĠLieutenant":3528,"ĠPressen":3529,"ĠGrav":3530,"ĠSchi":3531,"ith":3532,"Ġforlanges":3533,"ĠGod":3534,"ĠBli":3535,"ĠHÃ¸ystbydende":3536,"ĠGrundmuur":3537,"verti":3538,"aaret":3539,"illes":3540,"ĠBev":3541,"ĠHus":3542,"ĠBisk":3543,"ĠEffecter":3544,"ĠHensyn":3545,"Ġty":3546,"ĠForanstalt":3547,"bring":3548,"ĠPak":3549,"Ġ1825":3550,"ĠDisse":3551,"oer":3552,"Ã¦ger":3553,"fÃ¸rer":3554,"ĠAg":3555,"tions":3556,"Ġveder":3557,"ĠHaa":3558,"we":3559,"ĠJÃ¸rgensen":3560,"Ġforskjellige":3561,"ĠTilb":3562,"somhed":3563,"ads":3564,"mynd":3565,"ĠMis":3566,"ĠLpd":3567,"ĠKakkelovne":3568,"ĠKbh":3569,"ĠForordningen":3570,"Ġyder":3571,"seil":3572,"idst":3573,"ĠGoth":3574,"Ġ400":3575,"ĠForandring":3576,"ĠKund":3577,"ĠMÃ¸de":3578,"Ġveed":3579,"tre":3580,"ĠRoeskilde":3581,"ĠJyl":3582,"ĠHvor":3583,"ĠRasmussen":3584,"ĠCorps":3585,"forvalter":3586,"ĠAnviisning":3587,"ĠBi":3588,"Ġkommer":3589,"ĠCapt":3590,"kast":3591,"ĠHorn":3592,"ĠProk":3593,"ĠKronpr":3594,"ĠNational":3595,"ĠGrÃ¸n":3596,"ĠVilkaar":3597,"ĠLem":3598,"Ã¦nk":3599,"Contoiret":3600,"ĠMichael":3601,"ĠLicit":3602,"ĠtilkiÃ¸bs":3603,"Ġufor":3604,"ĠGien":3605,"Ġ45":3606,"ĠKlÃ¦de":3607,"ĠSund":3608,"anterie":3609,"ligheder":3610,"Ġvitter":3611,"Ġlovlige":3612,"fuld":3613,"aarden":3614,"Ġred":3615,"ĠAviserne":3616,"qvis":3617,"kj":3618,"ĠPaaske":3619,"rit":3620,"ĠKiÃ¸ber":3621,"Ġsaae":3622,"Ã¶n":3623,"ĠAs":3624,"ĠFart":3625,"An":3626,"ĠKier":3627,"elle":3628,"etter":3629,"ttelse":3630,"uch":3631,"holms":3632,"Ġhaa":3633,"Ġmeldes":3634,"Ġseer":3635,"ĠKy":3636,"Ġforts":3637,"rÃ¦nder":3638,"ĠSkiftesamling":3639,"ĠhÃ¦":3640,"port":3641,"ĠVal":3642,"ĠPomp":3643,"kkun":3644,"staden":3645,"rende":3646,"Ġford":3647,"Ġaldrig":3648,"Ġ64":3649,"kiske":3650,"ark":3651,"udet":3652,"Ġfry":3653,"Ġ1809":3654,"ffer":3655,"ĠFÃ¸l":3656,"meret":3657,"ĠForfatter":3658,"ĠSlutning":3659,"Ġhand":3660,"ĠCommer":3661,"Ġko":3662,"ĠFod":3663,"ĠJagt":3664,"Ġhalve":3665,"ĠKanon":3666,"ses":3667,"ĠJfr":3668,"Ġgjorte":3669,"ĠBager":3670,"olen":3671,"ĠlÃ¦ses":3672,"ĠMidler":3673,"ĠDes":3674,"ĠVare":3675,"lit":3676,"ĠMaren":3677,"ĠEngelland":3678,"ĠTilladelse":3679,"Ġgl":3680,"ĠCan":3681,"leie":3682,"ĠlÃ¸":3683,"Ġventes":3684,"ĠSvendborg":3685,"ĠFÃ¦r":3686,"Ġregne":3687,"sdatter":3688,"ĠSalg":3689,"ĠFry":3690,"ĠClasse":3691,"ĠMagistra":3692,"Ġ38":3693,"ĠJs":3694,"ĠSilke":3695,"Ġhenh":3696,"ĠÃĺr":3697,"ĠCou":3698,"ĠfÃ¦r":3699,"ĠQvÃ¦g":3700,"sti":3701,"helm":3702,"urer":3703,"fÃ¸lgende":3704,"ĠPorcel":3705,"ba":3706,"ĠHelsingÃ¸er":3707,"ĠEngland":3708,"stitution":3709,"ĠDele":3710,"bede":3711,"ension":3712,"ĠLiebhaberne":3713,"Ġsaakal":3714,"hÃ¸":3715,"ĠSku":3716,"overret":3717,"Ġpassende":3718,"Ġ1800":3719,"ĠsÃ¦tte":3720,"Ġresp":3721,"irken":3722,"Ġforel":3723,"ĠPund":3724,"ĠNyborg":3725,"ĠPi":3726,"Ã¸der":3727,"fares":3728,"ĠGothers":3729,"ĠStykke":3730,"ĠÃ¸nske":3731,"voc":3732,"Dire":3733,"linger":3734,"du":3735,"Ġefterat":3736,"ĠRigsbank":3737,"Ġ**":3738,"ĠDÃ¸de":3739,"Ġsti":3740,"ĠForsamling":3741,"ĠVeien":3742,"ĠlÃ¦nge":3743,"ĠAgger":3744,"satte":3745,"ĠGen":3746,"Ġfordeel":3747,"Ġegne":3748,"emmelig":3749,"reder":3750,"ĠFly":3751,"ding":3752,"rift":3753,"ĠWien":3754,"ĠhÃ¸it":3755,"ĠMaal":3756,"arsch":3757,"stantinopel":3758,"krÃ¦":3759,"ĠFÃ¸rste":3760,"Ġav":3761,"ĠFaa":3762,"varer":3763,"Ġfuldkommen":3764,"Ġindbydes":3765,"ĠOpbuds":3766,"idste":3767,"Ġhon":3768,"stitu":3769,"Ġtroe":3770,"ĠGehei":3771,"andel":3772,"kommer":3773,"skj":3774,"ationen":3775,"ĠPrÃ¦m":3776,"Ġ1826":3777,"ĠBeretning":3778,"Ġkon":3779,"ĠBlade":3780,"ĠTimer":3781,"skud":3782,"ĠMaaneds":3783,"Ġgrund":3784,"ĠPrÃ¦stegield":3785,"ĠHvilket":3786,"aill":3787,"Ġhedder":3788,"ĠArk":3789,"ĠFy":3790,"ĠMater":3791,"Ġtillade":3792,"ĠÃĺn":3793,"Ã¦ngere":3794,"ĠSager":3795,"Ã¦lgelse":3796,"ĠVogne":3797,"Ġikkun":3798,"Lie":3799,"Jn":3800,"dire":3801,"Ġvitterligt":3802,"delige":3803,"ĠBeskaff":3804,"ĠTol":3805,"ĠNaar":3806,"Ġgien":3807,"Ġsluttet":3808,"eres":3809,"ĠPortug":3810,"Ġsv":3811,"ĠRegjering":3812,"Ġpol":3813,"ĠDy":3814,"ĠFa":3815,"ĠStÃ¸rr":3816,"ĠRegn":3817,"Ġhiin":3818,"ligere":3819,"ĠOs":3820,"Ã¸en":3821,"ĠCatalog":3822,"ĠCold":3823,"ĠRegning":3824,"folk":3825,"ummen":3826,"ĠMus":3827,"ĠSlagelse":3828,"bringe":3829,"Ġliggende":3830,"ĠRepubli":3831,"fang":3832,"ĠVirk":3833,"Ġtages":3834,"ĠVic":3835,"ĠFlaade":3836,"skov":3837,"Ġfat":3838,"ĠPublic":3839,"bech":3840,"Ã¦tter":3841,"ĠHier":3842,"Ġfinder":3843,"ĠPat":3844,"ĠSkriver":3845,"ĠBruun":3846,"ĠViden":3847,"erson":3848,"ĠSmÃ¸r":3849,"Ġnord":3850,"ĠRyg":3851,"ĠHaab":3852,"ringer":3853,"ĠTydsk":3854,"papiir":3855,"Ġ1812":3856,"Ġbetales":3857,"ĠSoph":3858,"ĠCroix":3859,"ĠSen":3860,"ĠKat":3861,"tagelse":3862,"Ġ1806":3863,"ugt":3864,"Ġbekiendtgjorte":3865,"Ġfransk":3866,"ĠSlÃ¦gt":3867,"ĠStrÃ¸m":3868,"Ġ43":3869,"anterne":3870,"sede":3871,"Ġarbe":3872,"ĠForslag":3873,"ĠTiltale":3874,"ĠFrankerig":3875,"ytte":3876,"frem":3877,"Ġdansk":3878,"jem":3879,"Ġefterlevende":3880,"ĠUnivers":3881,"tis":3882,"Ġfar":3883,"Ġmo":3884,"ĠHun":3885,"Ġindh":3886,"Ġvort":3887,"ĠLud":3888,"ĠKjÃ¸":3889,"urch":3890,"ĠJver":3891,"Ġheftet":3892,"ĠArvingerne":3893,"axt":3894,"ĠMillioner":3895,"Ġled":3896,"haver":3897,"Ã¦gge":3898,"Ġligge":3899,"aben":3900,"ĠSkyld":3901,"Ġindkaldet":3902,"ĠLinned":3903,"Ã¦gte":3904,"Ġvides":3905,"Ġlevende":3906,"Be":3907,"Ġ37":3908,"ĠJomfrue":3909,"Ġ1814":3910,"ĠMÃ¦nd":3911,"Ġudbet":3912,"ĠOfficerer":3913,"rÃ¦nd":3914,"bÃ¸r":3915,"egaden":3916,"ĠNÃ¦rheden":3917,"isted":3918,"ĠBortsÃ¦lgelse":3919,"Ġbetydelige":3920,"Ġsmukke":3921,"ĠHÃ¸iesterets":3922,"serer":3923,"Ġtroer":3924,"immel":3925,"ĠkiÃ¸b":3926,"arier":3927,"Ġiagttage":3928,"Ġigiennem":3929,"ĠMedlemmer":3930,"ĠMaria":3931,"ĠSpecies":3932,"ylden":3933,"ieski":3934,"ĠMandag":3935,"ĠChristianshavn":3936,"belt":3937,"sent":3938,"ĠÃ¦l":3939,"Ġ1808":3940,"tin":3941,"ĠBesid":3942,"parte":3943,"ĠDages":3944,"ĠSider":3945,"Ġsn":3946,"ĠAft":3947,"Ġ42":3948,"vo":3949,"Ġvederfares":3950,"gjort":3951,"ĠCommand":3952,"entlige":3953,"ĠFavne":3954,"Ġgot":3955,"ĠBeskaffenhed":3956,"sÃ¸e":3957,"ĠLade":3958,"ĠRibe":3959,"Ġfornem":3960,"ĠCal":3961,"ĠActor":3962,"ĠUng":3963,"ĠEngelsk":3964,"ĠHavne":3965,"forn":3966,"skil":3967,"stuen":3968,"ruk":3969,"ĠThor":3970,"Ġheraf":3971,"ĠStervboets":3972,"Ġpasser":3973,"ped":3974,"Ġgjen":3975,"Ġpaast":3976,"bygning":3977,"Ġvest":3978,"ĠApp":3979,"fart":3980,"Ġuagtet":3981,"ĠPetersborg":3982,"samling":3983,"tager":3984,"ĠfÃ¸dt":3985,"Ġanmodes":3986,"ĠTegn":3987,"beret":3988,"mÃ¦ndene":3989,"Ġste":3990,"ĠEfterladen":3991,"Ġtabt":3992,"Aar":3993,"ĠKongl":3994,"No":3995,"cha":3996,"Ġbevilget":3997,"faldet":3998,"ĠHuusmand":3999,"ĠUge":4000,"ĠindlÃ¸b":4001,"rives":4002,"ĠFlens":4003,"ĠVores":4004,"ĠStorm":4005,"Ġfordeelagt":4006,"Ġ150":4007,"yndte":4008,"ĠDon":4009,"ĠTag":4010,"ĠJtalien":4011,"ĠJohannes":4012,"Ġein":4013,"ĠSÃ¸ster":4014,"vision":4015,"ĠRegiering":4016,"ening":4017,"heds":4018,"ĠGal":4019,"ĠBekost":4020,"ĠFi":4021,"Pro":4022,"ĠMinist":4023,"Ġ1827":4024,"aaden":4025,"Christiania":4026,"ĠSer":4027,"muret":4028,"Ġgaaet":4029,"Ġ1807":4030,"ĠKre":4031,"indelse":4032,"ĠTermin":4033,"Ġsmuk":4034,"ĠPass":4035,"ĠPrisen":4036,"Ġ44":4037,"ĠbenÃ¦vnte":4038,"Ġfortrin":4039,"apir":4040,"ĠLandsoverret":4041,"Ġlagt":4042,"bord":4043,"ĠSielland":4044,"Ġmodtages":4045,"ĠMol":4046,"gers":4047,"ĠsÃ¸rg":4048,"Ġudkommen":4049,"ĠPige":4050,"forp":4051,"kelte":4052,"Ġri":4053,"Ġforene":4054,"Ġbestandig":4055,"ĠÃĺiebli":4056,"holds":4057,"ĠHjÃ¸r":4058,"Ġsol":4059,"ĠSverrig":4060,"ĠSvar":4061,"gteskab":4062,"Ġbefalet":4063,"Ġafgangen":4064,"ĠFad":4065,"ĠMenigheder":4066,"vertisse":4067,"Ġacc":4068,"ĠDam":4069,"ĠNum":4070,"Ġofte":4071,"ĠLinieski":4072,"Ġhvoriblandt":4073,"Ġcomp":4074,"ĠOlden":4075,"ĠHensigt":4076,"ĠChef":4077,"ĠObligationer":4078,"stine":4079,"gjÃ¸relse":4080,"Ġvores":4081,"Ġsl":4082,"ĠJacobsen":4083,"Ã¦ves":4084,"ĠSa":4085,"Ġengang":4086,"Ġ1805":4087,"ĠMorgenen":4088,"ĠWiborg":4089,"ĠNeap":4090,"ĠBank":4091,"Ġbilligste":4092,"ĠNap":4093,"Ã¸iet":4094,"ĠsÃ¦dvanlige":4095,"Ã¦nke":4096,"rÃ¦de":4097,"ĠMile":4098,"Ġsaavidt":4099,"olog":4100,"jeneste":4101,"ĠStilling":4102,"ĠLaug":4103,"opher":4104,"ĠLiges":4105,"ĠExecution":4106,"ĠPorten":4107,"ĠAller":4108,"ĠLog":4109,"Ġsendt":4110,"ctor":4111,"cer":4112,"alet":4113,"ĠTiid":4114,"Ġforladt":4115,"Ġ1831":4116,"Ġprivileg":4117,"rester":4118,"ĠsÃ¦lge":4119,"ĠGaardsrum":4120,"ordentlig":4121,"ĠSim":4122,"vendig":4123,"ĠJorde":4124,"Ġopdag":4125,"ĠChr":4126,"ĠSche":4127,"indien":4128,"ĠSidehuus":4129,"Ġsatte":4130,"50":4131,"amt":4132,"Ġundt":4133,"ĠArti":4134,"Ġspanske":4135,"stede":4136,"melige":4137,"ĠMun":4138,"ĠGam":4139,"Ġstod":4140,"ĠNicola":4141,"ĠSeil":4142,"Ġdas":4143,"ĠTrÃ¦kning":4144,"ĠKor":4145,"Ġfremmede":4146,"ĠGield":4147,"Ã¦vnes":4148,"tive":4149,"ĠOx":4150,"ĠSiden":4151,"Ġforud":4152,"see":4153,"vertissement":4154,"ĠPhil":4155,"Ġudenfor":4156,"Ġnyde":4157,"ĠÃ¸ster":4158,"Ġgu":4159,"ĠHaar":4160,"Ġcomm":4161,"Ġhvorom":4162,"post":4163,"sig":4164,"jendte":4165,"ĠAnst":4166,"Ġantagelig":4167,"ĠtilstrÃ¦":4168,"Ġomkring":4169,"ĠHospital":4170,"Ġsorte":4171,"ĠMalt":4172,"Ġgange":4173,"itte":4174,"ĠKraft":4175,"ttetid":4176,"ĠHalvtag":4177,"aas":4178,"Ã¸vet":4179,"ĠAnna":4180,"ĠbehÃ¸rig":4181,"Regiment":4182,"ĠKru":4183,"Ġhvormed":4184,"ĠJylland":4185,"ĠJndkal":4186,"ica":4187,"ĠStÃ¦der":4188,"Ġsenere":4189,"beck":4190,"ĠVex":4191,"ĠbekiendtgiÃ¸re":4192,"ĠAtte":4193,"ĠDansk":4194,"edommer":4195,"ĠgiÃ¸r":4196,"Ġ1804":4197,"ĠKaren":4198,"Ġhvorledes":4199,"PrÃ¦":4200,"enskriver":4201,"ĠHerr":4202,"ftig":4203,"Ġ***":4204,"ĠÃĺvrig":4205,"Ġ1829":4206,"qvisition":4207,"deels":4208,"Ġforsikk":4209,"Vi":4210,"pedition":4211,"ĠtiltrÃ¦des":4212,"tidelig":4213,"ĠGros":4214,"rak":4215,"Ġbehaget":4216,"Ġvigtige":4217,"ĠReis":4218,"ĠCreditorerne":4219,"ĠRelig":4220,"ĠAugusti":4221,"aalet":4222,"ĠFienden":4223,"ĠRets":4224,"Ġerholdt":4225,"ĠPaastand":4226,"maade":4227,"ĠLor":4228,"ĠudstÃ¦dt":4229,"Ġselve":4230,"ĠByet":4231,"Ġstande":4232,"Ġsige":4233,"Ġ39":4234,"Ad":4235,"Ġeg":4236,"ĠDis":4237,"ĠVurderingsfor":4238,"Ġnorske":4239,"ller":4240,"Ġforh":4241,"ĠChristopher":4242,"medelst":4243,"arte":4244,"bre":4245,"yldige":4246,"ĠVestergade":4247,"ĠThisted":4248,"ĠVÃ¦relserne":4249,"Ġch":4250,"ard":4251,"skal":4252,"lov":4253,"Ġberet":4254,"pperne":4255,"Ġnavnlig":4256,"yp":4257,"ĠLys":4258,"ĠLind":4259,"Ġanm":4260,"ĠHove":4261,"Ġanlagt":4262,"Ġmeer":4263,"ĠlÃ¦r":4264,"ĠHÃ¸istbydende":4265,"iere":4266,"ĠMort":4267,"Ġbegynder":4268,"ĠBeboelse":4269,"hl":4270,"Ġdeel":4271,"Ġ52":4272,"Ġ1813":4273,"ĠVol":4274,"ĠNoget":4275,"ĠStater":4276,"bred":4277,"kjÃ¸b":4278,"ĠBan":4279,"ĠGem":4280,"ĠHolste":4281,"fly":4282,"ĠVeir":4283,"inister":4284,"urde":4285,"Ġhvorfra":4286,"Ġringe":4287,"Ġ1801":4288,"ĠBoepÃ¦l":4289,"ĠErich":4290,"ĠTale":4291,"Ġforskiel":4292,"ulle":4293,"endelse":4294,"cter":4295,"Ġ56":4296,"Ġafsk":4297,"int":4298,"last":4299,"ĠTobak":4300,"alter":4301,"ĠÃĺen":4302,"que":4303,"hiem":4304,"gik":4305,"Ġtydske":4306,"ĠVore":4307,"ĠhÃ¸rer":4308,"ĠHammer":4309,"ĠStraf":4310,"estilling":4311,"ĠTak":4312,"Ġneppe":4313,"ĠResolution":4314,"Ġlevere":4315,"Ġ41":4316,"ĠfornÃ¸den":4317,"ĠHovedgaard":4318,"blant":4319,"Ġbev":4320,"ĠStÃ¸rrelse":4321,"ĠSir":4322,"Ġconfir":4323,"ell":4324,"Ġanbefal":4325,"commission":4326,"ours":4327,"avaller":4328,"abe":4329,"attet":4330,"ĠRh":4331,"Conditionerne":4332,"ĠtrÃ¦n":4333,"ĠBiel":4334,"ĠLudvig":4335,"Ġfaste":4336,"ĠOplag":4337,"Ġ46":4338,"vÃ¦rdige":4339,"ĠBataill":4340,"oe":4341,"ĠEtat":4342,"ĠSelskabets":4343,"dighed":4344,"skabs":4345,"gtes":4346,"alte":4347,"),":4348,"Ġuf":4349,"umenter":4350,"yder":4351,"Ã¸gte":4352,"ĠDirectionen":4353,"ĠStatstiden":4354,"ĠJor":4355,"ĠGylden":4356,"strand":4357,"eren":4358,"az":4359,"Au":4360,"ĠStk":4361,"undrede":4362,"Ã¸ndt":4363,"Ġ600":4364,"Ġgift":4365,"gelig":4366,"Ġforestaaende":4367,"skee":4368,"vocat":4369,"aaede":4370,"ĠElis":4371,"allund":4372,"vÃ¦rge":4373,"ollegi":4374,"lÃ¸s":4375,"ĠLadning":4376,"vidt":4377,"ĠBegj":4378,"Ġ72":4379,"ĠÃĨgteskab":4380,"Ġdi":4381,"ĠHistorie":4382,"Ġvenstre":4383,"steder":4384,"ligste":4385,"ĠSorenskriver":4386,"ffen":4387,"ĠStem":4388,"ĠLykke":4389,"Ġtiener":4390,"ĠKomm":4391,"ĠBil":4392,"ĠUrte":4393,"ischer":4394,"Ġ1832":4395,"Ġfremdeles":4396,"ĠDre":4397,"ĠReligion":4398,"gangen":4399,"ĠWilhelm":4400,"Ġmedde":4401,"orff":4402,"ĠFeldt":4403,"ĠJndvaanere":4404,"ĠHielp":4405,"ĠForlig":4406,"ĠHovedstaden":4407,"angen":4408,"Ġvis":4409,"ĠStervboes":4410,"Ġkuns":4411,"co":4412,"ĠJnventarium":4413,"kasse":4414,"ĠPapiir":4415,"ĠRingsted":4416,"ĠfÃ¸rt":4417,"Ġenkelte":4418,"ĠAmster":4419,"ytter":4420,"ĠPension":4421,"uri":4422,"ĠGarnis":4423,"ĠNogle":4424,"Ġborg":4425,"tionen":4426,"Ġankomne":4427,"Ġovenmeldte":4428,"siden":4429,"ents":4430,"ĠLange":4431,"ĠBlom":4432,"Ġpasseret":4433,"ĠHÃ¸ihed":4434,"ĠBegyndelse":4435,"ĠProces":4436,"ĠHÃ¦nder":4437,"ĠHÃ¸y":4438,"ĠSkuesp":4439,"tog":4440,"Ġ1796":4441,"Ġord":4442,"ĠSubskri":4443,"ĠSned":4444,"ĠStra":4445,"Ġbag":4446,"ĠrÃ¸d":4447,"sl":4448,"ussisk":4449,"fremt":4450,"penge":4451,"Over":4452,"ĠHau":4453,"fÃ¸re":4454,"ĠOpr":4455,"Ã¦m":4456,"adem":4457,"Ġ1799":4458,"lich":4459,"ham":4460,"ĠJndhold":4461,"vÃ¦relse":4462,"modning":4463,"ĠLÃ¼":4464,"ĠMilit":4465,"ĠUdlÃ¦gs":4466,"ĠLol":4467,"ĠBoes":4468,"ĠCent":4469,"ĠBirkedommer":4470,"Ã¦rkede":4471,"sket":4472,"Ġforevises":4473,"ĠFordeel":4474,"ĠGou":4475,"andeur":4476,"'s":4477,"pen":4478,"Ġnyelig":4479,"Ġopholde":4480,"Ġtry":4481,"hvert":4482,"ĠKammerraad":4483,"Ġ1816":4484,"ĠSvenske":4485,"ĠGra":4486,"ĠFrihed":4487,"udt":4488,"ĠRev":4489,"tier":4490,"Ġbefindes":4491,"ylde":4492,"mÃ¦rkes":4493,"ĠSÃ¸ndag":4494,"Ġsamlet":4495,"ĠLit":4496,"bes":4497,"qvarteer":4498,"ĠerklÃ¦ret":4499,"ĠKam":4500,"Ã¸ieste":4501,"Ġberammet":4502,"ĠHolst":4503,"ock":4504,"Ġuly":4505,"ĠBegjÃ¦ring":4506,"illede":4507,"ĠJuris":4508,"ĠUden":4509,"ĠJorden":4510,"Ġbegyndte":4511,"ĠForbed":4512,"ĠBortsalg":4513,"ĠRetten":4514,"ĠBegier":4515,"ĠCommiss":4516,"ĠKirstine":4517,"Ġforetagen":4518,"ĠFisker":4519,"ĠForestilling":4520,"ĠUdt":4521,"bere":4522,"Ġdersom":4523,"Ġprivilegerede":4524,"ĠGrÃ¦nd":4525,"Ġbetalt":4526,"Ġherefter":4527,"enten":4528,"Ġ1830":4529,"ĠFer":4530,"Ġvise":4531,"ĠJnteressen":4532,"ĠArtillerie":4533,"andtes":4534,"Ġtid":4535,"ĠLÃ¸n":4536,"reise":4537,"Ġude":4538,"Ġdobbelt":4539,"Ġrig":4540,"Ġ1802":4541,"ĠKirk":4542,"ĠRen":4543,"18":4544,"utter":4545,"ĠJld":4546,"ĠBekiendtgiÃ¸relse":4547,"rÃ¦ndte":4548,"ĠAnmel":4549,"agel":4550,"ĠKorps":4551,"ĠArmeen":4552,"ĠJngen":4553,"ĠBoghandler":4554,"ĠUld":4555,"Ġsagde":4556,"ĠSkipp":4557,"dommen":4558,"ĠStore":4559,"ĠMyn":4560,"ĠDel":4561,"Ġ2000":4562,"Ġantaget":4563,"Ġib":4564,"gtede":4565,"egn":4566,"kan":4567,"ĠEtatsraad":4568,"yldig":4569,"ĠFÃ¦ng":4570,"ĠKunst":4571,"estved":4572,"ĠLieut":4573,"idet":4574,"ĠConsul":4575,"ĠJes":4576,"stander":4577,"Ġsaasnart":4578,"Ġleds":4579,"hedens":4580,"ĠAvertissement":4581,"ĠFregat":4582,"ĠNapole":4583,"Ġsaafremt":4584,"ĠCitanten":4585,"Ġ3000":4586,"ĠHave":4587,"ĠBol":4588,"Ġdan":4589,"Ġanst":4590,"Ġanord":4591,"lunde":4592,"ĠtÃ¸r":4593,"Ġrespec":4594,"ĠNÃ¸d":4595,"Ġ1803":4596,"drag":4597,"ĠForsÃ¸g":4598,"Ġmist":4599,"Ã¦dle":4600,"ĠRode":4601,"Ġigjennem":4602,"leg":4603,"Ġvedlige":4604,"ĠlÃ¦ngere":4605,"ĠBillet":4606,"ĠHolland":4607,"ĠMarsch":4608,"ĠQvarteer":4609,"Ġslutte":4610,"ĠUndersaa":4611,"skrift":4612,"ĠÂ":4613,"ĠFÃ¸r":4614,"ĠExemplar":4615,"ĠElisab":4616,"nsen":4617,"ĠHustru":4618,"genhed":4619,"hag":4620,"Ġtildeels":4621,"ĠAmsterdam":4622,"Ġki":4623,"kalde":4624,"Ġseet":4625,"ĠGaarde":4626,"Ã¦kke":4627,"Ġfiendt":4628,"ĠOldenborg":4629,"smaal":4630,"rene":4631,"edskab":4632,"ungen":4633,"Ġha":4634,"ĠSkpd":4635,"ĠBerlin":4636,"ĠApothe":4637,"Ġthe":4638,"ĠTransp":4639,"krÃ¦mmer":4640,"ĠMd":4641,"ĠEnkes":4642,"ĠBid":4643,"aale":4644,"ĠConfer":4645,"ĠReqvisition":4646,"Jnd":4647,"ator":4648,"anke":4649,"JfÃ¸lge":4650,"lef":4651,"ĠUly":4652,"ĠMari":4653,"Ġforegaaende":4654,"ĠCas":4655,"ĠCurator":4656,"ĠOgsaa":4657,"ĠFregatter":4658,"ĠOnsdag":4659,"ĠHir":4660,"leveret":4661,"ompagn":4662,"ĠRygte":4663,"inske":4664,"Ġsikker":4665,"Ġafh":4666,"oed":4667,"elandet":4668,"Ġhverken":4669,"ĠPartier":4670,"Ġafvigte":4671,"ĠMercur":4672,"ĠSto":4673,"Ġbefalede":4674,"dal":4675,"ĠForpagter":4676,"Ġtager":4677,"bedes":4678,"esummen":4679,"Med":4680,"stid":4681,"ĠLivs":4682,"Ġkiendt":4683,"Ġindst":4684,"Ã¸vrigt":4685,"ĠMinde":4686,"ĠVid":4687,"stemmende":4688,"ĠStyr":4689,"Ġsees":4690,"klar":4691,"ĠGevin":4692,"ĠCathr":4693,"ĠGlÃ¦de":4694,"Ġass":4695,"Ġsnar":4696,"asserer":4697,"Ġforsy":4698,"Ġelskede":4699,"ĠAggers":4700,"ĠDyr":4701,"urt":4702,"fordres":4703,"ox":4704,"tigheder":4705,"ĠRentekammer":4706,"ĠBord":4707,"inet":4708,"seg":4709,"ĠKonger":4710,"ĠTit":4711,"ĠBeviser":4712,"ĠAag":4713,"ĠLicitation":4714,"Ġdies":4715,"ĠContra":4716,"huse":4717,"Ġej":4718,"gaaet":4719,"derie":4720,"Ġtyr":4721,"po":4722,"yre":4723,"Ã¦nde":4724,"Forvalter":4725,"ĠJnfanterie":4726,"mation":4727,"Ġsaakaldte":4728,"skibet":4729,"ĠExpedition":4730,"ĠdÃ¸mt":4731,"ĠBaghuus":4732,"Ã¸verdagen":4733,"ensdatter":4734,"aparte":4735,"levere":4736,"fulde":4737,"ĠVaan":4738,"ĠFug":4739,"agede":4740,"ott":4741,"ĠRussiske":4742,").":4743,"erup":4744,"aat":4745,"ĠRaadmand":4746,"ĠFallit":4747,"Ġ51":4748,"ĠUnderret":4749,"andske":4750,"Ġkongelige":4751,"ĠfÃ¸re":4752,"Ġanviser":4753,"tegne":4754,"Ã¦ldte":4755,"ĠSkatter":4756,"sammen":4757,"ĠmÃ¦rk":4758,"ĠGade":4759,"Ġhvorudi":4760,"ĠVÃ¦rk":4761,"ĠFÃ¸ds":4762,"gangne":4763,"ersk":4764,"ĠRegim":4765,"ĠSyn":4766,"ourn":4767,"ĠhÃ¸rende":4768,"meget":4769,"Ġforskiellige":4770,"mÃ¦gt":4771,"ral":4772,"aire":4773,"Ã¦gger":4774,"stil":4775,"ĠStuden":4776,"allundborg":4777,"ĠFaaborg":4778,"Ġethvert":4779,"ĠindevÃ¦rende":4780,"ĠHertugd":4781,"ĠAdel":4782,"ĠFremtiden":4783,"ĠhÃ¸re":4784,"io":4785,"Ġmil":4786,"ĠSoldater":4787,"ommene":4788,"Ġsand":4789,"Ġovereens":4790,"ĠTjeneste":4791,"Ġfores":4792,"kon":4793,"Ġfire":4794,"ĠEgnen":4795,"ĠBrÃ¸nd":4796,"ĠRu":4797,"Ã¸nner":4798,"Ġlykkelig":4799,"ĠSygdom":4800,"ĠUmynd":4801,"lex":4802,"ĠtÃ¦t":4803,"ĠpCt":4804,"ĠGrosserer":4805,"ĠFlensborg":4806,"ĠConstantinopel":4807,"ĠCom":4808,"ĠFredag":4809,"mon":4810,"Ġarrester":4811,"Ġfaaer":4812,"issab":4813,"bare":4814,"ĠSild":4815,"ĠTry":4816,"ĠHum":4817,"ĠGrÃ¦s":4818,"ĠkjÃ¸b":4819,"Ġbehand":4820,"ĠTillÃ¦g":4821,"irurg":4822,"smand":4823,"ĠFyrst":4824,"Ġ90":4825,"unge":4826,"Ġhjem":4827,"ĠMÃ¸r":4828,"flÃ¸d":4829,"ĠAnker":4830,"apper":4831,"ĠGrÃ¦nds":4832,"bergs":4833,"ain":4834,"Ġus":4835,"ĠMads":4836,"Ġ4000":4837,"ioner":4838,"ĠTorv":4839,"ĠDo":4840,"ĠSorg":4841,"ĠColding":4842,"dres":4843,"Ġskyldig":4844,"ĠProvinds":4845,"tific":4846,"Ġbedes":4847,"reven":4848,"fÃ¦st":4849,"Ġmis":4850,"ĠColon":4851,"Ġbevilge":4852,"ĠJndkaldelse":4853,"ĠFier":4854,"ĠBred":4855,"ĠFrÃ¸":4856,"Ġfaldt":4857,"ĠForhandling":4858,"Ġpre":4859,"ĠMenighed":4860,"ĠTommer":4861,"low":4862,"diske":4863,"maal":4864,"ĠAltonaiske":4865,"Ġtilkj":4866,"ĠAlminde":4867,"ika":4868,"marn":4869,"ĠPompe":4870,"ĠKloster":4871,"ĠBevÃ¦g":4872,"ĠsÃ¦dvanlig":4873,"veie":4874,"ĠRegister":4875,"bt":4876,"ĠKnudsen":4877,"ĠMÃ¼ller":4878,"ĠNeder":4879,"liggen":4880,"ĠAne":4881,"mens":4882,"iens":4883,"deelte":4884,"Ġforlade":4885,"Ġinder":4886,"ĠSegl":4887,"ĠAlders":4888,"ĠFolket":4889,"holdning":4890,"gere":4891,"rigske":4892,"ĠBesiddelse":4893,"ĠEuropa":4894,"ĠMah":4895,"ĠPropri":4896,"ĠJÃ¦ger":4897,"lings":4898,"ĠEnken":4899,"ĠElisabeth":4900,"ature":4901,"landet":4902,"ĠGren":4903,"eber":4904,"ĠVÃ¦":4905,"Ġmuelig":4906,"ĠEiendoms":4907,"tagne":4908,"ĠLissab":4909,"Ġhvorover":4910,"Ġbyg":4911,"ĠHoldelse":4912,"Ġhonet":4913,"dentlig":4914,"enz":4915,"Ġvedbli":4916,"ĠStÃ¦nder":4917,"gaaende":4918,"kyn":4919,"ĠUnderviisning":4920,"Lieutenant":4921,"ĠBlad":4922,"Ġpar":4923,"Ġbragte":4924,"ĠTegl":4925,"Kon":4926,"cht":4927,"ĠMul":4928,"vivl":4929,"ĠLivet":4930,"ĠBern":4931,"orter":4932,"rovst":4933,"Ġbesluttet":4934,"ĠKasse":4935,"ĠBiskop":4936,"ortes":4937,"Ġ1795":4938,"ĠDÃ¸dsfald":4939,"Ġpoliti":4940,"irsdag":4941,"ford":4942,"Ġ47":4943,"ĠLoc":4944,"ĠAnden":4945,"ĠsÃ¸ge":4946,"ĠRum":4947,"Ġubet":4948,"ĠCad":4949,"ĠBegiering":4950,"ĠCop":4951,"ĠSiellands":4952,"ĠPostmester":4953,"Ġtemmelig":4954,"Ġih":4955,"ĠFalster":4956,"ĠForanstaltning":4957,"Ġmid":4958,"rie":4959,"ĠBlo":4960,"uris":4961,"Ġholdet":4962,"ric":4963,"Ġfleste":4964,"ĠDrenge":4965,"Ġantageligt":4966,"ĠVarer":4967,"ĠStormarn":4968,"Ġauf":4969,"Ġmuligt":4970,"ĠLotter":4971,"Ġlidt":4972,"ĠForening":4973,"Ġheele":4974,"icia":4975,"ĠSort":4976,"Ġlaae":4977,"Ġaarlige":4978,"ĠPropriet":4979,"sendte":4980,"junker":4981,"indser":4982,"ĠSecond":4983,"ĠSkil":4984,"given":4985,"ĠLiig":4986,"ĠUhr":4987,"ĠAdkomst":4988,"orsÃ¸er":4989,"ĠLassen":4990,"Ġring":4991,"ĠPrioritet":4992,"bÃ¦r":4993,"Ġskyldige":4994,"vÃ¦senet":4995,"skaff":4996,"aner":4997,"ndre":4998,"brÃ¸d":4999,"Ġytt":5000,"ĠSorÃ¸e":5001,"Ã¸ge":5002,"ĠFamilier":5003,"ĠPil":5004,"lediget":5005,"Ġ54":5006,"hÃ¸ieste":5007,"hal":5008,"Ġmaaskee":5009,"Ġbred":5010,"ĠJohanne":5011,"ĠDin":5012,"pel":5013,"ĠAnord":5014,"Ġholder":5015,"ĠBogholder":5016,"ĠJmidlertid":5017,"fordre":5018,"ĠPolitie":5019,"ĠLevn":5020,"jent":5021,"ĠhÃ¸ist":5022,"Ã¸nning":5023,"ĠCapellan":5024,"ĠAmtmand":5025,"ĠAnkomst":5026,"atet":5027,"vei":5028,"Ġ62":5029,"veier":5030,"Ġlange":5031,"lÃ¦nderne":5032,"ĠSne":5033,"ĠPrindsen":5034,"ĠResidents":5035,"ĠBarn":5036,"ĠFle":5037,"kere":5038,"Hr":5039,"telig":5040,"agten":5041,"ĠPortion":5042,"ĠProkurator":5043,"reer":5044,"ĠOvers":5045,"lÃ¦nge":5046,"ĠFla":5047,"Ġsich":5048,"ladsen":5049,"sses":5050,"Ġiblandt":5051,"Ġsvenske":5052,"ĠBang":5053,"ĠTiende":5054,"ĠSogns":5055,"ĠTyrkerne":5056,"cellen":5057,"ĠHaanden":5058,"LÃ¸verdagen":5059,"ĠDog":5060,"ĠUniversitet":5061,"bry":5062,"ĠForÃ¦l":5063,"Ã¸rge":5064,"ĠÃĺnske":5065,"entÃ¸i":5066,"ĠPoulsen":5067,"Ġaaben":5068,"ĠNibe":5069,"ĠKirken":5070,"ĠGreve":5071,"Ġperson":5072,"son":5073,"Ġbekiendte":5074,"meen":5075,"fÃ¦rdige":5076,"mk":5077,"ĠBryst":5078,"ĠSpise":5079,"ĠÃĺl":5080,"Ġja":5081,"Ã¸get":5082,"ĠLissabon":5083,"giÃ¸res":5084,"iede":5085,"Ġerhver":5086,"ĠBeslutning":5087,"ĠBekostning":5088,"ĠTom":5089,"stra":5090,"mÃ¦ssig":5091,"ĠKundskab":5092,"holdet":5093,"enes":5094,"ĠnÃ¦rme":5095,"Ġextra":5096,"ĠSkovskyld":5097,"ĠNu":5098,"ĠDitto":5099,"ĠPreussen":5100,"ĠGeorg":5101,"uren":5102,"osition":5103,"ĠContoiret":5104,"ĠAre":5105,"ĠBanc":5106,"Ġ55":5107,"ĠVenders":5108,"ĠSÃ¦l":5109,"ĠJr":5110,"lagde":5111,"ĠBorge":5112,"Ġlydende":5113,"ĠLysthav":5114,"ĠSnedker":5115,"Ġmor":5116,"ĠEgn":5117,"Ġkund":5118,"rivat":5119,"toiret":5120,"Ġrespective":5121,"Ġopby":5122,"lid":5123,"ĠByetings":5124,"ĠRÃ¸":5125,"hÃ¦ng":5126,"hertug":5127,"ĠSlo":5128,"Ġ53":5129,"Ġ1828":5130,"ĠHavnen":5131,"ient":5132,"byr":5133,"ĠindfÃ¸rt":5134,"ĠSÃ¸en":5135,"Ġ1815":5136,"tocol":5137,"redes":5138,"ting":5139,"Ġudkom":5140,"ĠstÃ¦rke":5141,"gode":5142,"ugen":5143,"kkelse":5144,"dahl":5145,"ĠDamp":5146,"holdelse":5147,"uel":5148,"Ġrum":5149,"Ġconfirmeret":5150,"ĠDeparte":5151,"Ġderhos":5152,"ĠCathrine":5153,"Ġ5000":5154,"utor":5155,"Ġtilsammen":5156,"Ġalene":5157,"Ġoversat":5158,"issen":5159,"ĠForli":5160,"Ġforg":5161,"gift":5162,"ĠRaadhuus":5163,"ĠKbhvn":5164,"Ġlette":5165,"ym":5166,"ĠNestved":5167,"Ġhaar":5168,"ĠBetr":5169,"ĠDav":5170,"siatiske":5171,"ĠJns":5172,"sident":5173,"Ġeet":5174,"Ġleve":5175,"ĠRdr":5176,"Ġhvorimod":5177,"ĠForsvar":5178,"ĠKrigen":5179,"ĠÃ¸vrigt":5180,"ĠBou":5181,"angne":5182,"cker":5183,"ĠnÃ¦stefter":5184,"lyst":5185,"Ġil":5186,"ĠDreng":5187,"ĠHirsch":5188,"ĠOctobr":5189,"uns":5190,"Ġconstitu":5191,"ĠLÃ¦g":5192,"Ġ66":5193,"Ġ63":5194,"Ġmodtaget":5195,"ĠTÃ¸rv":5196,"adre":5197,"ĠAlex":5198,"ĠTe":5199,"frÃ¸e":5200,"ĠBeen":5201,"ĠEs":5202,"ĠMadrid":5203,"ĠÃ¸del":5204,"vnte":5205,"ĠhÃ¸ire":5206,"Ġbro":5207,"Ġkost":5208,"ĠFÃ¦ste":5209,"ĠDronningen":5210,"ĠMatros":5211,"ĠJe":5212,"ĠTre":5213,"ĠSkulde":5214,"ĠGl":5215,"Ġaltid":5216,"fyr":5217,"ĠBetal":5218,"byes":5219,"ĠResten":5220,"ĠMu":5221,"Ġheel":5222,"ĠSpecier":5223,"ign":5224,"aux":5225,"Ġkoster":5226,"of":5227,"ĠHvad":5228,"adet":5229,"ĠFabrik":5230,"brand":5231,"iesyn":5232,"ĠÃĺieblik":5233,"ĠTorsdag":5234,"ĠStervboen":5235,"ĠKol":5236,"Ã¸ger":5237,"ĠAfhandling":5238,"liggender":5239,"ĠBestyr":5240,"ĠGader":5241,"Ġgiel":5242,"kirken":5243,"magt":5244,"Ġcomplet":5245,"ĠKongensgade":5246,"ĠHamp":5247,"ĠLysthavendes":5248,"ĠVahre":5249,"ĠAssessor":5250,"Ġ49":5251,"ĠSj":5252,"Ġsmaa":5253,"ontoiret":5254,"ivil":5255,"ĠCommerce":5256,"skaf":5257,"bemeldte":5258,"sminister":5259,"vÃ¦rdig":5260,"ĠAdfÃ¦rd":5261,"ĠAssens":5262,"ef":5263,"ĠlÃ¦":5264,"Ġ120":5265,"istlige":5266,"ĠLandets":5267,"itt":5268,"vex":5269,"ĠSecretair":5270,"ĠVandet":5271,"contoiret":5272,"ĠLevnets":5273,"ĠvÃ¦":5274,"ĠDoctor":5275,"iter":5276,"ĠBrÃ¦der":5277,"Ġloves":5278,"eter":5279,"ĠSed":5280,"Auction":5281,"aaler":5282,"ĠMadsen":5283,"ĠForordning":5284,"ĠSvag":5285,"ĠNavne":5286,"ĠGarnison":5287,"ahr":5288,"angaaende":5289,"Ġ75":5290,"ladet":5291,"aven":5292,"rÃ¦k":5293,"ĠHjer":5294,"Ġombord":5295,"ums":5296,"menter":5297,"ĠFortegnelser":5298,"ĠSar":5299,"Ġpl":5300,"ĠSÃ¦de":5301,"Ġ65":5302,"Ġtagne":5303,"anti":5304,"ĠLandsting":5305,"anker":5306,"ĠfÃ¸rte":5307,"rings":5308,"strÃ¸m":5309,"ĠPen":5310,"ĠÃ¸nskes":5311,"ĠRos":5312,"ĠKost":5313,"jut":5314,"Ġnytt":5315,"ĠPun":5316,"Ġuop":5317,"ĠAarsag":5318,"ĠMester":5319,"vahre":5320,"ĠÃ¦":5321,"ĠErkl":5322,"ĠCatalogi":5323,"oler":5324,"draget":5325,"ĠdrÃ¦gtig":5326,"lÃ¦der":5327,"ĠForbindelse":5328,"ĠGeheime":5329,"ĠRa":5330,"Ã¦nger":5331,"Ġ1797":5332,"ersom":5333,"ĠProprietair":5334,"Ġ74":5335,"Ġmeddeelt":5336,"eskriver":5337,"Ġvidt":5338,"ĠSpeile":5339,"ĠSmith":5340,"Ġgrundmuret":5341,"Ġindrettede":5342,"ĠAuk":5343,"Ġforenede":5344,"vem":5345,"Ġindkomne":5346,"Ġforand":5347,"Ġ1790":5348,"yldt":5349,"ĠVidenskaber":5350,"een":5351,"ĠRest":5352,"ĠCast":5353,"holt":5354,"bert":5355,"erden":5356,"ender":5357,"Ġbruges":5358,"marsch":5359,"ĠMeen":5360,"ĠBegiven":5361,"ĠLigesaa":5362,"ĠTransport":5363,"kassen":5364,"ĠRegjeringen":5365,"Ġforti":5366,"laget":5367,"ĠFÃ¦stning":5368,"ĠBech":5369,"ĠForholds":5370,"Ġunderskrevne":5371,"ĠWal":5372,"beder":5373,"Ġfr":5374,"ĠRaa":5375,"ĠbÃ¦re":5376,"Der":5377,"Ġstem":5378,"ĠFriis":5379,"ines":5380,"brÃ¦nde":5381,"rettes":5382,"ĠberÃ¸mte":5383,"Ġfunden":5384,"ĠRettigheder":5385,"ĠKeiserlige":5386,"vogn":5387,"Ud":5388,"zig":5389,"ĠDahl":5390,"ĠDivision":5391,"viste":5392,"ĠOpholdsted":5393,"Ã¸iede":5394,"Ġgjennem":5395,"ĠOpbudsboe":5396,"elsdag":5397,"isten":5398,"Ġflydende":5399,"pon":5400,"ĠAfdel":5401,"Ob":5402,"skende":5403,"ĠSelveier":5404,"ĠNytte":5405,"ingborg":5406,"ĠRang":5407,"KjÃ¸b":5408,"ĠErst":5409,"ĠStyk":5410,"ĠTaar":5411,"ĠRige":5412,"ĠSc":5413,"ureret":5414,"lades":5415,"Ġblaae":5416,"sÃ¸g":5417,"ĠLever":5418,"ĠhÃ¸ieste":5419,"ĠBeskrivelse":5420,"ĠVei":5421,"ĠArbeids":5422,"ĠBegiÃ¦ring":5423,"ĠMiddag":5424,"vÃ¦b":5425,"ribe":5426,"arbeide":5427,"ĠKrog":5428,"tning":5429,"ĠSven":5430,"telsen":5431,"anen":5432,"Ġefterkommes":5433,"arer":5434,"ĠHele":5435,"ĠnÃ¸dvend":5436,"Ġ61":5437,"Ġantage":5438,"ĠSol":5439,"ĠForretning":5440,"the":5441,"Ġhvidt":5442,"ĠJnst":5443,"ĠMaler":5444,"Ã¸ielse":5445,"ĠallerhÃ¸ieste":5446,"ĠVerden":5447,"ĠPortugal":5448,"ĠRetter":5449,"Ġeget":5450,"Ġ1794":5451,"Ġindry":5452,"ĠArt":5453,"Ġviist":5454,"bri":5455,"Ġbegyndt":5456,"ĠTirsdag":5457,"ĠAreal":5458,"ĠAvls":5459,"ĠKaper":5460,"ĠLinieskibe":5461,"ĠRettens":5462,"ĠProcent":5463,"fisk":5464,"ĠMandskab":5465,"ĠsÃ¸ger":5466,"Ġlagttage":5467,"brudt":5468,"brud":5469,"ĠSimon":5470,"ĠovennÃ¦vnte":5471,"Ġ58":5472,"Hvor":5473,"ĠRegiments":5474,"Ġcont":5475,"ĠQvart":5476,"ĠBjer":5477,"nÃ¦st":5478,"ves":5479,"astede":5480,"sto":5481,"Ġangaaer":5482,"ĠDocumenter":5483,"ĠSchw":5484,"ĠCadix":5485,"yndige":5486,"ĠNÃ¸rregade":5487,"styr":5488,"ĠNeapel":5489,"Ġug":5490,"Ġ1798":5491,"hu":5492,"Ġinter":5493,"Ġblevet":5494,"ĠBrÃ¦ndeviinsb":5495,"have":5496,"ĠGran":5497,"ĠPorcella":5498,"tets":5499,"eland":5500,"ĠRigs":5501,"Ġtale":5502,"ĠStÃ¸v":5503,"Ġnyeste":5504,"Ãĺ":5505,"ĠAngreb":5506,"ĠSpanske":5507,"ĠNyt":5508,"ĠFadd":5509,"ĠSelv":5510,"lydende":5511,"ĠBegyndelsen":5512,"ĠHede":5513,"Ġanmeldt":5514,"ĠPrin":5515,"ĠOct":5516,"ĠAab":5517,"Ġ1833":5518,"arl":5519,"ĠBrandt":5520,"ĠAnliggender":5521,"Ġlovligt":5522,"ĠAfgr":5523,"Ã¦kket":5524,"Ġbehagede":5525,"ĠÃĺiesyn":5526,"Ġforsam":5527,"hente":5528,"Ġforsik":5529,"ĠGammel":5530,"dring":5531,"Hs":5532,"ĠSophie":5533,"ĠKammerjunker":5534,"ĠBay":5535,"ĠKe":5536,"Ġdesangaaende":5537,"raget":5538,"ĠJen":5539,"Ġnatur":5540,"ĠStÃ¦":5541,"ĠSept":5542,"ĠCapital":5543,"aus":5544,"ĠVurderingsforretningen":5545,"ĠVis":5546,"Ġundtagen":5547,"ĠKancel":5548,"ĠStudi":5549,"rÃ¦det":5550,"mun":5551,"ĠProcessens":5552,"ĠHovedgaarden":5553,"ĠWol":5554,"Ġent":5555,"ĠKamp":5556,"Ġhenven":5557,"Ġgandske":5558,"ĠHendes":5559,"frie":5560,"forsamling":5561,"ĠAgent":5562,"tur":5563,"Ġovereensstemmende":5564,"ĠSlÃ¦t":5565,"Ã¦rker":5566,"NB":5567,"Ġimodt":5568,"ĠBÃ¸ge":5569,"ĠbehÃ¸v":5570,"Ġor":5571,"Ã¸ren":5572,"ĠRiis":5573,"itaire":5574,"brug":5575,"ĠForet":5576,"ĠConsum":5577,"ministra":5578,"ĠKro":5579,"ĠFade":5580,"Ġseil":5581,"ĠSyge":5582,"ĠCavaller":5583,"ĠMaterial":5584,"ĠJlde":5585,"ĠFlyttetid":5586,"ĠÃ¸sterrigske":5587,"ĠTestamente":5588,"hias":5589,"hauge":5590,"ĠErke":5591,"Ġforbed":5592,"ĠCo":5593,"Ġdit":5594,"ĠÃĨg":5595,"ĠForpagtning":5596,"Ġtyrkiske":5597,"ĠAagaard":5598,"one":5599,"gave":5600,"Ġudgivet":5601,"dÃ¸mte":5602,"ĠMagistraten":5603,"ĠnÃ¸i":5604,"ĠmÃ¦rket":5605,"ĠValg":5606,"Ġudkommet":5607,"Ġafsagt":5608,"Ġ57":5609,"Collegi":5610,"rethe":5611,"ĠPapir":5612,"ĠGer":5613,"arius":5614,"Ġvisse":5615,"iren":5616,"blev":5617,"Ġmarsch":5618,"rivt":5619,"ĠSlots":5620,"Ber":5621,"Ġborger":5622,"ĠFanger":5623,"rÃ¦b":5624,"ĠDirecteur":5625,"ĠHustrues":5626,"ĠMaaneders":5627,"Ġmedens":5628,"ice":5629,"ĠJnds":5630,"ĠHÃ¸iesteret":5631,"ĠskiÃ¸nne":5632,"ĠLÃ¦ngde":5633,"fordring":5634,"Ġbestaae":5635,"ĠBogen":5636,"ykke":5637,"Ã¦na":5638,"ĠMarg":5639,"Ġmods":5640,"Ġventer":5641,"ĠhensÃ¦ttes":5642,"ĠJohn":5643,"ĠBorgemester":5644,"ĠBÃ¼":5645,"prÃ¦sent":5646,"dyr":5647,"ĠLiebhabere":5648,"nende":5649,"ĠDef":5650,"rÃ¦er":5651,"ĠSkat":5652,"ĠPascha":5653,"ĠSÃ¦d":5654,"ĠFarver":5655,"ĠRevolution":5656,"mÃ¸lle":5657,"Ġudenlandske":5658,"stÃ¦ndig":5659,"ĠEgne":5660,"iers":5661,"Ġaccorder":5662,"Ġherpaa":5663,"ĠsÃ¦l":5664,"ĠFattige":5665,"Ġantages":5666,"Ġkomne":5667,"ĠGrunde":5668,"ĠKram":5669,"Fran":5670,"trÃ¦er":5671,"ĠSkrift":5672,"Ġindhegnet":5673,"kede":5674,"ĠRbmk":5675,"Ã¸ber":5676,"ĠMeyer":5677,"ms":5678,"Directeur":5679,"ĠClausen":5680,"ĠHÃ¦":5681,"chs":5682,"fabri":5683,"cip":5684,"ĠPiger":5685,"ĠSÃ¸nner":5686,"ĠRaadstuen":5687,"orph":5688,"ordingborg":5689,"ftede":5690,"Ġfortrinlig":5691,"rÃ¸":5692,"diction":5693,"Ġoprettet":5694,"ĠThee":5695,"kler":5696,"ĠAgt":5697,"delen":5698,"Ġbetydeligt":5699,"gn":5700,"ĠanfÃ¸rte":5701,"directeur":5702,"Ġafre":5703,"17":5704,"Ġ68":5705,"Ġter":5706,"Ã¸ll":5707,"ĠChat":5708,"ĠTiltalte":5709,"com":5710,"ĠWand":5711,"Ġbar":5712,"ĠEv":5713,"ĠBelÃ¸b":5714,"KjÃ¸benhavn":5715,"akker":5716,"ĠTugt":5717,"ĠSpÃ¸rg":5718,"Formedelst":5719,"chi":5720,"mag":5721,"Ġsamlede":5722,"hÃ¦ngt":5723,"ĠHals":5724,"havn":5725,"icht":5726,"rÃ¦ndt":5727,"Ġhvorunder":5728,"ĠHaders":5729,"ĠSkom":5730,"yndere":5731,"vning":5732,"stevnte":5733,"ĠEder":5734,"ath":5735,"enborg":5736,"ĠSkrÃ¦der":5737,"ĠSchul":5738,"leb":5739,"tages":5740,"Ġforsvar":5741,"ĠudstÃ¦dte":5742,"Ġkommet":5743,"Ġuh":5744,"ĠLÃ¦rer":5745,"Ġformodentlig":5746,"ĠRegimenter":5747,"undende":5748,"Ġfl":5749,"Ġtilforn":5750,"ĠBidrag":5751,"ĠBre":5752,"ryd":5753,"Ġsende":5754,"ĠSkolel":5755,"Ġbesat":5756,"ĠClaus":5757,"ĠFreden":5758,"ble":5759,"ĠGodhed":5760,"Ġfe":5761,"Ġube":5762,"yge":5763,"ĠNapoleon":5764,"Ġerindre":5765,"ĠHovedet":5766,"Ġtjen":5767,"randen":5768,"Ġulykkelige":5769,"ĠForfatning":5770,"ĠKul":5771,"ĠErfar":5772,"ĠBaad":5773,"ĠVÃ¦rdie":5774,"ĠÂ½":5775,"Ġul":5776,"ĠMichaeli":5777,"ĠÃ¦gte":5778,"ĠHefte":5779,"andse":5780,"Ġforbemeldte":5781,"ĠSkiftecommission":5782,"samme":5783,"ĠZe":5784,"ĠÃ¦r":5785,"ĠOprÃ¸r":5786,"Ġforaars":5787,"ĠsÃ¸rgelig":5788,"Ã¦vet":5789,"ĠQvar":5790,"behandling":5791,"Obligation":5792,"ĠSyd":5793,"diteur":5794,"Dom":5795,"Ġgen":5796,"merne":5797,"rio":5798,"entz":5799,"Ġerob":5800,"Ġ800":5801,"ĠHÃ¸st":5802,"Retten":5803,"ĠLÃ¸b":5804,"ĠFare":5805,"ĠBlomster":5806,"ĠFÃ¦ngsel":5807,"Ġstyr":5808,"omet":5809,"ĠPligt":5810,"ĠBeretninger":5811,"kastet":5812,"aag":5813,"ĠPot":5814,"ĠEsk":5815,"ĠRusserne":5816,"ĠÃĺstersÃ¸":5817,"ĠSiÃ¦l":5818,"ĠLolland":5819,"ĠEders":5820,"iz":5821,"Ġslut":5822,"ikanske":5823,"ĠMÃ¦g":5824,"ike":5825,"ĠÃ¦dle":5826,"ĠAfs":5827,"ĠWar":5828,"offic":5829,"10":5830,"Ġpubli":5831,"ĠindtrÃ¦":5832,"Ġsande":5833,"ĠMos":5834,"ission":5835,"redskaber":5836,"empel":5837,"elling":5838,"stykker":5839,"ĠBend":5840,"ĠRolighed":5841,"ĠMajests":5842,"ĠAct":5843,"ĠUnderstÃ¸":5844,"Ġval":5845,"Ġmiste":5846,"raph":5847,"ĠStykket":5848,"ĠBelig":5849,"Sp":5850,"Ġvende":5851,"ĠmÃ¸r":5852,"ĠgrÃ¸n":5853,"ĠPosten":5854,"Ġ1791":5855,"ielle":5856,"ĠMilitair":5857,"ĠTri":5858,"afvigte":5859,"ĠKiÃ¸besummen":5860,"hrr":5861,"ĠTyverie":5862,"ĠLitr":5863,"orefter":5864,"Ã¦stgiver":5865,"ĠReisende":5866,"Ġanven":5867,"dragelse":5868,"da":5869,"ĠGjen":5870,"ĠSkive":5871,"stÃ¦de":5872,"bedet":5873,"ĠCommandeur":5874,"tshuus":5875,"ĠLinnet":5876,"ĠBrÃ¦ndeviinsbrÃ¦nder":5877,"ĠfÃ¸":5878,"ĠSumma":5879,"skrÃ¦n":5880,"ĠHas":5881,"lÃ¦gger":5882,"ĠAmb":5883,"uhr":5884,"ĠRud":5885,"kjÃ¸bing":5886,"Ġsyd":5887,"ĠPaul":5888,"Ġforbli":5889,"ĠHat":5890,"ĠOps":5891,"ĠRbs":5892,"Ġ59":5893,"ftige":5894,"ĠFlo":5895,"ĠMagter":5896,"Ġadskil":5897,"ĠDeeltagelse":5898,"ĠExam":5899,"meel":5900,"ĠAlli":5901,"ĠDronningens":5902,"Ġhaben":5903,"Ġforl":5904,"stÃ¦der":5905,"yes":5906,"ĠpÃ¦na":5907,"ades":5908,"Ġafb":5909,"Ġistand":5910,"ĠBorn":5911,"lum":5912,"ĠRÃ¸d":5913,"Ġ67":5914,"Ġstad":5915,"ĠOverrets":5916,"ĠLyng":5917,"ĠMarker":5918,"12":5919,"ĠSÃ¦r":5920,"ĠProvindser":5921,"Ġledig":5922,"provst":5923,"Ġbegive":5924,"Om":5925,"Ġubek":5926,"ĠFiske":5927,"ĠRepublik":5928,"ĠErklÃ¦ring":5929,"ĠStude":5930,"Ġfru":5931,"ĠAfgiv":5932,"atus":5933,"indsens":5934,"Ġforef":5935,"Ġslige":5936,"Ġung":5937,"Ġbid":5938,"ĠBekjendt":5939,"ĠBuch":5940,"karl":5941,"ĠTydskland":5942,"set":5943,"ĠMÃ¸llen":5944,"gerne":5945,"Ġerfare":5946,"Ġpolitiske":5947,"ĠudmÃ¦rket":5948,"ĠJon":5949,"ĠCompagniets":5950,"ĠJose":5951,"Ã¶l":5952,"ĠRigtighed":5953,"risk":5954,"ĠSviin":5955,"ĠfÃ¶r":5956,"Ġmoderne":5957,"Ġalvor":5958,"ĠSang":5959,"ĠFlor":5960,"aille":5961,"Ġ76":5962,"Odense":5963,"ĠParlam":5964,"artner":5965,"ĠHandelen":5966,"ĠTrÃ¦e":5967,"Ġreise":5968,"Ġstri":5969,"ĠWul":5970,"Ġnach":5971,"lach":5972,"elen":5973,"tisk":5974,"han":5975,"Ġfrit":5976,"Ġafseil":5977,"regler":5978,"Ġsnarest":5979,"ĠHvo":5980,"ĠBergens":5981,"vang":5982,"ĠMarken":5983,"Ġmidt":5984,"ĠLÃ¦re":5985,"ĠCollegi":5986,"Ġist":5987,"lutningen":5988,"Ġattr":5989,"ĠPassager":5990,"anderborg":5991,"Ġtrende":5992,"ĠKiÃ¦r":5993,"ĠpaafÃ¸lgende":5994,"Ġbortkalde":5995,"ĠExcellen":5996,"Ġskrift":5997,"ĠMange":5998,"Ġsiges":5999,"Ġ1500":6000,"ĠHansens":6001,"ĠStri":6002,"ĠNed":6003,"ĠDeele":6004,"ĠhervÃ¦rende":6005,"ove":6006,"deren":6007,"ĠFro":6008,"ais":6009,"rukne":6010,"ask":6011,"ĠKli":6012,"Ġmeldt":6013,"ĠOpstander":6014,"Ġ250":6015,"ĠSkrifter":6016,"ĠKjÃ¸benhavns":6017,"ption":6018,"Ġ102":6019,"Ġopst":6020,"Ġtaler":6021,"ĠFyens":6022,"ĠsÃ¦ttes":6023,"ĠFÃ¦stningen":6024,"Ã¸rsel":6025,"Ġaabne":6026,"Ġops":6027,"ĠForfatteren":6028,"ĠMÃ¸":6029,"ĠForÃ¦ldre":6030,"ĠsaalÃ¦nge":6031,"faldne":6032,"fs":6033,"ovn":6034,"ĠhÃ¸iere":6035,"ĠPrÃ¸ve":6036,"Ġfiendtlige":6037,"Red":6038,"ested":6039,"Ġudsat":6040,"Ġopp":6041,"ĠTop":6042,"vares":6043,"dsen":6044,"Ġhellige":6045,"ĠErstatning":6046,"ĠFlag":6047,"entsraad":6048,"Ġfandtes":6049,"major":6050,"ĠBygningerne":6051,"ĠSkoem":6052,"ĠGangklÃ¦der":6053,"ĠLauri":6054,"ĠJohann":6055,"attede":6056,"ĠdernÃ¦st":6057,"ĠUro":6058,"ĠJourn":6059,"ĠForretninger":6060,"Ġsendte":6061,"vad":6062,"ĠÃĺer":6063,"ĠBorgere":6064,"Ġderudi":6065,"ĠGrÃ¦ndse":6066,"ĠOt":6067,"skrivt":6068,"dste":6069,"fi":6070,"ĠAdvocat":6071,"ĠFlÃ¸":6072,"ĠsÃ¦rskil":6073,"ĠHerreder":6074,"qvar":6075,"bon":6076,"ĠtilstrÃ¦kkelig":6077,"ĠBortforp":6078,"ĠTrykp":6079,"ĠWester":6080,"ĠbemÃ¦rkes":6081,"ineret":6082,"ĠLangel":6083,"ukker":6084,"ĠBestem":6085,"ĠPrÃ¦mie":6086,"ĠBÃ¸g":6087,"lers":6088,"ĠAuctioners":6089,"ĠHÃ¦r":6090,"Ġbegaaet":6091,"Re":6092,"ĠUnderhandling":6093,"Ġoffic":6094,"Ġant":6095,"Ġelsk":6096,"ĠBul":6097,"Ġfastsatte":6098,"ĠLev":6099,"Ġfersk":6100,"kul":6101,"ĠEgen":6102,"Ġoverbe":6103,"Ġfulde":6104,"ĠKjer":6105,"ĠEmbedsmÃ¦nd":6106,"ĠKgl":6107,"ĠFrÃ¸ken":6108,"Ġviser":6109,"Ġansat":6110,"ĠFest":6111,"Ġforsynede":6112,"ĠPakhuus":6113,"ĠSchwe":6114,"toft":6115,"ĠJnspecteur":6116,"Ġ73":6117,"lerne":6118,"ĠlÃ¦re":6119,"ĠbekrÃ¦":6120,"ĠMartin":6121,"mands":6122,"bu":6123,"idsen":6124,"ĠGivet":6125,"aterne":6126,"Ã¦gter":6127,"Ġwerden":6128,"ĠOpp":6129,"Ġforevise":6130,"ĠSach":6131,"pro":6132,"ĠLods":6133,"Ġopholdt":6134,"ĠhenhÃ¸rende":6135,"ilien":6136,"Ġfem":6137,"Ġmaattet":6138,"Ġfalde":6139,"ĠGrevskabet":6140,"ftelse":6141,"ĠbehÃ¸ve":6142,"ĠVÃ¦rd":6143,"edag":6144,"ras":6145,"aards":6146,"ĠStiftamt":6147,"Ġbekjendte":6148,"ĠKiÃ¸bstÃ¦d":6149,"Ġagtes":6150,"kers":6151,"indring":6152,"rets":6153,"ĠMet":6154,"ĠDurch":6155,"Ġskeete":6156,"Ġudkomne":6157,"Sel":6158,"ĠBatter":6159,"Ġconstitueret":6160,"ĠforhenvÃ¦rende":6161,"Ġkl":6162,"ĠTheater":6163,"ĠBelÃ¸nning":6164,"orth":6165,"Ġindbunden":6166,"ĠEil":6167,"Ġhast":6168,"ĠPrÃ¦di":6169,"Commissionen":6170,"ĠFormue":6171,"falde":6172,"Ste":6173,"ĠCab":6174,"ont":6175,"hÃ¸rende":6176,"Ġtilkommende":6177,"illum":6178,"lÃ¦st":6179,"ĠVinden":6180,"Ġforanst":6181,"ĠNB":6182,"ĠResidentsstad":6183,"giveren":6184,"Ġbegynde":6185,"sku":6186,"cus":6187,"Ġtagen":6188,"Ġ78":6189,"ĠSkilling":6190,"ĠExtra":6191,"ĠJanuari":6192,"kiendelse":6193,"ĠKlÃ¦der":6194,"ĠOpf":6195,"ĠSkiftebehandling":6196,"ay":6197,"ĠBegrav":6198,"ĠEmbede":6199,"ĠSmed":6200,"ĠOpmÃ¦rk":6201,"Ġ1788":6202,"ĠforfÃ¦rdig":6203,"ĠHvorefter":6204,"kelt":6205,"ĠAmager":6206,"ĠFjen":6207,"ĠMette":6208,"vold":6209,"ĠLocum":6210,"lÃ¦r":6211,"ĠAggershuus":6212,"ĠMening":6213,"tiget":6214,"Ġport":6215,"ĠMÃ¸llers":6216,"ĠHver":6217,"ĠForkyn":6218,"jord":6219,"ĠAnt":6220,"Ġwel":6221,"ĠHandlende":6222,"ĠUndersÃ¸g":6223,"Ġfald":6224,"ĠGiel":6225,"otteriets":6226,"ĠNab":6227,"kter":6228,"dets":6229,"Ġhaaber":6230,"Ġ1787":6231,"Ġafhente":6232,"Ġsmukt":6233,"rebet":6234,"velse":6235,"ĠTidende":6236,"Ġpasserede":6237,"ĠKort":6238,"ĠKun":6239,"ĠBetalingen":6240,"lau":6241,"Ġbehagelige":6242,"jutant":6243,"ĠÃĺstersÃ¸en":6244,"Ġerk":6245,"Ġsim":6246,"ĠDirection":6247,"lesk":6248,"iist":6249,"........":6250,"ĠDor":6251,"Ġger":6252,"ĠSeng":6253,"ĠAlm":6254,"Ġ175":6255,"ĠFods":6256,"aarup":6257,"ĠRegieringen":6258,"ĠopfÃ¸rt":6259,"bliothe":6260,"indtil":6261,"Ġindtru":6262,"dem":6263,"ĠSyvende":6264,"rage":6265,"Ġhollandske":6266,"indt":6267,"ĠPilest":6268,"ĠKlasse":6269,"Ġgiennem":6270,"pladsen":6271,"ĠunderstÃ¸":6272,"Ã¦vne":6273,"ĠNicolai":6274,"General":6275,"ĠFolke":6276,"ĠAand":6277,"ĠBri":6278,"ĠDeputerede":6279,"bod":6280,"ĠBanco":6281,"kirke":6282,"ĠProvindserne":6283,"ĠDhrr":6284,"ĠDie":6285,"Ġleveres":6286,"ĠKiÃ¸bmager":6287,"aaen":6288,"ĠForsi":6289,"ĠJordlod":6290,"ĠKapitain":6291,"Ġarbeide":6292,"ĠKle":6293,"ĠSkrivp":6294,"ĠfÃ¦rdig":6295,"pl":6296,"ĠVillie":6297,"Ġopholder":6298,"iteur":6299,"gifter":6300,"deret":6301,"ĠJustits":6302,"Ġsepar":6303,"trolle":6304,"Ġjust":6305,"ĠScheel":6306,"ĠVestindien":6307,"ĠPlacat":6308,".:":6309,"Ġformeene":6310,"ĠStil":6311,"ĠPorcellain":6312,"ulds":6313,"ĠJndvaanerne":6314,"Ġpreussiske":6315,"Ġudredes":6316,"Ġ6000":6317,"ĠThomsen":6318,"Ġum":6319,"ĠtrÃ¦kke":6320,"oge":6321,"ee":6322,"Ġaccorderes":6323,"oget":6324,"sters":6325,"iderende":6326,"olds":6327,"Ġbrug":6328,"egnede":6329,"vigen":6330,"Ġbier":6331,"ĠFragt":6332,"ĠFrugttrÃ¦er":6333,"agtig":6334,"Ã¸rn":6335,"ĠRigsd":6336,"Ġoverordentlig":6337,"ĠBeliggenhed":6338,"ĠFoust":6339,"bud":6340,"ĠFrederiks":6341,"domme":6342,"pt":6343,"ĠBeqvem":6344,"ĠMusik":6345,"xer":6346,"ĠPlak":6347,"Ã¼ck":6348,"ĠTitel":6349,"idel":6350,"Ġ83":6351,"ĠSidste":6352,"Ġdateret":6353,"Commiss":6354,"Ġdat":6355,"ĠSamt":6356,"ĠMolt":6357,"ĠOpdag":6358,"yldte":6359,"ĠTrÃ¦er":6360,"ville":6361,"Ġanmeldte":6362,"Ġtilleie":6363,"ĠSammen":6364,"ĠophÃ¦ves":6365,"ĠLegiti":6366,"Ġ69":6367,"20":6368,"Ġ71":6369,"Ġjydske":6370,"hove":6371,"Alle":6372,"traa":6373,"bra":6374,"Ġte":6375,"ĠTropperne":6376,"ĠBogh":6377,"ĠRÃ¸r":6378,"ners":6379,"Ġafsked":6380,"Ġ101":6381,"ĠRam":6382,"ffende":6383,"ĠPrindsesse":6384,"denhed":6385,"rave":6386,"ĠGrÃ¦ndser":6387,"Ġhine":6388,"Ġ1786":6389,"ĠKrÃ¦":6390,"ĠStatstidende":6391,"orges":6392,"Ġhelst":6393,"ĠExecutor":6394,"ĠAlmindelighed":6395,"stadt":6396,"rien":6397,"ĠMiddagen":6398,"ĠKiÃ¸ge":6399,"ĠCommissionen":6400,"Ġuaf":6401,"eligen":6402,"Ã¦tningen":6403,"ĠRap":6404,"ĠSaaledes":6405,"ĠLyn":6406,"Ġnedlagt":6407,"bier":6408,"Ġfier":6409,"igter":6410,"kf":6411,"Â¬":6412,"ĠFinants":6413,"Ġ1793":6414,"ĠGie":6415,"ĠPublicum":6416,"Aarhuus":6417,"ĠJoseph":6418,"Am":6419,"Ġtrykt":6420,"usch":6421,"ĠHjÃ¸rnet":6422,"ĠQu":6423,"ĠGesand":6424,"ĠGro":6425,"ript":6426,"melser":6427,"ĠKyst":6428,"ĠVÃ¦relse":6429,"skrive":6430,"ĠLoft":6431,"ĠSem":6432,"ĠConstitution":6433,"ĠVÃ¦gt":6434,"ĠBonaparte":6435,"vÃ¦sens":6436,"tegnedes":6437,"roner":6438,"Ã¸st":6439,"ĠstÃ¦rkt":6440,"Capitain":6441,"nÃ¦s":6442,"ĠStok":6443,"ĠMagaz":6444,"ĠBrandkassen":6445,"ĠstrÃ¦n":6446,"ovne":6447,"Ġunderliggende":6448,"retten":6449,"ĠLÃ¸verdag":6450,"Ġpligt":6451,"ĠFridericia":6452,"Ġhuus":6453,"Ġudrede":6454,"ĠJnsur":6455,"tro":6456,"ĠKrigskibe":6457,"ĠTronhiem":6458,"ellerup":6459,"Ġbeskad":6460,"deleshed":6461,"ĠUh":6462,"ĠForhuus":6463,"ĠForuden":6464,"Ġanseelig":6465,"ĠJustiti":6466,"Huus":6467,"ĠSÃ¦bye":6468,"Ġ1789":6469,"ĠSkolelÃ¦rer":6470,"ĠSalarium":6471,"heim":6472,"Ġneden":6473,"ĠHollÃ¦nder":6474,"ĠKiÃ¸kk":6475,"ĠNÃ¦rmere":6476,"inding":6477,"ĠAlgier":6478,"ĠPublik":6479,"ĠArtikel":6480,"kontoiret":6481,"ĠÃĨgte":6482,"Ã¶b":6483,"ĠEiendommene":6484,"Ġforskel":6485,"Ġfulgte":6486,"ĠudmÃ¦rkede":6487,"oule":6488,"ĠUnd":6489,"ĠRec":6490,"ĠRedskaber":6491,"ĠAttester":6492,"ĠFreds":6493,"Ġ77":6494,"ĠBÃ¸d":6495,"isch":6496,"ĠAdministra":6497,"ĠFÃ¦dren":6498,"ĠDannebrogen":6499,"ĠPrivileg":6500,"ĠGartner":6501,"egaarden":6502,"Ġoprettede":6503,"ĠPart":6504,"ĠReser":6505,"Ġbringes":6506,"ĠTorvet":6507,"ĠDepartement":6508,"Ġhenvender":6509,"ĠBÃ¸rs":6510,"phi":6511,"ĠCarol":6512,"ĠDennes":6513,"conto":6514,"ĠlÃ¸s":6515,"ĠOper":6516,"ĠFinder":6517,"Ġsch":6518,"ĠÃĺstergade":6519,"oth":6520,"ĠmÃ¦lde":6521,"Ġtegl":6522,"ĠBaand":6523,"Ġerst":6524,"ĠGrad":6525,"ischen":6526,"Ġpluds":6527,"tocoller":6528,"ĠUdboe":6529,"Ġopgivet":6530,"ĠIndretning":6531,"ĠÃ¦rede":6532,"ĠLou":6533,"ĠGrÃ¦kerne":6534,"ĠbemÃ¦ldte":6535,"ffet":6536,"ĠoverflÃ¸d":6537,"ydende":6538,"ĠRytter":6539,"Em":6540,"lotte":6541,"ĠTydske":6542,"ĠDrammen":6543,"ĠBÃ¸ndergods":6544,"ulerede":6545,"ĠSubsc":6546,"ĠMellem":6547,"respon":6548,"ĠBomuld":6549,"ĠStiftet":6550,"ĠfortÃ¦l":6551,"Ġistedet":6552,"ĠLevnetsmidler":6553,"ĠUndersaatter":6554,"ĠFallitboe":6555,"slaget":6556,"ĠHellig":6557,"byder":6558,"Ex":6559,"regi":6560,"ĠHovedgaards":6561,"laaet":6562,"Ġopbydes":6563,"formynder":6564,"sal":6565,"Ġsaaes":6566,"ĠSkomager":6567,"Ġcommander":6568,"tÃ¸i":6569,"tsch":6570,"fÃ¸relse":6571,"ĠLove":6572,"ĠAfgrÃ¸de":6573,"dsp":6574,"lens":6575,"ĠChristiansborg":6576,"lot":6577,"alborg":6578,"stings":6579,"ĠJlden":6580,"tzen":6581,"Ġbeboes":6582,"belte":6583,"torv":6584,"ĠOpmÃ¦rksomhed":6585,"hvor":6586,"ĠBiÃ¸r":6587,"ĠCaffe":6588,"ĠExempel":6589,"Ġafholdte":6590,"esser":6591,"Ġmeddele":6592,"hus":6593,"ĠAfgang":6594,"iret":6595,"Ġ174":6596,"Ġjuris":6597,"ĠBlod":6598,"ĠSkuespil":6599,"varende":6600,"Ġderhen":6601,"ĠPassagerer":6602,"ĠKiÃ¸beren":6603,"ĠGrunds":6604,"ĠFast":6605,"hÃ¦nde":6606,"Ġrigtig":6607,"ĠManden":6608,"ĠEfterladenskaber":6609,"ĠWest":6610,"ĠBÃ¸rne":6611,"ĠMorten":6612,"ive":6613,"ĠOpfÃ¸rsel":6614,"ĠRit":6615,"ĠCandid":6616,"Ã¦vning":6617,"ordentlige":6618,"Ġ1785":6619,"flydelse":6620,"ĠJsen":6621,"Ġoptaget":6622,"ĠWin":6623,"ĠCron":6624,"Ã¦res":6625,"ĠExcellence":6626,"ĠStudent":6627,"ĠReprÃ¦sent":6628,"ĠBie":6629,"Ġdin":6630,"Ġgyldig":6631,"ĠrÃ¸de":6632,"mÃ¦rkninger":6633,"ĠLille":6634,"ĠGouverne":6635,"Proc":6636,"igheden":6637,"Ġassureret":6638,"ĠJun":6639,"riis":6640,"ĠBortforpagtning":6641,"ĠTime":6642,"Ġeftersom":6643,"Ġforsikr":6644,"trolleur":6645,"ĠForholdsregler":6646,"Ġindeholdende":6647,"Ġudvi":6648,"ĠAnn":6649,"ĠAftens":6650,"berget":6651,"corps":6652,"ĠStudios":6653,"Ġta":6654,"Ġforven":6655,"ĠFon":6656,"ĠHollandske":6657,"Ġfiint":6658,"ĠMinistre":6659,"ĠStock":6660,"ĠfÃ¸rstk":6661,"ĠAnmodning":6662,"ĠSeier":6663,"Ġindeholde":6664,"ĠSkoemager":6665,"Ma":6666,"fe":6667,"Ġfin":6668,"ĠFrederikshavn":6669,"ttre":6670,"betaling":6671,"ĠUnderstÃ¸ttelse":6672,"Ġbey":6673,"Ã¦tninger":6674,"Arv":6675,"ĠUmyndiges":6676,"ĠUdfald":6677,"ĠColl":6678,"ĠForsk":6679,"ĠtilhÃ¸rer":6680,"garn":6681,"ligheden":6682,"Ġresiderende":6683,"Ġformodes":6684,"ĠAmbass":6685,"ĠForbry":6686,"reditorerne":6687,"Ġ130":6688,"ett":6689,"ĠEndeel":6690,"zer":6691,"Gaarden":6692,"celler":6693,"krige":6694,"Ġvestindiske":6695,"Jeg":6696,"fler":6697,"ĠSchÃ¸n":6698,"ĠRegierings":6699,"ĠCorsÃ¸er":6700,"aarne":6701,"isses":6702,"ĠDistrict":6703,"ĠTract":6704,"ĠNÃ¦rvÃ¦relse":6705,"Ã¦k":6706,"ĠStal":6707,"urs":6708,"Ġholdte":6709,"ĠRis":6710,"rud":6711,"manns":6712,"ĠhÃ¸itidelig":6713,"Ġforundt":6714,"oder":6715,"Ã¦iske":6716,"ĠPrivat":6717,"ĠAnmeldelse":6718,"delses":6719,"Ġ84":6720,"Hol":6721,"ĠTilbage":6722,"mati":6723,"ĠKarto":6724,"Ġfrygt":6725,"Ġforvaltere":6726,"ĠLaans":6727,"ĠSaarede":6728,"Ġaver":6729,"steret":6730,"ĠCredit":6731,"ĠJernfang":6732,"Ġrolig":6733,"Ġ79":6734,"Ġfordeelagtig":6735,"Ġtilkjende":6736,"ĠPrÃ¦sident":6737,"Ġopgive":6738,"hau":6739,"ĠCourant":6740,"teres":6741,"ĠBendz":6742,"ĠSou":6743,"Ġpaasee":6744,"ĠReisen":6745,"ĠMiddelfart":6746,"Ġombedes":6747,"ĠSkind":6748,"ften":6749,"lier":6750,"kkeligt":6751,"ĠTall":6752,"ĠMeel":6753,"ĠMathias":6754,"ĠFerdin":6755,"ĠSognekal":6756,"Aalborg":6757,"Ġsolgtes":6758,"ĠHumle":6759,"rittiske":6760,"bÃ¸ll":6761,"Ġno":6762,"ĠAuditeur":6763,"ĠÃĨrter":6764,"Ġbruge":6765,"ĠCong":6766,"ĠExemplarer":6767,"boes":6768,"ĠgiÃ¸res":6769,"Ġenkelt":6770,"ĠSlottet":6771,"Ġhenved":6772,"plan":6773,"ĠCathar":6774,"elagt":6775,"ĠAuctionerne":6776,"ĠForh":6777,"Ġburde":6778,"vÃ¦rker":6779,"ĠÃ¦ldste":6780,"ĠRem":6781,"ĠBaa":6782,"ĠFlid":6783,"lingen":6784,"ĠKnu":6785,"rivate":6786,"ĠKister":6787,"ĠTa":6788,"ĠskrÃ¦":6789,"ĠberÃ¸rte":6790,"verse":6791,"Ġoppeb":6792,"gaars":6793,"Som":6794,"ĠNummere":6795,"Ġdig":6796,"ĠWeile":6797,"ĠLam":6798,"Kong":6799,"ĠSkifteretten":6800,"ĠlÃ¦gge":6801,"ĠHempel":6802,"ite":6803,"Ġduelig":6804,"kommission":6805,"ĠHov":6806,"Ġaus":6807,"endahl":6808,"ĠVexel":6809,"ĠEfterat":6810,"sa":6811,"ua":6812,"lama":6813,"pass":6814,"ĠTredie":6815,"Ġsagt":6816,"ĠDoms":6817,"Ġnaad":6818,"rust":6819,"anken":6820,"Ġsaameget":6821,"Ġsalig":6822,"jene":6823,"ĠskjÃ¸nne":6824,"ĠerklÃ¦rede":6825,"inal":6826,"ĠSult":6827,"ĠDannem":6828,"ĠLaugvÃ¦rge":6829,"ĠlÃ¦rde":6830,"ze":6831,"Ġforen":6832,"Ġkra":6833,"Ġeiende":6834,"ĠGrunden":6835,"ĠKroe":6836,"ĠFischer":6837,"isiske":6838,"ĠFÃ¦gt":6839,"oger":6840,"ĠHei":6841,"ĠBirket":6842,"ĠfornÃ¸":6843,"ĠForkyndelse":6844,"Ġitem":6845,"Ġforbi":6846,"ĠAmal":6847,"ĠKand":6848,"ĠProvi":6849,"ĠLÃ¸g":6850,"ific":6851,"ĠKaa":6852,"ĠPundet":6853,"ĠHobroe":6854,"ĠEngeland":6855,"ĠBataillon":6856,"ĠSkabe":6857,"ĠHovedqvarteer":6858,"Ġhenimod":6859,"Ã¸dder":6860,"ĠDyt":6861,"ĠKirker":6862,"Ġmistet":6863,"ĠBetragtning":6864,"ĠOmstÃ¦ndighederne":6865,"ĠSax":6866,"ĠEfterladenskab":6867,"ograph":6868,"staae":6869,"ĠGryn":6870,"Ġ20000":6871,"ĠtilstÃ¦de":6872,"affel":6873,"Ġmer":6874,"ĠSky":6875,"ĠerlÃ¦gges":6876,"givelse":6877,"ĠStol":6878,"ĠJam":6879,"ĠWo":6880,"ĠDefens":6881,"ĠTilbe":6882,"Ġboer":6883,"ĠfÃ¸dte":6884,"ĠNeg":6885,"Herred":6886,"uget":6887,"Ġreist":6888,"Ġsvarede":6889,"fÃ¦ste":6890,"ĠHeld":6891,"ĠGram":6892,"Krig":6893,"ĠScho":6894,"ypten":6895,"ĠVeile":6896,"ĠMiddags":6897,"ffes":6898,"ĠStatsraad":6899,"ĠHoffet":6900,"essel":6901,"deres":6902,"Ġvurder":6903,"ĠKrist":6904,"Ġbefinder":6905,"iis":6906,"Ġ88":6907,"Ġ82":6908,"ampe":6909,"mbr":6910,"Skrivelse":6911,"ĠgjÃ¸r":6912,"Ġpaali":6913,"ĠGru":6914,"ĠAdressekontoiret":6915,"lesen":6916,"ful":6917,"ĠOfficeer":6918,"ĠJuul":6919,"Le":6920,"ĠSÃ¸d":6921,"onne":6922,"rier":6923,"ĠOrlog":6924,"ĠManuf":6925,"ĠKons":6926,"deele":6927,"ĠAa":6928,"Ġafgaae":6929,"ĠnÃ¸dvendig":6930,"Ġtroede":6931,"agende":6932,"Ġforlod":6933,"Ġufort":6934,"Ġansee":6935,"Ġ1200":6936,"Ġforsvare":6937,"ĠBeqvemmelig":6938,"rat":6939,"ĠNords":6940,"ĠerlÃ¦gge":6941,"Ġhidindtil":6942,"ĠsÃ¸rgeligst":6943,"ĠVirksomhed":6944,"ĠStykgods":6945,"Ġsaare":6946,"Ġbivaan":6947,"ĠAnlÃ¦g":6948,"ĠJnge":6949,"ĠDal":6950,"ydsk":6951,"ĠTim":6952,"ommens":6953,"ĠÃ¦ldre":6954,"ĠCant":6955,"ĠFartÃ¸ier":6956,"Ġavles":6957,"Ġtilgode":6958,"ĠCallundborg":6959,"ĠAsiatiske":6960,"Cours":6961,"ĠGulds":6962,"ĠWandall":6963,"Compagn":6964,"Ġ85":6965,"skaffe":6966,"Ġkommende":6967,"ilt":6968,"ysi":6969,"olit":6970,"ĠJurisdiction":6971,"yttelse":6972,"Kammer":6973,"----":6974,"ĠActier":6975,"ĠStedets":6976,"tiende":6977,"ĠFremgang":6978,"ĠEd":6979,"ĠVagt":6980,"astrup":6981,"uner":6982,"ĠLuft":6983,"ĠStabel":6984,"ĠEndelig":6985,"Ġordentlig":6986,"ĠSkud":6987,"ĠProdu":6988,"ĠBomulds":6989,"ĠFyrsten":6990,"ĠBouti":6991,"ĠUdsÃ¦d":6992,"erte":6993,"ĠÃĺine":6994,"Ġanseet":6995,"ĠHiem":6996,"Ġborgerlige":6997,"ĠbekiendtgiÃ¸rende":6998,"ĠVÃ¦rge":6999,"ĠKiÃ¸bmagergade":7000,"sÃ¸ge":7001,"ĠGale":7002,"ĠBudol":7003,"Ny":7004,"ĠHospit":7005,"ĠLÃ¸v":7006,"gge":7007,"ĠCommando":7008,"ĠHerberget":7009,"ĠAmtstue":7010,"lew":7011,"ĠJnteresse":7012,"Ġges":7013,"ĠOvereen":7014,"ĠJfÃ¸lge":7015,"ĠKalk":7016,"ĠnuvÃ¦rende":7017,"Ġundgaae":7018,"rob":7019,"giel":7020,"ĠMoltke":7021,"ĠCond":7022,"Ġnet":7023,"Ġlu":7024,"ĠFortegnelse":7025,"shald":7026,"ĠHann":7027,"ĠKri":7028,"ĠAvertissements":7029,"ĠCarac":7030,"ĠFac":7031,"Ġbestod":7032,"ĠSkjeb":7033,"intet":7034,"Ġreiste":7035,"Ġforskellige":7036,"orf":7037,"ĠHÃ¦nde":7038,"randede":7039,"ĠPrÃ¦sten":7040,"ĠDort":7041,"onner":7042,"Ġhvo":7043,"ĠLiebhaverne":7044,"ĠMog":7045,"slev":7046,"ĠArrestanten":7047,"ĠVice":7048,"ĠVaanings":7049,"ĠFredens":7050,"Ġ1783":7051,"ĠPedersdatter":7052,"ĠgrÃ¦ske":7053,"ĠTyl":7054,"ĠDavid":7055,"ĠSpidsen":7056,"ĠJndflydelse":7057,"ĠMorges":7058,"britt":7059,"ĠBÃ¼low":7060,"able":7061,"byde":7062,"Ġstr":7063,"Ġopn":7064,"Ġtv":7065,"Ġso":7066,"ĠJydske":7067,"Ġfriske":7068,"sioner":7069,"Ġtiene":7070,"ĠFÃ¦drelandet":7071,"ĠSundet":7072,"vÃ¦rd":7073,"ĠDebi":7074,"delu":7075,"Ġigaar":7076,"ĠHerredsfog":7077,"anne":7078,"ĠLÃ¦der":7079,"ĠAgtelse":7080,"drer":7081,"stein":7082,"Bog":7083,"ecretair":7084,"Ġbefandt":7085,"usinde":7086,"ĠAarh":7087,"ĠFranz":7088,"ĠJensdatter":7089,"fÃ¸l":7090,"ĠFÃ¦l":7091,"ĠFrankrige":7092,"mÃ¦ssige":7093,"staxt":7094,"Ġlignende":7095,"ĠPrioritets":7096,"ĠLÃ¦ng":7097,"ĠLege":7098,"ĠBevÃ¦gelse":7099,"talt":7100,"ĠBrÃ¸dre":7101,"vÃ¦rks":7102,"ĠPigen":7103,"ĠDepes":7104,"Ġsvare":7105,"ĠTar":7106,"ĠAuktion":7107,"tagende":7108,"cul":7109,"ĠSkor":7110,"ĠKlub":7111,"Ġudb":7112,"Ġbortsti":7113,"Ġbekjendtgjort":7114,"ĠLandeveien":7115,"Ġcivil":7116,"ĠAcadem":7117,"Sogn":7118,"villige":7119,"ĠTÃ¸rve":7120,"ĠBÃ¸n":7121,"Ġbetr":7122,"ĠTropp":7123,"ĠstrÃ¦":7124,"ĠStevning":7125,"ĠEeg":7126,"ĠKronprindsen":7127,"Ġlovbefal":7128,"hug":7129,"ĠÃ¸nskede":7130,"ĠChristiansand":7131,"ĠRigsdaler":7132,"ĠFrygt":7133,"Ġcontant":7134,"cien":7135,"ĠiÃ¸vrigt":7136,"ĠSchou":7137,"ĠbehÃ¸ver":7138,"ĠBegge":7139,"gav":7140,"Ġbehageligst":7141,"ĠMoss":7142,"ĠBondestanden":7143,"lement":7144,"feld":7145,"ĠGodset":7146,"ĠKrag":7147,"insk":7148,"ĠApotheker":7149,"ĠhenhÃ¸rer":7150,"Ġdiverse":7151,"ĠHiller":7152,"Ġpaastaae":7153,"messe":7154,"onom":7155,"ĠModt":7156,"Ġvansk":7157,"ĠudnÃ¦vnte":7158,"fest":7159,"Ġmodtog":7160,"ĠJer":7161,"Ġsy":7162,"ĠUde":7163,"ĠLandsby":7164,"11":7165,"ĠSin":7166,"ĠPremie":7167,"ĠMargrethe":7168,"ĠTilbehÃ¸r":7169,"ii":7170,"Ã¸vede":7171,"orts":7172,"aution":7173,"ĠForanstaltninger":7174,"ĠBisko":7175,"Ġsind":7176,"ĠMore":7177,"Ġundv":7178,"ĠForpagt":7179,"Ġhaabe":7180,"ĠLeye":7181,"ĠStam":7182,"ĠViinhandler":7183,"Sch":7184,"ĠCre":7185,"Or":7186,"saavidt":7187,"ĠAff":7188,"ĠGodt":7189,"ugten":7190,"ĠGeheimer":7191,"idem":7192,"cke":7193,"Ġskriver":7194,"ĠTanker":7195,"ĠLegitimation":7196,"fÃ¦l":7197,"ĠNielsdatter":7198,"ĠerklÃ¦re":7199,"ĠPoh":7200,"ĠLive":7201,"ĠKann":7202,"ressen":7203,"ĠSÃ¦rdeleshed":7204,"ĠFornÃ¸ielse":7205,"ĠForgaars":7206,"ĠDaniel":7207,"ĠOverformynder":7208,"Ã¸mmet":7209,"ĠMig":7210,"Korn":7211,"ĠfÃ¸res":7212,"ĠAfsk":7213,"urance":7214,"ĠTvivl":7215,"ĠRigets":7216,"Ġub":7217,"ĠUndt":7218,"iender":7219,"Ġ93":7220,"ĠRegent":7221,"ĠPompevand":7222,"ĠPladsen":7223,"Ġungt":7224,"ryn":7225,"drene":7226,"andene":7227,"olgte":7228,"ĠUndertegnedes":7229,"aaelse":7230,"Ġting":7231,"ĠAlmu":7232,"Ġbroelagt":7233,"staver":7234,"ĠConsumtions":7235,"mene":7236,"ĠKaffe":7237,"ĠUdi":7238,"ĠBaden":7239,"kkedes":7240,"ĠSlaget":7241,"Udi":7242,"Ġapp":7243,"ĠMonar":7244,"ĠMÃ¼n":7245,"gan":7246,"ĠGeneralmajor":7247,"vortes":7248,"ĠdervÃ¦rende":7249,"ĠJa":7250,"Ġleveret":7251,"Ġconst":7252,"kfurt":7253,"Ġsu":7254,"ĠBudolphi":7255,"ĠKonst":7256,"ĠDerimod":7257,"Ġinderlig":7258,"ĠTiender":7259,"ack":7260,"Ġnordre":7261,"ĠJndbyg":7262,"Gaard":7263,"Ġtilfreds":7264,"ĠDomkirken":7265,"Ġudsatte":7266,"Ġforstaaer":7267,"ĠKarl":7268,"eskiÃ¦r":7269,"ĠRepar":7270,"lagne":7271,"Ġudgivne":7272,"ĠHoppe":7273,"Ġfornemmelig":7274,"ĠTheol":7275,"Ġph":7276,"ĠMill":7277,"Ġforblive":7278,"ĠdrÃ¦b":7279,"ĠOmgang":7280,"ĠNyekiÃ¸bing":7281,"mÃ¦gtigede":7282,"ĠStab":7283,"Par":7284,"ĠAftes":7285,"Ġtilveie":7286,"biÃ¸r":7287,"Ġkaldte":7288,"ĠJndboe":7289,"ĠBelg":7290,"kn":7291,"Ġmar":7292,"kernes":7293,"ĠStemmer":7294,"Ġopbudet":7295,"ĠNach":7296,"ĠnÃ¦vnes":7297,"Ġformaaer":7298,"ĠNÃ¦rings":7299,"alske":7300,"bef":7301,"ĠOstindien":7302,"ĠAmbassade":7303,"ĠForel":7304,"Ġraa":7305,"ĠÃ¦del":7306,"skassen":7307,"ĠKyster":7308,"Ġmeste":7309,"hÃ¸ist":7310,"Ġidet":7311,"ĠFuldmagt":7312,"ĠFortÃ¦l":7313,"Ġ10000":7314,"Ġbestemme":7315,"ĠHaagen":7316,"ĠNorden":7317,"ĠForliig":7318,"ĠMath":7319,"ĠLÃ¦ge":7320,"ĠSkridt":7321,"ĠJntet":7322,"ĠHatte":7323,"Ġgeistlige":7324,"ĠForlydende":7325,"ĠFlÃ¸i":7326,"ĠTillid":7327,"Ġdisses":7328,"Ġforlangte":7329,"ĠBas":7330,"ĠSpÃ¸rgsmaal":7331,"Ġagte":7332,"Ġopbyg":7333,"Ġpaatage":7334,"Ġskade":7335,"ĠForsendelse":7336,"Ã¸be":7337,"ĠKry":7338,"pige":7339,"Ġindtraf":7340,"ĠJnstru":7341,"ĠLav":7342,"ĠPe":7343,"Ġinteress":7344,"faldt":7345,"ĠAddresse":7346,"ĠBorch":7347,"ĠAas":7348,"ĠBorgmester":7349,"bringer":7350,"Ġsidstafvigte":7351,"Ġbrugte":7352,"ĠprÃ¦di":7353,"ĠForbedrings":7354,"ĠforelÃ¸b":7355,"ĠLotterie":7356,"Ġkgl":7357,"Ġkaldes":7358,"Ġklar":7359,"ancer":7360,"ĠAnstalter":7361,"handel":7362,"andre":7363,"ĠGage":7364,"ĠFlesk":7365,"Ġopdaget":7366,"ĠSlutningen":7367,"Ġstilles":7368,"ĠHjem":7369,"ĠMedborg":7370,"ĠGemal":7371,"bogen":7372,"ĠSogneprÃ¦sten":7373,"ĠDame":7374,"ĠLivstid":7375,"Ġforekomme":7376,"ĠLangeland":7377,"Ġgivne":7378,"Ġslog":7379,"klÃ¦de":7380,"Ġvan":7381,"ĠTru":7382,"ĠSubskription":7383,"ĠteglhÃ¦ngt":7384,"ĠBrÃ¦ndeviins":7385,"Ġbrugt":7386,"Ġbifald":7387,"ĠMalm":7388,"Commissair":7389,"ĠFravÃ¦r":7390,"ĠLinie":7391,"ert":7392,"Ġhur":7393,"Ġamer":7394,"ĠKondition":7395,"ĠGrÃ¦ken":7396,"16":7397,"aase":7398,"tie":7399,"ĠMariager":7400,"ĠAvl":7401,"ĠNordsÃ¸en":7402,"Ass":7403,"ĠForraad":7404,"ĠKÃ¸n":7405,"Stad":7406,"erske":7407,"Ġbehagentlig":7408,"leveres":7409,"ĠBestrÃ¦b":7410,"asen":7411,"ĠStaal":7412,"Ġlover":7413,"Ġvillet":7414,"ĠUrtekrÃ¦mmer":7415,"Ġrester":7416,"ĠLiebhaver":7417,"ĠMonrad":7418,"ĠPommer":7419,"ĠMay":7420,"Ġgro":7421,"kkende":7422,"Ġvigtigste":7423,"Ġfrugt":7424,"Ġmat":7425,"ĠToul":7426,"Ġmeddeelte":7427,"Ã¸s":7428,"ĠFÃ¦e":7429,"ĠfÃ¶rstkommende":7430,"jern":7431,"falder":7432,"ĠStav":7433,"ĠJansen":7434,"ytt":7435,"ĠCoureer":7436,"ĠSeidel":7437,"ĠNordamer":7438,"ĠlÃ¸be":7439,"ĠBoghvede":7440,"Ġtilende":7441,"ĠhÃ¸rte":7442,"ĠTomme":7443,"ĠPanter":7444,"ĠHvem":7445,"ĠSkifterettens":7446,"ĠMaader":7447,"ĠPoster":7448,"egnen":7449,"ĠKongeriget":7450,"Ġopholdende":7451,"ĠSteenkul":7452,"ĠCorn":7453,"Ġals":7454,"Ġfattige":7455,"ĠBornholm":7456,"Ġqv":7457,"ĠaflÃ¦gge":7458,"Saa":7459,"ĠSkove":7460,"Ġsaarede":7461,"Ġudbred":7462,"ĠWordingborg":7463,"ĠCommissionair":7464,"ĠDorthe":7465,"bÃ¸rn":7466,"ĠHolstebroe":7467,"stÃ¦d":7468,"ĠsÃ¸gte":7469,"14":7470,"ĠPlanke":7471,"ĠRitmester":7472,"Avis":7473,"Ġpublic":7474,"eligheder":7475,"Ã¸mmelse":7476,"Ġdrage":7477,"Ġaabnet":7478,"tigede":7479,"ĠMinistrene":7480,"ternes":7481,"Rettens":7482,"ĠKold":7483,"iedel":7484,"Ġskrives":7485,"ĠSengesteder":7486,"Ġkeiser":7487,"ĠHvid":7488,"KjÃ¸benhavns":7489,"ĠDragki":7490,"breve":7491,"ĠHamb":7492,"handle":7493,"ĠKiÃ¸bmands":7494,"inaire":7495,"eske":7496,"ĠEngs":7497,"antinden":7498,"ĠKaar":7499,"ĠgodtgiÃ¸re":7500,"ĠJournal":7501,"priser":7502,"ĠBedste":7503,"ĠPublikum":7504,"ĠVad":7505,"Ġdrives":7506,"ĠNogen":7507,"ork":7508,"kkere":7509,"Ġhandle":7510,"ĠKjÃ¦r":7511,"gens":7512,"ues":7513,"ĠAske":7514,"ĠMedic":7515,"yle":7516,"ĠKred":7517,"ĠDun":7518,"ĠFregatten":7519,"ĠPlant":7520,"ĠSmede":7521,"ĠSteentÃ¸i":7522,"Ġmilitaire":7523,"mach":7524,"ĠSÃ¸ndags":7525,"Ġindestaaende":7526,"ĠSkrivpapiir":7527,"Ġdobbelte":7528,"Ġab":7529,"ĠÃ¸ver":7530,"eleie":7531,"aturer":7532,"hoff":7533,"ligter":7534,"ĠNorges":7535,"ĠAus":7536,"ĠFremmede":7537,"ĠStuen":7538,"ovede":7539,"ĠNissen":7540,"ĠNielsens":7541,"ute":7542,"Ġdyr":7543,"Ġforp":7544,"Rets":7545,"ĠVers":7546,"anien":7547,"13":7548,"yeste":7549,"Ġadvares":7550,"ĠBeting":7551,"giÃ¸rende":7552,"histor":7553,"luttede":7554,"ĠvedbÃ¸r":7555,"stedt":7556,"ĠFormodning":7557,"ĠBesÃ¦tningen":7558,"ĠOblig":7559,"ĠSla":7560,"Ġ92":7561,"Ġanholde":7562,"ĠKeiserl":7563,"bach":7564,"ĠFÃ¸dselsdag":7565,"skiÃ¸nt":7566,"Ġ86":7567,"havers":7568,"ĠOberstlieutenant":7569,"ĠAbra":7570,"cretair":7571,"stri":7572,"ĠTillige":7573,"ĠFyhn":7574,"ĠbÃ¸de":7575,"olin":7576,"ĠAftensang":7577,"ĠBeboere":7578,"ĠBis":7579,"ĠHimmel":7580,"anta":7581,"ĠEskadre":7582,"Ġtilfor":7583,"ĠLat":7584,"marsken":7585,"ĠPreus":7586,"Ġuber":7587,"ĠJnvent":7588,"Ġforetage":7589,"olph":7590,"dage":7591,"regiment":7592,"ĠFÃ¸lger":7593,"essionen":7594,"ĠRygtet":7595,"Ġgunst":7596,"eligste":7597,"ĠMinisterium":7598,"ĠHi":7599,"ĠBegivenheder":7600,"antere":7601,"middel":7602,"ĠMask":7603,"Ġlat":7604,"ĠOtt":7605,"ĠHorns":7606,"jorden":7607,"Ġvidste":7608,"rager":7609,"ĠWelling":7610,"ĠHoverie":7611,"ĠKjÃ¸kken":7612,"ĠhÃ¸rt":7613,"ĠUdgiv":7614,"hvn":7615,"ligst":7616,"Ġskylder":7617,"ence":7618,"asch":7619,"Ġskylde":7620,"ĠCollecteur":7621,"bÃ¸d":7622,"ĠTyrkiske":7623,"ĠforanfÃ¸rte":7624,"baand":7625,"Ġommeldte":7626,"ĠSkjebne":7627,"vÃ¦rn":7628,"ĠDragon":7629,"itsch":7630,"ĠByetingsret":7631,"Ġerind":7632,"ĠSigt":7633,"its":7634,"ĠJntel":7635,"ĠElse":7636,"ĠDistric":7637,"ĠHass":7638,"Ġ-----":7639,"ĠMatro":7640,"ĠBekrÃ¦":7641,"Ġgivt":7642,"ĠFeil":7643,"ĠsÃ¸ndre":7644,"ĠSpisekammer":7645,"ummer":7646,"Ġviste":7647,"ĠKronprinds":7648,"ĠBaade":7649,"rÃ¦d":7650,"ĠActer":7651,"ĠKug":7652,"idne":7653,"ĠSkiftets":7654,"ĠDar":7655,"ĠKirkes":7656,"maa":7657,"ariats":7658,"ĠÃĨres":7659,"ĠSagens":7660,"ĠLister":7661,"ison":7662,"givende":7663,"posten":7664,"Ġtilkiendegive":7665,"ĠRab":7666,"ĠbetrÃ¦":7667,"ĠParceller":7668,"fne":7669,"ĠFÃ¸rst":7670,"Ã¶d":7671,"Ġopgivne":7672,"aane":7673,"ĠMikk":7674,"Ã¶benhavn":7675,"ĠJorderne":7676,"ĠVigtighed":7677,"henborg":7678,"havere":7679,"ĠLogie":7680,"Ġdyb":7681,"ĠEiere":7682,"Ġsikkert":7683,"ĠMÃ¸llesk":7684,"ĠAud":7685,"doms":7686,"ĠMandskabet":7687,"Told":7688,"Ġudtry":7689,"Ġsluttede":7690,"II":7691,"ĠGeist":7692,"ransp":7693,"ĠfornÃ¸dent":7694,"arbeidet":7695,"Ġstaaet":7696,"idende":7697,"ĠbehÃ¸ves":7698,"Ja":7699,"ĠfÃ¸lgelig":7700,"ĠHuuse":7701,"ĠHaugeplads":7702,"Ġfastsat":7703,"Ġhvorhos":7704,"Ġvigtig":7705,"ai":7706,"Ġvox":7707,"Ġillum":7708,"ĠRiget":7709,"ĠSÃ¦kke":7710,"ĠAdressecom":7711,"ĠBras":7712,"ĠFkr":7713,"ĠKirket":7714,"Ġregi":7715,"ĠMahogn":7716,"aand":7717,"ĠCreditor":7718,"ĠKiÃ¸bet":7719,"ĠDÃ¦kket":7720,"ĠBopÃ¦l":7721,"ĠErfaring":7722,"ĠJohansen":7723,"Ġ1777":7724,"Ġsvares":7725,"ĠBygningen":7726,"Ġanvende":7727,"ĠAfreise":7728,"kiet":7729,"ĠForklar":7730,"Ã¦nker":7731,"Ã¦b":7732,"ĠAction":7733,"Ġbeholde":7734,"dtes":7735,"ĠKontoir":7736,"ĠBibliothe":7737,"brev":7738,"ĠSahl":7739,"Ã¦ldet":7740,"40":7741,"aret":7742,"ĠMÃ¸n":7743,"ĠDisconto":7744,"hren":7745,"ĠDefensor":7746,"ĠRedskab":7747,"Arbe":7748,"ĠTaxt":7749,"ĠApprob":7750,"ĠEnkef":7751,"Ġlagde":7752,"Ġsyntes":7753,"Post":7754,"Ġafgik":7755,"23":7756,"bed":7757,"vilket":7758,"ĠSjÃ¦l":7759,"Ve":7760,"Ġfaldne":7761,"eredskab":7762,"ĠOxe":7763,"ĠJnsurgen":7764,"Sti":7765,"ĠHÃ¸itidelig":7766,"ĠHur":7767,"ĠindlÃ¸bne":7768,"gaaede":7769,"ĠSkriverstue":7770,"ĠFravÃ¦relse":7771,"ĠAfdeling":7772,"vind":7773,"indende":7774,"ĠDamer":7775,"ĠKlokker":7776,"ĠHospitals":7777,"ĠWarsch":7778,"ĠTheolog":7779,"Ġfi":7780,"ĠJrland":7781,"lichen":7782,"ĠTÃ¸rveskiÃ¦r":7783,"ĠUndtagelse":7784,"merede":7785,"att":7786,"ĠSkippere":7787,"ĠStudiosus":7788,"oste":7789,"ĠAbraham":7790,"Ġhollandsk":7791,"ĠFrederiksberg":7792,"Ġledsaget":7793,"ĠSvan":7794,"ĠErindring":7795,"inerede":7796,"ogle":7797,"ĠHeel":7798,"sene":7799,"andede":7800,"ĠKrigsraad":7801,"ĠBirch":7802,"ĠBroe":7803,"Ġtillagt":7804,"ĠKakkelovn":7805,"ĠJah":7806,"Ġgrundet":7807,"ĠTver":7808,"Ġrussisk":7809,"Ġlovbefalet":7810,"ĠGreen":7811,"ĠHierte":7812,"Ġubetyde":7813,"mÃ¦gtiget":7814,"ĠRich":7815,"kaldes":7816,"Ġauch":7817,"Ġafgl":7818,"Ġborte":7819,"ĠMichel":7820,"qver":7821,"ĠRiga":7822,"igts":7823,"ĠLovens":7824,"Ġkalde":7825,"ĠDebitor":7826,"Ġnicht":7827,"Ġfleere":7828,"ĠJndst":7829,"ĠnÃ¸dvendige":7830,"ĠSalling":7831,"ĠNationalb":7832,"Ġler":7833,"Ġ99":7834,"itteret":7835,"ĠEnge":7836,"redshed":7837,"ĠHolstein":7838,"Ã¸ns":7839,"ĠHolbek":7840,"Ġprivate":7841,"ĠPrÃ¦siden":7842,"ĠThron":7843,"ĠMÃ¦rke":7844,"Ġ110":7845,"Ġvedbliver":7846,"ĠMors":7847,"ĠHiÃ¸ring":7848,"ĠBass":7849,"ĠSkulle":7850,"ĠBod":7851,"Ġforsaavidt":7852,"usene":7853,"FÃ¸r":7854,"ĠProtocol":7855,"ĠgrÃ¦sses":7856,"Ġtidligere":7857,"Ġ1775":7858,"ĠDannebrogsmand":7859,"ĠArm":7860,"Ġgiorte":7861,"ĠKom":7862,"ĠBierg":7863,"Ġtilkiendegives":7864,"ĠCoule":7865,"tryk":7866,"Ġmyr":7867,"ĠNÃ¦":7868,"ĠGuldsmed":7869,"ĠkjÃ¸bs":7870,"ĠLux":7871,"ohn":7872,"ĠResult":7873,"Ġ87":7874,"Ġholsteen":7875,"ĠEndnu":7876,"stal":7877,"Ġstu":7878,"ĠDannemark":7879,"ĠTax":7880,"ĠlÃ¸bende":7881,"ĠnÃ¸ie":7882,"Ġskriftlig":7883,"ĠFir":7884,"ĠDuelighed":7885,"ĠbevÃ¦b":7886,"Ġindkom":7887,"ĠLandvÃ¦sens":7888,"ĠWedel":7889,"Ġberettiget":7890,"Ġanholdt":7891,"ĠKommand":7892,"egning":7893,"Ġ1782":7894,"omst":7895,"ĠHandelsmand":7896,"leverede":7897,"rÃ¦ng":7898,"komster":7899,"Ġfremmed":7900,"Ġsikk":7901,"ĠBladet":7902,"ĠFÃ¦rge":7903,"ĠCommun":7904,"ĠModstand":7905,"ĠAuctionsdirecteur":7906,"Ġypper":7907,"ĠKancelli":7908,"Ġander":7909,"ĠJndstevnte":7910,"Ġ1776":7911,"bor":7912,"ĠFem":7913,"Ġorig":7914,"ĠTrin":7915,"ĠHessen":7916,"ĠCont":7917,"ĠYn":7918,"ĠDersom":7919,"Ġderunder":7920,"Ġfrisk":7921,"ĠSoldat":7922,"lim":7923,"ci":7924,"Ġundlade":7925,"Ġtilsidst":7926,"Ġnedsat":7927,"ĠPC":7928,"ĠLiebhavere":7929,"ĠLodder":7930,"ĠSkanderborg":7931,"15":7932,"ĠChristine":7933,"ĠEst":7934,"ĠLaurvig":7935,"osa":7936,"tring":7937,"Ġspr":7938,"ĠHul":7939,"Ġpaafordres":7940,"aster":7941,"ĠUle":7942,"Ġangive":7943,"Ġgar":7944,"jener":7945,"ĠFebruari":7946,"ĠBlik":7947,"ram":7948,"ĠIs":7949,"ĠInf":7950,"ĠanmÃ¦lde":7951,"ĠKannike":7952,"ĠrÃ¸dt":7953,"ĠKasser":7954,"sburg":7955,"ĠLivets":7956,"Ġblant":7957,"ĠFinderen":7958,"Ġdrive":7959,"ĠSvaghed":7960,"Ġser":7961,"Ġvedblive":7962,"Jnspecteur":7963,"ĠGodser":7964,"enterne":7965,"astet":7966,"ĠophÃ¦":7967,"ĠParcel":7968,"ĠCavallerie":7969,"ĠGeheimeraad":7970,"ĠSÃ¸em":7971,"ege":7972,"ĠMeier":7973,"Ġreen":7974,"roy":7975,"ĠnÃ¦vnte":7976,"Ġ1781":7977,"boderne":7978,"Ġsiel":7979,"ĠBemeldte":7980,"ttede":7981,"ĠBekrÃ¦ftelse":7982,"mor":7983,"nesen":7984,"Ġfordeelagtige":7985,"Ġmal":7986,"ĠDÃ¸ttre":7987,"ĠLuf":7988,"aarsag":7989,"arp":7990,"fold":7991,"yssel":7992,"Ġtillader":7993,"ĠDÃ¸dsfaldet":7994,"ĠUdlÃ¦gshaver":7995,"ĠPorcelain":7996,"skabets":7997,"binder":7998,"betjent":7999,"Ġspec":8000,"ĠlÃ¦se":8001,"ĠSpor":8002,"ĠfornÃ¦r":8003,"nere":8004,"Ġantagne":8005,"Ġforenet":8006,"ER":8007,"yet":8008,"ĠVox":8009,"ĠKoef":8010,"ĠForstÃ¦rk":8011,"Ġbeder":8012,"ĠUdgiveren":8013,"hoved":8014,"ĠindfÃ¸res":8015,"ĠSadel":8016,"ninge":8017,"Ġuind":8018,"osoph":8019,"ink":8020,"ĠOrig":8021,"neberg":8022,"ĠHalm":8023,"ĠTÃ¸i":8024,"ĠArn":8025,"Ġbortkommen":8026,"ĠStadsretten":8027,"ĠJnfanter":8028,"villig":8029,"ĠPreussiske":8030,"cert":8031,"ĠSmer":8032,"Ġhies":8033,"Ġumu":8034,"ĠsÃ¸gt":8035,"ĠHeiberg":8036,"Ġoct":8037,"ĠTorden":8038,"ĠRost":8039,"ule":8040,"ĠStemme":8041,"ĠMeenigheder":8042,"itetet":8043,"Ġskaffe":8044,"marken":8045,"ĠApprobation":8046,"ĠFÃ¸de":8047,"ĠBele":8048,"ĠSterl":8049,"Ġbegav":8050,"ĠAvling":8051,"Ġseparat":8052,"drup":8053,"ĠTrykpapiir":8054,"ĠVah":8055,"KiÃ¸benhavns":8056,"Ġ89":8057,"ĠFavn":8058,"ĠLÃ¦ster":8059,"unt":8060,"Ġunter":8061,"Kongen":8062,"Ġmeddeles":8063,"xel":8064,"Ġrykkede":8065,"Ġvels":8066,"uite":8067,"Ġ1780":8068,"eck":8069,"Ã¦ggelse":8070,"ĠRide":8071,"Ġskrive":8072,"ĠLÃ¦rred":8073,"Natten":8074,"ĠGri":8075,"Ġindsendt":8076,"ĠClas":8077,"kammeret":8078,"Bek":8079,"Ã¸ller":8080,"ĠPrÃ¸ver":8081,"Op":8082,"ĠManufac":8083,"ĠSognekald":8084,"Ġbestemmes":8085,"ikke":8086,"ĠUm":8087,"mÃ¦gtige":8088,"test":8089,"ĠKeiserens":8090,"Ġbenytte":8091,"ĠKartofler":8092,"ĠOtto":8093,"ĠDisp":8094,"ĠWor":8095,"ĠPapirer":8096,"ĠFlad":8097,"Obligationer":8098,"ĠBekjendtgjÃ¸relse":8099,"edig":8100,"ĠdrÃ¦bte":8101,"plet":8102,"ĠChur":8103,"ĠKapit":8104,"skaftet":8105,"30":8106,"ches":8107,"ĠBeck":8108,"dorff":8109,"Ġudkommer":8110,"Ġ170":8111,"gjorte":8112,"ĠufortÃ¸vet":8113,"Ġforseg":8114,"ĠMang":8115,"ĠStranden":8116,"ĠnÃ¦rmeste":8117,"ĠStifte":8118,"ĠDebitorerne":8119,"Ġbeskikkede":8120,"ĠMÃ¦gler":8121,"Ġtilintet":8122,"yse":8123,"Ġifald":8124,"ĠEngellÃ¦nderne":8125,"ĠGevinst":8126,"ib":8127,"ĠFÃ¸lgende":8128,"enden":8129,"Ġhastig":8130,"fyrst":8131,"ĠCommissarier":8132,"ĠHolsten":8133,"ĠAmerica":8134,"ĠWÃ¼r":8135,"stÃ¦det":8136,"Ġformode":8137,"ĠBad":8138,"dele":8139,"ĠKommission":8140,"Ġafsendt":8141,"ĠTrÃ¦k":8142,"ĠMayn":8143,"Ġformeentlige":8144,"SÃ¸n":8145,"Ġblaa":8146,"Ġaflagt":8147,"vendes":8148,"ĠCaution":8149,"Ġhaarde":8150,"ups":8151,"tu":8152,"ĠBisp":8153,"ĠVerdens":8154,"Ġnyttige":8155,"ĠWer":8156,"ĠskiÃ¸n":8157,"Ġforvent":8158,"ĠEed":8159,"Ġvinde":8160,"Ġhersker":8161,"ĠAlexander":8162,"ĠAmtsforvalter":8163,"Bergen":8164,"ĠBÃ¸dker":8165,"Ki":8166,"ĠGibr":8167,"Ġtrak":8168,"ĠTorve":8169,"ommet":8170,"ĠAttest":8171,"cte":8172,"gaarde":8173,"ĠÃĺsterrigske":8174,"Ġgra":8175,"Ġoverdraget":8176,"ĠPlo":8177,"ĠKiÃ¸r":8178,"Ġkn":8179,"Ġgang":8180,"ĠMichelsen":8181,"ĠCento":8182,"ĠCam":8183,"ĠBefuld":8184,"ĠKur":8185,"anz":8186,"ĠtÃ¸rre":8187,"ĠfÃ¸rer":8188,"gtige":8189,"Ġlangs":8190,"ĠDÃ¸r":8191,"ĠMaterialier":8192,"ssel":8193,"ĠEtats":8194,"Ġsmer":8195,"Ġudbetalt":8196,"havet":8197,"Ġprotocoller":8198,"ĠVimmel":8199,"Ġentlediget":8200,"ĠKla":8201,"Ã¼n":8202,"ĠQvanti":8203,"ĠLuften":8204,"obligation":8205,"Ġskrivt":8206,"ieren":8207,"Ġhalvt":8208,"ĠophÃ¦vet":8209,"ĠJldebrand":8210,"Ġforlange":8211,"Ġbor":8212,"Ġafgaaer":8213,"ĠSkoler":8214,"ligviis":8215,"Denne":8216,"ĠNew":8217,"Ġq":8218,"Ġkiende":8219,"Ġbry":8220,"Ġ700":8221,"Ġsex":8222,"ĠAcc":8223,"Ġbehageligen":8224,"ĠsÃ¸rgelige":8225,"mers":8226,"Ġbortforp":8227,"visor":8228,"ĠUroligheder":8229,"ĠVÃ¦rnet":8230,"ĠPeber":8231,"Ġhundrede":8232,"onen":8233,"altar":8234,"kret":8235,"ĠBart":8236,"ĠFogderie":8237,"kne":8238,"mouth":8239,"ĠErkehertug":8240,"Ġgeomet":8241,"ĠAdressecomtoiret":8242,"ĠStifter":8243,"ĠSandhed":8244,"Ġru":8245,"ĠGarde":8246,"Ġredde":8247,"ĠtiltrÃ¦de":8248,"ĠFrankfurt":8249,"skrifter":8250,"ĠHvedemeel":8251,"Ġgammelt":8252,"ĠbesÃ¸r":8253,"spe":8254,"ensgade":8255,"ĠSÃ¦be":8256,"ĠudfÃ¸r":8257,"siske":8258,"ĠGouver":8259,"Ġbetro":8260,"eral":8261,"Ġbefry":8262,"Ġtiende":8263,"ĠRingkiÃ¸bing":8264,"ĠBekiendtgiÃ¸r":8265,"ĠRott":8266,"gesen":8267,"Ġhvoriblant":8268,"Mar":8269,"andere":8270,"Ġ98":8271,"Ġvirkelige":8272,"Ġcivile":8273,"ĠKÃ¸nig":8274,"Ġmiddel":8275,"ĠEne":8276,"Ġberammede":8277,"ĠFerdinand":8278,"ĠToug":8279,"Ġidag":8280,"betient":8281,"ĠCopiist":8282,"Ġugentlig":8283,"helst":8284,"ĠStiftamtmand":8285,"ĠBour":8286,"ĠtrÃ¦de":8287,"ĠGle":8288,"ĠUniversitetet":8289,"ĠSkoe":8290,"ĠCommitte":8291,"ĠBlandt":8292,"anerne":8293,"ĠSÃ¸es":8294,"ĠWilse":8295,"ĠFleischer":8296,"Ġ1779":8297,"ĠHovedgaardstaxt":8298,"Ã¸ers":8299,"ĠDeputeret":8300,"agtes":8301,"va":8302,"lieuten":8303,"ĠEsc":8304,"ĠafbrÃ¦ndte":8305,"ĠStub":8306,"Ġkjendt":8307,"Ġanordnede":8308,"ĠJensens":8309,"ĠSchum":8310,"quis":8311,"Ġbeqvemme":8312,"sv":8313,"stande":8314,"ĠHollandsk":8315,"ĠJnteressentere":8316,"dress":8317,"ĠLisp":8318,"ick":8319,"Ġ160":8320,"Ġibid":8321,"kilde":8322,"Ġresterende":8323,"ĠCitroner":8324,"ĠFornÃ¸den":8325,"Ġblod":8326,"ĠTÃ¸nden":8327,"Ġforsamlede":8328,"ĠAdsk":8329,"ĠBetien":8330,"Ġ140":8331,"ĠJessen":8332,"ĠCasse":8333,"uleret":8334,"ouge":8335,"Ġgraae":8336,"Ġforlangt":8337,"ĠErichsen":8338,"Ġditto":8339,"fort":8340,"mans":8341,"ĠforfÃ¦rdige":8342,"ĠbekjendtgjÃ¸re":8343,"aaned":8344,"Ġbesatte":8345,"tioner":8346,"Ġhistor":8347,"scommissair":8348,"Skipper":8349,"Ġ1778":8350,"Ġafse":8351,"aaren":8352,"Ġtr":8353,"varede":8354,"ĠVÃ¦rneting":8355,"Ġnogenlunde":8356,"Ġgule":8357,"Ã¸se":8358,"Ġzur":8359,"ĠHansdatter":8360,"ogen":8361,"ĠGeneraler":8362,"foruden":8363,"Ġaabnes":8364,"ĠWall":8365,"antz":8366,"ĠFrie":8367,"ĠWarschau":8368,"ĠDonau":8369,"Ġafgjort":8370,"Ġhellere":8371,"ĠSedl":8372,"ĠEp":8373,"cti":8374,"ĠHavet":8375,"ĠFolkets":8376,"ĠPu":8377,"istrup":8378,"Ġeengang":8379,"ĠDesuden":8380,"ĠGrundsÃ¦tninger":8381,"ĠChristensdatter":8382,"Ġbygget":8383,"ĠSummer":8384,"indringer":8385,"ĠEmbeder":8386,"ĠMit":8387,"Ġvista":8388,"ĠVirkning":8389,"stunden":8390,"ugs":8391,"ĠindskrÃ¦n":8392,"kaste":8393,"Ġpersonlig":8394,"ĠUdebli":8395,"Ġdire":8396,"ĠKiÃ¸n":8397,"brig":8398,"ĠRector":8399,"Ġangribe":8400,"Ġtydelig":8401,"Ġunderrettet":8402,"ĠÃĺe":8403,"Ġskikkelig":8404,"Ġtol":8405,"ĠBruns":8406,"Sedler":8407,"ĠUorden":8408,"Ġsaaog":8409,"ĠForlag":8410,"Ġrigt":8411,"ĠSeidelin":8412,"ĠTallotteriets":8413,"ĠSnap":8414,"Ã¦gges":8415,"ĠLyse":8416,"onsul":8417,"Ġvarede":8418,"ĠHannover":8419,"Ġrykke":8420,"ĠTaffel":8421,"ĠGothenborg":8422,"etÃ¸i":8423,"veir":8424,"lac":8425,"ĠPon":8426,"ĠRod":8427,"Redskaber":8428,"ĠGiest":8429,"Ġholden":8430,"ĠLÃ¼t":8431,"vensk":8432,"ĠDri":8433,"Ġmistede":8434,"ĠKysten":8435,"drage":8436,"ĠSkibene":8437,"ĠKrudt":8438,"Ġangreb":8439,"ĠRegistering":8440,"End":8441,"Ġbortsolgte":8442,"ĠGraven":8443,"Ġumynd":8444,"Ġpludselig":8445,"Forretning":8446,"ĠSkie":8447,"ĠStaten":8448,"Ġende":8449,"beg":8450,"ĠKonges":8451,"ĠConf":8452,"Ġadsp":8453,"ĠVimmelskaftet":8454,"Ġ103":8455,"cell":8456,"ĠMatroser":8457,"ĠGibraltar":8458,"ĠAntallet":8459,"mange":8460,"Ġ81":8461,"herren":8462,"ĠHend":8463,"fordret":8464,"ĠFig":8465,"Ġbeqvemt":8466,"Ġanstundende":8467,"ĠQvartal":8468,"fÃ¸rste":8469,"ĠResc":8470,"Ġjuri":8471,"Ġdeslige":8472,"ĠUdlÃ¦gshavers":8473,"ĠKors":8474,"Ġgib":8475,"Ġbetrukne":8476,"kener":8477,"ĠBÃ¦ster":8478,"Ã¦ttelsen":8479,"achen":8480,"ĠVold":8481,"givenhed":8482,"ĠSignet":8483,"ĠPan":8484,"ĠVir":8485,"ĠAmerika":8486,"altet":8487,"fogden":8488,"ĠbehÃ¸rige":8489,"ĠJsland":8490,"lager":8491,"rider":8492,"ĠKlÃ¸ver":8493,"ĠSlagter":8494,"kur":8495,"ĠStege":8496,"Ġforvente":8497,"ĠTaa":8498,"edning":8499,"Ġheftig":8500,"Ġsimp":8501,"ĠHast":8502,"ĠBaller":8503,"ĠGrÃ¦sning":8504,"Ġinddeelt":8505,"ĠRiger":8506,"ĠFrederichs":8507,"Ġskrevet":8508,"inther":8509,"ĠPlacater":8510,"rigtig":8511,"artes":8512,"sels":8513,"stor":8514,"ĠWen":8515,"ĠGrÃ¦v":8516,"Ġlykkelige":8517,"ĠDeput":8518,"Og":8519,"retter":8520,"ĠGott":8521,"ĠFiskerie":8522,"ĠStrÃ¸mper":8523,"stads":8524,"ement":8525,"Ġ8000":8526,"ĠStiftsprovst":8527,"sÃ¸gt":8528,"ĠForbedringshuus":8529,"Ġbrittiske":8530,"skrevet":8531,"Ã¦nkt":8532,"ĠJustitskassen":8533,"chet":8534,"EN":8535,"ĠEnden":8536,"mersken":8537,"ommel":8538,"viger":8539,"ĠForestillinger":8540,"arn":8541,"ĠHolbech":8542,"ĠPrÃ¦stÃ¸e":8543,"ĠUndersÃ¸gelse":8544,"hre":8545,"ĠAmtet":8546,"Ġhem":8547,"Ġmalet":8548,"ĠSkuespiller":8549,"ĠUlykke":8550,"wig":8551,"Ġ95":8552,"ĠSmaa":8553,"Contoirets":8554,"opp":8555,"ĠHÃ¸imesse":8556,"ĠKoe":8557,"Ġanbragt":8558,"60":8559,"ĠSkiftekommission":8560,"ĠStorbritt":8561,"ĠBuon":8562,"korps":8563,"stÃ¦ds":8564,"igl":8565,"ĠAarsagen":8566,"ĠPlat":8567,"ĠRettighed":8568,"ĠJis":8569,"affin":8570,"comm":8571,"ĠTel":8572,"ĠRand":8573,"Ġdruk":8574,"ĠBestemmelser":8575,"Ġplan":8576,"Ġ132":8577,"Ġ1774":8578,"ĠoverflÃ¸dig":8579,"ĠOrgan":8580,"ĠudgjÃ¸re":8581,"Ġlykkedes":8582,"Ġrige":8583,"Ġmodtager":8584,"ĠStyrke":8585,"ĠBrÃ¸n":8586,"ĠRhin":8587,"Ġfierde":8588,"kens":8589,"laae":8590,"Ġbesynder":8591,"ĠMord":8592,"ĠInventarium":8593,"giske":8594,"Ġafgive":8595,"Ġmedtager":8596,"Ġyderligere":8597,"ĠNummer":8598,"lÃ¸v":8599,"Ġslette":8600,"lagen":8601,"Ġforun":8602,"ĠPhilip":8603,"ĠNavnet":8604,"Fabri":8605,"gre":8606,"Ġledige":8607,"Ġderiblandt":8608,"ĠVinduer":8609,"Ġringere":8610,"Ġam":8611,"ĠKop":8612,"ĠTrond":8613,"vert":8614,"ĠBeskyttelse":8615,"ĠForligelses":8616,"Ġvundet":8617,"Ġappro":8618,"Ġ1773":8619,"ĠHarver":8620,"ĠDragoner":8621,"ĠTingsted":8622,"Ġsluttes":8623,"ĠAdgang":8624,"ĠOph":8625,"ĠRigsbanktegn":8626,"ĠQvitter":8627,"orpor":8628,"part":8629,"ĠGode":8630,"ĠBogstaver":8631,"lÃ¸st":8632,"nich":8633,"ĠRentekammeret":8634,"antum":8635,"unition":8636,"holden":8637,"sche":8638,"stykke":8639,"=,":8640,"ĠKab":8641,"ĠStadsrettens":8642,"ĠLyngbye":8643,"Ġwir":8644,"ĠCompagnies":8645,"ĠFragtgods":8646,"Ġva":8647,"Ġtyk":8648,"Ġlev":8649,"ĠPrÃ¦mier":8650,"dsborg":8651,"ĠVertshuus":8652,"ĠJordegods":8653,"erem":8654,"ira":8655,"ĠOms":8656,"ĠHÃ¦der":8657,"ĠHjel":8658,"ĠNak":8659,"ĠJndretning":8660,"yesyn":8661,"ĠAnkere":8662,"ĠMarti":8663,"ĠFalbe":8664,"Ġon":8665,"Ġkundet":8666,"Ġvenskab":8667,"meligt":8668,"ĠAdressecontoiret":8669,"ĠOli":8670,"ĠUndersaat":8671,"ĠProvin":8672,"ĠGevÃ¦r":8673,"ĠAabning":8674,"Ġanbefaler":8675,"Ġialt":8676,"ĠvedbÃ¸rlig":8677,"Ġbefinde":8678,"etten":8679,"Ã¶bs":8680,"Ġadskilligt":8681,"Ġgeometrisk":8682,"Ġsvensk":8683,"ĠvÃ¦rdige":8684,"Ġlide":8685,"entere":8686,"Ġutil":8687,"ĠBrun":8688,"ĠÃ¸verste":8689,"ĠVarme":8690,"ĠJndfÃ¸rsel":8691,"Ġning":8692,"ĠanfÃ¸rt":8693,"ĠudlÃ¸b":8694,"Hans":8695,"forord":8696,"qven":8697,"udne":8698,"ĠSundbye":8699,"Ġseneste":8700,"ĠForandringer":8701,"Han":8702,"sende":8703,"ĠUdtog":8704,"Ġoply":8705,"ĠAnton":8706,"ĠKongsberg":8707,"Ġforfattet":8708,"tegnet":8709,"ĠKannikestrÃ¦de":8710,"ĠTylter":8711,"stien":8712,"Ġ112":8713,"ĠArch":8714,"ĠArtikler":8715,"ĠLemmer":8716,"ĠudgjÃ¸r":8717,"ĠPolitiet":8718,"vne":8719,"disk":8720,"Ġkastede":8721,"haverne":8722,"ĠDanzig":8723,"ĠVinteren":8724,"Ġafsagte":8725,"Ġfremst":8726,"Tydsk":8727,"Ġpat":8728,"ĠLieuten":8729,"Ġgibsede":8730,"ĠPlankevÃ¦rk":8731,"ĠLÃ¦se":8732,"Ġforsikrer":8733,"ordere":8734,"app":8735,"Ã¦ld":8736,"Engel":8737,"ect":8738,"ĠGaderne":8739,"ĠStud":8740,"antens":8741,"ĠFdk":8742,"Ġtviv":8743,"Ġeurop":8744,"ĠMÃ¸lleskyld":8745,"ĠDann":8746,"ĠTaler":8747,"ĠfuldstÃ¦ndig":8748,"alis":8749,"ĠConfir":8750,"ico":8751,"ĠCours":8752,"ĠBrandkasse":8753,"Ġvurderet":8754,"ĠGuine":8755,"ĠBogbinder":8756,"inets":8757,"ĠsvÃ¦r":8758,"ĠVestindiske":8759,"ĠKronprindsens":8760,"ÃĨ":8761,"Ġiblant":8762,"Ã¸bte":8763,"ĠudfÃ¸re":8764,"ĠSkippund":8765,"vir":8766,"ĠGo":8767,"ĠBindingsvÃ¦rks":8768,"fader":8769,"ĠBatailloner":8770,"Pr":8771,"gaaer":8772,"ĠPud":8773,"ĠJesper":8774,"ĠWinther":8775,"Ġtilbag":8776,"Ã¼rgen":8777,"jÃ¸r":8778,"Ġskil":8779,"Ġafreist":8780,"erm":8781,"ĠVÃ¦rger":8782,"Ġegentlig":8783,"ĠHirschholm":8784,"ĠFeber":8785,"ĠAmbassadeur":8786,"Ġbeord":8787,"ĠHin":8788,"ese":8789,"ĠStÃ¦vning":8790,"ĠVished":8791,"beltoft":8792,"edt":8793,"derende":8794,"ĠArbeider":8795,"ĠÃĺrsted":8796,"ĠLandg":8797,"ĠLeir":8798,"ĠPortra":8799,"Ġfalske":8800,"ase":8801,"ĠHim":8802,"ĠAfske":8803,"Ġvendte":8804,"ĠSchier":8805,"ĠDorothe":8806,"ĠHerman":8807,"Ġforebyg":8808,"ĠBestyrelse":8809,"baade":8810,"Ġudgive":8811,"rÃ¦kke":8812,"ĠErter":8813,"ĠDreier":8814,"Ġefterskrevne":8815,"ĠVidnes":8816,"ĠKu":8817,"Ġaflevere":8818,"Ġforbru":8819,"ĠBÃ¸rns":8820,"Ġyn":8821,"Major":8822,"Ġheelt":8823,"Ġhvorhen":8824,"ĠSteent":8825,"Ġti":8826,"ĠTiÃ¦re":8827,"rine":8828,"ĠFlere":8829,"ĠCharlotte":8830,"ĠSpar":8831,"ĠefterfÃ¸lgende":8832,"ĠUdsigt":8833,"ĠKnuds":8834,"ĠAk":8835,"ĠDens":8836,"Ġventede":8837,"ĠFÃ¦stnings":8838,"Ġcoule":8839,"ĠProfession":8840,"ĠÃĺst":8841,"Ġomtalte":8842,"Vor":8843,"hÃ¦":8844,"ĠnÃ¸dt":8845,"pool":8846,"ĠKreature":8847,"Ġster":8848,"ĠGemalinde":8849,"Ġuforg":8850,"ĠBesÃ¸g":8851,"Ġguul":8852,"ĠHeg":8853,"dÃ¸d":8854,"inspecteur":8855,"loden":8856,"ĠMinisteren":8857,"ĠAdam":8858,"ĠHvi":8859,"ĠfortsÃ¦tte":8860,"ĠRegnskab":8861,"ĠOlie":8862,"ĠLidelser":8863,"uter":8864,"liget":8865,"ĠMagazin":8866,"IfÃ¸lge":8867,"ĠBeqvemmeligheder":8868,"huuset":8869,"Ġarresteret":8870,"ĠprÃ¦c":8871,"Ġ96":8872,"ĠSaasnart":8873,"ĠKiÃ¸bstÃ¦der":8874,"vart":8875,"holske":8876,"ĠStockholm":8877,"ĠDytmersken":8878,"faldende":8879,"yldest":8880,"ana":8881,"ĠJversen":8882,"nok":8883,"Ġtilskrive":8884,"ĠToldkammer":8885,"ĠSpil":8886,"engene":8887,"Er":8888,"jering":8889,"ĠForaar":8890,"ĠTilfredshed":8891,"Ġunderrette":8892,"holdnings":8893,"ĠEmbedsmand":8894,"ĠAndeel":8895,"ĠSpansk":8896,"ĠRegjerings":8897,"bringes":8898,"ĠQvantitet":8899,"Ġwelche":8900,"ĠVansk":8901,"Ġvedvarende":8902,"ĠFarve":8903,"ĠReier":8904,"ĠFlode":8905,"ĠTrÃ¦last":8906,"ĠBordeaux":8907,"ĠSÃ¦nge":8908,"Ġkunnet":8909,"Ġsydlige":8910,"ensinde":8911,"ĠStatens":8912,"Ġreent":8913,"Ġlyse":8914,"Ġhurtig":8915,"nelse":8916,"ĠPlakaten":8917,"ĠForretningen":8918,"ĠFrederichsberg":8919,"Ġforgi":8920,"Ġproc":8921,"Ġmener":8922,"ĠQvantum":8923,"ĠMillion":8924,"Ġoverordentlige":8925,"ĠSygeleie":8926,"ĠSouver":8927,"Ġren":8928,"jerne":8929,"ĠLeer":8930,"nemmelig":8931,"ĠKrÃ¦fter":8932,"bÃ¸ger":8933,"ĠForts":8934,"ĠLer":8935,"ĠUnderhuset":8936,"bind":8937,"Ġstode":8938,"Ġudslet":8939,"ĠHusar":8940,"ĠVog":8941,"Ġopmun":8942,"skirken":8943,"ĠFel":8944,"biÃ¸rnsen":8945,"ĠUdfÃ¸rsel":8946,"ĠFrist":8947,"ĠForklaring":8948,"kiendt":8949,"ĠMas":8950,"Ġcondition":8951,"ĠFiender":8952,"Ġreddet":8953,"-,":8954,"rab":8955,"denes":8956,"ĠPrÃ¦ster":8957,"Ã¸gt":8958,"Ġ94":8959,"ĠKoefoed":8960,"Ġuro":8961,"Ġimodtage":8962,"ĠSachsen":8963,"Ġkorte":8964,"sedler":8965,"ĠEen":8966,"ĠKirsten":8967,"ĠLigesom":8968,"ĠCollect":8969,"Ġsandsyn":8970,"ĠLiver":8971,"geist":8972,"ĠAnvende":8973,"Ġboe":8974,"ĠUnderoffic":8975,"ĠPlanker":8976,"ĠJomfru":8977,"Ġgieldende":8978,"ĠKallundborg":8979,"aber":8980,"ĠChal":8981,"vit":8982,"dsel":8983,"Tydskland":8984,"Cap":8985,"ĠPligter":8986,"ĠRhinen":8987,"ĠSundhed":8988,"ivet":8989,"Ġagt":8990,"ĠLemvig":8991,"egaards":8992,"ĠRiber":8993,"ĠBran":8994,"Ġvalgt":8995,"aul":8996,"Ġheft":8997,"riske":8998,"Ġprotocolleret":8999,"derup":9000,"Ġchrist":9001,"Ġmand":9002,"rug":9003,"lynd":9004,"ĠLÃ¸ven":9005,"Ã¦lder":9006,"moder":9007,"falden":9008,"Ġsolgte":9009,"faste":9010,"ĠMargar":9011,"ĠudnÃ¦vnes":9012,"ĠudsÃ¦ttes":9013,"ĠPremierlieutenant":9014,"ail":9015,"ĠudgiÃ¸r":9016,"skafne":9017,"skiftet":9018,"Ã¦rende":9019,"hald":9020,"tales":9021,"ĠCorrespon":9022,"boed":9023,"ĠKeiserinden":9024,"ĠOvereensk":9025,"ĠFlÃ¦":9026,"ĠMist":9027,"ĠFjenden":9028,"ĠHaugen":9029,"telige":9030,"ĠRussisk":9031,"ĠRÃ¸nne":9032,"Min":9033,"ĠfÃ¸rende":9034,"ĠLeje":9035,"fÃ¦stet":9036,"ielpe":9037,"gryn":9038,"ĠBielÃ¦gger":9039,"19":9040,"25":9041,"cret":9042,"ĠafgiÃ¸re":9043,"ĠVeil":9044,"oll":9045,"byrd":9046,"ĠBrest":9047,"ĠDorothea":9048,"ĠActionen":9049,"ĠBÃ¶r":9050,"ĠLeve":9051,"ĠMuurmester":9052,"Ġforful":9053,"Ġ128":9054,"ĠRygter":9055,"sset":9056,"Ġkaldede":9057,"Ġstand":9058,"ĠBestrÃ¦belser":9059,"tende":9060,"uro":9061,"ĠHollÃ¦nderie":9062,"aader":9063,"Ġandraget":9064,"ĠRÃ¸ver":9065,"ĠmÃ¸rke":9066,"ĠSli":9067,"ĠConrad":9068,"ellerne":9069,"FÃ¸rstkommende":9070,"Ġgew":9071,"Secretair":9072,"Ġankommet":9073,"ĠUg":9074,"resch":9075,"Ġ1771":9076,"ĠRegimentet":9077,"ĠStÃ¦det":9078,"somme":9079,"ĠGust":9080,"ĠForseg":9081,"ĠHÃ¸eg":9082,"ĠEb":9083,"ĠHandelsh":9084,"ĠDepescher":9085,"ĠSchulz":9086,"Ġslig":9087,"Ġovermaade":9088,"isterne":9089,"Ġbruun":9090,"ĠKobbere":9091,"aabte":9092,"ĠDirek":9093,"ĠSad":9094,"Ġhier":9095,"ĠPaven":9096,"ĠGrundt":9097,"Ġansatte":9098,"ĠForsynet":9099,"Ġ105":9100,"Ġudsp":9101,"svend":9102,"Ġ173":9103,"stidende":9104,"stens":9105,"fÃ¦ster":9106,"ĠTobaks":9107,"ĠSvensk":9108,"ĠLis":9109,"ĠSkiÃ¦r":9110,"ĠskjÃ¸ndt":9111,"Ġnorsk":9112,"Ġbero":9113,"ĠAnsigt":9114,"ĠFyrste":9115,"Ġdeeltage":9116,"ĠVaabenstil":9117,"Ġudbetales":9118,"ĠSubscrip":9119,"ĠRusser":9120,"ĠFoder":9121,"Ġ106":9122,"Etaten":9123,"ĠUhrmager":9124,"ĠForveien":9125,"ĠOpstand":9126,"ĠSange":9127,"ĠReb":9128,"ĠsidstnÃ¦vnte":9129,"Ġbetalte":9130,"ĠForlÃ¦gger":9131,"ĠZeit":9132,"ĠFÃ¦nd":9133,"ĠBach":9134,"ĠOversÃ¦ttelse":9135,"liam":9136,"Ġanvendes":9137,"ĠSkiden":9138,"ĠSkot":9139,"Ġindsat":9140,"nemann":9141,"cia":9142,"ardi":9143,"Ġtransp":9144,"yede":9145,"Ġuhyre":9146,"Ġyng":9147,"ĠPair":9148,"liche":9149,"Ġindtaget":9150,"Ġindkomme":9151,"ĠJuel":9152,"akt":9153,"Ġopdage":9154,"ĠTugthuus":9155,"ilighed":9156,"ĠFrid":9157,"ĠMr":9158,"Ġgjerne":9159,"sid":9160,"olade":9161,"Ġoverlades":9162,"Ġitalien":9163,"leth":9164,"ĠLandm":9165,"ĠDecembr":9166,"ĠFremme":9167,"Ġbele":9168,"ĠBegreb":9169,"ĠLadningen":9170,"Ġhindre":9171,"elund":9172,"Ġevig":9173,"sigelse":9174,"aft":9175,"erefter":9176,"antaine":9177,"ĠMiddagsstunden":9178,"Ã¦nkte":9179,"hmen":9180,"elsens":9181,"Arvinger":9182,"ĠAnth":9183,"ĠLovene":9184,"In":9185,"ĠKjÃ¸ber":9186,"ĠGrÃ¦ndsen":9187,"stere":9188,"linge":9189,"Ġindsende":9190,"ĠBco":9191,"ĠGunder":9192,"ĠQvinde":9193,"dike":9194,"ĠnÃ¸ds":9195,"landinger":9196,"Ġportug":9197,"ĠAndet":9198,"ĠAudien":9199,"ĠForbedring":9200,"Ġibidem":9201,"Ġsaltet":9202,"varsel":9203,"celÃ¦ster":9204,"Ġhaard":9205,"Hvilket":9206,"ersvend":9207,"ĠBast":9208,"seet":9209,"Ġbefordre":9210,"ĠLaanet":9211,"ĠCaroline":9212,"ĠforÃ¸":9213,"ĠÃĺyesyn":9214,"Ġ97":9215,"ĠVÃ¦rket":9216,"gtet":9217,"ĠSophia":9218,"ĠAarene":9219,"ĠOpdragelse":9220,"Ġtoge":9221,"Bevilling":9222,"Ġbekjendtgjorte":9223,"ĠUaf":9224,"abler":9225,"ĠNorsk":9226,"igelse":9227,"ĠDrift":9228,"24":9229,"Ġfalder":9230,"Ġhaft":9231,"ĠVien":9232,"ĠOpret":9233,"gjÃ¸res":9234,"ĠFlasker":9235,"istent":9236,"farten":9237,"dressere":9238,"lage":9239,"ĠMaterie":9240,"ĠMulct":9241,"Ġsuite":9242,"ĠPlet":9243,"ĠSÃ¶":9244,"Ġtrykkes":9245,"ĠGiestgiver":9246,"ĠTÃ¸":9247,"herred":9248,"Ġuforglem":9249,"hle":9250,"Ġdybt":9251,"kors":9252,"Ġvid":9253,"Ham":9254,"vÃ¦relser":9255,"ĠSkibrede":9256,"ĠProvindsen":9257,"ĠFloden":9258,"ĠTrÃ¦vahre":9259,"ĠTabet":9260,"ĠMÃ¸en":9261,"skolen":9262,"befalings":9263,"ĠVidnesbyrd":9264,"ĠGunde":9265,"vars":9266,"ĠGarnisonen":9267,"ĠtÃ¦nke":9268,"ĠElsk":9269,"Ġudval":9270,"ĠsÃ¦lgende":9271,"Ġnyder":9272,"ĠHalvor":9273,"ĠGyldendal":9274,"ĠLunds":9275,"Ġbede":9276,"iseret":9277,"ĠSammens":9278,"ĠSelskabs":9279,"ĠSchu":9280,"Ġopfylde":9281,"ĠFjer":9282,"ĠprÃ¦diker":9283,"broder":9284,"ĠRottbÃ¸ll":9285,"ĠVÃ¦g":9286,"renes":9287,"ĠSÃ¸ndagen":9288,"ĠLorenz":9289,"ĠCatharina":9290,"Ġoprette":9291,"Ġforanlediget":9292,"Ġudelu":9293,"ĠBout":9294,"ĠNav":9295,"ĠMund":9296,"skrivning":9297,"ĠGevinster":9298,"kastede":9299,"ĠAutor":9300,"ĠGrÃ¦kenland":9301,"ĠLomme":9302,"anel":9303,"Ġtienst":9304,"ĠHandlinger":9305,"spro":9306,"Ġaarligen":9307,"ĠFranzos":9308,"Ġforsv":9309,"dser":9310,"bygningen":9311,"ĠSpring":9312,"ĠThy":9313,"Ġ1770":9314,"ĠAdskillige":9315,"ĠKoff":9316,"!\"":9317,"Ġtalrig":9318,"ĠSnee":9319,"Ġbrugelige":9320,"Ġ118":9321,"ĠBegjering":9322,"ĠlÃ¦rt":9323,"royerede":9324,"ĠAndres":9325,"ĠResk":9326,"ĠJustice":9327,"resten":9328,"ĠParter":9329,"ĠProclamation":9330,"Ġoverbeviist":9331,"ĠfÃ¦lles":9332,"ĠKonditioner":9333,"ĠSemin":9334,"Ġskudt":9335,"ĠKonditionerne":9336,"Ġanmeldes":9337,"ĠSkagen":9338,"vol":9339,"Ġvirke":9340,"ĠBeleir":9341,"varet":9342,"ĠSchr":9343,"ĠvidtlÃ¸":9344,"ĠLax":9345,"stitut":9346,"Ġindleveret":9347,"ĠMarskal":9348,"hard":9349,"ĠVo":9350,"ĠForstander":9351,"ĠFladstrand":9352,"aalen":9353,"skole":9354,"kte":9355,"Hertug":9356,"ĠmÃ¸dte":9357,"arme":9358,"ĠFyrre":9359,"ĠCamp":9360,"ĠBalle":9361,"Ġdybe":9362,"ĠRendsborg":9363,"ĠPilestrÃ¦de":9364,"ĠforÃ¸get":9365,"Ġopbygt":9366,"Ġyderste":9367,"ĠnÃ¸dvendigt":9368,"ĠLandhuus":9369,"ĠbesÃ¸rge":9370,"ryg":9371,"ĠSystem":9372,"Ġbierget":9373,"ĠHund":9374,"Ġindkommen":9375,"ĠKiÃ¸be":9376,"ĠGjÃ¦stgiver":9377,"ĠKÃ¶n":9378,"Ġpaastaaer":9379,"daler":9380,"Ġindbragt":9381,"ĠGiÃ¦stgiver":9382,"Ġringeste":9383,"ĠPlanen":9384,"ĠEi":9385,"ĠGreven":9386,"ĠReiersen":9387,"atis":9388,"Ġopbyde":9389,"ĠKaas":9390,"Ġforlanger":9391,"ĠTÃ¸nsberg":9392,"Ġanordnet":9393,"ĠConferentsraad":9394,"yal":9395,"deland":9396,"ĠGaardsplads":9397,"Corps":9398,"dingen":9399,"ulation":9400,"lunds":9401,"ĠAncien":9402,"ĠSaar":9403,"ĠGouverneur":9404,"ĠHundrede":9405,"uller":9406,"****":9407,"Ġev":9408,"Ġmanglende":9409,"Ġsaaret":9410,"Ġefterlade":9411,"ĠÃĸ":9412,"annien":9413,"ĠEro":9414,"ravet":9415,"ĠVÃ¦rker":9416,"ĠPakke":9417,"ĠSkue":9418,"ĠÃĺnsker":9419,"apartes":9420,"ĠGlÃ¦":9421,"ĠUmyndige":9422,"Ġforat":9423,"ĠFriderik":9424,"ĠOplysninger":9425,"oven":9426,"endel":9427,"ĠHy":9428,"Ġfyen":9429,"irur":9430,"ĠundersÃ¸ge":9431,"ĠsÃ¸nder":9432,"Ġforeviser":9433,"ĠForliis":9434,"dski":9435,"ĠBirketings":9436,"ariske":9437,"eddel":9438,"ĠJÃ¼rgen":9439,"lic":9440,"ĠopfÃ¸res":9441,"ĠBoghandling":9442,"rÃ¦e":9443,"ĠSkatte":9444,"ĠMarse":9445,"ĠFrederiksborg":9446,"Ġlog":9447,"ĠHerligheder":9448,"ĠvÃ¦rdig":9449,"sky":9450,"smaade":9451,"dne":9452,"Ġdest":9453,"ĠSic":9454,"ĠDanmarks":9455,"ĠBlok":9456,"fast":9457,"sides":9458,"ĠKlÃ¦":9459,"Ġ125":9460,"Ġyttret":9461,"Ġforsikret":9462,"ĠPrÃ¦sidenten":9463,"oureer":9464,"dinger":9465,"ĠVels":9466,"ĠJubel":9467,"ĠVurderingsforretning":9468,"Ġpra":9469,"Ġforbundne":9470,"Ġyttrede":9471,"ladelig":9472,"ĠGrÃ¸nland":9473,"Ġanseer":9474,"Ġland":9475,"ĠHÃ¸ide":9476,"viisningen":9477,"ĠLaa":9478,"ĠLÃ¸verdags":9479,"ĠSkoven":9480,"Ġbetim":9481,"Ġtient":9482,"ĠToulon":9483,"ĠPav":9484,"zu":9485,"ĠSalget":9486,"ĠElm":9487,"ĠBirke":9488,"lis":9489,"ps":9490,"ĠAmter":9491,"ĠdrÃ¦bt":9492,"ĠSimonsen":9493,"Ã¦le":9494,"Ġgavn":9495,"Ġindmuret":9496,"Ġfuldt":9497,"ĠEiende":9498,"ĠvÃ¦sent":9499,"eden":9500,"ĠBayern":9501,"fÃ¸dte":9502,"ĠNel":9503,"ĠCronborg":9504,"serv":9505,"ĠNationer":9506,"ĠMann":9507,"ingerne":9508,"ĠAmbe":9509,"ĠOverd":9510,"Ġbidrage":9511,"ĠanfÃ¸res":9512,"Ã¸lv":9513,"vest":9514,"kier":9515,"ĠGjer":9516,"loster":9517,"tain":9518,"ĠVenskab":9519,"onien":9520,"ĠEget":9521,"ĠGields":9522,"forretning":9523,"ĠOverbe":9524,"Ġforli":9525,"Ġeine":9526,"ĠKavaller":9527,"ĠStet":9528,"ĠanmÃ¦rkes":9529,"ĠGiÃ¸re":9530,"Ġlovet":9531,"Embedet":9532,"delÃ¸n":9533,"ĠFÃ¦drenelandet":9534,"ĠHÃ¸yer":9535,"ĠÃĺvrighed":9536,"Ġdesaarsag":9537,"denne":9538,"ĠBrager":9539,"ĠSeb":9540,"ĠusÃ¦dvan":9541,"ĠByr":9542,"randet":9543,"ĠÃĺdel":9544,"Ġflygtede":9545,"teminde":9546,"Undertegnede":9547,"ĠBund":9548,"ĠBall":9549,"Ġoplyst":9550,"dix":9551,"Ġvedligeholdt":9552,"ĠDurchl":9553,"Ġoder":9554,"ĠGav":9555,"iteuren":9556,"Ġiv":9557,"Ġforskaffe":9558,"ĠWind":9559,"Ġ7000":9560,"ĠLofter":9561,"ĠVognrem":9562,"ĠMagistrat":9563,"ĠEle":9564,"Ġalles":9565,"oster":9566,"ĠTilsyn":9567,"iesen":9568,"Land":9569,"sgaard":9570,"Ġingenlunde":9571,"ĠPriiser":9572,"Ġbefri":9573,"mesteren":9574,"ĠOpposition":9575,"ĠFarv":9576,"Ã¦velse":9577,"Ġindbet":9578,"ĠLandsoverrets":9579,"ĠbelÃ¸ber":9580,"Ġpassere":9581,"Ġ107":9582,"Ġ12000":9583,"ugge":9584,"ĠChristiane":9585,"Redskab":9586,"anket":9587,"Ġarresterede":9588,"ĠAllerhÃ¸ist":9589,"ĠforfÃ¦rdiget":9590,"teren":9591,"ĠEuropas":9592,"ĠFeld":9593,"iteter":9594,"ĠHiÃ¸rring":9595,"ĠAargang":9596,"boet":9597,"ĠMortensen":9598,"teredes":9599,"Off":9600,"ĠEege":9601,"ĠUafhÃ¦ng":9602,"ĠGaver":9603,"kkerne":9604,"ĠExtr":9605,"ĠPanthaver":9606,"bund":9607,"baad":9608,"mose":9609,"icanske":9610,"ĠEnker":9611,"ĠPriserne":9612,"ĠWellington":9613,"ingo":9614,"undede":9615,"dragne":9616,"ĠGeneralforsamling":9617,"schou":9618,"Ġdurch":9619,"ĠChristiansands":9620,"ĠPra":9621,"byegaard":9622,"Ġafseilede":9623,"ĠerklÃ¦rer":9624,"ĠFortet":9625,"kaldet":9626,"stes":9627,"ĠMargaret":9628,"vogne":9629,"ĠVan":9630,"ichen":9631,"ĠForetagende":9632,"ĠPanteobligation":9633,"ĠSoel":9634,"handlede":9635,"ĠUdgifter":9636,"ĠRavn":9637,"Ġbekoste":9638,"Ġglem":9639,"ĠKapellan":9640,"Ġaccordere":9641,"erie":9642,"ĠWÃ¸l":9643,"Ġbortstiaalet":9644,"ĠBrede":9645,"ĠGiÃ¸r":9646,"ĠBogense":9647,"ĠHald":9648,"ĠChol":9649,"isser":9650,"sider":9651,"ĠMarke":9652,"Ġdeelt":9653,"ĠSÃ¸dskende":9654,"ĠProviant":9655,"bart":9656,"ĠLan":9657,"him":9658,"ĠBester":9659,"ĠMidten":9660,"Ġ1784":9661,"ĠDragkister":9662,"ĠVicek":9663,"ĠPrivilegium":9664,"Ġrummelig":9665,"skommissair":9666,"bierg":9667,"ĠFrederichsborg":9668,"Ġbestaar":9669,"terer":9670,"ĠConvo":9671,"modighed":9672,"ĠAndersdatter":9673,"ĠSÃ¸nderborg":9674,"Ġofficielle":9675,"ĠDatum":9676,"Ġboede":9677,"ĠSamtykke":9678,"ĠMortific":9679,"Ġordinaire":9680,"ĠbetrÃ¦ffende":9681,"ĠLÃ¦st":9682,"Ġerholdet":9683,"ĠAnordninger":9684,"Ġhy":9685,"ĠUdbetaling":9686,"rade":9687,"ĠOveralt":9688,"Ġagtede":9689,"ĠOverflÃ¸d":9690,"war":9691,"yden":9692,"ĠPandt":9693,"Ġopbragt":9694,"landene":9695,"ĠKant":9696,"itanten":9697,"ĠVadmel":9698,"Ġheder":9699,"ĠReiser":9700,"Ġulov":9701,"kiÃ¦r":9702,"ĠanlÃ¦gge":9703,"ĠLiin":9704,"ĠglÃ¦de":9705,"ĠBanken":9706,"ĠBent":9707,"nst":9708,"ĠbrÃ¦ndte":9709,"ĠSkiel":9710,"ĠTroppers":9711,"ĠRoh":9712,"ĠViis":9713,"ĠPist":9714,"Ġtidlig":9715,"marskal":9716,"itatis":9717,"ĠLim":9718,"temberg":9719,"Ġtorde":9720,"Ġudst":9721,"endal":9722,"jÃ¦l":9723,"ĠLegat":9724,"bur":9725,"akteer":9726,"ĠMÃ¸rch":9727,"cken":9728,"era":9729,"Ġdram":9730,"ĠAdjun":9731,"ĠimÃ¸de":9732,"ĠPlaner":9733,"Ġretskafne":9734,"ĠTur":9735,"Ġspansk":9736,"Ġerobret":9737,"husene":9738,"inair":9739,"ĠDecret":9740,"lÃ¦ng":9741,"ĠLitter":9742,"Me":9743,"Ġneder":9744,"ĠKlas":9745,"ĠKud":9746,"Ġoverst":9747,"ĠIndretninger":9748,"Ġtienlig":9749,"ĠHirschholms":9750,"osten":9751,"rÃ¦kning":9752,"osse":9753,"Ġafskediget":9754,"hov":9755,"raae":9756,"kram":9757,"otterie":9758,"ĠSession":9759,"ĠAnmÃ¦rkninger":9760,"Ġberegnet":9761,"Ġanseelige":9762,"ĠGarver":9763,"ĠStyrmand":9764,"Ġpligtig":9765,"Ġerholder":9766,"ĠnÃ¦stk":9767,"ĠklÃ¦":9768,"Ġoverv":9769,"ĠKiÃ¸d":9770,"ielder":9771,"ahlen":9772,"Nogle":9773,"mit":9774,"virk":9775,"agere":9776,"ĠJkke":9777,"ĠSommeren":9778,"ĠSve":9779,"Ġ91":9780,"Papiir":9781,"ĠdÃ¸mte":9782,"haande":9783,"ĠControlleur":9784,"ĠAugustii":9785,"ĠskiÃ¸nt":9786,"ĠSadelmager":9787,"ĠLunde":9788,"ĠBryg":9789,"ĠHuusholdning":9790,"Ġopfyldt":9791,"Audi":9792,"ĠHjÃ¸rring":9793,"Ġforsyne":9794,"ĠHertugdÃ¸m":9795,"ĠPedersens":9796,"iserede":9797,"ĠSkrivt":9798,"ĠAnsvar":9799,"ĠDiscip":9800,"Ġaber":9801,"ĠVurdering":9802,"kisk":9803,"ĠCir":9804,"ĠRÃ¦kke":9805,"heste":9806,"ĠGothersgaden":9807,"Ã¸nnet":9808,"forder":9809,"ĠAgerdyr":9810,"fÃ¦stelse":9811,"ĠAdvarsel":9812,"Ġarve":9813,"ĠforgiÃ¦ves":9814,"ĠLast":9815,"Ġerhvervet":9816,"ĠChatoller":9817,"ĠFaber":9818,"ĠSinde":9819,"ĠHessel":9820,"itzer":9821,"arvinger":9822,"Ġleie":9823,"sministeren":9824,"ĠFindelÃ¸n":9825,"ĠBle":9826,"ĠNÃ¸":9827,"ĠCommissair":9828,"ĠBegivenhed":9829,"ĠKiÃ¶benhavn":9830,"ĠSvendsen":9831,"ĠJndtÃ¦gt":9832,"tinu":9833,"ĠhÃ¦der":9834,"ĠDyb":9835,"Comm":9836,"dorph":9837,"inerne":9838,"Ġ104":9839,"ĠConst":9840,"ĠVrag":9841,"Ġglim":9842,"Ġvent":9843,"vik":9844,"wer":9845,"ĠTilfÃ¦ldet":9846,"Ġherover":9847,"Ġindenlandske":9848,"ĠLivr":9849,"ĠfÃ¦rdige":9850,"fle":9851,"ĠPatrio":9852,"ĠFaders":9853,"ĠStokholm":9854,"Ġoctroyerede":9855,"ĠGeistlige":9856,"Ġstillede":9857,"ĠunderstÃ¸tte":9858,"asses":9859,"ĠOmkostningerne":9860,"Ġfyenske":9861,"bringelse":9862,"idere":9863,"Forretningen":9864,"Ġkalder":9865,"Ġforvalteren":9866,"orten":9867,"osedler":9868,"ĠansÃ¦ttes":9869,"ĠGenua":9870,"Ġforetagne":9871,"ĠlÃ¸se":9872,"ĠsvÃ¦":9873,"Ġ113":9874,"Ġumiddel":9875,"ĠEierens":9876,"ĠMorsÃ¸e":9877,"Ġforanstaltet":9878,"Ġbefaler":9879,"fferdt":9880,"reditorer":9881,"rone":9882,"ĠkjÃ¸bt":9883,"bler":9884,"Ġtalrige":9885,"edte":9886,"inget":9887,"bemelte":9888,"ĠToft":9889,"ĠsÃ¦rskilt":9890,"ĠSorte":9891,"Ġsamle":9892,"minister":9893,"skontoir":9894,"ĠJagten":9895,"ĠEilande":9896,"ĠKiÃ¸bmÃ¦nd":9897,"rÃ¦ndsel":9898,"ĠJndre":9899,"ĠFlÃ¸ttetid":9900,"Ġerfarer":9901,"ĠLÃ¦rreder":9902,"ĠJbra":9903,"ĠOmstÃ¦ndighed":9904,"ĠInfanterie":9905,"storff":9906,"Ġkiendte":9907,"ĠUdlandet":9908,"ĠBeslag":9909,"Auditeur":9910,"Ġvillig":9911,"Ã¦sen":9912,"ĠFore":9913,"ussel":9914,"ĠLet":9915,"Ġsyg":9916,"ĠExecutores":9917,"olitanske":9918,"ĠOfficier":9919,"duc":9920,"Ġbrave":9921,"steens":9922,"Ġankomme":9923,"engryn":9924,"ĠPand":9925,"ĠKonstitution":9926,"Ġflyttet":9927,"FÃ¸lgende":9928,"balle":9929,"Ġ163":9930,"ĠNationen":9931,"ĠSan":9932,"ĠMagn":9933,"adel":9934,"Ġob":9935,"ĠCortes":9936,"Ġoplagt":9937,"Ġenhvers":9938,"Ġendt":9939,"ĠPariser":9940,"Ġbeboet":9941,"ĠStatstidenden":9942,"ĠLeip":9943,"ĠOluf":9944,"ĠIndgangen":9945,"Admiral":9946,"Ro":9947,"Ġbredt":9948,"Ġistedetfor":9949,"Ġmyndige":9950,"atret":9951,"ĠMold":9952,"dik":9953,"za":9954,"fel":9955,"berede":9956,"dommer":9957,"yne":9958,"ĠFrankrigs":9959,"ĠKierlighed":9960,"stÃ¦derne":9961,"ĠRÃ¦":9962,"80":9963,"ĠTheil":9964,"skat":9965,"ĠÃĺsters":9966,"Ġformeentlig":9967,"ĠDres":9968,"Ġindd":9969,"ĠHjerte":9970,"ĠVac":9971,"leren":9972,"ĠAfgift":9973,"iche":9974,"ellanten":9975,"Ġanvendte":9976,"lÃ¦rer":9977,"aabe":9978,"70":9979,"ĠForpligt":9980,"ĠKamre":9981,"ĠLispund":9982,"econom":9983,"ĠArmees":9984,"ahls":9985,"ĠSiÃ¦lland":9986,"ĠKolding":9987,"ĠBierre":9988,"Ġanmode":9989,"Ġtet":9990,"ĠAfdelinger":9991,"Commissarier":9992,"ĠForaaret":9993,"Ġegentlige":9994,"xt":9995,"oms":9996,"ĠGeb":9997,"Ġnogensinde":9998,"ĠTiener":9999,"ĠÃ¸stre":10000,"ĠMiddelhavet":10001,"Ġfornemste":10002,"bredelse":10003,"ingberg":10004,"ocolade":10005,"ĠKieldere":10006,"ĠkiÃ¸bs":10007,"Ġforvis":10008,"visioner":10009,"ĠUagtet":10010,"Ġ114":10011,"Ġnyere":10012,"agtninger":10013,"Ġ111":10014,"ĠSkuds":10015,"ĠLehn":10016,"Directionen":10017,"ĠLÃ¸gst":10018,"ĠLivres":10019,"ĠFartÃ¸i":10020,"trup":10021,"Ġaabnede":10022,"qvir":10023,"fabrik":10024,"fuldt":10025,"ommes":10026,"blad":10027,"Ġner":10028,"Ġseeneste":10029,"Men":10030,"ĠSkab":10031,"Ġindbef":10032,"Ġtheol":10033,"VÃ¦r":10034,"ĠStorhertug":10035,"ĠBrasilien":10036,"Keiser":10037,"handlere":10038,"ĠtinglÃ¦st":10039,"hovedet":10040,"lÃ¦ggelse":10041,"ĠHaandvÃ¦rk":10042,"Ġmeddeler":10043,"ĠDagens":10044,"handles":10045,"ĠReserve":10046,"ĠBeyer":10047,"Ġforstyr":10048,"ĠPlanter":10049,"Ġafhentes":10050,"ied":10051,"Ġugift":10052,"ĠByeskriver":10053,"ĠGienstand":10054,"ĠSnapsting":10055,"ĠMarseille":10056,"ĠBygnings":10057,"Ġtabte":10058,"ĠHon":10059,"illinger":10060,"sler":10061,"Ġpaalagt":10062,"ĠHusene":10063,"Ġbeskadiget":10064,"ĠHerskab":10065,"ĠSchles":10066,"Handel":10067,"ara":10068,"boden":10069,"ĠAvlings":10070,"ĠhÃ¸ye":10071,"Ġfangne":10072,"ĠTegning":10073,"ĠHospitalet":10074,"ĠForder":10075,"ensyssel":10076,"ĠEfterretningen":10077,"Ġgrov":10078,"ynt":10079,"ĠTrÃ¸st":10080,"Ġlyde":10081,"ĠAvlsredskaber":10082,"ĠMiguel":10083,"melde":10084,"ĠAdolph":10085,"ĠBoer":10086,"ĠOffentlige":10087,"ĠBefordring":10088,"ĠindlÃ¸ben":10089,"ĠSkrÃ¦dermester":10090,"Ġ*":10091,"ĠUafhÃ¦ngighed":10092,"ĠudfÃ¸rt":10093,"ĠManufactur":10094,"nin":10095,"ĠopfÃ¸rte":10096,"Ġwie":10097,"ĠHelsingÃ¸ers":10098,"medens":10099,"Ġerfaret":10100,"ĠLÃ¦sning":10101,"itaine":10102,"ĠEierne":10103,"Ġ115":10104,"ĠSterling":10105,"ĠFierding":10106,"Ġnetop":10107,"ĠLÃ¸ve":10108,"Ġmuelige":10109,"ĠGalli":10110,"ĠUdtryk":10111,"ctioner":10112,"ĠBos":10113,"brudte":10114,"ĠTyrker":10115,"Ġreddede":10116,"ferentsraad":10117,"smed":10118,"Ġetc":10119,"vÃ¦rdighed":10120,"Ġforundte":10121,"Jnsdagen":10122,"ĠJul":10123,"middag":10124,"ĠBilletter":10125,"ĠOvereenskomst":10126,"Ġafgaaen":10127,"Ġforsikkret":10128,"skou":10129,"ĠSmag":10130,"verk":10131,"raadet":10132,"veis":10133,"Ġforrette":10134,"ĠKrigsf":10135,"Ġ1763":10136,"ĠModtagelse":10137,"ni":10138,"Ã¸j":10139,"ancen":10140,"Ġkraft":10141,"reature":10142,"Ġfalden":10143,"ĠPomperedskab":10144,"vÃ¦g":10145,"Ġslaae":10146,"ysen":10147,"borgske":10148,"brÃ¸dre":10149,"ĠEscadre":10150,"ĠSidst":10151,"Ġbegivet":10152,"Ġwird":10153,"22":10154,"qvi":10155,"ĠOpmun":10156,"ĠHandling":10157,"ĠfortsÃ¦ttes":10158,"ĠÃ¸delagt":10159,"ĠBekiendtgjÃ¸relse":10160,"leier":10161,"Ġkol":10162,"ĠEnkefrue":10163,"rog":10164,"Ġlyder":10165,"ĠGavn":10166,"Ġdieses":10167,"Ġitalienske":10168,"ĠBlaar":10169,"ĠTÃ¸rklÃ¦der":10170,"ĠFond":10171,"teressen":10172,"ĠLauriz":10173,"seng":10174,"Ġovergivet":10175,"ĠChirurg":10176,"ĠÃ¶":10177,"dalen":10178,"ĠFÃ¦gtning":10179,"Ġdennem":10180,"Ġworden":10181,"vention":10182,"ĠStervboens":10183,"ĠHing":10184,"ĠStavanger":10185,"enzen":10186,"ĠLouis":10187,"ydning":10188,"Ġvom":10189,"ĠPorte":10190,"lÃ¦ste":10191,"ĠAdmiralitets":10192,"ĠBÃ¦r":10193,"Ġfasts":10194,"ĠBriggen":10195,"Ġholsteenske":10196,"Ã¸yer":10197,"Ġforleden":10198,"ĠAarets":10199,"ĠAll":10200,"olis":10201,"0000":10202,"Ġslaaet":10203,"ĠForsyn":10204,"ĠBonitet":10205,"tringer":10206,"ĠFoustager":10207,"Ġforebygge":10208,"ĠGis":10209,"ĠSkuur":10210,"ianske":10211,"ĠObl":10212,"ĠFange":10213,"ĠEin":10214,"Ġforskrevne":10215,"hrer":10216,"Ġforseglet":10217,"jente":10218,"ĠFan":10219,"ĠOmegnen":10220,"ei":10221,"hm":10222,"Ġmeldte":10223,"Ġfortsatte":10224,"ĠLiverpool":10225,"feber":10226,"ĠSammesteds":10227,"ĠCommandant":10228,"ĠJndstÃ¦vnte":10229,"ĠRust":10230,"ĠkiÃ¸be":10231,"redte":10232,"ĠChristensens":10233,"ĠBehag":10234,"ĠAsp":10235,"ropper":10236,"dersukker":10237,"gild":10238,"Ġsik":10239,"illende":10240,"ĠVelyndere":10241,"ĠBevÃ¦gelser":10242,"Ġsikkre":10243,"finde":10244,"Ġtilstaaet":10245,"Ġten":10246,"Ġkongl":10247,"Ġangrebet":10248,"ĠFranskes":10249,"rim":10250,"och":10251,"ĠHids":10252,"ĠBibliothek":10253,"Ġafseile":10254,"anfÃ¸rte":10255,"ĠLandgang":10256,"Ġdanne":10257,"atens":10258,"ĠUnderholdning":10259,"ĠMarked":10260,"PrÃ¦st":10261,"ĠBrem":10262,"ĠConvent":10263,"ĠMajestÃ¦ter":10264,"deeling":10265,"Ġbestemmer":10266,"grund":10267,"ĠLeth":10268,"medaille":10269,"ĠCommercelÃ¦ster":10270,"Ġvedligeholde":10271,"Ã¦bne":10272,"ĠSjÃ¦lland":10273,"ĠfuldstÃ¦nd":10274,"ĠMonark":10275,"Ġresol":10276,"Ġmundt":10277,"ĠPibe":10278,"ĠCommissariats":10279,"ĠbevÃ¦bnede":10280,"redskab":10281,"ĠPaakiendelse":10282,"ĠHyl":10283,"ĠDÃ¦kketÃ¸i":10284,"geren":10285,"Ġspur":10286,"ĠSygdomme":10287,"ĠFortun":10288,"Ġsandt":10289,"Ġasiatiske":10290,"enefic":10291,"antes":10292,"ino":10293,"ĠParlamentet":10294,"ĠUndvig":10295,"ĠJntellig":10296,"ererne":10297,"ssecretair":10298,"ĠKrone":10299,"Ġfaldet":10300,"ĠGrenaae":10301,"gaa":10302,"deligt":10303,"gjorde":10304,"Ġdyre":10305,"Selskab":10306,"Byg":10307,"ĠMarschal":10308,"ĠRaffin":10309,"Ġbeboede":10310,"ĠMedborgere":10311,"ata":10312,"varing":10313,"ĠHertuginden":10314,"Ġfrede":10315,"bogtrykker":10316,"Ġopraabes":10317,"ariat":10318,"ĠNordre":10319,"ĠPostgaarden":10320,"Ġfuldkomne":10321,"oliti":10322,"skaffet":10323,"ĠeuropÃ¦iske":10324,"ĠDommen":10325,"ĠbehÃ¸vende":10326,"ĠOverflÃ¸dighed":10327,"ĠLandstings":10328,"Ġubetydelige":10329,"etz":10330,"Compagnie":10331,"bil":10332,"ĠHerredscontoir":10333,"ĠStuer":10334,"Ġindtrufne":10335,"ĠTildrag":10336,"ĠJnger":10337,"ĠKil":10338,"ĠudnÃ¦vne":10339,"ĠLogis":10340,"Ġforandret":10341,"samt":10342,"ĠMuursteen":10343,"Breve":10344,"ĠEvig":10345,"ĠBenz":10346,"orge":10347,"ĠSie":10348,"strups":10349,"ĠtrÃ¦nge":10350,"ĠRulle":10351,"ĠRaadhuset":10352,"scapitain":10353,"Ġtrukket":10354,"ĠStang":10355,"Ġkjende":10356,"olie":10357,"ĠForsegling":10358,"ĠCr":10359,"Ġtilfredsst":10360,"ĠDommer":10361,"ĠStadt":10362,"Ġhandles":10363,"jÃ¦":10364,"ĠOverkrig":10365,"taler":10366,"ĠSchrÃ¸der":10367,"ĠsÃ¸r":10368,"ĠSultanen":10369,"ĠHillerÃ¸d":10370,"spil":10371,"Advocat":10372,"Ġpatrio":10373,"tik":10374,"ĠMagters":10375,"Ġudenlands":10376,"ĠVÃ¦rtshuus":10377,"ĠDirector":10378,"ĠHelt":10379,"Ã¸mmes":10380,"ĠSognet":10381,"ĠHengivenhed":10382,"ĠKiÃ¸bstÃ¦ds":10383,"ĠEtag":10384,"ĠColbiÃ¸rnsen":10385,"ĠEli":10386,"ĠKoner":10387,"ĠÃ¦rbÃ¸d":10388,"Ġ108":10389,"kaldte":10390,"ĠLuc":10391,"ĠLinde":10392,"Ġcop":10393,"Ġvelsig":10394,"hedral":10395,"ĠFolks":10396,"ĠDyre":10397,"ĠAfskeed":10398,"aadet":10399,"Ġnordlige":10400,"ĠMandags":10401,"ĠSchÃ¸nhe":10402,"Freder":10403,"ĠCl":10404,"ĠBrÃ¸drene":10405,"hoveder":10406,"uen":10407,"Ġtilsendt":10408,"ĠbevÃ¦":10409,"ĠSelveiergaard":10410,"Ġofficiel":10411,"ĠVarene":10412,"Ġformoder":10413,"Ġportugisiske":10414,"ĠTun":10415,"Ġderfore":10416,"Aller":10417,"ĠCate":10418,"Ġkongelig":10419,"ische":10420,"garde":10421,"ĠEntre":10422,"ĠConcur":10423,"Samling":10424,"meste":10425,"Ġ15000":10426,"Ġhverandre":10427,"ĠGundelach":10428,"ĠDol":10429,"ĠHval":10430,"Creditorerne":10431,"Ġuforglemmelige":10432,"ĠGave":10433,"ĠAlexand":10434,"Ġsendes":10435,"ĠForordninger":10436,"stemm":10437,"ĠDomingo":10438,"ĠBjerg":10439,"Ã¦ringer":10440,"ĠDeeling":10441,"une":10442,"Ġtegne":10443,"Hamborg":10444,"kam":10445,"ĠKlÃ¸":10446,"Ġhiint":10447,"ĠKancellie":10448,"ĠCancellies":10449,"denlandske":10450,"ĠKour":10451,"ielp":10452,"ksal":10453,"ĠVindovne":10454,"ĠBlikt":10455,"Ġvir":10456,"ĠTalg":10457,"Ġbrun":10458,"hÃ¸i":10459,"Ġsligt":10460,"Ġ350":10461,"egade":10462,"ĠByfoged":10463,"Ġrec":10464,"ĠErnst":10465,"Ġblaat":10466,"ĠWÃ¸lfferdt":10467,"Bet":10468,"ĠJbrahim":10469,"ĠBrors":10470,"Ġveie":10471,"avor":10472,"Ġdrevet":10473,"ĠUdg":10474,"ĠRaadstu":10475,"viiste":10476,"elands":10477,"Ã¦gtet":10478,"Ġmarschere":10479,"ĠWulff":10480,"ĠMinisteriet":10481,"ĠBefuldmÃ¦gtigede":10482,"ĠStadfÃ¦stelse":10483,"oret":10484,"ĠOffer":10485,"ĠCharac":10486,"ĠHaandbog":10487,"ĠÂ§":10488,"iene":10489,"ĠRoes":10490,"blevne":10491,"Hoved":10492,"ĠSon":10493,"ĠCommis":10494,"ĠUdsalg":10495,"ĠBallet":10496,"ĠPotter":10497,"ĠWilliam":10498,"Ġubetydelig":10499,"ĠHelliggeist":10500,"ĠLevnet":10501,"lugt":10502,"stene":10503,"Ġvandt":10504,"Helsing":10505,"ĠPed":10506,"Forts":10507,"derich":10508,"Foruden":10509,"Ġhidr":10510,"ĠUngdom":10511,"ĠForvent":10512,"Ġoptagne":10513,"hof":10514,"Ġlatinske":10515,"ĠMy":10516,"ĠKanal":10517,"ĠKnip":10518,"ĠfortÃ¦ller":10519,"ĠBÃ¸nderne":10520,"LÃ¦ster":10521,"ĠRad":10522,"ĠSnedkermester":10523,"ĠstrÃ¦nge":10524,"Ġut":10525,"ĠLiebhabernes":10526,"mal":10527,"Ġudfordres":10528,"oet":10529,"tering":10530,"annt":10531,"Ġudbrudt":10532,"Ġsvarer":10533,"ĠJoch":10534,"ĠKornvare":10535,"boder":10536,"kiÃ¸rsel":10537,"ĠCivil":10538,"ĠBuxer":10539,"utral":10540,"smo":10541,"Ġforbemelte":10542,"ĠCouleurer":10543,"ĠFirma":10544,"ĠEska":10545,"Ġseilede":10546,"Ġforventes":10547,"ĠSop":10548,"Ġudlagt":10549,"ĠWands":10550,"ous":10551,"tagen":10552,"ĠMalling":10553,"Ġattraae":10554,"ĠSlaver":10555,"ini":10556,"Ġphil":10557,"ĠPolen":10558,"ĠClem":10559,"appe":10560,"ĠPublication":10561,"ĠindfÃ¸rte":10562,"lyng":10563,"Ġdid":10564,"Ġpaalidelige":10565,"ĠBerner":10566,"yttet":10567,"Ġtilkommer":10568,"Efterretninger":10569,"ĠTÃ¶":10570,"ĠOvergade":10571,"ĠFranskmÃ¦ndene":10572,"ĠSÃ¦der":10573,"ĠHerskaber":10574,"orno":10575,"Ġhaardt":10576,"ĠGlÃ¼ck":10577,"ĠHendrich":10578,"fordrer":10579,"ĠNapoleons":10580,"igten":10581,"rigs":10582,"ĠSchiÃ¸":10583,"Ġperem":10584,"ĠopmÃ¦rk":10585,"ĠSkilder":10586,"ollen":10587,"ĠCancelliet":10588,"ĠBly":10589,"ĠSecondlieutenant":10590,"agtige":10591,"ĠGenerallieutenant":10592,"ĠSidebygning":10593,"ĠÃĺvrigheden":10594,"Ġforsikkrer":10595,"staaer":10596,"ĠKaab":10597,"klÃ¦dt":10598,"ĠBuonaparte":10599,"Ġ119":10600,"ĠAdskil":10601,"ĠLey":10602,"ĠBroen":10603,"ĠKarle":10604,"alli":10605,"ĠDerpaa":10606,"ĠBielke":10607,"Ġdesto":10608,"Ġsildig":10609,"ĠAmtets":10610,"ĠHjort":10611,"ĠPilestrÃ¦det":10612,"ĠFordeele":10613,"Ġkryd":10614,"Ġendte":10615,"ĠSkoleholder":10616,"ĠKnapper":10617,"ĠDeputation":10618,"ĠsÃ¸n":10619,"Ġkoste":10620,"ĠLodsedler":10621,"ĠDrÃ¦":10622,"Ã¸ies":10623,"ĠSkrivter":10624,"ĠBryggerhuus":10625,"fors":10626,"yndig":10627,"ĠFormedelst":10628,"ĠendskiÃ¸nt":10629,"Ġaff":10630,"Ġhvorvidt":10631,"lÃ¦s":10632,"ĠUngkarl":10633,"Ġhind":10634,"ĠAsm":10635,"iten":10636,"ĠHein":10637,"ĠGleerup":10638,"Ġindlevere":10639,"ĠSind":10640,"modige":10641,"chef":10642,"ĠOriginal":10643,"ĠFlaaden":10644,"ĠElle":10645,"ĠGeneralst":10646,"ĠLiim":10647,"ĠMynter":10648,"ĠKonsul":10649,"bi":10650,"ĠBesvÃ¦r":10651,"ĠFoged":10652,"commissair":10653,"lom":10654,"ĠSchow":10655,"itadel":10656,"arlsberg":10657,"ĠAnvendelse":10658,"ĠMine":10659,"egi":10660,"ĠMeenighed":10661,"ĠBur":10662,"ĠLinieskib":10663,"Ġmalede":10664,"ĠTrykken":10665,"ĠTilliggende":10666,"Ġost":10667,"ĠPaar":10668,"ĠEfteraar":10669,"ĠHensigter":10670,"ĠFang":10671,"ĠRepubliken":10672,"ĠOverslag":10673,"Ġlede":10674,"adeslÃ¸s":10675,"enede":10676,"Ġbedst":10677,"ordenen":10678,"ĠFrost":10679,"Ġregner":10680,"ĠHeeltag":10681,"seelse":10682,"ĠVinkel":10683,"ftighed":10684,"ĠFlÃ¦sk":10685,"Ġbesluttede":10686,"ĠQvÃ¦gtiende":10687,"ĠRette":10688,"ĠCatal":10689,"ĠForstÃ¦rkning":10690,"ailler":10691,"Ġskab":10692,"ĠGiert":10693,"ĠFugle":10694,"ĠsvÃ¦re":10695,"ĠBiskoppen":10696,"ĠhÃ¦n":10697,"ĠHovedstad":10698,"ĠHeil":10699,"igo":10700,"ĠGarn":10701,"Ġerobrede":10702,"Ġkaste":10703,"bruun":10704,"ĠKÃ¸nigsberg":10705,"Collegium":10706,"het":10707,"Ã¦den":10708,"Ġindskibe":10709,"jus":10710,"ĠMagas":10711,"ĠnÃ¸iere":10712,"ĠAfgivt":10713,"arup":10714,"herr":10715,"ĠOpsigt":10716,"ĠÃĺsterrigerne":10717,"Ġhypp":10718,"ĠRosiner":10719,"ĠElever":10720,"Ġkry":10721,"rane":10722,"Ġovenmelte":10723,"ĠAdelgaden":10724,"Ġanvendt":10725,"ĠBleg":10726,"ĠTour":10727,"Gaden":10728,"yers":10729,"Ġmedic":10730,"ĠSkrÃ¦":10731,"ĠVedlige":10732,"ĠBla":10733,"Ġfork":10734,"ĠConcert":10735,"ĠRÃ¸g":10736,"ĠBendix":10737,"Ġmortific":10738,"ĠTroskab":10739,"ĠfÃ¸le":10740,"Ġerhverve":10741,"26":10742,"ĠTanke":10743,"Ã¶rende":10744,"ĠForsamlingen":10745,"Ġafreiste":10746,"ĠRid":10747,"Ġnedsatte":10748,"attes":10749,"ĠKaal":10750,"rÃ¦ngende":10751,"Skifte":10752,"ĠUngdommen":10753,"fning":10754,"ringen":10755,"Ġopfordre":10756,"Ġindlade":10757,"ĠCanal":10758,"lerup":10759,"ĠbeklÃ¦":10760,"Ġabsolute":10761,"Ġgrove":10762,"fordringer":10763,"ĠSaug":10764,"Amt":10765,"ĠGuldberg":10766,"ĠÂ§.":10767,"uss":10768,"ĠGeneralerne":10769,"ĠConfirmation":10770,"ĠDerefter":10771,"Ġdre":10772,"mask":10773,"field":10774,"ĠvÃ¦lge":10775,"ĠIndt":10776,"ĠVÃ¦gge":10777,"ĠKos":10778,"Ġhemmelig":10779,"ĠgrÃ¸nne":10780,"ĠProclams":10781,"ĠStrandgaden":10782,"Ġdieser":10783,"ĠTresch":10784,"ĠByer":10785,"derede":10786,"Ġopbragte":10787,"kegaden":10788,"ĠUdgave":10789,"ĠFlugten":10790,"ĠHÃ¸n":10791,"Ġstrandede":10792,"ĠKirkens":10793,"ĠMes":10794,"ĠCart":10795,"entin":10796,"Ã¦nds":10797,"ociet":10798,"ĠDist":10799,"Ġforeviist":10800,"ĠLauenborg":10801,"ley":10802,"illi":10803,"Ġugr":10804,"ĠSecret":10805,"ĠDocum":10806,"Ġforbedret":10807,"ĠStÃ¸vler":10808,"benterne":10809,"menh":10810,"ellet":10811,"ĠStorkors":10812,"ĠBloch":10813,"Ġindre":10814,"ĠPostcontoir":10815,"ĠHauger":10816,"trÃ¦delse":10817,"Ġglimrende":10818,"ĠDegne":10819,"skind":10820,"Ġmennesk":10821,"Ġbringer":10822,"Ġberettigede":10823,"baarne":10824,"orgen":10825,"ĠReform":10826,"Ġhvorfore":10827,"ĠSever":10828,"mad":10829,"ĠOpfordring":10830,"ctions":10831,"mentet":10832,"ĠBÃ¸gebrÃ¦nde":10833,"ĠPin":10834,"ĠPap":10835,"ĠSign":10836,"Ġdirecte":10837,"Ġtolv":10838,"Ġtill":10839,"ĠMem":10840,"Dag":10841,"lauch":10842,"ĠUlrich":10843,"ĠSkolen":10844,"ĠRisengryn":10845,"Ġskrivtlig":10846,"kran":10847,"Arbeide":10848,"lementet":10849,"Ġforfaldne":10850,"numer":10851,"Bekiendt":10852,"ĠChina":10853,"Ġfjendt":10854,"ĠtrÃ¸":10855,"Ġnedlagte":10856,"ĠBiÃ¸rn":10857,"Ġtraa":10858,"sebÃ¦r":10859,"ĠFormÃ¦":10860,"ĠSeptembr":10861,"Ġ30000":10862,"ĠhÃ¦ve":10863,"ĠFolkes":10864,"drende":10865,"ĠHoveder":10866,"Ġudgives":10867,"ĠMorea":10868,"don":10869,"aarige":10870,"Ġlav":10871,"assens":10872,"Ã¸velse":10873,"ĠÃ¸st":10874,"ĠTestamenti":10875,"ĠElen":10876,"ĠkrÃ¦":10877,"ĠHartvig":10878,"vÃ¦rne":10879,"ace":10880,"ĠAndersens":10881,"Ġlyst":10882,"ĠKundskaber":10883,"historie":10884,"Ġhensigts":10885,"ĠMÃ¦rk":10886,"ĠArbeidet":10887,"ĠBirg":10888,"wald":10889,"Ġblo":10890,"ĠAlens":10891,"Ġtiltalt":10892,"ĠRede":10893,"Ġeeneste":10894,"qvarteermester":10895,"Br":10896,"ĠOmegn":10897,"gaardens":10898,"ĠPakker":10899,"erslev":10900,"ĠRath":10901,"ĠReligions":10902,"ibe":10903,"ĠBonden":10904,"ĠCitadel":10905,"holdelig":10906,"ĠClar":10907,"ĠPolitik":10908,"pil":10909,"anderende":10910,"ĠUges":10911,"Ġbesid":10912,"ĠindfÃ¸re":10913,"traadt":10914,"ĠKlage":10915,"ĠYt":10916,"Ġvirksom":10917,"ĠUniversitets":10918,"hs":10919,"ĠDegn":10920,"Ġfremme":10921,"ĠtrÃ¦ngte":10922,"eser":10923,"ĠCoff":10924,"Ġoverlade":10925,"ĠPortrait":10926,"ĠRek":10927,"Ġheldig":10928,"alminde":10929,"ĠJnsurgenterne":10930,"kkens":10931,"stands":10932,"MÃ¸lle":10933,"ĠhÃ¸r":10934,"ĠTob":10935,"idenskab":10936,"Dette":10937,"ĠsÃ¦tter":10938,"ĠTvende":10939,"berne":10940,"ĠMusi":10941,"ĠLinden":10942,"Ġforommel":10943,"ĠBille":10944,"gelsen":10945,"ĠQvad":10946,"ering":10947,"ĠPÃ¸b":10948,"ĠHers":10949,"Ġkostbare":10950,"ĠSukkere":10951,"ĠAllierede":10952,"Ġumyndige":10953,"Ġfortrinlige":10954,"ĠÃĺieblikket":10955,"udan":10956,"Ġregnes":10957,"besk":10958,"Ã¸bt":10959,"ĠArbeid":10960,"ĠPlouge":10961,"Ġtestam":10962,"ĠfornÃ¸y":10963,"ĠAnthon":10964,"reben":10965,"ĠSamlinger":10966,"fÃ¦rdighed":10967,"ritz":10968,"atholske":10969,"Ġkastet":10970,"cks":10971,"ĠUnderhandlinger":10972,"ĠSagfÃ¸rer":10973,"ĠPladser":10974,"auction":10975,"ĠHjul":10976,"undring":10977,"Ã¸llen":10978,"Ġbese":10979,"33":10980,"liges":10981,"Ġoverleveret":10982,"ssing":10983,"ĠNÃ¦ring":10984,"ĠTusinde":10985,"Ġvestre":10986,"500":10987,"ĠSlu":10988,"ynde":10989,"bÃ¸lle":10990,"Ġbrede":10991,"ĠNÃ¦st":10992,"ĠHalsen":10993,"lÃ¸bet":10994,"cass":10995,"Ġby":10996,"Ġgjent":10997,"Extra":10998,"ĠRuslands":10999,"Ġsynder":11000,"ĠÃĨgypten":11001,"ĠAlbert":11002,"ĠBourde":11003,"ĠgjÃ¸res":11004,"ĠSkorsteen":11005,"uly":11006,"Ġtydsk":11007,"ĠBand":11008,"ĠbesvÃ¦r":11009,"igende":11010,"ĠAdjutant":11011,"Sidst":11012,"ĠMant":11013,"igs":11014,"ĠTorvepriser":11015,"ĠPantec":11016,"ĠMetal":11017,"Ġforden":11018,"Ġredelig":11019,"ĠkjÃ¦r":11020,"ĠPiast":11021,"Ġafsendte":11022,"ĠMou":11023,"tius":11024,"ĠAfsked":11025,"ĠStettin":11026,"IS":11027,"Ġproduc":11028,"ĠHem":11029,"ĠOpsyn":11030,"ĠFrugter":11031,"ĠBist":11032,"ĠBill":11033,"Ġsamles":11034,"ĠStaters":11035,"orum":11036,"ĠFornÃ¸dne":11037,"ĠGustav":11038,"fjorden":11039,"stald":11040,"Ġlys":11041,"ĠOptrin":11042,"Ġforanled":11043,"ĠBetragtninger":11044,"Ã¦det":11045,"tser":11046,"Ġdagligen":11047,"Ġtiendeydende":11048,"ĠHerredskontoir":11049,"Ġsie":11050,"Ġsavn":11051,"ĠMÃ¦":11052,"egner":11053,"laaes":11054,"Ġopv":11055,"ĠStaldrum":11056,"ĠUdbrud":11057,"Alt":11058,"Huset":11059,"bst":11060,"dels":11061,"ĠTyver":11062,"ĠVesterport":11063,"ĠLivorno":11064,"ĠMilitaire":11065,"ĠHamborger":11066,"Ġtillades":11067,"affeb":11068,"Ġrund":11069,"ĠUheld":11070,"ĠBrorson":11071,"ĠTilh":11072,"ĠNovembr":11073,"ĠTrinitatis":11074,"ĠKapere":11075,"smouth":11076,"Ġudtagen":11077,"Ã¦nket":11078,"ĠOverretten":11079,"Ġof":11080,"estrup":11081,"ĠForbunds":11082,"Ġnyttig":11083,"ĠStÃ¸":11084,"ĠRein":11085,"Ġ141":11086,"Ã¦nkende":11087,"ĠFredensborg":11088,"ofte":11089,"ĠGrÃ¸":11090,"ĠBatterier":11091,"Ġvers":11092,"ĠLovise":11093,"smanden":11094,"Ġ1769":11095,"ĠKones":11096,"ĠGrÃ¦ve":11097,"Ġleverer":11098,"ĠEbeltoft":11099,"tien":11100,"ĠbrÃ¦ndt":11101,"Ġafholde":11102,"ersoner":11103,"ĠBagger":11104,"ĠAmerik":11105,"ĠReparation":11106,"ĠFj":11107,"dinal":11108,"ĠResidence":11109,"ĠBolig":11110,"Ġminde":11111,"Ġkeiserlige":11112,"bjer":11113,"Ġfuldbyr":11114,"ĠSigte":11115,"ĠCabinet":11116,"ĠTunge":11117,"eskov":11118,"ĠOnsdags":11119,"ĠSvÃ¦r":11120,"urerede":11121,"Ġalmindeligt":11122,"skjold":11123,"ĠFeldttog":11124,"ugaard":11125,"gjÃ¸rende":11126,"ĠKrigens":11127,"ĠHandelens":11128,"ĠAvisen":11129,"Ġefterhaanden":11130,"nerne":11131,"ĠBlan":11132,"ĠFiendens":11133,"edskaber":11134,"ĠHense":11135,"Ġerstatte":11136,"jender":11137,"vÃ¦rket":11138,"Ġraison":11139,"ĠLorenzen":11140,"Ġtakke":11141,"iber":11142,"ĠSkyde":11143,"ĠSkonner":11144,"Ġubekiendt":11145,"ĠTon":11146,"Ã¦ngs":11147,"ani":11148,"ĠRegne":11149,"hans":11150,"ĠEsp":11151,"Ġdramatiske":11152,"Ġunderste":11153,"ĠBeste":11154,"Ġrom":11155,"ĠAnciennet":11156,"ĠQval":11157,"fÃ¸relsen":11158,"onaiske":11159,"ĠForbud":11160,"ĠSoldaterne":11161,"ĠVelsign":11162,"ĠApen":11163,"ĠtrÃ¦ngende":11164,"ĠRob":11165,"ĠOmv":11166,"ĠProklam":11167,"Ġindbragte":11168,"ars":11169,"ĠVenedig":11170,"ĠCollin":11171,"Ġforplig":11172,"ĠNa":11173,"indisk":11174,"ĠPiber":11175,"nÃ¦vn":11176,"opper":11177,"ĠBroch":11178,"ĠBevid":11179,"ĠBÃ¸ggild":11180,"bal":11181,"ĠMunition":11182,"Ġforefindes":11183,"Ġac":11184,"kerig":11185,"lÃ¸ste":11186,"ĠSÃ¸er":11187,"Ġstandse":11188,"Ġreiser":11189,"ĠOverformynderie":11190,"ĠVÃ¦rdighed":11191,"Ġendogsaa":11192,"ĠophÃ¸re":11193,"Ã¦ndene":11194,"general":11195,"Ġhonette":11196,"Ġmoder":11197,"ĠForsikring":11198,"ides":11199,"uge":11200,"ĠTde":11201,"ĠBaroniet":11202,"Ġforkyn":11203,"ĠdÃ¸e":11204,"acher":11205,"ĠKompagn":11206,"Ã¸nde":11207,"beretning":11208,"ĠPetersens":11209,"ĠVicekon":11210,"Forsamling":11211,"rykte":11212,"ivne":11213,"ĠJames":11214,"ĠGun":11215,"yrdes":11216,"aires":11217,"ĠSardin":11218,"ĠKjÃ¸besummen":11219,"Ġubehag":11220,"ĠForlÃ¦ggeren":11221,"ĠhÃ¸iti":11222,"ĠKlare":11223,"ĠBogtrykkerie":11224,"ĠDeputeredes":11225,"ĠLÃ¸gstÃ¸er":11226,"ĠTils":11227,"Ġ116":11228,"ĠHenri":11229,"ĠTaarer":11230,"Herved":11231,"Ġnaae":11232,"ĠQvittering":11233,"ĠVindu":11234,"Ã¸rlig":11235,"Ġberetter":11236,"ĠMerkur":11237,"Ġtilstaaes":11238,"ĠvÃ¦g":11239,"ĠLige":11240,"Ġtor":11241,"ĠSamsÃ¸e":11242,"ĠRdl":11243,"Ġ230":11244,"skiÃ¦r":11245,"ĠDitmarsken":11246,"ĠSid":11247,"Ġpanel":11248,"ĠSalom":11249,"distri":11250,"ĠPorto":11251,"Ġ147":11252,"iels":11253,"Ġslaget":11254,"ĠKutter":11255,"traadte":11256,"ĠForelÃ¦s":11257,"Ã¸ye":11258,"ĠRheden":11259,"Ġnoksom":11260,"Mand":11261,"Ġudbrede":11262,"Ġsmig":11263,"melsen":11264,"Ġundvigt":11265,"armeen":11266,"ĠHot":11267,"ĠMaynz":11268,"stilling":11269,"ĠKiendelse":11270,"ĠEndvidere":11271,"kun":11272,"atz":11273,"ĠPortsmouth":11274,"staaelse":11275,"Ġheld":11276,"assessor":11277,"ĠFornÃ¦r":11278,"ĠBekostninger":11279,"ĠHassing":11280,"organ":11281,"Ġalvorlig":11282,"uagtet":11283,"Viborg":11284,"lik":11285,"Ġlangvar":11286,"ĠHaag":11287,"Ġhiemme":11288,"ĠMarquis":11289,"ĠÃĺsten":11290,"ĠHÃ¦n":11291,"Ġoprettes":11292,"Ġ1764":11293,"ĠEgenskab":11294,"Ġopsat":11295,"Qvarteer":11296,"arter":11297,"Ġ135":11298,"Ġtaale":11299,"Ġforklar":11300,"ĠVa":11301,"Ġstyrtede":11302,"ĠMortifications":11303,"Ġholdtes":11304,"Ġbehandlet":11305,"ĠRescript":11306,"ĠRegler":11307,"ĠUgersdagen":11308,"ĠOberste":11309,"ĠLÃ¦ger":11310,"Jtalien":11311,"Ġsielden":11312,"Stor":11313,"ĠTilsku":11314,"90":11315,"Ġgebro":11316,"Ġtykke":11317,"Hof":11318,"ĠPotten":11319,"ĠidÃ¸mte":11320,"Ġprivat":11321,"ĠJoach":11322,"umb":11323,"Ġbestille":11324,"ĠSirup":11325,"ĠSme":11326,"Ġudenbyes":11327,"Ġbeskytte":11328,"Ġdruknede":11329,"ĠHaderslev":11330,"ĠOd":11331,"Stift":11332,"ĠSkr":11333,"ĠNakskov":11334,"ulte":11335,"Ġihre":11336,"ĠHolme":11337,"Ġopbygget":11338,"Ġhannem":11339,"behag":11340,"ĠEmig":11341,"ĠNationens":11342,"dug":11343,"ude":11344,"iernes":11345,"ĠOvervÃ¦relse":11346,"ĠTyrkiet":11347,"ĠOstindiske":11348,"ĠÃ¦re":11349,"ĠKhvn":11350,"ĠAnkers":11351,"dern":11352,"ĠFund":11353,"ĠPly":11354,"Ġovergive":11355,"Ġalting":11356,"olence":11357,"ĠKiÃ¸benh":11358,"ĠKiÃ¸bmÃ¦ndene":11359,"Ġtilkomme":11360,"ĠÃĺrum":11361,"ĠBrud":11362,"ĠAdskilligt":11363,"stet":11364,"ĠStiftelse":11365,"27":11366,"ĠBusch":11367,"ĠTallet":11368,"Ġ900":11369,"Ġfalsk":11370,"Ġtilkiendegivet":11371,"ĠTet":11372,"hjem":11373,"ĠSamler":11374,"ĠPCt":11375,"otto":11376,"ĠHolms":11377,"ĠArrestantinden":11378,"Overret":11379,"ama":11380,"Ġudkomme":11381,"ĠBrÃ¸g":11382,"ĠMeddel":11383,"ĠHind":11384,"ĠbelÃ¸b":11385,"ĠBombar":11386,"28":11387,"ĠDorthea":11388,"foldige":11389,"elius":11390,"ĠBrÃ¦nder":11391,"ĠFord":11392,"Ġblid":11393,"inter":11394,"Ġvedvarer":11395,"levegne":11396,"HelsingÃ¸er":11397,"ĠBetÃ¦n":11398,"befalingsmand":11399,"olt":11400,"Beg":11401,"airer":11402,"ĠSit":11403,"ĠbrÃ¦nde":11404,"ĠVesten":11405,"fod":11406,"gtighed":11407,"ĠMatric":11408,"Mon":11409,"ĠInvent":11410,"Ġrundt":11411,"sind":11412,"ĠCasserer":11413,"ĠJndkomster":11414,"andsen":11415,"affebÃ¸nner":11416,"ĠBelgien":11417,"ĠGla":11418,"ĠVine":11419,"ĠBoutel":11420,"ĠBÃ¸nner":11421,"ĠKirsebÃ¦r":11422,"Ġbis":11423,"ĠAls":11424,"ĠbekiendtgjÃ¸res":11425,"Ġmangle":11426,"ination":11427,"ĠLarsens":11428,"ĠEgypten":11429,"user":11430,"ĠSten":11431,"endrup":11432,"ĠGalt":11433,"ĠlÃ¦gges":11434,"ĠSpÃ¸r":11435,"ĠArmeer":11436,"ĠBane":11437,"vÃ¦senets":11438,"ĠkiÃ¦r":11439,"arie":11440,"ĠKald":11441,"Ġanlagte":11442,"oser":11443,"ĠVande":11444,"ĠBrigade":11445,"ĠAfsÃ¦tning":11446,"ĠKugler":11447,"Ġsidde":11448,"eler":11449,"Ġrepar":11450,"Ġange":11451,"ĠBoen":11452,"ĠUs":11453,"ĠMarmor":11454,"ĠSognefoged":11455,"ĠOmsorg":11456,"iess":11457,"seer":11458,"Ġ127":11459,"ĠstÃ¸de":11460,"Ġpaastaaende":11461,"Ġsidstl":11462,"ĠLicitations":11463,"Ġgangne":11464,"kretair":11465,"Ġbivaane":11466,"Plan":11467,"ĠSkjÃ¦bne":11468,"ĠEngellÃ¦nder":11469,"ĠLanges":11470,"ylland":11471,"arierne":11472,"ĠHenrik":11473,"Ġsvaret":11474,"ĠFortÃ¦llinger":11475,"ĠKulde":11476,"admiral":11477,"Ġ123":11478,"Ġformind":11479,"ĠVidenskab":11480,"ĠSteds":11481,"ĠindlÃ¸se":11482,"ĠtilkjÃ¶bs":11483,"Ġindbyrdes":11484,"ĠOpdagelse":11485,"ĠTam":11486,"vÃ¦rdie":11487,"iendom":11488,"ringe":11489,"ĠKreaturer":11490,"ĠJngeborg":11491,"ĠSviger":11492,"ĠVands":11493,"ĠSÃ¸m":11494,"Ġsad":11495,"ĠMode":11496,"garden":11497,"ystem":11498,"ieur":11499,"Ġfindet":11500,"Lig":11501,"ĠFun":11502,"Ġmulig":11503,"Ġmuret":11504,"Ġfrems":11505,"ensioner":11506,"Ã¦nderne":11507,"Ġforaarsaget":11508,"ĠBegravelse":11509,"iennem":11510,"ĠJndby":11511,"ĠTildragelse":11512,"ĠskjÃ¸n":11513,"ĠSchweiz":11514,"ĠTvang":11515,"Ġmeerbemeldte":11516,"ĠValen":11517,"ĠDiam":11518,"ĠTreschow":11519,"ada":11520,"Ġtilstaae":11521,"dÃ¸mt":11522,"redt":11523,"ĠSpanierne":11524,"Ġtilstede":11525,"digheder":11526,"Ġmilit":11527,"vÃ¦rt":11528,"bliver":11529,"ĠStrax":11530,"Ġperemtor":11531,"ĠEnglÃ¦nderne":11532,"bringende":11533,"ĠEy":11534,"ĠbrÃ¦":11535,"Ġviiste":11536,"vexling":11537,"ĠHil":11538,"Ġindgaaet":11539,"ĠKnap":11540,"ĠForpagteren":11541,"ĠStamhuset":11542,"Ġviis":11543,"ĠHenhold":11544,"Ã¦vnet":11545,"aabye":11546,"Ġslutter":11547,"sn":11548,"ĠJndust":11549,"ĠAalborgske":11550,"Ġfarlig":11551,"ĠSubskrib":11552,"Ġnagel":11553,"ĠbesÃ¦tte":11554,"ĠArvefÃ¦ste":11555,"orer":11556,"heftet":11557,"ĠUmage":11558,"ĠFogh":11559,"ĠMur":11560,"aften":11561,"ĠForny":11562,"ĠFÃ¸lelser":11563,"ĠJahnsen":11564,"ĠBun":11565,"ĠSupp":11566,"ĠKorsÃ¸er":11567,"handlet":11568,"brevene":11569,"Ġudru":11570,"ĠJsaa":11571,"Ġindlagt":11572,"Ġfarlige":11573,"ĠSeddel":11574,"ĠForpagtnings":11575,"Tra":11576,"ĠMatr":11577,"ĠHaven":11578,"ĠBehold":11579,"Ġindsendes":11580,"ĠCaracteer":11581,"ĠCollegium":11582,"Ġtilendebragt":11583,"ĠDyd":11584,"ĠJm":11585,"Ġaa":11586,"ĠNim":11587,"ĠStuds":11588,"ĠOrdens":11589,"Ġlem":11590,"ision":11591,"Ġunderkastet":11592,"Ġfrygte":11593,"Ġuopholdelig":11594,"Ã¦tt":11595,"Ġfattig":11596,"ĠFortrin":11597,"ĠAfgivter":11598,"ĠFiin":11599,"ĠforlÃ¸b":11600,"Ġanbet":11601,"ĠPotte":11602,"ĠAlderdom":11603,"ĠGrÃ¦ndserne":11604,"gjer":11605,"ĠRoe":11606,"Ġforeskriver":11607,"Ġforbunden":11608,"rukken":11609,"ĠÃĺj":11610,"ĠSamf":11611,"itterede":11612,"ĠMont":11613,"ĠTaknemmelig":11614,"ĠDaler":11615,"ĠForti":11616,"stÃ¸ber":11617,"ride":11618,"Ġavlet":11619,"ĠNÃ¸g":11620,"The":11621,"ĠHuuset":11622,"ĠFÃ¦ster":11623,"ĠProvstie":11624,"Ġtilbyder":11625,"ĠRoden":11626,"ĠAuctionsstÃ¦det":11627,"Ġforbrudt":11628,"ĠStraa":11629,"Ġvolds":11630,"ligevel":11631,"gjÃ¸relser":11632,"ĠAnordning":11633,"iler":11634,"dren":11635,"Ġbefuld":11636,"ĠSoldin":11637,"ĠConference":11638,"ĠOphÃ¦velse":11639,"ĠAnciennetet":11640,"Ġhil":11641,"Ġhvi":11642,"Ġsku":11643,"ump":11644,"ĠudsÃ¦tte":11645,"arde":11646,"ĠKasserer":11647,"urte":11648,"ĠMallag":11649,"ĠBetingelser":11650,"jÃ¦ger":11651,"Ġson":11652,"ĠHage":11653,"ĠFormynder":11654,"Ġomen":11655,"Krigs":11656,"Ġudbredt":11657,"Ġpligtige":11658,"ĠCommunic":11659,"Ġslu":11660,"ĠTrib":11661,"bygger":11662,"quist":11663,"ĠChristi":11664,"Ġangives":11665,"ĠGrÃ¸nne":11666,"ĠFÃ¦lled":11667,"irer":11668,"Ã¸ster":11669,"ĠFour":11670,"ĠBram":11671,"ĠKysterne":11672,"ĠRigsbankdaler":11673,"betien":11674,"blive":11675,"Ġbefandtes":11676,"Ġindrykkes":11677,"fiord":11678,"egnes":11679,"ĠTilslaget":11680,"ĠNytaars":11681,"ĠBevidnelse":11682,"Siden":11683,"ĠForstrand":11684,"Ġbevid":11685,"ĠLuxdorph":11686,"ĠSaavel":11687,"ĠErkeb":11688,"Gr":11689,"digt":11690,"pun":11691,"ĠJyllands":11692,"ĠJnsp":11693,"lidte":11694,"ĠSjette":11695,"ka":11696,"andset":11697,"stitutionelle":11698,"ĠBourdeaux":11699,"Ġseile":11700,"Ġforfattede":11701,"Ġvedligeholdte":11702,"ĠDistricts":11703,"Ġtunge":11704,"ĠPanteret":11705,"Ġalli":11706,"acteur":11707,"ĠSigende":11708,"Ġtalt":11709,"Rus":11710,"ommers":11711,"ĠHandelshuset":11712,"kÃ¸n":11713,"ordt":11714,"ĠMynt":11715,"Mad":11716,"ĠVater":11717,"Ġindvortes":11718,"ĠPhilosoph":11719,"Ġforsikkrede":11720,"leve":11721,"Ġanviist":11722,"Ġmatric":11723,"ĠMex":11724,"ĠProtest":11725,"ĠSelskaber":11726,"ĠConsistor":11727,"Ġmedbragt":11728,"if":11729,"virke":11730,"dsom":11731,"ĠHolmens":11732,"Ġfiendtlig":11733,"Frankerig":11734,"Ġporto":11735,"ĠLond":11736,"ĠTilbud":11737,"ĠÃ¶n":11738,"ĠJndretninger":11739,"ĠOrt":11740,"ĠPostdage":11741,"ĠNationalg":11742,"ĠWÃ¼rtemberg":11743,"ĠVeiledning":11744,"ĠLandmanden":11745,"ĠSteph":11746,"ĠKaaber":11747,"ĠVedligeholdelse":11748,"Kirke":11749,"Ġfordum":11750,"ĠSkudsmaal":11751,"stat":11752,"Ġnaturlige":11753,"rere":11754,"igere":11755,"ĠkiÃ¦re":11756,"odder":11757,"indede":11758,"haand":11759,"ĠHenrichsen":11760,"ĠProducter":11761,"ĠSubscription":11762,"ĠFiel":11763,"Ġbryde":11764,"Ġaltonaiske":11765,"ĠKruse":11766,"Ġunds":11767,"ĠStervboegaarden":11768,"ĠGrevinde":11769,"ĠJndbyggere":11770,"ĠWorm":11771,"ĠCur":11772,"ĠSterv":11773,"ĠCatt":11774,"Ġyderst":11775,"ĠDets":11776,"ĠProclamatis":11777,"Ġforsikre":11778,"Ġ134":11779,"ĠLÃ¸kke":11780,"ĠHjorth":11781,"Ġindtage":11782,"ĠLarsdatter":11783,"ĠStorherren":11784,"ĠnÃ¦rmest":11785,"orporal":11786,"lande":11787,"etil":11788,"ĠJndbrud":11789,"Ġforsvarlig":11790,"Ġaverterede":11791,"ĠFust":11792,"ĠKast":11793,"endeel":11794,"ĠCob":11795,"ichs":11796,"ĠAmtmanden":11797,"lutninger":11798,"hardt":11799,"icus":11800,"ĠstadfÃ¦stet":11801,"abil":11802,"ttes":11803,"Ġ124":11804,"ĠFah":11805,"akkelovne":11806,"ĠActors":11807,"ĠBaaden":11808,"ĠLÃ¼beck":11809,"Ġnorden":11810,"ĠUnderretter":11811,"ĠSkotland":11812,"ĠFormel":11813,"vÃ¦rre":11814,"Efterretning":11815,"Ġ1762":11816,"ĠTide":11817,"ĠPaarÃ¸rende":11818,"geant":11819,"Ġ117":11820,"ĠRasmu":11821,"ĠAssistent":11822,"ĠKolon":11823,"Ġmangler":11824,"Ġulykkelig":11825,"Procurator":11826,"roede":11827,"ĠEfterlever":11828,"Ã¦ndt":11829,"ĠRiges":11830,"tings":11831,"edder":11832,"ĠFron":11833,"Ġbefunden":11834,"ĠForhÃ¸r":11835,"ĠWas":11836,"Ġhemmelige":11837,"ĠSteens":11838,"ĠFredericia":11839,"ĠArvingers":11840,"Ġextraord":11841,"aren":11842,"ĠBaads":11843,"ĠHÃ¸itidelighed":11844,"ĠKonstantinopel":11845,"Ã¦mpe":11846,"ĠBistand":11847,"jenesten":11848,"Ġbrune":11849,"ĠSmerte":11850,"alsk":11851,"Ġfiine":11852,"rian":11853,"ĠForsigtighed":11854,"Ġvistnok":11855,"alitet":11856,"Ġfrygter":11857,"ĠVext":11858,"Ã¸iende":11859,"ĠGraa":11860,"isende":11861,"Ġglade":11862,"ugle":11863,"ĠEgenskaber":11864,"29":11865,"nytt":11866,"ortere":11867,"tinenti":11868,"vox":11869,"fyrsten":11870,"Ġbetragte":11871,"Ġforuro":11872,"ĠDeser":11873,"Se":11874,"Ġlode":11875,"yres":11876,"ĠUdby":11877,"Ġ168":11878,"ĠProklama":11879,"Ġudtagne":11880,"Ġhjemme":11881,"ĠSmidt":11882,"Ġ144":11883,"Ġformelig":11884,"mÃ¦rkning":11885,"ĠCollection":11886,"ĠRentekammers":11887,"Ġkostet":11888,"Port":11889,"ĠOlsdatter":11890,"ĠFiol":11891,"budne":11892,"ĠJnstrumenter":11893,"ĠKierul":11894,"Casse":11895,"ĠSkrÃ¦k":11896,"ĠNote":11897,"ĠHofs":11898,"ĠTrÃ¸ie":11899,"ming":11900,"Ġrev":11901,"ĠGodses":11902,"ĠBibel":11903,"ĠEftertiden":11904,"stÃ¸mmer":11905,"ĠVidere":11906,"Ġ206":11907,"ĠFried":11908,"Ġpants":11909,"Ġskien":11910,"givt":11911,"ĠAarsager":11912,"ologiske":11913,"Ġforhindre":11914,"Ġbage":11915,"tich":11916,"Sund":11917,"ĠPeders":11918,"Ġopgives":11919,"Ġ236":11920,"ĠprÃ¦gtig":11921,"Ġlad":11922,"kund":11923,"ĠHelbred":11924,"ĠMission":11925,"ĠListe":11926,"uper":11927,"ĠbesÃ¸ge":11928,"Stedet":11929,"ĠMogens":11930,"ĠFur":11931,"trÃ¦de":11932,"uli":11933,"ĠVÃ¦nge":11934,"ĠFÃ¦dreland":11935,"ĠLysgaard":11936,"Th":11937,"ĠJonas":11938,"ĠTimes":11939,"ĠAlmuen":11940,"Ġbjer":11941,"ĠFÃ¸dder":11942,"ĠLadninger":11943,"inch":11944,"Ġindvars":11945,"ĠStervboer":11946,"schen":11947,"Ġtilkiendt":11948,"ĠCataloger":11949,"ĠSyl":11950,"ĠFrederichshald":11951,"ĠBrunsvig":11952,"redi":11953,"Ġpolske":11954,"Ġbetimelig":11955,"Ġtales":11956,"hem":11957,"Ġnys":11958,"Ġbeskadigede":11959,"ĠSchmid":11960,"ĠGeneralen":11961,"ĠDivan":11962,"brÃ¦nder":11963,"uc":11964,"omiske":11965,"ĠToldbod":11966,"ĠHaabet":11967,"ĠJesu":11968,"ĠlÃ¦nger":11969,"ĠSkipperen":11970,"ĠJoachim":11971,"urendahl":11972,"ĠVognen":11973,"Ġhiemkomne":11974,"ĠExtraret":11975,"Nye":11976,"Ġbehandle":11977,"ĠOven":11978,"komsten":11979,"ĠKaabber":11980,"bryg":11981,"ĠHefter":11982,"ĠTestament":11983,"ias":11984,"ĠSved":11985,"ĠsÃ¦lger":11986,"ningens":11987,"ĠTyv":11988,"Tiende":11989,"vid":11990,"uthen":11991,"ĠTransportskibe":11992,"deler":11993,"Ġiagt":11994,"skuur":11995,"ĠVild":11996,"SÃ¸ndagen":11997,"Ġotte":11998,"Ġmaaned":11999,"ĠAarhundrede":12000,"Ġir":12001,"ĠRoman":12002,"ĠApenrade":12003,"no":12004,"ĠWitt":12005,"tegning":12006,"mÃ¦nds":12007,"stol":12008,"ĠBÃ¸l":12009,"yttere":12010,"ĠDresden":12011,"ĠMarcus":12012,"skreven":12013,"eremon":12014,"ppel":12015,"ĠLyon":12016,"bygninger":12017,"Tiden":12018,"indelser":12019,"forsi":12020,"Ġraabte":12021,"ĠRegninger":12022,"ĠNyegaard":12023,"ĠUdgivter":12024,"Ġorigin":12025,"Ġbad":12026,"spun":12027,"Ġsaltede":12028,"ĠFugl":12029,"ĠHuder":12030,"ĠbelÃ¸be":12031,"ĠArvepr":12032,"ĠBentz":12033,"ĠCanton":12034,"ĠFÃ¸dsel":12035,"yser":12036,"ĠAlter":12037,"ĠTirsdags":12038,"tidenden":12039,"ĠJarlsberg":12040,"Ġ138":12041,"ĠOpfyl":12042,"ĠSmyr":12043,"Ġpriis":12044,"Ġufors":12045,"ĠAllerede":12046,"ĠPiastre":12047,"ĠtillÃ¦gges":12048,"Ġkrig":12049,"ĠBark":12050,"Ġtjener":12051,"Ġilde":12052,"lags":12053,"ĠArmeens":12054,"ĠVarde":12055,"Ġudbetale":12056,"ĠsÃ¸nden":12057,"ĠHenseender":12058,"ĠLun":12059,"ĠDatters":12060,"ĠBekiendtgiÃ¸relses":12061,"Ġgel":12062,"ĠMedhold":12063,"ĠBerth":12064,"ĠFrantz":12065,"Ġ2500":12066,"Offic":12067,"Ġtion":12068,"ĠActie":12069,"ĠBarsel":12070,"ĠCompagniet":12071,"ĠHad":12072,"Ġledsagede":12073,"ĠMatricul":12074,"Ġejus":12075,"Ġfremlagte":12076,"Ġskeede":12077,"loe":12078,"ĠBorup":12079,"righed":12080,"skrives":12081,"ĠFredags":12082,"Ġmoralske":12083,"Ãĺster":12084,"ĠKlÃ¸cker":12085,"Bo":12086,"ĠSavn":12087,"Ġ143":12088,"ĠVognmand":12089,"Ġgielde":12090,"mÃ¦ldte":12091,"Ġhente":12092,"ĠKoureer":12093,"ĠNÃ¦s":12094,"ĠSkal":12095,"ĠHenning":12096,"ĠNeer":12097,"ĠDurchlauch":12098,"ĠLitteratur":12099,"splan":12100,"ĠBallast":12101,"ĠLieutn":12102,"uret":12103,"dron":12104,"orv":12105,"geraad":12106,"ĠJÃ¼rgensen":12107,"Ġatte":12108,"ĠBrevposten":12109,"ĠAnordningerne":12110,"Ġbortforpagtet":12111,"ĠTegne":12112,"ĠTherm":12113,"Ġtjene":12114,"ĠAnsÃ¸g":12115,"ĠFadderne":12116,"ĠSchÃ¸nheyder":12117,"reist":12118,"Ġangivet":12119,"ĠNaturen":12120,"hme":12121,"Ġlevede":12122,"hne":12123,"ĠClaudi":12124,"Ġfrygtelig":12125,"ĠLiebhavernes":12126,"drages":12127,"ĠHolsteenske":12128,"Ġnaadigst":12129,"amtet":12130,"Ġkier":12131,"ĠElling":12132,"ĠJndtÃ¦gter":12133,"ĠLevet":12134,"fu":12135,"Ġskyde":12136,"ĠTrappe":12137,"ĠStutter":12138,"ĠPohlen":12139,"ĠJernp":12140,"ĠAppellanten":12141,"ĠTÃ¦nke":12142,"ĠStabell":12143,"ĠTrondhiem":12144,"Ġomsider":12145,"ĠRyggen":12146,"ĠJndsidder":12147,"bbe":12148,"Ġsteg":12149,"Ġstraffes":12150,"ĠSpeciess":12151,"ĠRub":12152,"ppet":12153,"ĠPul":12154,"Enhver":12155,"rigtige":12156,"fÃ¸d":12157,"ĠTage":12158,"ĠHunde":12159,"ĠUdla":12160,"ĠGarden":12161,"uk":12162,"ĠudfÃ¸res":12163,"ĠUdkast":12164,"skrivter":12165,"ĠCorvet":12166,"ĠCondolence":12167,"halt":12168,"ĠanfÃ¸re":12169,"ĠChocolade":12170,"ĠBarcell":12171,"agender":12172,"Cassen":12173,"ĠBonapartes":12174,"ĠLoftet":12175,"ĠFÃ¸":12176,"aage":12177,"Ã¦lle":12178,"Ġ121":12179,"somt":12180,"ĠSÃ¸gning":12181,"ĠAngiv":12182,"Ġantager":12183,"Ġforbedrede":12184,"ĠnÃ¸iagtig":12185,"idan":12186,"ĠudstÃ¦de":12187,"Ã¦ndte":12188,"Ġforuly":12189,"ĠTapper":12190,"ĠhidtilvÃ¦rende":12191,"Ġdrog":12192,"ĠSpÃ¸rgsm":12193,"arac":12194,"ĠLÃ¦sebog":12195,"ĠTrykke":12196,"ĠWochen":12197,"jÃ¦r":12198,"ĠMartini":12199,"ĠBeregning":12200,"ĠBielker":12201,"rin":12202,"Ġdrev":12203,"ĠUdseende":12204,"Ġsvag":12205,"ĠNytaar":12206,"Ġtillagte":12207,"ĠsÃ¸ges":12208,"apit":12209,"ĠFuldm":12210,"ĠVaar":12211,"Ġoverladt":12212,"endt":12213,"esch":12214,"ĠCharlot":12215,"ena":12216,"ĠSus":12217,"Ġeiner":12218,"ĠKiende":12219,"Ġgratis":12220,"dorf":12221,"ommere":12222,"ĠAmtsprovst":12223,"Ġnaturligviis":12224,"erk":12225,"ĠEger":12226,"ohr":12227,"ĠComoed":12228,"Ġdrist":12229,"itten":12230,"umme":12231,"gning":12232,"oft":12233,"ĠWig":12234,"ĠSÃ¸rensdatter":12235,"ĠKiÃ¸berne":12236,"ĠParlament":12237,"ĠHestene":12238,"ĠForsikk":12239,"ĠTildragelser":12240,"edahl":12241,"ĠKlager":12242,"ĠNÃ¸dvend":12243,"ĠfÃ¶l":12244,"ĠPrÃ¦ten":12245,"ĠOsten":12246,"Ġje":12247,"rument":12248,"ĠKlÃ¦des":12249,"oli":12250,"ĠTimers":12251,"ĠFiendt":12252,"ĠRov":12253,"Ġindvendig":12254,"Ġinner":12255,"Ġforsendes":12256,"ĠAfhandlinger":12257,"ĠDok":12258,"Ġovert":12259,"ĠTromp":12260,"ĠforelÃ¸big":12261,"ĠEller":12262,"ĠMallaga":12263,"sposten":12264,"ĠRaads":12265,"posterne":12266,"naad":12267,"ĠKilde":12268,"ĠProtocollen":12269,"Ligeledes":12270,"lemann":12271,"ĠLeop":12272,"ĠSelmer":12273,"clar":12274,"wart":12275,"ĠfortrÃ¦":12276,"Ġ136":12277,"Ġantagen":12278,"ĠJblandt":12279,"Ġraae":12280,"ĠHamburg":12281,"hyg":12282,"kjende":12283,"Ġillumineret":12284,"ĠModers":12285,"ĠKirkegaard":12286,"ĠLeipzig":12287,"Ġforommeldte":12288,"ĠbemÃ¦gtiget":12289,"ĠEllen":12290,"ĠAkadem":12291,"ose":12292,"ĠÃĨd":12293,"ĠretmÃ¦ssige":12294,"yrede":12295,"ĠDomme":12296,"Ġstoer":12297,"sammes":12298,"ĠEvangel":12299,"ĠTrom":12300,"Ġregisteret":12301,"ĠKammeret":12302,"Ġindtruffen":12303,"ĠForpagtningen":12304,"denen":12305,"ĠKrager":12306,"ĠFattigvÃ¦senet":12307,"Ġvog":12308,"Ã¦ngden":12309,"ĠLiter":12310,"ĠPetter":12311,"ĠCapitaler":12312,"estedt":12313,"ĠCholera":12314,"ĠSchack":12315,"ĠBrigger":12316,"Ġpatriotiske":12317,"ĠprÃ¦cise":12318,"ĠKrigsfanger":12319,"Mid":12320,"ĠJÃ¸vrigt":12321,"Ġmaadelig":12322,"ĠQvarantaine":12323,"ĠforÃ¸ge":12324,"ĠSadolin":12325,"Ġalmeen":12326,"ohl":12327,"ĠHÃ¸ker":12328,"ĠVinkeltag":12329,"Ġ129":12330,"ellen":12331,"Ġmun":12332,"Ġfordrer":12333,"ĠlÃ¦rer":12334,"ĠudfÃ¸rte":12335,"ĠCapitaine":12336,"ĠNicolay":12337,"ĠMons":12338,"usin":12339,"ĠBadstu":12340,"ĠStak":12341,"ĠExammen":12342,"mÃ¸r":12343,"Ġstige":12344,"ĠBytte":12345,"Ġfremlagt":12346,"Mag":12347,"ĠPengene":12348,"ĠAdkomstbrevene":12349,"ĠNabo":12350,"wal":12351,"ĠKiste":12352,"ĠFortsÃ¦ttelse":12353,"ĠAnbefal":12354,"ĠKoffardi":12355,"isc":12356,"ĠChristiansen":12357,"ĠVelgiÃ¸r":12358,"ĠSkinder":12359,"ĠGeograph":12360,"Ġallevegne":12361,"Assessor":12362,"vertimod":12363,"ĠKrogh":12364,"ĠPaschaen":12365,"ĠRudkiÃ¸bing":12366,"bber":12367,"ĠHager":12368,"ĠForÃ¦ring":12369,"ĠArendal":12370,"ĠHalve":12371,"ĠAdjunct":12372,"Ġgribe":12373,"ĠFonds":12374,"enburg":12375,"ĠHerved":12376,"ĠUnderkiendelse":12377,"haven":12378,"Herre":12379,"Ġafseilet":12380,"litt":12381,"haus":12382,"ĠKapital":12383,"Ġamerikanske":12384,"Ġ169":12385,"ĠOpmuntring":12386,"krantz":12387,"muende":12388,"ĠJgaar":12389,"ĠMarine":12390,"stegn":12391,"ĠOran":12392,"ĠNederlag":12393,"ĠHagen":12394,"Ġforskjellig":12395,"Liges":12396,"ĠSÃ¸g":12397,"lak":12398,"ĠSeild":12399,"ĠLovgiv":12400,"ĠQvinder":12401,"Ġget":12402,"ĠSammes":12403,"orpser":12404,"fieldske":12405,"ĠJuri":12406,"Ġlovgivende":12407,"greb":12408,"Ġtaaler":12409,"ĠEsca":12410,"Ġdip":12411,"ĠEmbedet":12412,"Ġindfundet":12413,"ĠOmkostning":12414,"ĠPleie":12415,"Ġindsendte":12416,"ĠUnderskrevne":12417,"ĠSpi":12418,"ĠTroppe":12419,"Ġbare":12420,"ĠMac":12421,"unget":12422,"rettelig":12423,"viden":12424,"ĠFyenske":12425,"Ġinteressante":12426,"ĠEfterleverske":12427,"sees":12428,"ĠOld":12429,"ĠWulf":12430,"ori":12431,"Ġbekom":12432,"ĠEmigran":12433,"ĠGiennem":12434,"ĠTingstedet":12435,"ĠMunke":12436,"ĠAnstalt":12437,"aalne":12438,"Contoirs":12439,"ĠJama":12440,"ĠBrussel":12441,"trer":12442,"ĠKiÃ¸bere":12443,"ĠHuusgeraad":12444,"vigs":12445,"Ġlovligen":12446,"Ġ109":12447,"ĠChatol":12448,"ĠSkibscapitain":12449,"ĠSands":12450,"ĠskrÃ¦kkelig":12451,"hing":12452,"ĠBoul":12453,"ĠTrang":12454,"ĠBryl":12455,"Ã¸rklÃ¦der":12456,"Ġrykket":12457,"ĠnÃ¸dsaget":12458,"uger":12459,"Ġ126":12460,"ĠTyve":12461,"ĠKeis":12462,"ĠMoldau":12463,"Ġlagte":12464,"ĠindtrÃ¦ffe":12465,"ĠVognremisse":12466,"Ġ184":12467,"farende":12468,"ĠFolkem":12469,"isation":12470,"ĠBroders":12471,"ĠFÃ¸d":12472,"Ġnes":12473,"ĠVÃ¦sen":12474,"ĠStiftets":12475,"ĠCadet":12476,"Ġjuridiske":12477,"utr":12478,"murede":12479,"ĠLotteries":12480,"Ġbefale":12481,"ĠCura":12482,"skjÃ¸ndt":12483,"edie":12484,"ĠReeb":12485,"ĠLeiligheder":12486,"ffel":12487,"ĠVeiret":12488,"ĠJustitien":12489,"levering":12490,"ĠTractat":12491,"Ġnoch":12492,"Ġeier":12493,"Ġhenlagt":12494,"ĠConc":12495,"ĠFranzoserne":12496,"jo":12497,"viisninger":12498,"ĠHielpe":12499,"ĠJochum":12500,"Ġallierede":12501,"Ġholdende":12502,"iÃ¸bing":12503,"ribution":12504,"Ġindrykket":12505,"ĠbrÃ¦n":12506,"orger":12507,"Ġ155":12508,"ĠKa":12509,"Ġbedr":12510,"ĠSav":12511,"Ġvarm":12512,"Ġtalte":12513,"Ġmodsat":12514,"ĠGouvernem":12515,"Ġafbet":12516,"Ġihiel":12517,"ĠHerredsfogderie":12518,"ĠPuddersukker":12519,"La":12520,"ete":12521,"Ġlands":12522,"Ġudlagte":12523,"Ġreel":12524,"Prof":12525,"ĠTilbagekomst":12526,"Ġtraf":12527,"ĠtilhÃ¸re":12528,"illen":12529,"Ġfyldest":12530,"ĠTingen":12531,"Ġdar":12532,"fÃ¸lger":12533,"ĠHattemager":12534,"ĠKonen":12535,"Ġanbefale":12536,"husets":12537,"rÃ¦nge":12538,"ĠTaarn":12539,"ĠPel":12540,"ĠJÃ¸":12541,"kong":12542,"ĠKareth":12543,"Ġcom":12544,"ĠHertugdommene":12545,"Ġyttre":12546,"Ġmk":12547,"ĠStuehuus":12548,"Str":12549,"Ġtjent":12550,"eger":12551,"ariet":12552,"ĠVindovn":12553,"ĠRedacteur":12554,"Bar":12555,"rÃ¸e":12556,"ĠGene":12557,"eskind":12558,"ĠHoffer":12559,"Ġsmag":12560,"ĠByeting":12561,"sin":12562,"Ġfornu":12563,"Ġindfandt":12564,"ĠVanskeligheder":12565,"comp":12566,"Ġyde":12567,"Ġfavor":12568,"ĠLaursen":12569,"skarl":12570,"ĠForen":12571,"Ġke":12572,"Ġuldne":12573,"qvarteret":12574,"qvet":12575,"ĠLibha":12576,"ĠReskript":12577,"Ġfundne":12578,"hes":12579,"Ġorgan":12580,"ĠBlye":12581,"Ġenige":12582,"ĠVordingborg":12583,"chal":12584,"ĠKnut":12585,"ĠLoe":12586,"ĠSundheds":12587,"ĠRothe":12588,"ĠThorn":12589,"Ġleg":12590,"ĠGrÃ¦ker":12591,"ĠBuen":12592,"ĠLag":12593,"ĠudfÃ¦rdig":12594,"Ġdri":12595,"ĠSkomagermester":12596,"miner":12597,"ĠSlave":12598,"rÃ¦dder":12599,"ĠKommer":12600,"Ġherskende":12601,"igeres":12602,"ĠAndresen":12603,"staa":12604,"ĠSeverin":12605,"ĠOmvurder":12606,"ĠRent":12607,"ĠBÃ¶":12608,"Ġudbredte":12609,"ĠmÃ¸rk":12610,"ydet":12611,"ĠrÃ¦":12612,"Ġtot":12613,"ĠBorgerne":12614,"ĠNavar":12615,"Ġyt":12616,"ĠLinier":12617,"vog":12618,"ĠÃ¸nsk":12619,"ĠCarstens":12620,"ĠFornÃ¸denheder":12621,"Efterat":12622,"mont":12623,"ĠForsvars":12624,"Toldkammer":12625,"ĠSalomon":12626,"ĠGierning":12627,"Paris":12628,"Ġbefrygte":12629,"ĠEnglands":12630,"Stat":12631,"ĠHornsyld":12632,"kort":12633,"Ġpry":12634,"ĠAmagertorv":12635,"ĠFoss":12636,"ĠUdfÃ¸relse":12637,"skyldige":12638,"ĠTilhÃ¦ngere":12639,"ĠStorvi":12640,"ĠForvalteren":12641,"ĠKlareboderne":12642,"TrÃ¦er":12643,"Ġoprigtig":12644,"leans":12645,"ylder":12646,"oneret":12647,"riserne":12648,"ĠstÃ¸dte":12649,"Auctionen":12650,"ĠEvigheden":12651,"ĠAastrup":12652,"ĠPach":12653,"Ġuund":12654,"ĠWis":12655,"auer":12656,"Ġhistoriske":12657,"sts":12658,"ĠKreds":12659,"Ġtusinde":12660,"ĠErik":12661,"ĠlÃ¦ng":12662,"ubye":12663,"ĠHertugdÃ¸mmene":12664,"tinentier":12665,"ĠFÃ¦ndrik":12666,"ĠHÃ¸nse":12667,"Kl":12668,"skudt":12669,"ĠLivregiment":12670,"ĠBÃ¸hmen":12671,"ĠBull":12672,"keret":12673,"ĠVang":12674,"mund":12675,"Ġoverhovedet":12676,"lyses":12677,"ĠJom":12678,"Ġ164":12679,"Ġboes":12680,"Ġundtagne":12681,"Ġbygge":12682,"ĠMisforn":12683,"ĠSkidenstrÃ¦det":12684,"Ġbortkommet":12685,"Ġbestilt":12686,"hin":12687,"stederne":12688,"ĠBaglast":12689,"hoe":12690,"ĠGrÃ¦ske":12691,"ĠSkarp":12692,"Ġboendes":12693,"Ġgielder":12694,"MÃ¸dte":12695,"enc":12696,"egler":12697,"meldt":12698,"uther":12699,"Ġtabe":12700,"Ġ133":12701,"yttes":12702,"ĠFÃ¸lelse":12703,"fre":12704,"ĠsÃ¸rge":12705,"agers":12706,"ĠNer":12707,"ĠnedlÃ¦gge":12708,"ĠForbrydelse":12709,"ĠChamp":12710,"ĠNot":12711,"ĠSkovfoged":12712,"Ġridende":12713,"ĠMÃ¼nchen":12714,"ĠWinding":12715,"Ġborttaget":12716,"ĠDid":12717,"ĠSÃ¸nden":12718,"Ġsimple":12719,"ĠBenzon":12720,"yds":12721,"Ġlo":12722,"ĠLandsmÃ¦nd":12723,"vittighed":12724,"gam":12725,"Ġloger":12726,"ĠKancellieraad":12727,"ĠWandsbeck":12728,"ga":12729,"ĠForhuset":12730,"anna":12731,"ĠHjÃ¦l":12732,"ĠPram":12733,"ĠEnkemad":12734,"Ġerindres":12735,"ĠTougvÃ¦rk":12736,"ĠAvant":12737,"elde":12738,"Ġskrevne":12739,"ĠAuc":12740,"ĠBarbar":12741,"ĠTrÃ¦l":12742,"ĠKjÃ¸kk":12743,"Ġledsage":12744,"ĠLak":12745,"ĠFlensburg":12746,"ĠSchubo":12747,"55":12748,"Frankrig":12749,"ĠUndvigelsen":12750,"dsv":12751,"Ġhiemkommen":12752,"ĠBetÃ¦nkning":12753,"Ã¸det":12754,"slagne":12755,"ĠOperationer":12756,"ĠfÃ¦ngs":12757,"ĠGlar":12758,"ahn":12759,"Ġbeviist":12760,"Ġdagen":12761,"Ġudleveret":12762,"ĠPres":12763,"ĠBekym":12764,"ĠindstÃ¦vnes":12765,"ĠkjÃ¸be":12766,"ĠMedaille":12767,"Plads":12768,"ĠDed":12769,"eskiÃ¸bing":12770,"ĠTvist":12771,"ĠLex":12772,"Ġ159":12773,"ĠRenterne":12774,"gin":12775,"Ġoptage":12776,"Ġhviler":12777,"ĠNÃ¸rgaard":12778,"ĠGiertrud":12779,"ĠSynder":12780,"ĠLÃ¦rreds":12781,"Ġsadt":12782,"Ġraade":12783,"ĠRigsbankpenge":12784,"ĠPrÃ¦diken":12785,"list":12786,"Ġmodtagne":12787,"irede":12788,"Ġberette":12789,"prÃ¦st":12790,"ĠAdmiralitetet":12791,"green":12792,"ĠDiurendahl":12793,"ĠLamp":12794,"ĠbortdÃ¸de":12795,"Ã¦stet":12796,"ĠBenene":12797,"ĠBassesen":12798,"Ġbon":12799,"ĠMadam":12800,"eskibe":12801,"ĠSammensvÃ¦r":12802,"eredes":12803,"ĠAmund":12804,"ĠSmyrna":12805,"ĠArbeidsmand":12806,"ĠCandidatus":12807,"ationerne":12808,"ĠusÃ¦dvanlig":12809,"Ġeenstemm":12810,"ĠSpaniens":12811,"ĠObserv":12812,"ĠFortÃ¦lling":12813,"ĠBombarde":12814,"ĠJmellem":12815,"ĠDomkirke":12816,"ĠSkiftecommissionen":12817,"ĠExamen":12818,"ĠCircul":12819,"ĠCord":12820,"ĠVeier":12821,"zar":12822,"ĠHÃ¦ste":12823,"ĠFaner":12824,"ĠVandel":12825,"elever":12826,"ĠJnstitut":12827,"Ã¸mmede":12828,"ĠKornvarer":12829,"Ġubekiendte":12830,"ĠÃĺvre":12831,"ĠTapperhed":12832,"ĠhÃ¦vet":12833,"Ġbrugelig":12834,"ĠRevent":12835,"Ġ210":12836,"ĠÃ¸vre":12837,"hagen":12838,"ĠReyse":12839,"lÃ¸ber":12840,"ĠGrammati":12841,"ĠSunds":12842,"ĠDands":12843,"ithe":12844,"berger":12845,"ĠNordamerika":12846,"arti":12847,"ĠbeÃ¦re":12848,"icon":12849,"ligheds":12850,"ĠAmerikanske":12851,"ĠNationalbank":12852,"ĠFiende":12853,"ĠFremskri":12854,"ĠPallads":12855,"ĠDampskibet":12856,"ĠBarcellona":12857,"straf":12858,"Ġank":12859,"ĠKlingberg":12860,"schirurg":12861,"ĠfordÃ¦r":12862,"ĠkiÃ¸bes":12863,"ĠopvÃ¦":12864,"ausen":12865,"bunden":12866,"ĠMandfolk":12867,"ĠKanonskud":12868,"Ġvalgte":12869,"Ġraisonabel":12870,"ĠAngivelse":12871,"ĠJnden":12872,"Ġikkuns":12873,"Ġspurgte":12874,"ĠLeverance":12875,"ĠBurg":12876,"villie":12877,"Ġ240":12878,"ĠAgerland":12879,"yptiske":12880,"ĠBilled":12881,"cast":12882,"ĠFornu":12883,"Ġ137":12884,"ĠSval":12885,"Ġfabri":12886,"ĠUdbredelse":12887,"London":12888,"pund":12889,"ĠanstÃ¦ndig":12890,"adjutant":12891,"ĠRegjeringens":12892,"Samme":12893,"ĠforlÃ¦gges":12894,"Lieuten":12895,"ĠWang":12896,"tok":12897,"qvid":12898,"betal":12899,"Ġforeslaaet":12900,"ĠophÃ¦vede":12901,"nest":12902,"ĠChines":12903,"ĠAllerhÃ¸istsamme":12904,"Ġalligevel":12905,"ĠÃĺiemed":12906,"ĠBagerovn":12907,"avl":12908,"ĠudsÃ¦lges":12909,"Skulde":12910,"Ġbegi":12911,"ĠKield":12912,"ĠNeutral":12913,"ĠOverbeviisning":12914,"ĠDub":12915,"ĠudbrÃ¸d":12916,"ĠRoyal":12917,"ĠAasum":12918,"Ġbeviser":12919,"ĠHÃ¦nderne":12920,"ĠJnteressent":12921,"bindingsvÃ¦rk":12922,"ĠBlandinger":12923,"ĠSkibets":12924,"Skib":12925,"ĠRevolutionen":12926,"ĠJespersen":12927,"tvivl":12928,"Ġtaal":12929,"ieder":12930,"Joh":12931,"ĠFede":12932,"elsers":12933,"Ġtiltales":12934,"ĠVensyssel":12935,"Ã¦vner":12936,"ĠPrindsens":12937,"ĠHauch":12938,"astian":12939,"ĠNedre":12940,"ĠSultan":12941,"ĠBrÃ¦ndeviinsvÃ¦rk":12942,"been":12943,"ollerup":12944,"ĠHerredsskriver":12945,"ĠKlip":12946,"agelsen":12947,"ĠFrieder":12948,"Rettighed":12949,"Ġvac":12950,"Ġagende":12951,"abet":12952,"Ġ1600":12953,"ĠFattigkasse":12954,"ĠmÃ¦rkvÃ¦rdige":12955,"indingen":12956,"ĠClasses":12957,"ĠPanthavere":12958,"ĠDra":12959,"ĠDrivt":12960,"ĠTog":12961,"Ġ139":12962,"Ġelskelige":12963,"onn":12964,"ĠJde":12965,"ĠJhÃ¦nde":12966,"ĠJÃ¸rgensens":12967,"ĠTrakt":12968,"ĠForetagelse":12969,"ĠVaaningshuus":12970,"LÃ¦st":12971,"dera":12972,"ĠKnÃ¦":12973,"ĠBaum":12974,"ĠForventning":12975,"can":12976,"Ġhavte":12977,"ĠAlman":12978,"ĠFormyndere":12979,"isset":12980,"Sal":12981,"dommens":12982,"ĠFahr":12983,"Ġvendt":12984,"ĠSove":12985,"Ġapproberet":12986,"do":12987,"Enke":12988,"Sver":12989,"ĠOnd":12990,"ĠEnglÃ¦nder":12991,"Ġtilveiebringe":12992,"Ġvove":12993,"Ġbortgaaet":12994,"ĠKornet":12995,"Ind":12996,"igerne":12997,"ĠStrÃ¦kning":12998,"lieut":12999,"ĠHalvtags":13000,"ĠMariboe":13001,"ĠHasle":13002,"Bed":13003,"dest":13004,"ĠVit":13005,"ĠCreature":13006,"Ġostindiske":13007,"Ġov":13008,"ilden":13009,"ĠHagel":13010,"ĠantrÃ¦":13011,"ĠmÃ¦l":13012,"ĠPanden":13013,"ĠBaj":13014,"bret":13015,"kende":13016,"anniske":13017,"iette":13018,"Ġtrykke":13019,"ĠSchweitz":13020,"Ġasse":13021,"ĠConto":13022,"lÃ¦nd":13023,"ĠHads":13024,"Naar":13025,"Ster":13026,"ĠStru":13027,"ĠKopper":13028,"ĠKomp":13029,"Ġiaar":13030,"ĠWesten":13031,"ĠKongressen":13032,"ĠTronhiems":13033,"Ġsield":13034,"ĠHve":13035,"ĠVeirmÃ¸lle":13036,"dskiÃ¸nt":13037,"ĠHesten":13038,"ĠConstantin":13039,"ĠbekiendtgiÃ¸r":13040,"Ġtiltagende":13041,"ĠReh":13042,"Ġzum":13043,"ĠFabric":13044,"ĠTorsdags":13045,"ĠDisposition":13046,"forordnede":13047,"ĠSjel":13048,"Ġforvand":13049,"immer":13050,"ĠVeie":13051,"ĠRingkjÃ¸bing":13052,"Ġanmodet":13053,"Ġlin":13054,"rups":13055,"ĠretfÃ¦rdig":13056,"ĠStabs":13057,"Ġudrust":13058,"Ġbehandles":13059,"fry":13060,"Ġfrig":13061,"ĠSamtlige":13062,"ĠCitadellet":13063,"ĠRasmusen":13064,"mÃ¦rket":13065,"ĠStormen":13066,"ĠOpdagelsen":13067,"ĠMagnus":13068,"ĠCic":13069,"ĠMast":13070,"tofte":13071,"ĠOmlÃ¸b":13072,"quet":13073,"ĠBorgen":13074,"fÃ¦lde":13075,"ĠUt":13076,"ĠRasmussens":13077,"ĠElmquist":13078,"Ġblan":13079,"ags":13080,"ĠTart":13081,"KlÃ¦der":13082,"TÃ¸mmer":13083,"ĠEtages":13084,"Ã¦gtede":13085,"ĠLaurs":13086,"ĠLandsoverretten":13087,"ĠHall":13088,"ĠPlÃ¸":13089,"itiv":13090,"ĠTabende":13091,"ĠServi":13092,"Ġforbudet":13093,"ston":13094,"ĠOlding":13095,"ĠUlykkelige":13096,"ĠRegisterings":13097,"fred":13098,"dahls":13099,"ĠihÃ¦nde":13100,"mb":13101,"oug":13102,"edre":13103,"Ġaddressere":13104,"ĠFattiges":13105,"Ġfulgt":13106,"Ġkostede":13107,"Ġsprang":13108,"ĠPest":13109,"ĠVaabenstilstand":13110,"tim":13111,"Adresse":13112,"elskab":13113,"ĠNett":13114,"Ġberettes":13115,"ĠlÃ¦ser":13116,"recht":13117,"Ġomst":13118,"ĠCaptain":13119,"Ġopdagede":13120,"onte":13121,"tern":13122,"bereder":13123,"Ġudg":13124,"Ġudaf":13125,"issing":13126,"ĠKryds":13127,"Penge":13128,"ĠFil":13129,"ria":13130,"Ġallerunderdan":13131,"ĠRugen":13132,"gne":13133,"ĠHvis":13134,"Ã¦lv":13135,"ĠCav":13136,"ĠGeneralpost":13137,"ĠSkriftet":13138,"ĠCasser":13139,"Ġforstaae":13140,"ĠTaknemmelighed":13141,"pligt":13142,"ining":13143,"ĠKlÃ¸verfrÃ¸e":13144,"ĠRinge":13145,"ĠdesvÃ¦rre":13146,"ĠBrygge":13147,"ĠUrter":13148,"ĠNÃ¸dvendig":13149,"ĠCabinets":13150,"adeer":13151,"ĠHusets":13152,"ĠLivsarvinger":13153,"Ġudtrykkelig":13154,"uiller":13155,"ĠPrÃ¦tens":13156,"ĠCitanterne":13157,"Ġfortiener":13158,"kontoir":13159,"heit":13160,"ungne":13161,"Ġsund":13162,"Ġforsyn":13163,"Ġundertegnet":13164,"ĠHalvdelen":13165,"ĠNyeborg":13166,"Ġroligt":13167,"Ġsikre":13168,"Ġsaakaldede":13169,"iÃ¦":13170,"ĠSab":13171,"ĠretmÃ¦ssig":13172,"Ġgebrokken":13173,"Ġlogerende":13174,"21":13175,"por":13176,"Ġindsam":13177,"ĠSydamer":13178,"kiedel":13179,"Ġopfordret":13180,"Ġ166":13181,"Ġformaae":13182,"ĠKarakteer":13183,"Ġubesk":13184,"phen":13185,"Ġfaret":13186,"ĠVÃ¦ver":13187,"ĠfornÃ¸yelig":13188,"ĠDiderich":13189,"ittre":13190,"ĠAfgifter":13191,"ĠLyksal":13192,"Ġindeholdt":13193,"ĠindtrÃ¦de":13194,"horn":13195,"offer":13196,"ĠJnfanteriet":13197,"Ġuddeelt":13198,"Ġelsket":13199,"ĠstÃ¦rkere":13200,"fried":13201,"ĠOppeb":13202,"ĠLollands":13203,"ĠSamtale":13204,"ĠSenatet":13205,"ĠKiÃ¸kkentÃ¸i":13206,"Ġlovede":13207,"ĠHÃ¸is":13208,"Ġ220":13209,"ĠBagge":13210,"alender":13211,"Ġes":13212,"Ġ157":13213,"ĠUdenbyes":13214,"ĠFierde":13215,"Ġgaaende":13216,"atisk":13217,"ĠStiftsbogtrykker":13218,"ĠPesten":13219,"ĠGaa":13220,"usiske":13221,"ĠAfg":13222,"Ġbegyndes":13223,"Ġfulden":13224,"ĠnedsÃ¦tte":13225,"ĠindlÃ¸bet":13226,"Ġendelige":13227,"Ġgave":13228,"Ġjor":13229,"Ġindstrandede":13230,"Hertugen":13231,"ĠTetens":13232,"ĠRach":13233,"Ġmarscherede":13234,"Ġivrig":13235,"ĠOnde":13236,"gelser":13237,"ĠKobberstykker":13238,"ĠMunk":13239,"ĠMargaretha":13240,"ĠForelÃ¦sninger":13241,"ĠHerregaard":13242,"ĠMoniteuren":13243,"ĠUniform":13244,"Ġbeboer":13245,"ĠDannelse":13246,"ĠAlexandrien":13247,"Skibet":13248,"180":13249,"ĠFire":13250,"ĠJndskud":13251,"ĠMahogni":13252,"ĠUdfaldet":13253,"igheds":13254,"Ġafsat":13255,"Ġualminde":13256,"Ġbelagt":13257,"ĠGienstande":13258,"Ġoptages":13259,"ĠFryd":13260,"ĠÃĺvrighedens":13261,"ĠDampskib":13262,"ĠBoelig":13263,"ĠkjÃ¦re":13264,"ĠPortugisiske":13265,"ĠFÃ¦ngs":13266,"Ġangaae":13267,"Ġbemynd":13268,"Ġundertiden":13269,"Ġ148":13270,"Ġimedens":13271,"iendomme":13272,"ĠHovedstadens":13273,"ĠCorresponden":13274,"pu":13275,"ĠVeder":13276,"ĠophÃ¸rt":13277,"ĠSÃ¸rensens":13278,"istiske":13279,"ĠBres":13280,"ĠKiÃ¸bstÃ¦derne":13281,"ĠSkatkammer":13282,"Ġdiplom":13283,"kningen":13284,"ĠBlich":13285,"ĠForhandlinger":13286,"strÃ¸mper":13287,"ĠAudients":13288,"lÃ¦ngst":13289,"El":13290,"Tid":13291,"ĠBortgang":13292,"Ġtilstillet":13293,"ĠGrader":13294,"ĠOrlogs":13295,"ĠTalen":13296,"ĠKonget":13297,"ĠJohnsen":13298,"richt":13299,"ĠUleilighed":13300,"Av":13301,"ĠDaad":13302,"olon":13303,"ĠbeskjÃ¦":13304,"ĠMassen":13305,"Ġslagne":13306,"ĠDivisions":13307,"Ġfrugtbar":13308,"ĠopmÃ¦rksom":13309,"ienden":13310,"ĠkjÃ¸bes":13311,"Ġventelig":13312,"ĠGalthen":13313,"ĠTand":13314,"Ġbesidder":13315,"ĠGebe":13316,"ĠTheatret":13317,"ĠSilkegaden":13318,"Ġhandler":13319,"ankede":13320,"vÃ¦re":13321,"ĠBrol":13322,"ĠDim":13323,"ĠTjener":13324,"ĠCollecteurer":13325,"Ġkrydse":13326,"nÃ¦":13327,"ĠPrivilegier":13328,"ĠSicilien":13329,"ĠConcurs":13330,"fru":13331,"ted":13332,"ĠHuusholder":13333,"ĠTriest":13334,"Gods":13335,"omer":13336,"Ġsidder":13337,"illetter":13338,"Ġforbeholdes":13339,"ĠSvedsker":13340,"maad":13341,"ĠToldboden":13342,"Ġ40000":13343,"ĠGouverneuren":13344,"ĠVertshuusholder":13345,"ĠQvÃ¦rne":13346,"ĠbekjendtgiÃ¸res":13347,"Ġoplyste":13348,"march":13349,"ĠLandsdommer":13350,"ĠOlsens":13351,"ĠafhÃ¦n":13352,"ĠPov":13353,"ĠStrid":13354,"ĠVicekongen":13355,"Dr":13356,"skar":13357,"ĠHerren":13358,"ĠRasch":13359,"Ġhist":13360,"Ġforord":13361,"Ġbevare":13362,"ĠSÃ¸ndre":13363,"ĠChristophersen":13364,"Ġforvisset":13365,"vinde":13366,"ĠQvi":13367,"Ġneap":13368,"ĠTalle":13369,"ĠberÃ¸vet":13370,"commiss":13371,"Ġansvar":13372,"ĠRigsbanksedler":13373,"Ġulovlig":13374,"ĠBoglade":13375,"ĠAnnex":13376,"ĠRosenborg":13377,"ĠArtilleriet":13378,"ĠPunkter":13379,"Ġsimpel":13380,"Ġbortle":13381,"ĠOverhuset":13382,"ĠDetasch":13383,"ĠDerfor":13384,"ĠAgen":13385,"ravede":13386,"Ġpaalidelig":13387,"ĠSchumacher":13388,"SE":13389,"pelse":13390,"ftere":13391,"Ġbrand":13392,"ĠGens":13393,"ĠLeiren":13394,"ĠExempler":13395,"ĠRuug":13396,"eil":13397,"Ġopkom":13398,"ĠDram":13399,"Ġdannet":13400,"ĠGjennem":13401,"drede":13402,"ĠoprÃ¸r":13403,"ĠTagsteen":13404,"ĠOste":13405,"igtig":13406,"ĠAdministration":13407,"ĠStene":13408,"menterne":13409,"Ġgade":13410,"ĠExpeditionen":13411,"Ġmatriculeret":13412,"ĠDÃ¸dens":13413,"ĠHaug":13414,"bak":13415,"Ġindrette":13416,"ĠStatholder":13417,"Ġrimelig":13418,"ĠCass":13419,"Ã¸iske":13420,"ĠtrÃ¦ffe":13421,"Ġdengang":13422,"ĠCort":13423,"dreven":13424,"ĠFlaa":13425,"ĠExpr":13426,"ĠMedlemmerne":13427,"ĠKielderen":13428,"Ġvestlige":13429,"ĠMahognie":13430,"ĠPau":13431,"ĠPakhuse":13432,"ĠTorn":13433,"ĠtilhÃ¶rende":13434,"ĠNytorv":13435,"ĠSiÃ¦llands":13436,"Ġtred":13437,"ĠUnderretten":13438,"diken":13439,"Ġseen":13440,"ĠWeyle":13441,"ĠHandske":13442,"fare":13443,"ĠMiner":13444,"vennen":13445,"nerup":13446,"ĠAlmindelige":13447,"ĠSkilderier":13448,"ardie":13449,"atningen":13450,"ĠVerk":13451,"ĠHusum":13452,"ĠmistÃ¦nk":13453,"Ġforgyldt":13454,"ĠForskiel":13455,"Ġtvertimod":13456,"Ġudp":13457,"ĠKrigskib":13458,"ĠSvin":13459,"Ġmenneskelige":13460,"ĠBranden":13461,"Ġbevidne":13462,"ĠJÃ¦g":13463,"Ġsaaet":13464,"ovet":13465,"ĠUdlÃ¸b":13466,"ĠGeel":13467,"ventet":13468,"Ġomring":13469,"ĠTroe":13470,"ĠHolsteensk":13471,"Ġfineste":13472,"ĠPors":13473,"ĠChristoph":13474,"bygget":13475,"Ġ1834":13476,"ĠFrom":13477,"ĠHoffmann":13478,"Ġhielpe":13479,"Ġgaard":13480,"ĠTilfÃ¸iende":13481,"ĠtilstrÃ¦kkeligt":13482,"Ġpubliceret":13483,"ĠBertel":13484,"ĠTeglhÃ¦ngt":13485,"ĠSÃ¶n":13486,"ĠmedfÃ¸rer":13487,"bryder":13488,"ragende":13489,"ĠJordens":13490,"ĠJndbyggerne":13491,"ĠSÃ¦ngeklÃ¦der":13492,"ĠSlang":13493,"ĠAnfÃ¸rsel":13494,"ĠUdnÃ¦vn":13495,"ĠAdmiralgaden":13496,"ĠSygdommen":13497,"ĠFu":13498,"ĠLÃ¦rere":13499,"ĠWallach":13500,"ĠfÃ¸ler":13501,"ĠSvane":13502,"36":13503,"ĠTÃ¶nder":13504,"ĠkiÃ¸bt":13505,"ĠSvagheder":13506,"ĠCommissioner":13507,"ĠAlles":13508,"Ġforelagt":13509,"ĠBuenos":13510,"ĠChristne":13511,"ĠforlÃ¦ngst":13512,"ĠMaster":13513,"bestyr":13514,"ĠSee":13515,"Ġanderledes":13516,"ĠLiimfjorden":13517,"Ġbere":13518,"agens":13519,"Ġstal":13520,"Ġunderveis":13521,"ĠAmalia":13522,"lien":13523,"modig":13524,"Ġles":13525,"ĠJnform":13526,"ĠOlder":13527,"Ġpolitisk":13528,"auf":13529,"ĠSÃ¸stre":13530,"Ġkostbar":13531,"ĠLandsbyen":13532,"ĠStorviz":13533,"regel":13534,"Ġskikket":13535,"ĠUnderhandlingerne":13536,"ĠLaas":13537,"Ġeinem":13538,"ĠSkyts":13539,"gene":13540,"ĠLum":13541,"Ġkomp":13542,"chel":13543,"ĠOpvart":13544,"lighederne":13545,"stron":13546,"Ġsaamange":13547,"ichmann":13548,"ĠAugustenborg":13549,"Ġblodige":13550,"Uhr":13551,"Ġvak":13552,"ĠSkiÃ¸n":13553,"ĠÃĺerne":13554,"Ġindhegnede":13555,"Ġelskte":13556,"Ġsjel":13557,"ĠEgebindingsvÃ¦rk":13558,"kaal":13559,"ĠBrandforsi":13560,"giÃ¸relser":13561,"ĠnÃ¦rmede":13562,"ĠSkibsk":13563,"ĠPerle":13564,"ĠTraad":13565,"vÃ¦rdigt":13566,"gs":13567,"ĠCa":13568,"legge":13569,"raab":13570,"skning":13571,"ĠRol":13572,"ĠCaspar":13573,"ĠOeconom":13574,"enhuus":13575,"ĠSÃ¸nd":13576,"ĠovenanfÃ¸rte":13577,"ĠNÃ¸rreport":13578,"ĠÃĨgtefÃ¦l":13579,"Ġdav":13580,"ĠAcademie":13581,"ĠIsland":13582,"Tyr":13583,"ky":13584,"ĠDaa":13585,"ĠRoth":13586,"Behandling":13587,"ĠAnsku":13588,"Che":13589,"ĠBrÃ¼":13590,"Ġgrundede":13591,"ĠBeboerne":13592,"Ġeng":13593,"Ġomhandlede":13594,"stÃ¦nder":13595,"ĠRegimentsqvarteermester":13596,"ĠKrohn":13597,"Ġudla":13598,"ĠRosenkrantz":13599,"ĠPlove":13600,"ces":13601,"Ġvand":13602,"ĠUdrust":13603,"ĠNetteld":13604,"fa":13605,"lette":13606,"ians":13607,"ĠRei":13608,"ĠHopper":13609,"kiÃ¸d":13610,"ĠAdmir":13611,"uv":13612,"anes":13613,"ĠKudsk":13614,"skirke":13615,"ĠWel":13616,"Ġugrundet":13617,"kaldt":13618,"Ġ156":13619,"Ġudbragt":13620,"Ġindkaldt":13621,"ĠParterne":13622,"ĠMoses":13623,"ises":13624,"Ġbetre":13625,"ĠSamuel":13626,"ĠbrÃ¸d":13627,"Ġing":13628,"Ġkiender":13629,"forstander":13630,"ĠKanter":13631,"ĠKavallerie":13632,"Ġmundtlig":13633,"ĠUdhuse":13634,"Ġalvorlige":13635,"Auctioner":13636,"ĠJustitiens":13637,"ĠFangne":13638,"ĠSkaal":13639,"ensch":13640,"Ġfornemme":13641,"isere":13642,"ĠBjerge":13643,"senborg":13644,"Ġvarme":13645,"torvet":13646,"ĠunÃ¸d":13647,"parter":13648,"Ġundvigte":13649,"ĠsÃ¦dvanligt":13650,"ĠEmbed":13651,"ĠLandgilde":13652,"Ġann":13653,"haveren":13654,"Ġusk":13655,"rÃ¦s":13656,"Ġunderdan":13657,"ĠSkibsb":13658,"Ġmangfoldige":13659,"ĠKiÃ¸l":13660,"prov":13661,"stru":13662,"ĠBindings":13663,"ĠRio":13664,"ĠHistorien":13665,"ĠVaanhuus":13666,"ĠSaad":13667,"ĠKiers":13668,"ĠtilhÃ¸rte":13669,"ĠSpeciessedler":13670,"ĠFremskridt":13671,"ĠChristend":13672,"selskab":13673,"Lotterie":13674,"aum":13675,"haupt":13676,"ĠStakit":13677,"leben":13678,"ĠTilgode":13679,"ĠophÃ¸rer":13680,"Ġhug":13681,"slager":13682,"machung":13683,"kasserer":13684,"ierre":13685,"Ġtienlige":13686,"ĠGreenaae":13687,"Ġfavorable":13688,"ĠRÃ¼":13689,"ĠnÃ¦gte":13690,"kirk":13691,"ĠJÃ¸der":13692,"ĠUgen":13693,"ario":13694,"ĠTÃ¦nkemaade":13695,"raader":13696,"ĠAtt":13697,"Ġpaan":13698,"ĠOfficererne":13699,"enÃ¦vnte":13700,"gjeld":13701,"Ġprovisor":13702,"ĠExamin":13703,"brop":13704,"abl":13705,"ĠEnkekasse":13706,"alier":13707,"ĠFlod":13708,"Ġforandre":13709,"Derom":13710,"ĠOlesen":13711,"ĠFÃ¦stninger":13712,"ĠVexler":13713,"Ġforbliver":13714,"ĠRÃ¸n":13715,"ĠhÃ¸itidelige":13716,"Redigeres":13717,"ĠMemel":13718,"ĠFuldkommen":13719,"Ġforfulgte":13720,"ĠLandhuusholdnings":13721,"ĠBremen":13722,"anget":13723,"Ġ1837":13724,"ĠChefen":13725,"tzer":13726,"ĠKlein":13727,"Ã¦ts":13728,"ĠNaa":13729,"skaffelse":13730,"ĠBrÃ¸gger":13731,"Ġbre":13732,"imenter":13733,"ĠBlÃ¼":13734,"ĠWilhelmine":13735,"Ġforunde":13736,"Ġmelden":13737,"Ġtalrigt":13738,"Ġtruede":13739,"ĠApper":13740,"ĠRyttere":13741,"ĠForstand":13742,"ĠMasse":13743,"ĠSandvigen":13744,"ĠMichaelis":13745,"ĠHotel":13746,"ora":13747,"Ġlettere":13748,"PrÃ¦dik":13749,"Ġsieldne":13750,"ĠViing":13751,"ĠStÃ¦derne":13752,"sere":13753,"Ġvanskelig":13754,"Ġtilforladelig":13755,"Ġordentlige":13756,"ĠWallÃ¸e":13757,"Ġmon":13758,"indret":13759,"entligen":13760,"yerske":13761,"ĠMarschen":13762,"Ġomliggende":13763,"ĠTilsk":13764,"ĠKjÃ¸bmÃ¦ndene":13765,"ĠLandsbye":13766,"overs":13767,"ĠHaver":13768,"ĠopfÃ¸re":13769,"ĠFelt":13770,"Ġforanstalte":13771,"ĠNeergaard":13772,"ĠbefÃ¦ste":13773,"Ġdaglige":13774,"ĠPetersburg":13775,"Ġalts":13776,"ĠrÃ¸get":13777,"ĠMaskiner":13778,"dals":13779,"ĠJndfald":13780,"ĠMagister":13781,"ĠKÃ¶nigl":13782,"Ġmedbringe":13783,"ionen":13784,"ĠGrÃ¦kernes":13785,"ĠRedning":13786,"Ġmedicinske":13787,"aniske":13788,"Ġforauction":13789,"ĠBey":13790,"Sverrig":13791,"Ġgreb":13792,"ĠJuliane":13793,"esses":13794,"ĠCorfu":13795,"Ġforgyldte":13796,"steene":13797,"ĠSkin":13798,"ĠHolck":13799,"Ġpanelede":13800,"ĠTrÃ¦ngende":13801,"Ġ122":13802,"ĠophÃ¦ve":13803,"ĠVinde":13804,"Ġlaver":13805,"ĠFaderen":13806,"ĠPohl":13807,"ester":13808,"Ġmede":13809,"ĠCapitainen":13810,"Bl":13811,"Ġmest":13812,"ĠRepublikens":13813,"ĠMedicin":13814,"Ġbeordret":13815,"ĠforfÃ¦rdiges":13816,"geben":13817,"Ġlave":13818,"ĠBoghandlere":13819,"ĠPrindsreg":13820,"ĠDirecteurer":13821,"kielder":13822,"stienesten":13823,"Ġstrandet":13824,"Ġforefaldet":13825,"ĠÃĺvrigheds":13826,"Ġforber":13827,"ĠAncher":13828,"obber":13829,"Ġ1838":13830,"ĠBestillinger":13831,"topp":13832,"emod":13833,"Ġvender":13834,"DÃ¸de":13835,"Ġansaae":13836,"Ġmangen":13837,"Ġeines":13838,"Ġfemte":13839,"Pri":13840,"Ġventet":13841,"ĠUngarn":13842,"Rusland":13843,"riber":13844,"lemme":13845,"ĠLeien":13846,"ĠByefogden":13847,"ĠStatsminister":13848,"ĠInteressen":13849,"ĠHassel":13850,"ĠBÃ¸rnene":13851,"igtet":13852,"ĠTorsk":13853,"ĠTyrol":13854,"Ġbevilgede":13855,"floden":13856,"ĠbÃ¦rer":13857,"ĠHug":13858,"chn":13859,"urat":13860,"ĠudsÃ¦tter":13861,"ĠGamle":13862,"ĠEvne":13863,"ĠQuar":13864,"ĠLiget":13865,"ĠHelsingborg":13866,"Ġroelig":13867,"ĠDÃ¶":13868,"ĠPortens":13869,"aterial":13870,
[...]
