[PAD]
[UNK]
[CLS]
[SEP]
[MASK]
<S>
<T>
!
"
$
%
&
'
(
)
*
+
,
-
.
/
0
1
2
3
4
5
6
7
8
9
:
;
<
=
?
[
]
a
b
c
d
e
f
g
h
i
j
k
l
m
n
o
p
q
r
s
t
u
v
w
x
y
z
£
§
¬
°
½
ß
æ
ø
ɔ
ː
–
—
“
„
∞
##l
##e
##m
##b
##r
##t
##o
##n
##z
##u
##f
##a
##s
##c
##h
##i
##g
##æ
##p
##d
##k
##v
##y
##8
##9
##1
##ø
##j
##w
##x
##7
##3
##6
##q
##0
##5
##2
##4
##¬
##½
##°
##ː
##er
##en
##de
##or
##an
##et
##st
##il
##ig
##ed
##aa
##in
##el
og
for
##es
##ar
##nd
til
##ag
##om
den
af
##on
##te
at
##ing
##al
##re
en
##sk
##ter
##ne
##le
##den
st
de
##and
##ende
##ver
be
##am
##lig
sk
paa
##ør
##ol
er
##se
##ti
med
som
fr
##av
##ste
der
##id
##is
##ler
det
##ær
##kk
##og
ved
##ning
##der
al
hv
##at
an
##fter
##sen
##ge
##omm
##tion
##ske
##ri
##it
##nder
##ie
##ræ
##eg
##aar
efter
ud
et
han
##un
##od
##us
##ve
om
##li
her
##ige
##ir
ind
saa
##ur
sam
sig
hav
fra
##des
##me
##øb
##ere
ho
##ro
har
##ens
##det
##ch
##ad
##hed
##kke
##ien
##ort
op
##ul
under
##ber
##ang
##ru
over
##ret
##mel
##dt
##ent
##lige
##del
el
##agen
##ster
##komm
au
##age
var
vil
##hol
hvor
##ab
##øl
##org
ki
##elig
eller
18
kon
##00
aar
##erne
##as
hos
bli
##be
##ction
##els
man
##gi
før
kan
##dr
ikke
##else
##mer
##ke
ski
no
##ra
##ff
##ers
ma
kl
men
have
##tet
##ade
nog
auction
ny
##avn
##ved
##for
##ind
##ten
ere
da
maa
##gen
##vi
##uus
##æl
##gt
ar
##ven
##est
gaar
vi
ch
sl
##em
##ier
##land
##aden
hø
##borg
hr
deres
denne
##ger
##br
##ød
gi
end
##ling
##to
samme
##ede
and
##ære
samt
##um
br
##aad
##dagen
by
pro
##yn
##agt
hans
vær
ble
se
sp
kiøb
con
le
alle
##und
##havn
##gel
kun
bo
stor
##ud
##ts
mar
##ist
hol
##ager
##aae
##mid
##kommende
10
bek
lo
bliver
##dte
sin
si
##red
bet
##pp
skal
##tte
##gende
re
kj
##ene
##bo
17
##ighed
##nes
##øn
12
bort
##læ
##si
##vær
pr
##eder
##gj
lig
##rist
bes
mk
##by
##ap
##enhavn
##ft
være
beh
##retning
rd
##øde
christ
##vis
ham
co
god
##inde
rb
in
##æn
##ord
hvil
li
##anske
th
##ets
##ant
nr
nu
sal
##ation
##pr
tid
##dag
##ot
##øre
rbd
mand
##ust
##ele
uden
jeg
##skab
ber
##var
##rem
jnd
##lem
sel
fl
reg
sø
aller
føl
gj
dem
havde
dette
##rig
sid
##ker
##ry
##ug
##inger
##mod
##huus
ly
##let
##ition
ha
##ser
land
##gaar
best
##yl
hen
par
dit
##la
min
me
ad
vor
11
off
##ket
blev
først
##ken
mod
##sel
##æt
##ut
dag
##tag
mig
##ost
##aaende
mel
##kal
##gang
##til
herved
la
fors
##yr
dis
ret
##æst
##mand
første
##toir
bl
##kker
skul
##fal
##elser
##eds
huus
udi
dito
gaard
blive
sm
##deel
##vet
nye
kjøb
##igt
meg
am
##ian
frem
bør
##ub
##net
##ic
nær
beg
##ndition
##aaer
ve
gaarden
##gade
præ
##iendt
alt
##af
##ki
##ges
kiøbenhavn
##uld
##lr
##ob
##ue
##gaden
borts
##ct
##viis
forl
##vn
store
condition
bil
##ode
sch
##ninger
anden
gr
ste
he
##hør
maatte
kongel
disse
maj
##dende
nogle
comm
##ammer
##ligt
kong
efterretning
##vende
jn
##orn
faa
meget
##æg
##ogn
##ads
##sdagen
##før
##fte
christian
##ings
vel
##nu
##kj
offent
##saa
##øm
stra
##iske
andre
dr
##ves
16
14
##ener
##ænd
##stem
formid
20
##gaard
##old
##med
bekiendt
##hver
##delse
naar
15
førstkommende
proc
rdlr
##stræ
##ich
or
##omp
##op
##anden
fag
##ille
pl
hal
hver
##meldte
##sens
##tes
1ste
##aget
dan
##iel
##ine
##tr
##ks
ville
ju
ti
endnu
##ha
noget
betal
##iser
vilde
jo
##ire
##atter
ex
##rev
jun
tro
pri
##ner
##ledes
##bet
ogsaa
##nede
##ast
tillige
##ningen
sidste
inden
strax
nogen
indkal
kir
imod
##men
ro
##berg
##ec
ven
##sp
##jen
apr
fe
april
tdr
##rige
dog
lan
##tal
##pper
sted
øn
vid
13
sti
selv
##kom
deel
skri
##lere
##uden
mu
##teg
bog
juni
##oner
ster
enhver
##vil
komm
engel
byg
##kr
fal
lø
tilhør
hel
sep
dage
tr
aug
sy
tor
##ari
##ræn
hvad
##dre
gru
vare
##ov
##gte
cap
gener
##hen
dec
24
saav
juli
kr
##hold
##mber
general
##kken
offentlig
##ce
gang
##bru
kongelige
##art
søl
bekomm
##uen
##isk
gode
##ly
##dres
sen
contoir
afd
##val
181
forn
##vig
jan
##elige
tilb
##erede
belig
##ass
##olgt
kunde
##die
mid
##iti
sølv
gam
fran
##rede
bru
grund
ty
##ik
##ævn
##ss
##læg
##mellem
form
##cel
tilhørende
vedkommende
##lag
##vbo
forb
saaledes
herred
182
tien
kunne
sæ
##øres
##vises
stervbo
##im
un
saad
22
flere
hs
##stand
##øi
pd
mai
august
tal
##ide
beliggende
##nem
imellem
siden
skulde
hvilket
##jer
##sion
30
##ac
faae
fred
##lighed
##endes
bemeldte
fin
raad
liges
25
##sø
maan
##atte
hun
været
lov
##iend
##led
##mere
##yt
##kt
hvis
str
læ
##aade
slet
afg
sit
##igst
##hand
to
borg
bestem
##he
##esk
##000
##get
pers
3die
skifte
hoved
##æng
fol
##up
kal
oc
træ
##rup
##uset
hof
allern
##sm
##sker
nor
bekjen
##holdes
##inden
faaes
##kjøb
ge
majest
##air
pet
endeel
##ess
anmel
##sted
21
##deles
bed
comp
følgende
##far
##os
##ak
##dig
2den
##delig
##paa
slag
##aff
danske
ske
##mar
26
19
##mester
høy
eftermid
##este
videre
##ou
28
octo
allernaad
##ern
næst
183
##iet
møl
bekiendtgi
mad
fuld
try
##ægt
freder
eiend
os
##ia
23
##skri
##ator
hele
##ski
##ogne
##alt
##terne
ei
fore
##raad
bar
##ange
øster
værelser
##aaet
formiddagen
##les
kjøbenhavn
##lam
varsel
stør
##syn
##han
##end
bekjendt
##ise
##ensen
staden
skulle
aal
ingen
underteg
bortsolgt
##kket
følge
##føl
lyst
sogn
##ande
##ælges
##aab
arv
bø
lie
lang
on
##stæ
krig
october
##teur
##ider
mange
##mær
franske
melde
##eledes
hvori
##skil
anvises
##ah
##kl
tilbage
ligeledes
halv
##sten
##eret
handel
##ann
sn
afdøde
##ring
janu
kammer
##ole
skib
##kommen
sor
##tage
alm
arbe
##holde
##ister
græ
pol
res
##ita
øv
hi
##ission
nat
ug
##lad
foret
ko
adres
godt
##stræde
##ævnte
een
des
død
##andt
post
##værende
mind
2de
##som
##itor
bleven
ag
27
##ingen
amt
##her
##efter
##amil
sine
##urator
##valter
billig
oden
##over
##di
peder
aalborg
afgang
odense
undertegnede
navn
ang
car
100
hj
##ye
dom
hu
##igheder
famil
port
borger
##elsen
##øden
jern
##asse
180
forf
enten
bestaaende
enke
forlang
gl
fordr
bag
##mmer
kiel
##sch
##eligt
##ater
kongen
byen
bef
kongens
mil
em
179
##ders
sag
can
side
auctions
##idt
forme
##inge
saavel
##au
##aal
lade
##try
anmelde
mo
tilf
høi
behage
ne
hør
##ftet
hart
##aber
saadan
##undet
hvilken
møde
sør
rus
stat
stads
got
rig
kirke
eng
ned
allerede
und
forsk
##tt
forhen
the
mag
mennes
##æste
##omme
adresse
##ynd
andet
uds
beviis
du
##enge
fri
boende
ri
bro
sil
##fra
bekjendtgj
selskab
29
##holm
##irk
indkaldes
gammel
proclam
besk
smu
kar
##rænde
##derne
col
ac
##dige
##ck
tilkjøb
##øe
##inds
febru
forinden
##yg
##hav
##len
bor
##iss
##landt
po
lands
kn
børn
cred
##landske
##tede
ke
##holder
adskil
##træ
##korn
thi
##att
bekomme
##ds
avis
etage
tilkjøbs
formiddag
ene
far
##ies
liv
inde
tir
hert
##væ
nærmere
##holdt
skj
hvilke
priis
eg
conditionerne
##amling
nove
landet
boe
lin
##hr
##kammer
pige
allernaadigst
##klæ
nem
##værk
just
udgi
eftersyn
aarhuus
lige
red
3de
sogne
bel
leie
jor
maaned
stift
derfor
##ods
marts
sty
decem
ni
##van
hens
auctionen
##skaber
##ørnet
mandagen
septe
johan
hartkorn
sidst
begge
bye
##lø
alminde
##følge
prov
ønsker
##præ
maae
efterretninger
##rettet
##tid
##tra
hendes
lær
##lie
behag
##gien
nemlig
##tii
##yde
november
erfar
junii
fi
deri
forst
aars
maade
##steds
##itet
omtr
mang
pass
skpr
syn
##agn
peter
forrige
bevil
christians
omtrent
engelske
september
sven
lille
ligesom
hon
eftermiddagen
december
aab
##res
##dent
brænde
ob
##vise
##steen
##qve
proclama
mere
hæ
##sraad
tør
parti
dertil
arvinger
heste
##lede
4de
dens
nør
politi
##amp
stæ
ren
##fog
##stænd
folk
kom
qv
give
befal
##under
##velse
##bye
##pl
fort
tyd
##con
##ion
##sb
haver
su
##sl
##andet
fød
##delst
##lagt
familie
afgangne
gaden
jens
##ution
eier
##ages
anse
korn
##økken
fa
keiser
ugers
julii
##illing
fredagen
igien
antag
dy
##itain
gud
cor
muur
##ppe
##unden
høie
onsdagen
klo
mindre
kielder
av
##rer
hid
ab
fordre
tab
nyt
dags
##bli
bind
##fald
formedelst
ander
teg
søn
##eld
tø
afholdes
##orte
##tere
31
procurator
hansen
dire
aften
50
##lever
haand
##aan
##dede
gange
sær
##ph
lod
##bro
øvrige
##edler
##ment
person
døde
##ati
val
gods
fordringer
##ette
##viisning
##ile
##igste
ka
indf
##ationer
tirsdagen
##melse
##ledning
vand
hvoraf
##vent
ol
vore
##arii
nov
møller
adskillige
##mann
compagn
##kkelig
bekiendtgiøres
alb
finde
##reg
cat
foran
commission
foruden
##pige
indtil
niels
sept
tilligemed
##uge
mal
majestæt
##mark
hand
is
##essen
##boe
flyt
ban
opb
kob
##ligen
##lands
##byg
nord
lever
sammesteds
##strup
brand
##ubler
cancel
##ælde
ul
skibe
pla
bekommes
##komne
mit
bleve
##asser
##mager
##rue
prof
tage
##oc
##ugt
gives
##huset
januar
klæ
##stedet
guld
##øer
anledning
lieb
##bar
##forvalter
dat
deraf
##klæder
vester
##abri
tryk
##vne
vogn
##kel
contoiret
11te
lar
##agte
178
##mes
arme
stand
told
##anter
##pd
##gjen
bekiendtgj
jac
##sdag
##midler
##ommen
tred
##toiret
##dens
ras
##ærk
komme
huset
sub
##leie
rug
løver
beviislig
jord
forest
ben
deels
dep
ver
##nen
##ubli
torsdagen
igjen
184
kiøbenhavns
stuen
gar
000
5te
##siske
##strædet
derved
##isen
skyl
beret
##ave
##ital
see
stadsret
findes
derom
##inder
##unde
betaling
viborg
slut
##aten
meubler
slags
22de
##ald
##itorer
fæ
##revne
hvorved
stue
tvende
##ses
lader
sv
spec
##øie
derpaa
gjort
erkl
##sning
per
##lade
##ca
bebo
##sse
mellem
nød
sand
##handling
hiørnet
jacob
svar
##reve
sæd
6te
bon
##foged
##bydende
grøn
##iner
all
##ælge
##pe
bi
ta
paris
##komme
kobber
ord
const
##kiøb
oblig
##kes
læst
ligesaa
mi
auctioner
##viser
##melig
##mænd
flyttet
##fær
lu
hvem
døden
regjer
sr
##viin
nation
##kning
##uten
behagelig
tiden
indrettet
##bel
begi
næste
stedet
oven
log
##ale
hin
holdes
loven
jør
oct
##trykker
##sat
##urg
fatt
##iget
40
di
##ps
##mo
endog
##ynder
bud
##mu
agter
leye
martii
##heden
tredie
stervboe
tyr
senge
lond
justit
##datter
conf
dron
gaae
##aard
behand
capitain
afgi
##vede
##mede
sønd
bindings
februar
##mus
ønske
vest
stkr
sælges
bræ
danmark
##iem
dato
forlanges
##ona
##havende
gamle
##sti
penge
bal
por
personer
tj
##udi
skeer
##ommer
##sæt
niel
##stue
##qvem
grev
tropper
fær
##rum
von
bestaaer
opr
mor
conditioner
staaer
kongelig
plan
ass
morg
td
dets
leg
nørre
gjøre
##ach
##dom
mat
fy
tieneste
12te
jl
led
##comm
##gjøre
taget
ober
novbr
##str
konge
##gelse
fo
især
##taget
liebha
##essor
10de
offic
20de
london
##øy
herreds
##tens
##illet
mich
##mægt
##jel
sorter
##co
##ilighed
##ødes
qvar
beqvem
cir
lidet
26de
cl
søger
steen
##iment
##ill
tre
ring
foren
offentlige
fd
priser
##løb
betale
span
forhold
giøre
oply
177
mon
##gaarden
frue
fæl
bygning
##rigt
lovlig
fyr
jørgen
ry
forp
##ult
kiøbs
hertug
##assen
plac
##ok
største
##kkel
##itter
mark
septbr
kiøkken
rand
norge
forsi
skipper
14de
200
etager
kiøbmand
##seende
7de
sognepræ
##min
skov
##eren
bedste
præste
##telse
16de
virk
bogtrykker
##vid
børsen
skibet
##midlertid
##istor
bortsælges
15de
natur
datter
18de
lande
fabri
frider
pre
sort
liden
minister
ager
emb
32
##affe
næstkommende
alts
intet
##ugen
frederich
##teer
atter
##heder
saadant
regiment
holm
derefter
gu
##gods
dennes
overe
9de
##tter
decbr
##øv
giver
##ørelse
fruen
##ctor
we
##iller
##øg
##ho
kongensgade
24de
handels
deb
kron
ba
hvort
30te
frank
christianshavn
tilleie
holsteen
nielsen
tønder
erholde
##per
##met
hust
##liggende
hvortil
allene
##urder
vin
28de
kaldet
fruenti
13de
21de
skifteforvalter
egen
stort
vigt
forand
vort
##vare
ant
23de
vind
aldeles
brev
billet
19de
kort
17de
##handler
udn
##deren
givet
erholdes
dagen
bestemt
##fts
bu
##elsom
bevilling
henvende
væ
##reb
febr
hauge
ting
##iger
fast
##blandt
##esse
##stad
begyn
krav
gjen
##dan
sikker
skiftet
ellers
ung
##lev
colle
##utenant
ter
##ladt
rasmus
særdeles
##ødt
##skes
derimod
tra
##ført
##yd
27de
##førte
sædvan
##eneste
altsaa
##ømmer
8de
morgen
saavelsom
##ell
haa
##ængde
##cteur
fruentimmer
##befal
##int
jensen
kand
arbeide
fdkr
næsten
##hn
##rag
publi
aarlig
dou
eiendom
løs
##æring
##rich
aaret
stad
##par
synes
siel
##tor
vis
plads
ifølge
dansk
##nings
forord
hende
vist
##vt
##orde
mine
##ons
arre
wil
besl
vurder
omk
25de
##veret
##ksom
##fr
##erer
so
##idder
ph
ur
ey
cancelli
##ow
dam
##ceur
randers
lpd
henseende
alen
circa
medlem
aver
christen
faaet
##ahl
strand
eftermiddag
skade
##egne
pa
ganske
spr
hels
##bydes
havre
sku
paaske
##ønd
jur
29de
prinds
sognepræst
tids
preus
fald
douceur
blandt
##po
erfares
hertil
afdødes
høist
laan
hed
tilla
##ands
gik
meere
bekjendtgjøres
carl
lysthavende
##kkede
ær
forretning
majestæ
partie
eieren
magt
hamborg
skole
sammen
let
nok
boet
dri
forløb
løverdagen
tils
sedler
værende
hor
##yld
##vist
fransk
##teret
kra
##sol
holdt
engelsk
vorde
tilst
##melte
##othe
fle
kone
beste
helsing
lad
##ilde
fordeel
endelig
##stede
tydsk
større
oph
behandling
rom
reise
opf
brændeviin
dig
##tager
##gr
##komst
##ix
##mir
norske
staaende
hinanden
##esten
omkost
mangel
##all
hidtil
steder
##bragt
##pel
rum
cour
kor
skol
høyst
##ydelig
bindingsværk
kap
##ænge
pan
ra
gro
søe
altona
trykte
##haanden
##bog
løb
##ben
##iir
øie
fine
fædr
sum
##ovne
omstænd
##iks
forsamling
indfinde
##uds
##ma
##cher
flyttetid
holde
##avne
vir
middag
baade
skibs
##stre
lund
bøger
##skabet
##usi
forsyn
##anten
glæ
angaaende
christiania
leilighed
middel
##eldt
sles
##miral
overeens
##tages
nærværende
##bl
van
mess
##kede
hvide
##ættes
##vaan
ful
60
jnter
##ctionen
##sberg
##tog
smukke
##pet
beski
samtlige
klokken
skræ
##agtet
bevise
##ild
past
boets
fordi
hvid
##vers
nylig
forvalter
stifts
cand
havt
viin
russiske
##na
rette
mis
uger
herrer
mæg
melder
opbuden
tale
behager
frugt
bemær
##yst
cit
foretaget
##ren
enkel
forskjel
##kkelige
##uer
thom
snart
ges
absol
##igen
slesvig
ladet
##tegn
tiltal
##ina
##lægge
tran
vorder
##kkes
##aler
extra
##ins
kakkel
honet
uly
##elses
behø
histor
herfra
krigs
##egaden
auctionsstedet
venner
dronning
hvorefter
kund
aftenen
##landsk
ligger
ans
##ef
ost
##hel
langt
##ræde
hvorpaa
bygninger
pastor
overalt
besæt
frederiks
gaards
liebhaber
##tz
tilfælde
##ron
anviisning
##ætte
frie
##gede
##arl
##apiir
##vend
cons
brug
##fors
exem
##dentlig
##smaal
overeensstem
blot
antal
##elighed
blevne
fry
huse
##omf
januarii
kjøbmand
##ærer
sko
bir
majestæts
bedre
##reds
##ammen
admiral
##verne
##gl
##aars
##arbe
franker
##give
menneske
solgt
mennesker
kongl
høystbydende
befaling
underretning
##ip
rente
##terede
ribe
mer
petersen
unge
afs
##hers
adel
allernaadigste
mr
breve
følger
##yer
##tisse
fundet
dræ
bestemte
syg
##gning
##giøre
bryg
##kræ
##iets
privil
regier
sommer
36
imidlertid
forts
##kiende
##kon
beslut
sto
sønder
mun
##adt
##arv
eneste
##enhed
creditorer
##ander
messing
##fol
betydelig
##iden
efterat
embeds
tag
bred
beviisliggjøre
allerunder
##entlig
justitsraad
##leds
stem
betyde
tydske
##cl
daglig
tru
foranst
vo
##tiden
hermed
##hu
ende
professor
fer
fornævnte
national
bom
##gar
mølle
byens
hensyn
stervboet
østerrig
##form
fuldmægt
tog
stænder
##døm
##æd
##ael
##ørn
smuk
##fordr
siger
ære
forel
uge
major
##delsen
dersom
##ødne
vegne
sol
fattig
##væsen
gaaer
##burg
stærk
##arium
haar
##hl
octbr
sagen
##bek
svend
avertisse
allerunderdan
almindelige
##tiske
legiti
anbefal
##istri
heller
slot
sold
##drag
herre
spe
300
mægler
fælleds
##ønne
##urer
arrest
stald
sprog
eiendomme
##fri
armee
vores
##ters
##sn
compagnie
fornødne
kost
privileg
glas
tømmer
grundmu
##vere
eiendommen
underhaanden
##tagelse
dermed
jorder
bonde
35
døds
do
##elserne
##lagte
rbdlr
hvorfor
##ank
cont
##ids
afsk
brød
aldr
slagelse
præst
læng
##olution
billige
commiss
kraft
##alen
søren
hest
rø
##cer
stille
##uret
mænd
##sc
hustrue
eff
##oph
rosen
gav
omkostninger
fier
##herre
christensen
bekiendtgjort
raadstue
staae
sa
vurderings
udstæ
tøn
##itz
##eng
bev
##man
amts
friderich
løsøre
##qu
hosp
saadanne
natten
##lende
##ned
heel
ankommen
broder
##istr
begynd
ga
eur
alder
michael
catal
sengeklæder
andersen
bou
udlæg
qvist
##broe
##ations
##lin
##ure
lange
lagt
afse
forsynet
hiem
fyen
sund
fornøden
500
overret
skeet
##fic
ridder
##urt
troe
læg
stats
meest
hertugen
ja
marie
sager
læs
egne
grænd
jyl
udnævn
kommen
desuden
europ
##lund
selskabet
80
pak
tiltræ
freg
hvede
mængde
stedse
##amme
##cor
maji
spanien
##æss
etat
gothers
almindelig
##indes
fæst
fisk
rigt
fader
fuldmægtig
prem
indb
bier
ansø
stillet
gien
##gaards
frankrig
##viv
##vigte
##ørende
absolut
##lse
bortsælge
um
app
##esp
##kommet
fly
skriver
##rette
##kjøbing
bønder
anne
forh
##otter
udg
hiel
fik
hospital
lars
##delser
##ium
##førsel
##agtning
rød
anders
allerunderdanigst
regne
mul
##ligere
damp
##nævnte
##fl
passager
hjem
halve
##ttet
lys
contra
##cit
fandt
##vning
##post
hem
spør
1817
bemelte
anord
kommer
sat
smaa
fod
urte
bruun
dre
##ui
avertissement
##xt
sec
forskjellige
##ernes
gjorde
berg
naade
anst
##vand
bid
tin
##aaes
mær
sukker
samling
##sterne
##fa
virkelig
##ppen
obligationer
prø
stær
bedes
skifter
søndag
##ial
##skib
fiin
foreg
danne
provst
klæde
capt
stadens
vinter
styr
cla
seer
##obbel
pedersen
##utte
##olle
##aaede
udmær
svenske
moder
##enter
orden
##folk
vente
##kast
fædrel
smaae
ophold
førend
selve
aldrig
##anger
kb
##hæn
##ame
##trin
neds
##ænk
##dere
##rettede
##ance
februarii
fortegn
havende
østergade
##indsen
##lænder
spanske
tilkiøb
##sty
ledig
smør
vedkommendes
##veien
porcel
billigste
dyb
1000
tilstand
formo
33
ansees
derfra
jomf
bergen
##videre
##ys
jfølge
nærheden
##undne
kjøbenhavns
##stø
public
rede
arveret
##itt
##avær
ordre
silke
tyrki
hedder
##deelt
indkaldede
udgang
forbed
foresk
##dam
lem
##retair
miil
depu
##aaret
formene
oplysning
##sendt
fuldkommen
##vor
##sent
##ful
##kring
##givet
liebhaberne
regjering
##ecter
vide
jndvaan
pct
##entes
##aaben
amer
lære
hvert
stu
##kræmmer
mindste
##leden
##gier
mart
medlemmer
veed
##rænd
##giver
bringe
passagerer
faar
##alg
kgl
48
uagtet
peters
spise
ønskes
endvidere
hvorledes
megen
skrivelse
##tier
skil
opraab
##th
sammes
catalog
34
pomp
31te
tages
##ahre
##bring
beskikket
bragt
sim
##kaar
behør
tem
afholdt
176
##are
seil
oberst
lieutenant
forsikk
##sken
##igede
##ate
##ard
ford
##hø
uni
tilkiøbs
##løse
baron
horsens
agt
##kerne
##iste
##atiske
huj
værelse
##raa
din
ap
pal
ofte
forbe
##manden
##lægges
##ksomhed
byes
aaben
skee
lykke
midler
heri
dobbel
##ka
maaneder
tiener
phil
drag
gal
pas
arti
##gers
frankerig
licit
længe
##gelig
constit
stole
england
saasom
tarv
fravær
##jun
mør
bestand
yder
##talien
grundmuur
besætning
stykker
stykke
##satte
prior
##rædet
mus
##skj
storm
lord
derover
##pæl
##igheden
##iendte
gyl
finder
##comp
indeholder
cro
##meg
frederik
jylland
forsvar
forfatter
kronpr
jnf
com
øiebli
hellig
ankom
løn
##ession
haves
##uler
sidstleden
##stander
sikkerhed
va
renter
pat
fragt
dyr
keiseren
sver
tol
arve
##ants
vestind
##itorerne
borde
kammerherre
levende
træn
myn
maaske
tidender
##eraad
tegl
glæde
##viist
##sede
sorte
##zen
garn
linned
ole
mands
snar
hvo
placaten
##port
jnst
begj
##vel
hoff
udenlandske
viden
beviisliggiøre
##atning
fremmede
##staaende
grav
##vin
enkelte
fremkomme
birk
##clusi
pil
forevises
døm
confir
##ktion
##æret
##forsamling
beløb
udnævnt
##oller
herom
mah
##læn
beskaff
ophæ
##betal
kakkelovne
skifteret
ægte
perpet
passende
vogne
##færd
brig
bestemmelse
saae
##bede
rusland
##føres
undersø
foretages
gjennem
70
##forretning
##che
skp
##elle
##reat
skrift
##menter
skud
anmo
effecter
regn
tabt
tilkiende
bouti
sj
omstændigheder
lit
forstaaer
##plads
køer
helsingøer
vilkaar
##set
##ison
torv
rets
forandring
andreas
tilfor
##ationen
aviser
senere
indkalde
forslag
##magergade
herreders
distri
portug
##hos
strøm
gaardens
test
tilladelse
fornem
##ption
lotter
madame
##lo
##ane
##spec
brygger
priv
skriv
##ensborg
##isted
værelserne
blade
##nden
æl
arving
##ola
gaarde
meldes
høiester
timer
##feldt
fordring
gen
regning
theol
##ruk
##sig
reis
salg
hjørnet
modtages
gesandt
berling
##skaf
##antin
bogtrykkeriet
besid
##ius
fortrin
sige
mø
fien
bisk
##boende
modtage
##ena
##standen
hus
##søe
##gangen
tilliggende
rett
tob
gre
atte
henrich
##dage
engang
##egnet
knud
kjøkken
##entii
##ftes
##brog
poul
sætte
maaskee
##contoiret
wien
capital
##urde
neppe
##itte
heraf
understø
##indelse
guds
perpetui
ser
lol
##ls
##skede
veien
legitimere
##indre
vaaben
udenfor
exec
##ventarium
forg
fart
##tis
mandag
##revet
stk
##specteur
sæl
##ladte
##urn
muligt
croix
directionen
##je
beskaffenhed
##lerie
##olding
##skov
pant
##midt
##skriver
haab
næ
forfær
leve
vestergade
bat
jyd
chr
middags
##bragte
alene
lyn
blaa
gier
ege
dæ
kier
##entet
ryg
forud
##ett
præclusi
hy
##egaard
honette
thisted
##ovn
enepige
præstegaard
forestilling
classe
hvorom
betr
wi
ufor
##kkun
bager
gade
stod
kanoner
##undt
blom
ox
advar
##ba
høit
tilladt
kiøbenhavnske
begynder
##ønner
maal
##contoir
##øge
45
hier
uh
roesk
##relse
tjeneste
betales
command
##eskab
prisen
##fly
tønde
loger
kunst
nic
hund
##linger
##orden
mist
##kiøbing
marsch
##abel
liggende
##lod
##roe
commer
pi
overeensstemmelse
##eth
milli
brun
foreskrevne
mærk
char
mueligt
kielderen
##cter
##øndt
1820
meer
stri
##arer
as
amager
foranstalt
anvende
gaardmand
collegi
##usen
##uri
maaneds
sverrig
##staden
forskiel
mater
silentii
##øier
giør
tan
anviser
troer
##snart
herskab
debitorer
fremdeles
underviisning
##ningerne
medde
landsover
38
##ølle
##ffer
hjer
geist
##melige
##bringe
saasnart
400
stater
opraabt
fattige
horn
tider
læses
ikkun
fire
adelgaden
pot
##tagne
larsen
skuesp
ligge
##mende
nb
##inet
##delige
##ønt
omkring
qvæg
##endt
##skud
##ender
byefoged
##ierne
udvi
fem
jagt
##bord
helst
jørgensen
##muret
loves
##sta
##opel
##gelige
petersborg
vise
##ule
##ding
pressen
##pri
falster
igjennem
meen
##sborg
cancellie
grønne
cancellieraad
##arte
høe
giel
pilest
##ænke
37
morgenen
##rib
##skibet
bestyr
##verie
##ytte
##hei
##skrevne
sørensen
##veie
barn
hører
indkaldte
##eer
skab
##ffe
##amen
ansøgning
prok
høiti
opfyl
##kommer
subskri
##ans
sider
fortæl
corps
levere
##agter
##itets
indh
vex
veder
##mmel
##uren
selskabets
onsdag
fragtgods
tilkj
iboende
##gjort
opmær
roeskilde
##tagen
univers
saakal
ude
##elsdag
porten
##ta
don
##hæng
bekost
te
##skrift
plad
hujus
thee
antaget
sælge
høistbydende
længere
engelland
beretning
termin
præm
##urs
##eskri
løverdag
##æster
##illes
##tem
##ørelser
jfr
dronningens
js
ringe
gra
##skibe
kbh
hæn
stilling
skikkelig
rigsb
##yen
uld
##sting
frihed
yn
vedlige
##serne
juris
thor
veir
slutning
inter
jorden
dreng
##adem
##ension
##ped
##ummer
asi
paast
fæng
venstre
konst
schi
##mæss
stadsrets
##føre
##aval
svendborg
nyelig
bri
skr
relig
blad
retten
gehei
##pro
##vidt
leds
dele
del
cop
##holdte
pund
saavidt
##bry
fordeelagt
##byr
ør
præsi
sidehuus
##dal
##sku
ky
angreb
fædrelandet
sees
##ligste
dannebrog
jacobsen
jtalien
##gtig
sned
hvormed
pligt
etatsraad
##ligheder
us
ostind
##ellan
bomuld
frygt
directeur
berlingske
nørregade
halvtag
##unst
##apir
erholdt
boes
madr
schw
syge
beviser
##fordres
salt
regjeringen
fredag
tak
##værks
##holms
assur
dør
thomas
##ærede
pante
##stændig
medtager
##aalet
accor
herredsfoged
##inen
ube
150
##ering
efterladte
##commission
lud
opdag
##ødte
sir
sed
qvarteer
##ung
##eb
forhandling
##levende
bank
artil
historie
rige
jver
tilstræ
hensigt
mari
studen
sædvanlige
nyborg
fabrik
rep
kiøbstæ
gjorte
soph
##fører
født
fraværende
him
##qvar
##stuen
##attet
beqvemmel
nyeste
##antinopel
afre
nest
altid
bevæg
folket
sædvanlig
##holdende
##bre
forordningen
bestandig
milit
magistr
fog
##meget
overbe
##æs
berøm
trækning
auktion
exempl
medens
inds
anmodes
taler
værk
vei
indbydes
lor
species
tron
forening
##helm
##andede
##rænder
loc
##eres
rigs
vandet
æd
jngen
pen
blevet
sagde
foræl
olsen
brønd
logerende
44
##indt
##comptoiret
gaaet
prædi
hvidt
værd
##eden
skyld
forestaaende
eget
##værelse
42
stæder
uf
rasmussen
kam
tviv
1819
##orv
valg
idet
##kir
hielp
##øiet
huushold
indløb
hvoriblandt
seet
tilde
gaardsrum
##chen
##laden
##tning
afgaaet
ops
rev
spørg
dødsfald
raa
favne
ræ
beram
michaeli
kloster
##gryn
amster
vol
neder
credi
transp
fregat
licitation
størrelse
igiennem
klæder
64
privilegerede
landsoverret
##papiir
il
erst
##sal
schmidt
##voc
hiin
tver
##fang
omtal
jomfrue
##øvrigt
fores
hvorfra
lyse
tillade
passer
tiende
bjer
ytt
kiøbmagergade
##sisk
##meret
gand
elsk
ventes
##stunden
forlangende
##ith
betydelige
ødel
##maade
##skaftet
##kasse
henhør
flensborg
jes
39
##lieutenant
##bær
jnteressen
##off
##vedet
##varer
portion
syd
provinds
fang
obligation
fla
fade
##agten
vimmel
bla
fork
##ark
##vogn
nicola
minde
##vir
kaa
æg
##ørte
##gene
ladning
vigtige
jndhold
berlin
##aaden
betaler
eet
creditorerne
kræ
##fart
##indsens
torsdag
##værdige
kry
##præsent
chef
##anterne
##vei
nødven
##væsenet
overor
##bred
hverken
navnlig
erklæret
##ents
hovedstaden
##dire
kokke
##lit
hollandske
neap
##iges
varer
henven
##qvis
##har
allerh
kundskab
begyndte
adressecomptoiret
catalogi
aviserne
temmelig
##stu
56
faste
till
havn
gem
vimmelskaftet
borgergaden
litr
holste
nyde
##idet
studi
##que
tiltrædes
1832
##ain
hænder
##bedes
befindes
smukt
##skyld
fleste
dobbelt
begr
ethver
slægt
##lerne
lidt
##følgende
##merne
dronningen
ev
familier
tegn
175
##andtes
##fulde
bem
anm
premier
##deres
havne
satte
ru
##gaae
baghuus
bre
##lader
##ømme
væg
karl
kjær
kru
svag
holder
##dring
amsterdam
afh
begjæring
behørig
im
##ætter
jld
seng
kat
middagsstunden
caffe
tager
sne
avertissements
##frem
forse
pe
brænd
##tel
##ante
##olen
tiid
##ble
##esen
43
dages
lovlige
forladt
cent
sluttet
vox
frit
##ummen
fø
uro
høieste
tildeels
##værd
kirk
tyrkiske
##gtede
forø
jnfanter
maria
bryst
##endelse
##pedition
søge
ethvert
republi
##isse
##bygning
resolution
blod
##tru
mile
##bech
sygdom
beskri
##uth
papiir
##issair
##ats
net
1823
vitter
##sser
tydskland
math
høre
skiftes
cal
forti
1818
##gives
jorde
pompe
befordr
vansk
##brænd
efterlevende
boer
liig
ankomne
hurt
##delen
heele
gib
52
boghandler
ludvig
jndt
gothersgaden
##ægger
tjen
reisende
rygte
tilfreds
ent
uhr
sorg
tirsdag
forkl
ægt
ledige
fæste
flaade
##brød
war
udkommen
##last
millioner
kjøbs
##ign
##icia
faldt
laur
matro
secretair
fest
1822
raadhuus
##hal
##faldet
udfør
complet
begyndelse
##ortes
nap
umynd
bortsæl
ark
##givne
##din
frø
iagt
indlever
jr
laug
vedbli
efterladt
religion
politiske
lærer
trykt
bekiendtgiørelse
capit
mol
blo
poena
##cha
høire
##tryk
##styr
skipp
##lunde
menigheder
kirken
gylden
##iens
##ite
ubet
tæt
constantinopel
##ots
holst
gjør
##use
##hiem
gevin
72
spring
1792
opst
kasse
cours
føre
46
vahre
anlagt
cas
tri
tidende
officerer
pension
snedker
stræ
modtaget
nytte
fug
ped
indretning
prin
1811
##ftig
tiene
afvigte
##torv
##agede
kjæl
forsøg
##etter
aflever
##illede
forbindelse
mælde
##øieste
mort
##gield
##antz
alvor
been
##stra
faaer
beqvemmeligheder
vurderingsforretning
hammer
##brudt
wilhelm
##aill
##enten
politie
høihed
##geist
børs
malt
ovenmeldte
sielland
600
sang
midt
##liggen
addres
##roner
bord
je
##utter
tilveie
##ringer
jnspecteur
kul
straf
iblandt
herpaa
tidligere
actier
saakaldte
##cur
ulykkelige
regiering
jndvaanere
tiltale
slutte
øl
hvorover
østerrigske
skatter
madrid
nærme
øvr
90
##ocum
landets
kjøbes
pun
jndkal
grundmuret
mester
##az
prioritet
gou
bol
drenge
fortegnelser
muller
rest
##længe
ført
erin
##bare
hertugdøm
##smænd
##nende
preussen
##posten
pakhuus
bul
##udet
asiatiske
tom
verden
##ften
tit
expedition
##venhed
##forp
forskiellige
preussiske
bræder
##søen
sendt
partier
ann
lind
stuepige
55
##ton
grad
amal
antages
##haver
residen
2000
overs
anna
41
##see
lykkelig
biel
proto
1812
##byde
##landet
erhver
jmidlertid
##oed
##deelte
moderne
##arbeide
vitterligt
colding
laae
##sition
##agel
##fuld
john
tillæg
uaf
forenede
urtekræmmer
amerik
kol
gandske
vels
forsy
##cul
##dor
afseile
bekræ
samlet
provind
commissionen
##huse
konger
commun
hvorudi
##aner
stervboes
tv
fremtiden
oprør
fj
##fordre
##asserer
##tive
herefter
##enes
stærke
lav
rec
bekiendtgiøre
publicum
execution
##amer
theater
sye
livet
brændeviinsb
forlig
##ica
bortsalg
caval
enkes
cab
##dommen
bad
skiftesamling
huusmand
cathr
fisker
##brug
##vnes
vides
ger
##ydende
handlende
##vo
actor
oms
##vocat
olden
meubleret
##angaaende
mennesk
##ladsen
snarest
jydske
ci
undersaa
##inister
##mændene
ugentlig
##ytter
ægteskab
tropp
skpd
##steder
fyrst
kanon
udbetal
veile
##genhed
##lediget
arvingerne
viist
##rah
antagelig
foregaaende
hensig
##næst
haanden
##ines
antage
constitution
hustru
taa
øen
besluttet
folke
istand
hum
kamp
##pen
rør
udgivet
##lum
udgives
arbeids
1824
beslutning
##ias
overfl
holdelse
##atur
##ænder
biskop
derhos
apothe
desangaaende
##sto
dur
##rukne
øieblik
sild
nyehavn
capellan
hast
md
bortsælgelse
##æm
holland
kammerraad
boepæl
maren
resp
trende
sæde
vidt
##pt
meddeelt
siæl
hvorimod
anliggen
jnden
hørende
kreat
omstændighed
born
formodentlig
##blant
colon
consul
fallit
##penge
##yp
##derie
skrives
regi
elis
benævnte
baad
agent
beboelse
hovedgaard
bevæ
viser
##beck
coule
seg
##fremt
bekiendtgjorte
betalt
bortsti
underret
101
bevilget
##oge
bragte
prøve
propri
ombord
høiere
gield
skolel
##bør
qvartal
75
europa
dhr
##edommer
ringsted
rem
attester
##inske
koster
##anen
##fares
saafremt
##holdet
##entlige
behaget
efterladen
ib
##sendte
##isten
##son
bogholder
inder
bære
##kninger
maler
51
##rik
befalet
fare
grosser
cast
120
avls
augusti
dræb
elskede
aarlige
##igheds
uop
aand
reen
##yes
##qvisition
besiddelse
##iede
mening
stervboets
65
andr
prokurator
##stid
indeværende
oplag
forlade
##bri
betien
##stine
militair
læse
søster
ankomst
forholds
gift
##cen
##agde
ærede
##oe
71
propriet
tommer
##mens
##ni
##verk
journ
blomster
##fe
beløn
stal
porcella
##rings
lærred
##arier
portugal
##smand
##løs
assessor
##øvet
##modning
bekiendte
##stidende
forældre
bern
universitet
placat
fjer
ref
spisekammer
47
##bes
trø
rolighed
ædle
brændeviinsbrænder
forpagter
54
napole
nytt
soldater
deputerede
##vision
heftet
burde
henvender
bataill
svær
funden
forfærdig
gul
armeen
udmærket
##odu
videnskaber
##søer
hir
##gjør
##spl
førende
greve
sorøe
##æger
##qv
livs
##skræn
##mon
dømt
##øder
##ischer
dhrr
nødvend
##eller
paali
##holdelse
##hund
vold
begrav
helliggeist
bortforp
3000
##eligen
##raph
##chi
anliggender
grunde
allerhøieste
stok
66
tun
christop
lax
raadmand
begyndelsen
jnventarium
bland
##kastet
feil
##sket
compagniets
potten
holmens
aarsag
##færdig
overflød
rentekammer
##kar
1800
afgangen
paastand
opret
sjæl
rigsbank
##jor
pascha
farver
1827
resten
##telsen
##kkelse
##domm
dernæst
repræsent
1831
taar
menighed
opvar
docum
opholde
tilsammen
kro
##oer
kli
lut
art
høiesterets
liss
##kor
citanten
birkedommer
eder
egn
grønnegade
forli
ale
johannes
##sh
##brud
vederfares
##lær
fersk
betydeligt
ca
saalænge
ank
##ældte
curator
fjen
##esser
jlde
papir
lat
1821
bestræ
tilforn
num
faaborg
norsk
1825
laa
godhed
speile
##log
smer
fiendt
nøi
##skyl
foretag
academ
joh
middagen
sta
afdel
53
elisab
1810
lissab
##gere
herr
opstander
##stykker
saarede
fiint
##skabs
ej
##sættelse
appro
##erent
passeret
redskaber
forsam
##gn
feldt
##beret
rh
##alter
bidrag
cathrine
##edag
##draget
etag
indtræ
kommet
provindserne
sove
udstædt
holdet
##viisningen
prindsen
##tisk
bekjendte
overeensstemmende
egnen
##sminister
##stil
##leg
embedsmænd
skrive
foretagen
christopher
sche
skinder
protoc
slots
are
drægtig
oppe
udlægs
grosserer
##aire
visse
58
62
fienden
##amt
##ættelse
##ieski
fyl
opm
forbry
logis
kaffe
revolution
##eland
fortj
spørgsmaal
##yre
bekostning
skyldig
kbhvn
aff
kokkepige
4000
privat
##boden
##ford
røde
fierde
hovedet
siellands
embede
underskrevne
wiborg
ombedes
##scri
##ym
##leb
retter
mynd
skudsmaal
##kalde
stemmer
##ribe
49
handelen
##meel
karto
bemærkes
love
##entøi
anførte
læder
vestindiske
proprietair
bang
advocat
##kler
ane
forevise
##ttelse
mrkt
pc
63
tjener
##ci
oldenborg
adressecontoiret
karen
102
kram
piger
altonaiske
forbli
tiltalte
lis
kirstine
##ielle
##oler
linieski
skat
repar
dav
søen
rettens
##ore
##leilighed
separ
postmester
nykjøbing
specier
##hoved
bruges
lotterie
##tale
angaaer
blaae
skræder
berømte
iagttage
afhandling
hundrede
hæder
##kum
lege
##øielse
##cus
lissabon
foref
anker
ditto
patri
##edskab
deele
afsl
##boderne
opdage
kjøbstæ
##rad
slottet
##kassen
opbuds
bidr
stykket
##vold
##øiede
chat
foraars
1826
vice
committe
##atet
##hente
material
forseg
erklæring
forordning
ovennævnte
opført
lærde
musik
##mation
charl
bogen
##iserne
confirmeret
saameget
fyens
betalingen
jnstru
##uch
pav
borgere
begyndt
forvent
falde
1834
eiendoms
sande
##arius
##lings
frisk
##gerne
broel
nab
##krig
##inges
fandtes
skiftecommission
##cker
##dragelse
hollandsk
fad
alli
indkaldet
##iz
landsting
dame
eders
skar
forfatteren
knudsen
loft
parcel
vaan
rolig
tus
færge
respec
anven
friske
1830
register
##andeur
jndretning
##aks
opbydes
areal
hyl
forklar
skrifter
berammet
gavn
##eligste
advares
indry
viis
1835
##skal
ride
##øtt
##strand
virksomhed
befalede
##uhr
##egn
honnet
##ænger
kiøbes
præstegield
træer
aabne
bestaae
havnen
produ
milita
jns
skyldige
##strøm
##dyr
##fler
aag
forretninger
derudi
rang
pilestræde
skiden
geheime
##tions
forsamlingen
##hauge
##elt
indført
##oni
opmærksomhed
idag
krigen
ut
alders
pu
skom
##bod
##ral
##fæst
høst
almindelighed
vende
org
førte
styk
erich
forsendes
61
lignende
vægt
pul
carol
artikel
1836
reqvisition
stærkt
hellige
kuns
thomsen
ønskede
førstk
excel
udkom
##ttr
sophie
##frøe
frøken
forpagtning
##stædet
74
støv
rettigheder
citroner
proces
##uel
##commissair
##vter
bis
betræ
na
##pladsen
lyng
jntet
afsked
foranstaltning
baand
skindergaden
besør
##egaar
indhegnet
skuespil
##eter
##als
geistlige
testamen
adskilligt
holsteenske
accorderes
mærket
oversat
nestved
##position
bladet
mæglerne
##brand
##ording
beretninger
##orter
villie
navne
garnison
top
hine
act
admin
himmel
doctor
credit
adkomst
kni
1799
sende
madsen
tagne
sættes
1807
stræn
øver
sagt
udlever
hirsch
føds
1813
aflagt
##lagde
fødte
direction
flo
vognrem
##one
søndagen
finants
levn
borge
##yder
##redes
hefte
jlden
##lænderne
assens
frederichsberg
sandhed
amtmand
skjønne
##kkeligt
jndkaldelse
##skende
bevid
poulsen
magaz
##ineret
slige
opn
800
berett
met
##bergs
subskription
vexel
hede
##feld
chir
68
57
1833
indrettede
gibsede
samlede
tvivl
varme
##ligviis
##smed
flor
banco
##ulerede
##gaaet
venskab
hær
##junker
##kter
aflægge
##ioner
nak
kjer
##kul
##lerup
consum
vad
mads
georg
tienlig
neden
lydende
attr
contr
elisabeth
haders
forfatning
oxe
nærings
trin
stemme
##iesyn
73
segl
møn
##bedet
orig
behøve
ungt
forgyl
enken
skive
##bert
held
mrk
##sere
##ftige
##bønner
sække
##prov
jnteresse
istedet
bele
alex
værdie
sax
##fabri
keiserlige
neg
##angel
spid
student
tænke
russisk
tilhører
exempel
medic
respective
lolland
##værdig
##byder
rey
begynde
tilfæl
nicolai
eiendomm
loren
lassen
##hus
174
kast
plet
artillerie
ædel
##sene
billetter
fremme
##dahl
militaire
67
læster
1814
##værge
forefal
##daler
bekjendtgjørelse
tilg
civil
##gne
længde
##meen
1796
afseil
ed
erfare
transport
posten
enkelt
brede
arbeid
magistraten
svensk
vinde
##mk
bra
amagertorv
subscri
def
gunst
kiær
8te
fremst
##vex
dahl
##igere
fulde
skjøndt
færdig
udsat
##træer
brø
yttr
##iter
lagttage
stol
rul
commerce
##lef
mahogn
hovedgaarden
riis
pra
komne
tilkjende
##ott
europæ
gale
##spe
meel
begiering
residents
##kiær
##aux
undtagen
parlam
beskrivelse
tilstrækkelig
ott
sc
##økk
peders
meddele
æld
##zig
hvorhen
wal
##unds
##asses
haaber
fængsel
lev
kakkelovn
##æstgiver
theolog
##olph
beting
fortrinlig
##ueret
redskab
fiol
minist
publikum
bekjendtgjørelser
udkomne
buch
##io
##vene
1837
##melser
##qvarteer
blandinger
##regler
opmun
afbrænd
corres
1829
sogns
1809
johanne
##frie
organ
dyre
##ordingborg
præsident
##attede
##byes
bringes
udkommet
76
contant
##hag
betæn
sandsyn
høye
prote
erklærede
esk
bifald
cong
jnstit
bech
##kkere
erkj
friis
1816
##rende
mandskab
1801
time
henhørende
sult
skolelærer
freds
betro
nordamer
##bliothe
bøge
fiske
porcellain
##tets
ældre
fornær
anmær
stande
result
øvrigt
1804
rdr
origin
tugt
hat
##tific
addresse
træe
tyrkerne
antageligt
hjør
udgiver
arbeider
locum
bød
##cip
byet
departe
brændeviins
mask
staldrum
grændse
##viste
bevilge
levnets
græske
anstændig
udlandet
pompevand
bedr
bestræb
##sættes
møb
anlæg
##slaget
begive
mynter
discon
clausen
storbri
foranstal
mikk
flø
forbi
##reise
oper
algier
sem
##ns
##stiden
bopæl
lægge
særskil
brugt
opholdsted
halvt
dor
jndfly
##ukker
concer
marken
broelagt
##xer
adgang
59
##uger
pluds
250
acti
69
reser
maaneders
##sætning
##mølle
ugi
88
##jent
duelig
afhente
mercur
sønner
##hab
##mag
forretningen
##denhed
svarede
##magt
tilkommende
spansk
##fyr
##ko
##ffen
nuværende
martin
83
neapel
norden
tanker
##kan
##rie
##ues
angi
nationalb
philos
cond
##slev
teglhæn
77
gryn
tæl
##karl
vurderingsforretningen
afgaaer
nakskov
holsteensk
kle
mos
##able
bay
##ffet
85
##igelse
bend
paatage
octro
documenter
manu
sundhed
leveres
fregatter
oprigt
moral
##ograph
siges
undersaatter
smith
##stal
laans
audi
bereg
tract
##ægter
##indsensgade
eftersom
brit
maattet
##dinger
##ensgade
behagede
##bu
bruge
forkyn
78
jndflydelse
præmie
høiesteret
1806
jnfanterie
##skrivt
##vahre
holsten
udel
lysthav
##gst
kister
sli
5000
lam
aftes
betrukne
bogh
hustrues
overordentlig
##kegaden
forhenværende
bygningerne
2det
interess
gouverne
dampskibet
forny
die
ska
krog
ub
øiesyn
solgtes
kammerjunker
##dest
forsik
rud
indkomne
smag
henved
aggers
adfærd
##hert
##færdige
raadstuen
aa
wint
ros
klar
schwe
##issen
summa
aargang
tomme
##offic
ærter
##bemeldte
chines
##magergaden
fremgang
jernfang
##læst
auditeur
venter
##redskaber
ansee
hiør
borgerlige
##agtig
cad
##bi
tilstæ
føde
##reven
fornøy
##aadte
opførsel
forlangte
stranden
kud
tilbe
deeltagelse
hamb
grunden
stervboen
finderen
forde
beskad
gangklæder
tronhiem
magter
##mands
92
claus
schou
provindser
eiende
##tshuus
kasser
##denten
fulgte
meyer
udmærkede
tillader
candid
##faldne
bevægelse
læge
lieut
##steret
disconto
iøvrigt
skovskyld
olie
slaget
understøttelse
##gjørelse
##dentlige
1828
##brænde
tobak
jordlod
##istra
indtru
och
auctionsstædet
paul
behageligst
regiments
skomager
##øver
##artner
eenlige
sviin
fac
##ores
kiende
modtog
lysthavendes
##bød
indenlandske
##habere
selveier
titel
graa
møbler
sovekammer
aabnes
slutningen
viste
besvær
##erentsraad
hul
frugttræer
##eskriver
sørgelig
brandt
udbet
1802
skippere
foreløb
overlever
##stor
næstefter
børne
jsen
pladser
stud
nødvendig
udb
##splads
skridt
arri
tobaks
raff
fridericia
stormar
##handel
sikkert
dun
nyet
##kte
##imod
borgerfolk
##nelse
wul
##kirken
1808
##holdning
##iteter
ler
hann
##anderborg
umu
##tagende
tall
flesk
giennem
private
jub
forsynede
##uner
behøver
##skaff
beboere
trykke
strid
1803
marker
muelig
tørre
##ykke
sikk
##priser
##hæ
opholdt
##endte
##hænde
underhandling
tillid
gave
##uf
formue
forholdsregler
foresl
opgive
rbmk
##klæde
##orges
besat
øine
tilbag
##aille
##directeur
##indtil
oprettet
jurgen
jen
skilling
may
napoleon
##domme
løv
aftens
teglhængt
videnskab
##oder
flid
overeen
##atret
stormarn
kartofler
cate
forund
fornemmelig
blandede
sog
casse
svare
##hor
gren
##maal
haabe
##tto
venders
coll
95
excellen
aagaard
erstatning
commissair
paafordres
##nok
##vortes
##cks
##yle
cau
anseet
##osten
fremmed
broe
stiftet
##bud
brevposten
collecteur
skiønne
afgaae
anviisningen
durch
jomfru
liebhabere
opfordr
##dene
ægyp
ældste
84
skue
lodder
##adre
troede
ze
##skrive
porcelain
82
lette
##aret
linnet
assist
gaa
kjælderen
formel
tagen
david
99
forsaa
ordentlig
tegne
brugte
##tzen
efterkomm
udval
indgangen
øverste
stiftamt
grændser
journal
commandeur
beboes
nyetorv
##formynder
sex
fædren
sei
igaar
regimenter
opbyg
octobr
viinhandler
81
belønning
bede
præsten
sad
bøn
1805
mørke
erindre
1795
christiansborg
tilbehør
spil
passerede
jnsur
hidindtil
øst
##dets
medborg
##yesyn
catech
##anke
forbemeldte
##affel
hals
nyhavn
hoppe
saare
##delses
wol
##giør
pæn
stil
##undende
diver
stock
vestindien
meldt
##gaaende
nærværelse
##æde
auctioners
##yttelse
sky
bornholm
trække
##ensdatter
dannem
embedet
flag
omgang
bomulds
gader
corsøer
vistnok
##værker
korps
flyttetiden
manglende
cant
tilstede
forraad
93
##ragende
##ert
fre
marg
##telig
færd
lods
thron
##va
##assel
justits
recomm
commissionair
##lagne
fæstning
freden
ansvar
ram
gjerne
simon
bie
klasse
øer
##eredskab
udru
derhen
##kkende
##istræde
ostindiske
tjent
##aparte
gule
##jut
##nedes
ansat
møllen
forsaavidt
jndst
erlægges
jon
vog
hvorunder
##lægger
luft
##væsens
rab
##onom
søgte
syl
##holt
vigtigste
afsagt
frederichs
placater
##provst
##ffende
##æb
halm
misfor
##øll
bondestanden
trængende
grevskabet
reisen
afgr
anmeldt
søndags
skeete
ødelæg
##ligheden
musi
matros
optaget
villig
qu
##jord
sendte
soren
huuse
trykkes
tyverie
planke
##sende
stude
##onner
ubek
kondition
call
foranstaltninger
##ga
##ii
tilsk
klare
begaaet
generalforsamling
jose
carac
omtalte
79
ku
##laget
##gre
##idst
udtry
san
stab
herværende
landsby
kalk
stykgods
indeholde
manufa
##dømte
skrivt
##afvigte
tøi
procent
spor
patrio
lover
modstand
reiser
bruns
vac
##enborg
acter
approb
nævnte
##inaire
skind
##øger
andragende
sach
ophør
vinden
bortkommen
util
##qven
syvende
komp
strandstræde
boghvede
canal
herreder
betragtning
prædiken
myr
udbred
kapitain
springgaden
mill
kirker
96
##apitain
jurid
vagt
fat
slu
fastsatte
forekomme
eenlig
##ægte
flydende
inventarium
tax
winther
130
frivil
tolv
##samme
##rien
fanger
indskræn
separat
smed
folkets
forlod
nibe
nogens
opholder
prindsesse
gjent
sammens
udløb
exemplarer
torvet
amalie
agtes
mode
spidsen
udnæ
betragt
fede
gartner
##børn
pilestrædet
mæl
skiøn
fængs
##ingsret
udebli
fond
lou
seier
##veir
profession
qval
cron
ond
##kiel
sognekal
jagten
##vnte
udfald
esc
regieringen
foretage
forblive
erke
sedl
fust
##meligt
borgemester
beder
##gelser
molt
##marks
exam
mærke
russerne
middelfart
portugis
fornu
commando
møllers
pud
frat
lauri
ministerium
assureret
##ugten
##elling
salig
synder
embeder
##hug
##cri
hempel
besynder
fortegnelse
frederiksberg
1815
kaldes
fods
##furt
bras
kna
østersøen
beliggenhed
mariboe
##fold
##skiønt
##ftelse
dal
ærbød
##ørsel
regent
##ftede
##marsch
huusholdning
dækket
cadix
##ilien
##aale
øyesyn
undv
rødt
hjæl
tilgaden
drage
studios
udstædte
##have
##aarne
skor
valgt
jrland
correspo
toldkammer
smede
ak
##uttede
jndenlandske
hansens
savn
##bed
udvik
naad
stædet
forlydende
kab
tilsidst
dampskib
dagligen
druk
87
riga
benytte
tilgode
forstand
gri
skyde
bese
mikkelsdag
##ont
kancel
kaar
##spers
hannover
jndvaanerne
gram
brødre
løbe
##betjent
fordeelagtig
##sa
porto
hørte
##yndere
risen
jb
##ffes
tilstæde
tropperne
1790
lomme
huuset
stænderforsamling
dand
##kne
##ific
forhuus
division
##itatis
hørt
##ørt
hil
humle
henimod
administra
caution
arbeidet
erklære
jæger
##risk
skabe
herskaber
kronprinds
##ners
sidstnævnte
eeg
nytaar
rigtighed
kiøbe
##the
jurgensen
tusinde
vedvar
##agne
86
session
excellence
##rethe
##fæste
1500
schles
schul
tilfal
meddeelte
vidnes
foranlediget
hersker
syntes
overformynder
fælles
magn
afholdte
##bringer
##aterne
hei
vidste
raab
1838
behagelige
arm
kronprindsen
manden
staten
joseph
##cht
kirkes
skjøn
vista
6000
##aadt
skie
skaffe
oprettede
bemældte
forgi
konen
bisko
befandt
asse
98
##iedel
officier
gotters
dobbelte
##sioner
##onne
omstændighederne
skoem
##bal
##garn
taknem
leveret
afgive
##teuren
tæn
##ute
##øers
sjel
##cte
##entz
sind
agtelse
tilende
hatte
sorenskriver
nytorv
søgt
steenkul
anmeldte
græs
103
adressekon
lovligt
fæstningen
##omet
kroe
signet
villet
171
lært
særdeleshed
udsigt
nagel
item
##cke
graae
monar
amb
dragki
##otte
underste
brol
ern
politiet
cento
##ath
damer
1839
feber
udla
nordre
vigtighed
##por
copulerede
anbefaler
##arbeidet
##teres
beskj
bast
nø
anbragt
##eske
græss
##byrd
89
sahl
netop
##endel
kyst
artikler
tallotter
acc
##skarl
##olleur
##helst
indsendt
##major
rend
forven
republik
##mæssig
jer
høitidelig
residentsstad
hoffet
undertegnedes
landeveien
deeltage
duelighed
nødvendige
gie
drive
lykkedes
rode
##ahr
maader
begivenhed
indlagt
fleere
erob
norges
trykp
94
eil
byr
undgaae
##ville
anordning
væsent
plak
##cond
aabnet
##løv
anseelig
91
lave
træde
giøres
hjort
farv
ufort
rettighed
##atus
afbrændte
kiøbesummen
udgjør
kommende
choc
forstkommende
##kiendt
behøves
##kkerne
##mor
##alet
gammelt
bekjendtgjøre
kaldte
mødte
pakke
kiendt
district
birch
##lades
##ums
wester
1794
pulter
skrevet
aflevere
gaver
meste
række
##hiel
##retten
vedbliver
forlangt
recommend
##edt
indeholdende
1797
ubetyde
gesand
aske
gjæstgiver
##yge
##dri
nøie
viing
afreise
kalde
erfaring
bibliothe
undtagelse
##fest
sød
##aaelse
rygtet
regjerings
##tre
befinder
##staae
risengryn
bedæ
trinitatis
##pass
slog
courant
##olade
overv
forestillinger
##viger
##aaler
strømper
batter
conferen
##middel
udt
bær
holdte
brittiske
fig
##nere
blik
##oft
meublerede
fornøielse
bod
##iligheder
philosoph
taffel
heelt
forandringer
linieskibe
reiste
bagsal
nedsat
hjel
slagter
ferdin
vidnesbyrd
matri
opdaget
##reder
##igeres
##lesk
forrette
##øs
provi
rit
hamp
slette
hollænder
kræfter
lovgi
tet
brandkassen
protest
##seil
disses
sidstafvigte
##dersukker
engeland
nedlagt
daa
mistet
mortific
ledsaget
##istrene
alting
##aalen
hensættes
##kningen
forsvare
storbritt
west
##inerede
kiøge
klub
befordringer
fører
bortkalde
uhyre
efterkommes
geheimer
##lens
ley
fløi
departement
tørve
danmarks
skanderborg
græken
stø
##mærket
##fisk
ulykke
opdragelse
opfør
dybt
borsen
##udt
navnet
redac
undersøgelse
øvrighed
reist
##gru
afgjort
premie
sukkere
glem
bekjendtgjort
eengang
guul
verdens
staaet
anmeldelse
##ppet
rbs
opbudsboe
oplø
borch
##tionen
oplys
schøn
udelu
berørte
rigtig
pundet
kur
jldebrand
besø
styrke
meddeler
tilfældet
skrivp
kongeriget
poster
##ilt
1845
##iere
udføre
theatret
hierte
##bere
paafølgende
artiller
langs
opgivet
derværende
fornødent
##diction
cathar
did
stadsrettens
torden
angre
redigeres
uafhæng
bestemme
morges
concert
##obenhavn
ostindien
europæiske
præsidenten
udredes
bestod
erindring
##gave
vers
##eligheder
deputeret
##giske
second
umyndiges
bemægt
diverse
112
##olog
fundne
commissarier
rytter
##hoff
paastaae
befri
frederikshavn
##histor
##ente
stadsretten
##sgaard
kri
110
aftensang
tvergade
vedblive
udsatte
1844
testamente
anmodning
pladsen
krigskibe
##sposten
##corps
##vind
##intet
torve
udrede
ministre
pomperedskab
bivaan
begav
skifteretten
processens
##minde
forlange
løverdags
fødselsdag
compagnies
behageligen
bekiendtgiørelser
resider
hug
collegium
##iis
##blad
givne
##traf
nummere
##lingen
helsingøers
bygningen
manufact
pludselig
##stes
magnus
lagde
ingenlunde
##dringer
mener
##tøi
naturligviis
følgelig
aarsagen
officeer
gli
##deret
##akker
##bef
fir
stub
forundt
underliggende
##giøres
brune
depes
##æld
##manns
redde
kallund
indbunden
kug
udgivne
grækerne
opby
conferentsraad
frankfurt
borte
græsning
##æle
autor
##ham
##øber
sørge
allerhø
æres
beqvemme
##bern
fyrre
dannemark
##fne
##iv
##ytt
udgifter
wor
avisen
modtager
##ansk
vognmagergaden
hjerte
##lement
forlanger
nøds
##ups
faldne
distric
gemal
deslige
bortforpagtning
dateret
ringere
berl
kh
forre
høitide
toldbod
spille
##asen
##com
tjene
paalidelige
magazin
##iist
##ampe
eiere
foust
##mbr
udtal
##gens
skoler
føres
indestaaende
##hj
livets
garnis
##lu
##bringelse
levnetsmidler
weile
fallitboe
drives
plo
forbedrings
skuespiller
stadfæst
svan
heg
##mene
ministrene
badstu
##ænkte
ds
beslag
virkning
skoemager
##stedt
apotheker
bestræbelser
antallet
januari
tilintet
bun
afgrøde
sadel
baller
ansl
andres
testam
tiender
raison
indtraf
forleden
bestemmelser
1798
commissari
##ening
##indende
##kaste
seidel
malet
brus
##sætninger
sørgelige
afdeling
##verede
allerhøist
execut
hiller
##toft
orlog
befuld
haard
bataillon
1791
bekl
ankere
##baand
##kestræde
mord
cancelliet
forsikr
1843
jul
constitueret
refle
tiltræde
stokholm
adressekontoiret
summer
korte
1846
##ttetid
bergens
##melighed
##frihed
morten
parter
leer
bas
##egade
forelæg
meenigheder
sagens
statens
##drene
##ryg
##skrifter
egentlig
udgiveren
staal
sla
qvinde
##isch
commercel
kamre
mette
residerende
##gtige
##oblig
dræbte
qvan
krag
foranførte
omh
##velser
forsamlede
nordamerik
beholde
fægt
fored
1793
##anken
alles
fiolstræde
fuldstændig
octroy
prioritets
tydelig
##dike
rendsborg
##ms
##50
bønner
panel
##isation
##rets
pommer
boutik
tel
befuldmægt
##schau
luften
dram
##ydning
jndbyg
bygget
udsæd
handle
stilles
portra
##ice
##høre
##teren
##dik
system
pæna
personlig
reent
agte
skjeb
173
sætter
avles
understøtte
1840
moltke
linie
##staxt
bortkomne
##anker
overrets
##rop
forseglet
##seng
hvorvidt
vinteren
chocolade
callund
præster
klage
fierdinger
comptoir
sigt
kallundborg
malm
svares
jnds
anbefalinger
fischer
kred
sundet
taxt
besætningen
forebyg
pigen
juul
consumtions
erter
nærmeste
##fogden
rod
##iren
lide
##stykke
lemmer
peber
##plet
##jørn
udtog
bindingsverk
besøg
farve
ep
meier
iv
ommeldte
adjun
dagens
nyttige
myntergaden
##vivl
virke
jis
rap
enkef
geheimeraad
action
enden
jorderne
jnsurgen
billigt
160
frug
hvorhos
røget
part
sognekald
embedsmand
##xic
##ppel
##omst
aud
mandskabet
regnskab
udgjøre
##egaarden
##gav
domkirken
begreb
arbeyde
birket
700
krist
svæ
ypper
##iers
##faste
##ailler
rund
pand
drammen
hellere
litter
ifald
stege
tienst
yttrede
##behandling
bøndergods
##krigs
eiendommene
meddeles
vinduer
priserne
doms
sengesteder
##jutant
pleie
kiøbstæd
studiosus
viingaard
charac
kiøberen
christiansand
##etøi
4re
mathias
jernb
bevæb
fiendtlige
oste
uind
lemvig
coure
attest
lyngbye
cr
plig
stockholm
grundet
hes
istedetfor
jkke
reelle
søndre
materialier
skrivpapiir
wind
døb
##kirke
heft
qvanti
oplysninger
1788
##erte
##vendig
1200
##øttre
vundet
derunder
rigets
favn
##mesteren
tær
tørves
overd
##somt
ple
falder
gyldig
bekiendtgiørende
mur
bogsta
tilfredsst
yderste
##angen
værge
regnegade
riget
anstalter
##our
contoirets
henhører
sar
gevær
planker
svaghed
hvi
real
cabinet
##boes
saaes
petition
fortsættes
##lier
holstebroe
rector
sæbe
deput
mog
##oth
carli
varene
besvar
##mæssige
scheel
veie
callundborg
forpagt
est
bestyrelse
hensigts
##fordret
ner
yttret
udst
formodes
kanni
opmærksom
dannebrogen
##ternes
vaa
samtykke
sluttede
140
skoe
##obs
forfærdige
reel
blaat
##hest
trøst
forsv
##ond
kæm
rester
amtstue
lyder
##anst
##stadt
østersø
anholde
seneste
havet
chal
entre
stam
danzig
ungdom
ele
udsalg
rost
hurtig
antagne
chol
tyl
##bringes
sou
kjøbt
laxegaden
172
rummelig
##venheder
##hertug
udboe
bestilling
portugisiske
formeene
##zer
ministeriet
jndtægt
##tighed
##sters
haarde
badstuest
erlægge
##drage
knab
frankrige
hænde
##skr
ambass
gran
huusholdningen
##annien
otte
##nesen
nødvendigt
reyse
##abler
##fuldt
##mange
etagier
jæg
indførte
graven
udførsel
formaaer
vaanings
##handle
hovedgaards
##bøll
##ligst
live
magistrat
væsen
##igeret
nytter
bøde
flytt
kjende
overeensk
111
##raadet
protocol
##binder
##første
##kynd
dest
kastede
amtet
rask
jam
hengi
ibid
forklaring
plant
##da
ubehag
170
gaderne
##dning
conven
1789
parret
hind
foraar
##rettes
bortstiaalet
opvartning
gott
guldsmed
forkyndelse
leien
lux
##usch
holstein
gyldendal
##fi
indsat
##ugs
barne
spur
tyrkiet
163
byfoged
104
løbet
##øse
døttre
tilsyn
beklæ
udtryk
brandkasse
meddel
panter
##anta
##yser
subscription
kreature
##regi
##smæss
kolding
ophæves
seddel
schulz
studer
forfattet
inderlig
qvart
ialt
nævnes
##stads
##ynt
søges
tørklæder
anført
indløbne
fredericia
nissen
nummer
##uter
brænder
jubel
kiøber
##idem
kaper
contin
##bart
##gangne
offer
##lew
landemærket
##andene
lykkelige
##æves
mynt
##kram
merk
laurvig
straa
arrestanten
fange
##henborg
fordeelagtige
trak
salset
aarhund
læser
fortæller
##ua
##yne
vindovne
lollands
overmaade
fartøier
kiød
godset
auctionerne
##ient
sæt
kiøn
105
forstyr
jesper
undlade
døren
jessen
##istrædet
femte
flasker
stedets
has
gage
daniel
bødker
##aarup
papirer
##smaade
skræders
97
##erske
deriblandt
opstand
choler
boutiken
arriveret
##raham
rescri
semin
forat
uorden
skatte
baden
universitetet
bortsol
opdagede
lede
umyndige
##ack
anton
##tiende
##lau
##visor
##orvet
mangler
esp
vendte
fuldstænd
##sætte
##ninge
samler
bill
##bogen
kiøkk
opposition
konges
##fæl
forefindes
sikkre
spar
anmælde
vidtlø
begiæring
seidelin
##heste
charlot
1787
ugen
##dder
skolen
anvendes
coureer
##arm
ballet
forstærk
##ræer
kudsk
stode
amaliegaden
ønsk
##lested
jurisdiction
tøy
formodning
approbation
hielpe
##ple
formode
creat
langeland
##bestyr
tilkiendegive
fkr
aarligen
forenet
##kjendt
obl
amerika
skuur
bidrage
skin
hospitals
sørgeligst
gevinster
abraham
hing
fraværelse
octroyerede
prøver
overdraget
johansen
saar
tunge
køn
##iende
soldat
slig
trond
høim
skiftebehandling
##insk
selskabs
efterfølgende
commercelæster
##ais
neapol
varede
salarium
haugen
enhvers
##kammeret
forbedring
##værelser
viol
##ancer
##lesen
trykpapiir
dybe
1786
stormgaden
wer
væl
wo
foretagende
tallotteriets
##lers
simpel
forhør
sognepræsten
strandgaden
caroline
##ersvend
blaar
kirket
ansku
philip
jsland
##stere
bonden
1841
anseer
kommand
salsetage
protocoller
besidder
rulle
toul
gevinst
afgik
##erup
cri
ning
##gaarde
omegn
new
udenlands
falsters
reform
leiligheder
hamborger
solgte
162
##ong
##giel
##pperne
greven
overbeviist
##stæder
berettiget
##elsens
ringeste
##aften
landhuus
forene
##skat
opfordring
##kam
regierings
trævare
1842
##sdatter
grundsætninger
cur
takke
adsp
sæder
##handlede
otto
##elandet
fregatten
warschau
fyenske
elever
##hing
forbud
blæ
gudst
bolig
landvæsens
opmuntr
laanet
##gjørende
majests
sønderborg
planen
nationalbank
##aus
polske
sælgende
supp
mund
italien
veil
##antere
rigsdaler
##bon
afsendt
gjøres
sydlige
tyk
##elen
couleurer
kunnet
midten
hastig
##stræn
egentlige
vigtig
fan
bulow
wedel
mægt
kiør
lisp
skjebne
lofter
margrethe
forøget
##esch
ritmester
værdig
sterl
holden
foregi
ambassade
forskaffe
qvi
fartøi
glim
christine
rich
overst
khvn
##wig
##drer
bygge
##egnede
america
##kernes
løve
befordre
hoverie
##ink
plankeværk
forsendelse
tillagt
volden
iblant
more
kaldede
desto
huusholder
opføres
opfylde
matt
stige
opbyde
falden
polen
kjære
dipl
##vol
qvantitet
bekiendtgiør
vandt
##omhelst
advarsel
passe
overlades
lærreder
latinske
sligt
liber
forgiæves
stak
beregnet
##stevnte
106
guine
kiøbmands
skidenstræde
imøde
cammer
nøg
wand
haagen
bero
ufors
aggershuus
udø
indføres
recommendationer
125
##gele
udnævnte
eens
##stande
##endahl
grove
velsig
ankl
mandspers
aner
kysten
velsign
##lar
ordinaire
rygter
##ader
generalmajor
ministeren
hertugdømmerne
##chs
prædik
grækenland
##fast
malede
fru
behørige
nødt
snee
foder
godser
fleischer
kyster
steentøi
kors
disp
1847
hjælp
fineste
##ressen
vesterport
dennem
1785
illum
##aarsag
lovens
begivenheder
eed
nyekiøbing
sjælland
##breve
ufortøvet
falske
udfordres
forbund
hertugdomm
kjendt
prindsensgade
livstid
urigt
angrebet
provin
1784
statsraad
udenbyes
nabo
dort
##bygningen
hvedemeel
efterladenskaber
betænkning
10000
forveien
befordring
conc
tar
forsø
løbende
allierede
obser
compagniet
tilfredshed
##komster
opsl
buxer
liter
reddet
##gelsen
bindingsværks
saltet
stiftsprovst
##velsen
skylder
jnteressentere
redigeret
virkelige
koe
bleg
subskriben
haandværks
afskaff
capitaler
##iender
floden
skaan
ferdinand
slæt
vild
gottersgaden
dine
anordnede
ulykkelig
mørk
udgive
qvitter
chur
anholdt
pon
fyrste
fortsætte
høyt
folkes
avl
justiti
sælger
heiberg
potter
beskyttelse
svaret
kiste
betrag
udført
lauen
frist
haugeplads
indløse
pair
##jomf
sandt
underrettet
foraaret
mandags
nordsøen
mangle
controlleur
schr
##redskab
bogbinder
bræn
udkommer
værdige
tyve
ventede
##adr
roes
forpligt
jndboe
formen
asseur
##raae
frederiksborg
klareboderne
taal
hjul
klædes
directe
levet
kjøbesummen
##stings
##gjorte
1783
skriftlig
haderslev
##gaars
ansigt
gust
ah
chirurg
hobroe
bestemmes
##ædvan
hessen
beqvemt
##skir
pulterkammer
##skolen
wur
phy
##sels
vished
win
bekym
bonaparte
##ydet
cassen
##rive
jgaar
##tenborg
mulct
fun
132
befry
foer
##teredes
arresteret
bco
fuldt
dragon
118
uhrmager
almindeligt
onde
almeen
forgyldte
diplom
mest
lyd
skudt
brugelige
##ktøi
tegning
toldboden
bønderne
rosenborg
##herred
lyde
##heim
udkomme
heftig
opbudet
ladningen
udbre
overeenskomst
slesvigske
knapper
skades
##oster
##inair
indkommen
undersøge
banken
varde
yderst
usædvan
##hørende
efterladenskab
skibene
tilføi
caffebønner
decret
børns
beord
løse
skilder
reflecter
ten
##asselotter
20000
blant
##lyst
besatte
##uttet
politik
fryg
riger
##jente
qvæst
fastsat
skove
salling
medborgere
wordingborg
kalder
##bier
cortes
tanke
jndtægter
præc
kammeret
##egnen
bortreise
##aaen
tønden
138
lieuten
go
manufactur
klokker
##skole
miguel
talrig
couleur
##orgen
##ley
kaaber
talrige
sultanen
##antum
toug
kierlighed
paasee
##iret
jndby
riber
bene
hannem
farvegaden
##bor
helliggeiststræde
##isere
krigsraad
evig
bund
##falde
udbetalt
##tser
##vitt
nogenlunde
##iendom
udkast
hur
efterhaanden
oplyst
invent
##itsch
##seet
udski
udp
alexand
##itution
kons
##econom
sommeren
nogensinde
hovedgaardstaxt
tæ
dyt
##skassen
værker
tvang
lorenz
##ous
##kiendelse
meenighed
efterretningen
lønnen
tilforlade
handlinger
grov
108
ballast
civile
sange
dommer
brussel
##onen
welling
nan
ringkjøbing
cavallerie
erklærer
##itteret
##fyrst
enge
fiel
##dorff
##drende
beboet
nielsens
141
knabro
8000
catechet
##smaalet
liebhaverne
forfærdiget
##asch
rebel
of
præmier
oversættelse
hansdag
ball
green
lister
formind
amtsforvalter
##krigscommissair
kult
aft
bestaar
##arter
indst
handling
ophævet
slaae
sals
oberstlieutenant
baa
endskiønt
anvendt
china
##skrivning
fødsel
hvile
kløver
##iseret
comoed
frede
##igsberg
forbedringshuus
bredgaden
koef
nyere
skoven
##kielder
seyl
jnvent
##ting
jansen
rykkede
es
kjælder
##havere
tient
krudt
ankommet
nyder
bane
stry
marked
høyer
ugift
##plo
herover
##alske
mariager
##beg
##hard
liebhavere
##andre
lovbefal
værket
fortal
tidlig
opgivne
forsigt
tot
##vad
perle
hiint
tabte
bortsolgte
##ancen
##byrdes
##traadte
##idte
##uti
##ønder
kontoir
forskel
samf
skiel
hovedqvarteer
##low
##holske
ærbødigst
##værre
indleveret
høide
forbundne
1777
##inets
##havers
velvil
##æk
stav
kaste
etats
##halv
indkom
##yttet
gields
jndstævnte
kiøbet
##værdighed
pibe
umiddel
##cretair
anstræn
nyligen
qvantum
smerte
spinde
kommission
drift
prædiker
marschal
fadd
bringer
torsk
øe
ringkiøbing
skifterettens
underoffic
fangne
nav
planer
ansatte
##illende
mangfold
overordentlige
##husets
misforn
privilegium
##kastede
afhentes
##ensor
pedersdatter
udsættes
debi
retfærd
fuldkomne
##skon
copiist
belgien
tilbyder
overt
drikke
skot
tørveskiær
##ørg
fornemme
gun
march
128
##kaldt
flæ
greb
archi
##bil
##pler
##yening
fuldmagt
anføres
pist
garde
##marsken
nordlige
overho
##øren
hjemme
laugværge
regimentet
jensdatter
frugter
stifter
##skjøndt
beck
etagie
##stemm
muurmester
høimesse
##elund
nys
angive
rykke
klager
gothenborg
jensens
jndførsel
foranled
michelsen
##anerne
mistede
geomet
sygdomme
stiftamtmand
folks
karle
##ail
aabnede
avling
marskal
porte
##grav
opfyldt
overgaden
anstundende
rosiner
kundet
##kens
##arn
bibel
1782
##oget
vedbør
##medens
sop
malke
##modighed
føle
##moder
underrette
roligt
nationer
son
forandret
nel
stalder
hertugdømmene
pligter
##drup
##ege
vig
forgaars
fortun
afgift
##fader
kirse
forplig
flasken
##ksal
angribe
bøl
politisk
befinde
forsikkrer
forstander
##rand
beretter
kjøre
handles
silkegaden
aabning
betræffende
##kier
##bruun
dim
neut
betænk
sygele
##za
agtede
107
##havet
yderligere
bøg
gouverneur
statstidende
fæe
jde
##raab
entlediget
adressere
styrtede
overbeviisning
gemalinde
##stein
##rel
mahogni
opsat
##aalne
velyndere
sæbye
soc
fav
original
bekræftelse
johann
cita
##aaren
##mme
moss
samle
afben
proklam
americ
kryd
underhuset
tørt
øieblikket
nærmest
##gaaes
marmor
dorthe
reflecterende
121
flad
resterende
kancelli
steent
læsning
brændte
imodtage
ubetydelig
paven
forlagt
chatol
cholera
matroser
##bler
opfordre
comptoiret
helliggeistes
##regiment
optagne
landg
fordær
udbetales
blid
onsdags
debitor
tilslaget
tilbud
paastaaer
leh
arresterede
holbek
planter
yng
fløttetid
##lang
afdelinger
puddersukker
##mati
1780
wulff
beskikkede
monrad
lovet
##forstander
bogtrykkerie
udslet
muursteen
##stet
jydsk
opsigt
trælast
blok
ørsted
gjer
falsk
anvendelse
##undede
landm
formeentlige
charlotte
boghandling
hjørring
kapital
##qver
bedst
oprette
landsoverrets
hverandre
nedsatte
fortræ
1773
gaardskarl
##uh
brud
michel
indsende
audien
huusholderske
omegnen
smit
##haverne
indbef
fdk
##ørnsen
##wer
lidelser
confirmation
toge
krone
##kommission
cavaller
##fer
kieldere
##iserede
andeel
115
bour
februari
##ppels
casserer
##indede
old
bredt
##fj
##pun
kant
udbrudt
##vningen
vælge
erfaret
assistent
oppeb
haabet
erfarer
bierget
secret
1781
##gjøres
##rit
##yng
indretninger
##garden
dommen
heldig
kirsebær
citadel
vindu
skidenstrædet
##ædle
fædreland
##inspecteur
nørreport
frederichsberggaden
reier
erholder
naturen
1774
##pol
anlægge
heeltag
skonner
udsp
betalte
saaret
##smanden
kjærlighed
hummer
##huuset
udskrift
##ement
actie
opholdende
dannet
evangel
regel
lorenzen
##capitain
##ata
dæm
##condition
næring
engs
else
bevir
stævning
besluttede
dannebrogsmand
##ommel
vent
bist
salget
chatoller
herredscontoir
indre
bonitet
keiserens
nielsdatter
beund
##farten
alderdom
stænderne
beskjæ
skam
kanal
berammede
schweitz
hend
##somhed
passere
sadelmager
syv
frederichsborg
anskaff
præstøe
bart
leip
marti
eierne
mundt
souver
auctionsdirecteur
##rene
lunde
liver
fødder
pants
græsses
frost
##grund
uber
omsider
collection
##linge
geograph
postcontoir
lovene
dræbt
jnspe
uheld
henhold
haag
##æder
hypp
##værn
trykken
liebhaver
##ese
sus
oplæ
absolute
assurance
saaog
kundskaber
skylde
##distri
særskilt
##ksomme
skien
tabet
##siden
agerdyr
skjæb
fædrenelandet
vesten
##ana
##cken
indr
168
bestilt
fæstnings
alter
hæve
dreier
fjendt
##greb
metal
fugle
##osa
fund
116
foreviser
tilkiendegives
beskyld
##isser
larsb
ulov
verk
167
##klædt
sluttes
inddeelt
pederstræde
christenbern
##stri
troskab
fredags
##ungen
1775
vedvarende
brolægger
arn
fyhn
forglem
skifteforvaltere
##kere
kjøbe
sildig
##stol
eskadre
kannikestræde
provindsen
vognen
202
drist
løven
gierning
overra
##gjorde
munter
hyllested
naae
møllesk
berettes
eb
overflødig
etaten
communic
vurderet
vant
krigsminister
##ræder
##gierning
hirschholm
tilbagele
bygnings
broen
tienester
servi
rentekammeret
##haande
hist
##tsch
camp
rundt
mulig
sundbye
udsælges
wall
##oges
##irurg
bogense
##fs
regjeringens
stevning
##pool
indlade
michaelis
##anc
tilskrive
gebro
dol
commis
overlade
pengene
aarets
##numer
udde
aarene
omkostningerne
hospitalet
forliig
##gesen
##ttes
##fel
examen
færdige
fiender
##holden
##agtige
matth
jbrah
dres
cam
##ømmelse
soel
122
antagen
tilstaaet
enhalv
114
gouver
fjerde
zeit
resol
dorothe
faldet
forlag
##øyer
kald
antager
##edning
anvendte
##une
sve
##sler
enker
uforg
brøn
formæl
extr
retsind
udbetaling
keiserl
landhuushold
strænge
##hem
længer
tilstaae
##stilstand
besørge
sygeleie
hertuginden
enkefrue
1776
jbrahim
##bjer
bemærkninger
million
rad
##spil
frankerige
hengivenhed
commod
oprigtig
afske
##oste
inf
lauenborg
##kilde
conrad
sønden
forvente
forsikret
tyver
frid
barcel
committee
##spro
resultat
##onien
værtshuus
batailloner
admiralgaden
##traadt
tirsdags
kbhavn
bibliothek
halsen
anbefale
forsikkret
##mose
luc
knuds
##handlere
erhvervet
siælland
knap
1779
uret
##lærer
udby
opførte
forhandlinger
anmode
prop
overretten
møder
derfore
majestet
jndust
mas
overtræ
##bach
pap
fortsættelse
rønne
mission
##vest
overvei
moni
panelede
matricul
fiskerie
haardt
skrædermester
briggen
ernst
##fød
retskaf
kiøbstæder
aas
forful
##uro
ægypten
adam
extraord
drevet
vordingborg
##brødre
forlæn
samles
##anderende
piber
spare
119
opdagelse
redacteur
herman
indmuret
boede
##fort
##modige
logie
beskadiget
anstænd
italienske
høn
kastet
##kkens
beleir
jesu
##ested
sinde
akadem
##nich
slaaet
naturlige
opsyn
##skabets
creditor
lotteries
lovbefalet
ori
##eldne
endogsaa
østen
iaar
forebygge
gron
##oden
ort
##uleret
forlægger
lag
søgning
##uget
trænge
juridiske
deser
stillede
166
skiftets
##følger
husets
kop
aalb
##mad
##ieg
smig
nøiere
fyrsten
hass
##bryg
dybensgade
heden
1778
kasserer
##læggelse
confirm
svarer
alexander
umage
muelige
dragkister
amerikanske
kjøbstæder
##bund
helsingør
##sid
udsig
roman
##ino
medfølge
skipperen
##minister
søem
jblandt
raae
##terer
regner
tde
glu
forestaae
catt
betingelser
sachsen
##renes
legitimation
sved
officielle
røg
desværre
sopha
maanedlig
##mestere
##ømt
##dde
desaarsag
pøl
##sial
##træn
dorothea
avlsredskaber
skrivning
casser
vine
152
vidne
koste
tapper
uroligheder
udlægshavers
glimrende
historiske
møen
hopper
raisonabel
144
hillerød
adjutant
##lighederne
vesterbroe
##ænkende
sammenlig
stuer
step
tilven
##part
##we
##gtighed
##lager
garnisonen
henri
hirschholms
bage
marse
rott
harver
131
margar
torsdags
kiøben
##rade
bilægger
knippels
husene
knip
##ick
hørkræmmer
113
baaden
##yssel
##væb
##jern
hotel
##brudte
domme
erholdet
katt
##udan
generaler
søes
##kret
garver
decembr
nyheder
rust
##somme
bekjendtgjorte
befol
trappe
bendz
ravn
ris
bierg
##tius
bogstaver
stifte
dyd
chinesiske
betragtninger
hense
##ttede
tildrag
##handelen
etc
omend
veiret
andraget
formelys
portrait
godse
høeg
123
lyksal
##akteer
##telige
raadhuset
jnform
bordeaux
udlægshaver
plynd
infor
grønt
forsyne
forstær
##pil
balle
ibidem
##anti
tam
keyser
kultorvet
bent
##giørelse
##faldende
jordegods
virksom
##ollegi
foranstaltet
druknede
##ork
modtagelse
##vald
skriverstue
vertshuus
jnge
europas
høyhed
##kjær
juel
uges
jndsen
læger
##abil
officiel
trukket
behøvende
forskellige
##anien
##jomfrue
136
følelser
christne
afreist
boendes
##antens
afri
proclamation
beløber
undvigte
##eredes
grændsen
vestervold
##dragne
snedkermester
##tinen
faders
sten
ophævelse
##bøger
behagentlig
paaan
##isterne
tylter
##væsenets
turde
##assens
bror
forordninger
tørv
garnisons
##antinden
##nest
forventes
sidde
udsætte
myndige
jmellem
anseelige
engellænderne
anti
nationen
adjunct
sic
kilde
##uper
##retninger
##mans
torde
##fødte
hvoriblant
tugthuus
neapolit
abon
anstalt
alvorlig
tromp
haandværk
reiersen
ynd
reddede
##uerede
kreaturer
raabte
høyeste
knu
##ssel
skiønt
##antaine
undertiden
træk
attraae
retskafne
##given
deputation
koefoed
##vogne
endt
strædet
overflødighed
foretagne
høker
simple
tales
varm
commoder
parlamentet
døe
bielægger
klog
øje
carlos
fortsat
##høi
##kaldte
dengang
plat
ulden
forligelses
lodsedler
##kun
trævahre
wilse
seb
pariser
fel
indtaget
udseende
##bind
times
gibr
ligefor
##ommet
ero
kobberstykker
forsvarlig
dækketøi
paalagt
klædeboderne
fordeele
thy
##shald
skarp
##teminde
##river
##nep
147
tractat
byer
##smæssig
udbrud
provindsial
mallag
depescher
vien
stkt
oluf
##anks
omv
##cti
agger
valgte
chirur
##oret
##edig
##bogtrykker
vedligeholde
louis
kil
stru
byetingsret
hindre
loftet
stett
allige
##avis
trang
pakker
herregaard
forhindre
fuldkommenhed
materie
frivillige
udbrød
sophia
kønigsberg
ambassadeur
vindovn
##parte
afholde
brandredskab
lagen
pall
tykke
indløben
kaas
kirkens
anlagte
miste
udf
155
gold
##tvivl
##hs
stene
gis
##æringer
begivet
østre
udenlandsk
tjenlig
mortensen
toulon
jyllands
knæ
biskoppen
dragoner
forvis
uddeel
mød
indvortes
gratis
band
udbrede
commissariats
geometrisk
ødelagt
##ændt
folkem
sterling
##aven
desu
corn
##førelse
betragte
vrag
egenskaber
nett
oli
handelens
forresten
jnstitut
##ryn
flam
##auction
##korps
hald
##blik
mangfoldige
parceller
##inerne
bortd
dømte
ansig
durchl
##iteten
indfundet
bryl
paalidelig
tu
konf
jndsendt
nei
##wald
##ører
kobbere
apen
##ahn
##can
lykkes
sjette
overslag
dum
bout
tilhø
skikkelige
tap
bestyrelsen
hjelp
dider
anfører
regler
##beltoft
slutter
##givelse
##møl
eege
marcus
##ordnede
snap
##fabrik
129
pragt
117
indføre
##dømt
##sigelse
anordnet
##øen
annam
støvler
divan
tur
##pu
169
##marken
##steens
##quis
spurgte
brave
flugten
##hov
##nemann
kaffebønner
alligevel
silket
præcise
pøb
udvortes
steds
optage
kjøbstad
moralske
kold
modsatte
mangen
formaal
linde
rothe
##cc
##boder
fortjener
christend
talte
strandede
1771
træffe
jøvrigt
haf
##spun
næg
##haand
skjæn
##øes
flyttedag
vande
christelige
øiemed
stoer
##liam
malling
qvadr
vinkel
##cien
udgave
mallaga
##edte
omløb
tilt
lehn
handler
liim
indbragt
giorte
135
solen
bøgebrænde
forstaae
glæder
locale
taale
varet
hiemme
miner
storbrittannien
bevægelser
##herren
bortstiaalen
forefalder
##husene
kornvarer
##storff
leylighed
herfor
fornemste
lavendel
martini
##ara
indstæ
følelse
##værket
contrib
uforglem
kiøbmænd
uldne
desuagtet
carst
forhaab
adolph
124
ax
forvand
gaardsplads
kulde
omsorg
dos
hestene
giest
##vnet
førstnævnte
baghuset
##deligt
samvitt
billetterne
##altar
fulden
amter
erichsen
domm
##alminde
proviant
øvrigheden
næstk
ankomme
##neren
sigende
mann
##virk
indstr
vidner
skild
bortle
accordere
##kelse
høibro
jnstrumenter
vognremise
##aldrende
aande
kjender
standse
galli
erhverve
##ike
indbyrdes
jndre
##dem
horns
rescript
postdage
gieldende
##svend
vedligeholdt
fierding
##tinentier
fortjene
pandt
velgiør
academie
behold
hoveder
forfærdiges
tilsku
tilsendt
haven
slaver
tilkommer
##hoveder
bagger
dø
skand
##ctioner
mexic
fortrinlige
als
##hausen
banke
ubetydelige
##skou
herberg
kjøbenhavnske
continu
sigte
tinglæst
bestillinger
faber
elend
##ieren
vognmand
##ze
rhin
dands
##zar
budolph
##mask
##mouth
bortkommet
favor
cens
hunde
bombar
prædikanterne
##skuur
hauger
hvorfore
##ængden
##ømmet
taarn
reskri
ugr
brevpo
undvig
betryg
petri
tilvenstre
amtmanden
kostbare
glade
candis
hollænderie
bøh
##timod
franz
hørlær
##deløn
137
##eddel
stiftelse
vedbørlig
vr
foreviist
jnsurgenterne
##ffar
ferm
##fod
stund
seeneste
levede
7000
rdl
roe
schum
##yal
eenstemm
gibraltar
postgaarden
kiole
røgede
206
foreløbig
undertry
##ppid
græv
lægges
indtrufne
jversen
omhyg
##quet
augustenborg
torvepriser
##righed
##entin
vak
##bringende
naa
marseille
tænder
##xen
levnet
catharina
formeentlig
imedens
læn
beboede
underkastet
##giørende
retfærdig
four
asp
embed
selskaber
universitets
##indret
##ysen
##dorph
##betaling
vicekon
societ
christiane
##tering
lispund
oeconom
koner
flygtede
133
anføre
henseender
velbe
bach
revent
dødsfaldet
##melsen
##bouti
##yds
indgang
##menterne
##tegnede
bur
kjøkk
orle
herren
besøge
circul
friderichsberg
porcela
bistand
rene
bestille
##orps
hansdatter
indtræde
##vert
##sides
reparation
endskjøndt
raadstu
fabriqve
##hi
noksom
udførte
christi
fortsatte
kramvare
vognremisse
##gik
tide
støb
farlige
neer
avertissementstidende
##bechs
hovedstad
opbygt
##forsi
tilbør
forvalteren
interessen
##aadet
traadte
potte
bemærke
forgyldt
##deland
elm
undersk
if
164
tilhøire
studerende
margaret
##ulte
cass
netteld
lunds
127
protocolleret
begjering
##dags
##schou
presse
yde
koge
##seer
142
bevæbnede
opd
elle
landmanden
forul
236
tilkjobs
borgerlig
colbi
##virke
sødskende
sard
##unge
konstitution
kjøbenhavnsposten
bjerg
##mersken
løgst
trods
fon
dar
mem
efteraar
boglade
debitorerne
birke
##gaaer
givt
##anterie
indfandt
affair
svære
##hlen
amme
endeligen
stettin
anbefales
ilde
kræn
gle
kones
134
##mers
værnet
##cere
stueet
oversv
gribe
schønhe
overhovedet
benz
##skomm
hemmelig
##baad
tour
farlig
kostbar
tælle
stubbe
##berne
formoder
udbredt
endte
comite
exemplar
yttre
benefic
eman
tiltalt
pres
##aarige
brog
##hedral
eierens
bryde
hummergaden
##fæster
kjøbmagergade
husar
##qvi
anordninger
sval
menneskelige
##obligation
retning
##ændte
defensor
indsendte
optrin
buon
urtekram
undersaat
underhandlinger
##rukken
##ros
afsagte
speci
afskeed
leir
nørrev
hensigter
##cred
lofts
tvertimod
napoleons
afseilede
yttringer
aarhundrede
landsmænd
grus
##ssing
##bs
valget
kre
kostet
##hald
flode
falbydes
brasilien
##endal
skjæbne
officierer
characteer
høj
##falder
monark
mandsperson
foruro
nagelfaste
skiær
bass
109
210
##jæl
helbred
resi
##lel
ubekiendt
dannelse
ubekiendte
udlagte
allerførste
##hjem
indkomme
157
gebrokken
trængte
formand
kronprindsesse
majestæter
##strømper
talen
fogderie
##anførte
bevar
barbar
##green
galeasen
jægers
##eski
kareth
deputeredes
beklag
##arie
langvar
rummelige
capita
samlinger
mes
borgmester
uafhængighed
fattigvæsenet
hers
frig
synge
##ventet
from
sognefoged
taks
michelsdag
findeløn
fyldest
brøg
englænderne
simonsen
beboer
##cia
anmærkninger
mølleskyld
159
hover
talt
udføres
holck
legat
beti
flitt
udførelse
fredensborg
forsikkrede
iværks
toft
muret
##veis
kiobenhavn
lyk
pag
korsøer
wandall
##blevne
lauriz
##ftere
ophøre
##ase
nødsaget
røver
jespersen
indsl
holms
forelæs
##landene
##aabe
soldaterne
føler
##handlet
nytaars
herredscontoiret
former
tilveiebringe
##mind
##ladet
##rier
efterdi
prænumer
##bur
hefter
bug
##chef
##spr
##god
##neberg
correspond
my
fornøyelig
900
læsere
grenaae
skræk
ruslands
indvendig
##kiørsel
hval
underholdning
gjæl
betræk
bond
##trud
afsætning
færgestræde
betroe
##vegne
admiralitets
behandlet
udbredte
##kjød
##betale
halvaaret
wellington
klosterstræde
hente
forbunden
raade
##itetet
herredsfog
##skrives
tingsted
fabric
ledsagede
medaille
##skjold
##beks
tiære
magters
fjenden
spis
undvigt
frygter
##haar
erkehertug
sav
ryggen
interessante
gangen
##bygger
comoedie
##kkels
joch
taarer
hævet
udgaaer
hønse
##tende
føie
loge
jndstevnte
afgivt
forbin
værneting
efterskrevne
kopper
berø
liste
velsignelse
traad
feld
##du
vanskelig
##historie
##orno
tum
tingen
maadelig
##lieuten
beyer
##viiste
hidr
beboerne
omgaaes
apenrade
350
nørrevold
stræng
fordum
liget
premierlieutenant
orleans
kronprindsensgade
##lys
##stidenden
roden
rimelig
##sky
honnette
##rak
161
##ada
frygtelig
dren
handelsmand
indtage
pligtig
klart
recommen
##fry
##kund
##tien
petersens
skagen
vey
156
##elsiner
qvinder
##stene
besees
modsat
brødrene
ls
alens
##istrup
gjenstand
##qvir
summen
fur
126
lybek
værdighed
##alle
vanskeligt
amtets
##kopper
salen
cronborg
uvis
##boet
##stænder
vah
overveielse
nyttig
udenrig
fil
##enterne
prom
lum
evne
afreiste
christensdatter
##ensioner
datum
liverpool
ton
indvi
suite
forle
##faldt
aarsager
befuldmægtigede
sens
jordens
ansøg
flæsk
gunder
vadmel
skorsteen
leverance
qvadrat
##of
mayn
bemynd
donau
ligeg
bunden
##erm
##yttes
##ito
##oger
speil
børnene
himlen
omby
165
william
svendsen
canton
forval
stalderum
forvir
vedligeholdelse
russer
gjor
godtgiøre
jnteressent
blads
oplagt
commissions
208
foredrag
budolphi
1770
##ænde
indrykket
keiserinden
larsbjørn
producter
jndbrud
vænge
commissarius
dytmersken
uskyl
opvæ
spek
forfaldne
##strid
midaldrende
##baade
##adte
bekoste
forunde
tilhæng
hemmelige
##jeneste
søg
145
##arup
provisor
bemærkede
kirkegaard
##kteur
##riske
143
schrøder
##viden
##elius
##ættelsen
nationens
kiedel
straffe
bortleie
fortræff
##fiel
conser
158
holdtes
##atisk
grønland
aabenraae
forelæsninger
saamange
drog
230
nes
fustager
##ianske
tilmel
værger
tilsl
registering
##egaards
brændt
brandforsi
perlegryn
livorno
stutter
##selskab
mahoni
146
sygdommen
##brænder
##uns
liebhabernes
islandske
constitutionelle
ordet
jndretninger
##brig
forbedret
tabe
note
##ico
tallet
bemærket
##ulation
angiver
##apar
kirsten
##redte
forbudet
sign
biørn
frygte
bæster
historien
tone
altfor
vove
kattes
ihiel
forte
spær
capitaine
jndtryk
caracter
facon
lode
tand
hov
skriftet
lærere
##las
##arme
timers
fugl
##oneret
appell
fæster
ansaae
ponto
##jo
##ffel
fælled
sidstl
aabenbar
refor
##ikke
linier
jntel
begravelse
belgiske
vext
fremti
udlagt
flaaden
exempler
apper
##ringen
skaal
riig
##dommer
last
mehem
forommel
albert
overformynderie
##yers
overkrigscommissair
udgiør
maskiner
opre
kling
fornødenheder
music
##ive
herskende
afsendte
kiendte
forøvrigt
hage
afst
gouverneuren
genua
henrik
anmeldes
tiltagende
##medaille
sidder
befaler
cancellies
##kener
omhandlede
heil
taknemmelighed
##immel
leipzig
tilstrækkeligt
##ammes
trykkefrihed
sielden
dømme
schiøtt
##ieur
##æden
reserve
forhuset
schu
bester
##riis
foged
meldte
##itterede
osten
##drede
matr
ejus
skilderier
overgade
vildt
sprang
##iern
gienstand
fortet
congo
runde
frankrigs
##irede
gid
vestre
##car
vasker
brændeviinsværk
tiendeydende
beklage
##næs
##kiedel
sendes
260
beskytte
##gaaede
12000
##slag
enige
trib
consistor
185
##nesk
hviler
viisdom
gustav
haft
beskyl
kugler
rati
##fred
pest
emplo
udnævne
forfattede
bourde
angivelse
fægtning
dresden
##drages
passage
afgifter
officer
herligheder
154
##derup
omhæng
franskes
oplyste
199
##klar
søgende
retskaff
districts
##oure
mulige
classes
##balle
krøl
capitainen
arvefæste
brem
pin
##feber
##ræes
##sche
veier
collegio
##værdigt
oster
kynd
forste
##ensid
samtale
##ynde
##huusgaden
##rere
##ingo
kjendte
committeen
barnepige
mou
oberste
lovise
commandant
exer
repræsentanter
##sætter
##osedler
personel
fattiges
##entligen
vender
anderledes
brystet
chinesisk
opbragt
litteratur
foruly
153
rende
kornvare
bekiendtgjor
##tagelsen
##øst
sever
##skirken
leverer
brunsviger
høis
##blev
bloch
indtræffe
kla
fulgt
##arvinger
raadet
støde
efterlade
bærer
contoirs
giestgiver
upaa
elskelige
kreds
avlings
lil
148
boute
##vang
befandtes
fangen
hads
nægte
##konsten
rheden
grø
##ømte
nid
forøge
##rups
usand
troppers
schweiz
uvi
hartvig
konditionerne
nøiagt
##ropper
patriotiske
bivaane
vendt
billed
151
diam
jndbydelse
salom
skoleholder
middelhavet
##broder
sultan
kassen
paan
øren
##gaa
##lugt
##quen
barsel
buntzen
frøe
reda
legeme
debatter
charlottenborg
øde
ali
daler
generalpost
mindst
dandse
##støber
##byegaard
skiftekommission
expeditionen
morsøe
religions
hindringer
##ask
laane
grundig
paar
formaae
anliggende
foraarsaget
##aader
parlament
arr
alvorlige
##befalings
indlevere
##betient
oftere
veiledning
tildragelser
##kru
egyp
linn
fortiene
anviist
befrygte
moniteuren
afhæn
ald
##høker
drev
##lov
betimelig
##tioner
rose
##baarne
tex
had
kiøbere
exammen
borgerne
##lidte
forber
##repræsent
medlemmerne
henlagt
brunsvig
svage
egenskab
##ligemaade
pedersens
collegiet
vurdering
plakaten
diderich
overværelse
regninger
rugmeel
panthaver
staters
fødsels
gammelstrand
plou
bogs
musikal
heder
convo
qvægtiende
tvist
aftale
tilveiebringelse
##kiød
bade
udlo
hænderne
139
##dalen
tyrkisk
bedrager
roh
udfaldet
##atis
tilstillet
berettigede
traf
øre
forret
##sko
stervboens
anbet
tilskuer
stre
lispd
##pter
aabenraa
forskjellig
stakit
styrmand
trom
##væg
##læge
dannede
indeholdt
##smaale
efterretningerne
desfor
mens
stum
stræde
deeling
bevare
##avl
almuen
##sstræde
##iano
ulrich
munition
kapit
barnet
ef
forbrydelse
jndtæg
nik
##kende
riges
modtagne
priiser
##aur
##qvet
##ctions
valen
forbeholder
##handles
sognet
pigekammer
ener
##anes
kiø
tdn
ugeviis
##kretair
etabler
lykøn
lak
caracteer
##conditionerne
ledsage
##nerne
bestri
##damer
upass
will
regnes
uniform
uforglemmelige
nedlagte
##aveer
underretter
testament
vedvarer
##uller
bestemmer
##fterretninger
kongsberg
##igo
svedsker
fortiden
herberget
1772
classelotter
solid
omst
escadre
rottbøll
##ris
flygt
rhinen
forundte
bytte
fredens
englands
guldberg
justitz
indsendes
##kunsten
hessel
##gjer
behandle
anslaaes
skadesløs
beløbe
##elskab
kapellan
fremlagt
justitskassen
foreningen
lamp
malerier
langes
afgiøre
fryd
klein
kjøbmænd
ran
ualminde
##kedet
skifteforvalteren
pakhuse
toldbodgaden
##unget
indest
udgjorde
faderen
##inien
trøie
septembr
jndskud
240
##orph
##iernes
christenbernik
hamburg
branden
sundheds
teleg
##orff
krigst
udbredelse
##læder
mech
bisp
wes
uund
samsøe
tilhængere
tillaans
##æres
speciess
lubeck
wands
forsikrer
eilande
mistænk
opmuntring
novembr
eie
brill
pantecred
##arbeider
retfærdighed
skrækkelig
talg
foustager
venedig
qvarantaine
degn
sidebygning
sengklæder
bestilles
erkjendt
træf
##hon
lettere
brevposterne
colbiørnsen
tilstaaes
opslagne
dantz
##issing
##assessor
##brev
tilføiende
royal
211
byrde
qvittering
afskediget
kiære
207
##stæds
mold
##elsers
ungdommen
kronprindsens
hovedstadens
uopsig
vinkeltag
selveiergaard
republiken
soldin
forliis
hein
executores
utro
badstuestræde
##inch
mørch
##attes
tilbaget
##garde
##ppidan
formynder
##ssecretair
forelagt
##erie
ovenanførte
##ænkt
rigsbanks
##dingen
allevegne
betydning
##lav
director
cold
rens
lun
bark
paschaen
landeiendom
nar
imodtages
averterede
mønter
##stiske
classer
##fjorden
opdagelsen
kryds
tillades
eli
suff
##vært
##endeel
##sin
##ingsværk
mærkværdige
gyld
##quist
tønsberg
udgivter
agende
aarh
spørgsmaalet
slem
persona
stadfæstet
neergaard
svane
formelig
størr
bourdeaux
asm
busch
glad
fløde
forbig
meub
beregning
troet
forsikkre
glands
jhænde
##beretning
bold
bare
pigebørn
afgiver
loe
karet
mont
##nytt
stang
cub
##iler
anerkj
skibets
viingaardstræde
vens
veyen
kaval
flaske
##enz
##træde
tilover
lieutn
fed
behageligt
fortælles
addressere
glar
mild
vask
vaske
ordens
sym
mennesket
vexler
jnteressenterne
udbr
borttaget
indsee
##antet
bille
grundt
kog
disci
stabel
fremvise
##hatte
omf
hesten
bekostninger
etages
stærkere
fortro
troes
størstedelen
##gaardens
fremgangsmaade
kjøkkentøi
spi
##temberg
høitidelighed
aabent
tilendebragt
##lona
blandet
sagfører
firma
##tze
##sy
##diner
masse
##essionen
pel
durchla
##rom
privilegeret
##ktor
tildragelse
romerske
snarere
lamme
##ination
mandfolk
udvand
220
ottom
pølser
##ming
##jenesten
datters
licitations
##kamre
sunde
##liget
overladt
opfordret
steens
ansættes
##erslev
##ække
chor
skikket
indgaae
flod
krigens
udfærdig
##kors
tyv
nordiske
henr
tegnet
christensens
plouge
mødet
stormen
bjerge
overgivet
canalen
munchen
seile
digter
##ærværdighed
##roede
skeede
kampen
##ceraad
falbe
værdi
indtruffen
2500
helsingøersgaden
domingo
forlæggeren
##lydende
ditmarsken
afgivter
brorson
sviger
jom
forvar
præten
frugtbar
##ban
porcelains
capel
friderichs
slave
tidens
synderlig
leth
publication
jnstrument
psal
##ram
##beste
sandsynligviis
older
fordrer
betiente
allerhøistsamme
forden
##lach
##lags
##ends
tænker
cord
##stæd
halvaar
halvdelen
forpagteren
erobret
##skontoir
aarg
truffet
##søgende
grevinde
forventning
efterly
clem
veg
##yning
magister
##ceret
##leth
marschere
rosenkr
meddelelse
##ect
##lunds
##been
subscriben
princip
holl
##tegning
hids
søm
mathem
druknet
##witz
212
usædvanlig
bot
stemning
tilhørte
rov
tresch
vestlige
vanskeligheder
ree
beære
gammeltorv
les
teglgaard
fonds
listen
forfly
mærkeligt
jndbyggere
mehemed
##so
tidsrum
201
##thor
hemp
lærreds
bayern
corvet
byeskriver
inst
ordentlige
favorable
appertinentier
nederlag
schmid
##skridt
##tegaden
mikkel
##kort
brest
viiste
candidat
bitter
franskmændene
udbragt
##qvæg
medicin
udnævnes
anskuelser
fris
underkaste
stødte
actionen
##ini
anmodet
sænge
beskadigede
conference
borgerrepræsent
harmon
urteboden
forommeldte
duelige
leyen
vaar
andersens
cardin
studiistræde
beskjæft
altsammen
palais
nødvendighed
væver
ladninger
spids
smyr
skilderie
vægge
cere
ovenstaaende
chem
nysted
historisk
opnaae
ungkarl
sædvanligt
birg
citadellet
directeurer
erstatte
uvil
afb
æv
talrigt
fuldbyr
besøgt
angives
hiøring
jndkomster
##uhre
avan
##farende
byetings
forsamlinger
haandbog
logerer
arch
trakt
##dommens
commoditeter
medbragt
portofrie
##straf
vit
forsikring
prinz
snapsting
##edskaber
##priserne
skrivter
antoni
##øgende
##ete
mænds
lægger
brøndstræde
jndfald
væsentlige
løfte
afhandlinger
medfører
udarbeidet
trium
kiøre
beviist
##gener
lovede
oversigt
juridisk
ugeblad
sebast
disposition
budet
evige
##ensch
bemærkning
generalen
forandre
tagsteen
bierre
angel
bram
discus
skomagermester
brændel
rugen
blye
opbrænd
fen
brysts
kjobenhavn
festen
schj
omring
landhuusholdnings
##istiske
seilede
jnfanteriet
##quer
blan
beboelses
fortællinger
jak
rabat
executor
skik
betingelse
##ilden
lavere
forføl
faare
forekommer
bjerget
resident
exemplaret
sølvgaden
baglast
##forening
reqvir
##aand
218
##raft
uddeelt
hiemkommen
communal
##strups
uhel
schow
hom
kjøbstads
landmænd
##dera
resultatet
hagen
forstærkning
##admiral
skadelige
##rine
milde
gjem
flade
regul
englænder
fremlagte
mons
skolens
##skiøndt
leverancen
endda
holstensk
opbygget
skyg
statholder
tilovers
undervise
auktions
erindres
forsæt
fødde
belagt
##mal
berøvet
oprettes
cabinets
udtrykkelig
not
hidtilværende
studenter
##lande
##præsi
latter
uble
##ziger
ridende
rigsbankdaler
##regel
opraabes
##oss
bielker
baroniet
censur
optages
##barn
ratific
##sees
galt
rid
##dug
kjød
herlige
trykker
aflægges
forbere
bortløb
transpor
udvikling
##vexling
omvurder
indgaaet
approberet
talent
nogenledes
udgaae
udstedt
fædrelandets
tillægges
gjel
##keret
##tik
rapp
##smo
237
redning
##hoe
liberale
gluck
##lementet
misbrug
bevæge
overleveret
faret
##kiøn
##række
begyndes
høsten
øvre
renterne
##modig
anmærkes
sjelden
nedsætte
kleins
raps
neutral
agtet
personlige
190
tonder
ceremon
##skriv
mir
endelige
klosterstrædet
collecteurer
crimin
færdighed
##holdelig
anmæl
sur
##recht
##anniske
skjønt
fortælle
fabrique
ordenen
kirkestræde
ebeltoft
lyset
christiansands
vakt
kiender
statsminister
##tofte
sindel
larsens
##selige
lider
forpagtnings
1848
fiende
sammensvær
neapolitanske
rub
##chal
tyrker
batav
fornuft
udskrivt
lehmann
æn
huusmænd
formening
forkastet
gielde
ovn
islandsk
##inter
høibroplads
daad
benene
vigtigt
pig
rob
gaase
betragtes
209
daar
brøgger
pyr
##afgi
laas
elmquist
anseelse
underdan
paat
theologiske
##kers
skraa
daglige
aldrende
kræmmer
aast
elsket
foresp
klip
omliggende
efterret
jochum
taus
hysken
siællands
lystspil
##commissionen
conn
navnligen
with
##stemmelse
##hvidt
##bjerg
##miner
overgive
##ugle
author
rei
mærkede
misly
get
##bølle
##dsv
tilhøre
opkom
##ides
##vennen
1769
fløy
drivt
rosengaarden
fladstrand
streng
svagheder
indleveres
##lidende
aparte
##dentligt
frelse
lyon
stiftelsen
foranstalte
ansøgninger
hensigten
lagte
dragkiste
##stegn
avlet
adressecom
kummer
spekhøker
speciessedler
##ining
næringsvei
##dske
navar
flytte
creature
ender
##horende
race
mælder
##selen
ivrig
annammelse
udtale
30000
##icus
bendix
##atningen
testamenti
melis
armees
marine
fremskridt
helt
klædt
østersøiske
##omiske
søer
##isset
##ston
##ælv
jndlever
opføre
##blade
kruse
wurtemberg
taksigelse
armeens
konditioner
repræsentant
prak
##alier
udaf
bræde
succ
henrichsen
bekiendtgjøres
landmand
burg
brigade
##haveren
##tidenden
wiener
protocollen
røn
banc
skrevne
fah
evigheden
dist
befæst
uleilighed
##borde
##user
landgang
kabinet
forskrevne
fogh
opnaaet
rel
##do
ir
lysthuus
kornet
##antes
jonas
anfør
linden
tig
respe
alexandrien
forslaget
193
garden
agen
witt
##elands
undlader
trondhiem
uveir
degne
##apartes
adri
kostede
dramatiske
149
##egen
preussisk
##hovder
schønheyder
rammer
##its
hersleb
ondt
nordamerika
societet
leop
##budne
##redt
bly
jndsenderen
omtale
benzon
##lyng
kaab
sydamer
1600
forundring
##ktøy
##stald
##slager
bekom
##dorf
ræd
spørge
beordret
elskelig
luxdorph
afgjøre
collect
birks
eskad
fremfor
##sfor
afseiler
foreslaaet
##ira
indgivet
meente
##jæger
jernbane
smyrna
##ava
generallieutenant
rigsbanktegn
##ationerne
##felt
bortgaaet
##lot
sandheden
pram
##falden
yd
ambe
##directionen
forbrudt
##mentet
brab
rentekammers
øres
nedre
snesen
tilkjendegive
##floden
oplæste
191
peru
hertugdommene
kalve
kjøberen
ploug
besidde
giertrud
udkastet
kokk
privilegier
erkeb
dub
15000
treschow
island
tilkomme
brændekammer
bliktøi
##boed
##ude
jnger
##skiær
myndt
morea
johnsen
mistanke
##hardt
desforuden
uen
##tich
bemægtiget
jsaa
##vaa
hold
hestem
durchlauch
forsamlings
##gefær
tav
befale
opgives
sale
dup
##skind
mahognie
##edie
gunstige
ihænde
læste
revolutionen
##vesk
extraret
##nød
asseureret
##mindste
besætte
viingaardstrædet
##anstalt
observ
##umenter
##urier
afgaaen
mønster
##stør
kjøn
oppebør
##hugger
##fjer
straffes
##øielig
corpor
dus
244
##yndt
grammati
jernp
##stat
idømte
almu
tilgodehavende
spiis
duc
maskine
adelige
enth
patent
hendrich
ach
øerne
henning
sluppen
##vars
##olie
undertegnet
befalinger
jndgangen
enkemad
stiftsbogtrykker
interessant
udbetale
mortifications
fried
stiftstidende
frederiksberggaden
græve
opfyldte
cadet
buen
frederichshald
strandet
folkene
boghandlere
lysgaard
thorvald
strækning
prac
neste
afstand
indrette
##udne
kiøbstæds
##søgte
panteobligation
##virkning
##agelse
offentligt
extract
grave
appelsiner
arbeidere
skje
kiøbenh
ventet
vandel
klø
vække
tilkiendegivet
yngre
hingst
##kost
##ødet
kiendelse
punkter
etagen
auctionsconditionerne
helbre
ulfeld
undskyl
##sar
##ienborg
iaften
forskud
punkt
betient
rykket
slippen
landsbyen
##bryggers
engl
commissioner
##ichmann
foretagender
fornyet
raffina
##80
ansigtet
tilførsel
udfordr
livres
stavanger
##forsamlingen
##ky
erobrede
jm
##komment
205
fortælling
dronningensgade
list
moderen
gielder
licitationen
udvalg
baum
boen
chefen
hviid
naaet
penges
udfly
befunden
skaff
##itzer
boutiqven
vedligeholdte
##mældte
##hm
synd
friehed
##ettes
##acher
##bol
forpligtelse
roth
truede
kattesundet
##fælde
medhold
##søgt
udgaaede
indstrandede
##ces
digt
##ariske
oversk
##ignok
rudkjøbing
##achen
##bringelsen
dorthea
kanter
opera
##ævnt
forsegling
forbedrede
##legge
##orten
torvegaden
confer
angivet
##dtes
schal
##achim
naadigst
187
boelig
jnformation
gel
hasle
caroliner
cirk
event
østers
skotland
munden
undersøgelser
schiø
fædreneland
gaaende
##kn
tørklæde
cappel
røm
borgen
kjerteminde
##ssels
##drog
tilbagekomst
salomon
##edage
zu
fron
syening
##iesen
worm
##ib
americanske
umuligt
##givende
bleget
kjøbere
forøges
skolelær
savne
borup
frankerigs
hattemager
##øj
velstand
østerrigerne
##fanger
gaves
glass
##priis
##sammes
##ision
##ligheds
boutel
munk
afsat
##forf
stolt
krogh
mindes
vands
foredr
munke
administration
maale
stemplet
rigtige
fornøyelse
underveis
jordiske
forestille
frif
badstuestrædet
kont
conto
ilede
ønsket
od
##ræe
##adser
dyn
##iber
##rane
marquis
##igr
##ligende
udfor
afgl
afseilet
bevær
arendal
offentligen
huder
smidt
##ollerup
moses
komplet
severin
begunst
actors
bebre
tyven
##yttere
tilhorende
administrationen
nagelfast
jndry
behandles
mæ
bres
fiendens
berigt
knut
##løst
pau
færø
glarmester
nydt
nestkommende
løgstøer
families
bagge
rasmu
arg
rigtignok
ancher
hassing
magas
budskab
afgivet
##drevet
beløbet
leed
jndskræn
##avisen
hertugdømmet
discip
indrettes
fremstilling
ophørt
udgangen
hammerich
uventet
##leren
overhuset
angrebne
erik
gens
##ani
baj
paag
speciel
##lic
stæderne
høil
##ariet
dreyer
befindende
livren
pris
##inding
udbytte
##hier
##viisninger
stempel
tild
mose
uddeele
rhed
broch
beklædt
indenlandsk
##ittre
bortstiaalne
feldttog
bidraget
illumineret
øye
compagniestræde
jakob
ove
##skning
adressen
udvalgte
ifor
gruus
spanierne
redelig
dødens
roelig
##gierninger
constitutionen
brændeloft
velædle
##ymn
##herr
enkemand
jahn
veirmølle
fordres
##veder
##inade
oe
prægtig
bemærker
##lich
##bygninger
sha
yttrer
bortforpagtet
kurve
##nement
champ
proclamatis
skrædersyening
afdrag
anstændigt
medicinske
pati
##sløv
huusjomfrue
triest
moralsk
findet
255
piast
uafbrudt
##ppede
##brevene
skippund
forder
faner
deg
hiul
forbedringer
##maad
##freds
nærmede
uopholdelig
besøgte
decor
nedlægge
##bladet
##hler
adressecontoir
pesten
grændserne
eftertiden
godses
afbetaling
##skjær
kompagn
grundtvig
samment
batterier
keg
##ugaard
196
peri
spaniens
jevn
arket
høv
øll
agerdyrkning
ugrundet
ulfeldsplads
##skar
seletøi
sebastian
læderstrædet
pavelige
prædikener
halvtags
##aniske
oprettelse
qvalitet
fourage
paany
##lien
panden
231
lyksalighed
medbringe
##abl
fattigkasse
pov
##meed
vidende
##hagen
bondegaard
##umb
trappen
vicekongen
##ay
linneds
ov
##vendige
minuter
##øns
##visioner
flot
andersdatter
corresponden
frelser
saltede
##fare
bekjendtgjør
arvingers
godtgjørelse
strømmen
bevidne
pakk
lovgivning
rolle
mene
forsamlet
lød
##aas
stueuhr
stamhuset
trompeter
mahon
ramme
##sset
jldebr
james
skrev
rever
kunstner
sie
hagel
nederlandene
print
buonaparte
christiansen
kaal
##sagt
kour
hoffer
qvær
##løste
færsk
bentz
husum
##smouth
cart
nis
physi
frantz
225
fortegnelsen
corpset
adressecomtoiret
spiller
##rider
oprinde
##lære
cataloger
assurerede
stribet
bombarde
medailler
253
##hans
cathedral
mexico
violin
sære
kane
forsikkring
pontoppidan
##kakkel
laurs
hurtigt
gjenop
couleurte
york
informere
forklare
linieskib
examin
kjøbstæderne
##ritz
186
nyegaard
operationer
revision
nim
dir
##stav
kierul
skrivtlig
selmer
##ultz
##liste
græker
baggaarden
##rone
bevog
fortiener
misforst
grundede
octav
weide
conditor
oversæt
landstings
grundmurede
fiolstrædet
ligeover
ophæve
ventelig
jøder
kiøberne
##ollen
##berger
guineiske
opfyldelse
##ellet
##amtet
forelæggelse
##erson
roligheden
herskede
fuldm
dug
abonnen
gjenstande
tractaten
##isant
bryggers
lighed
gebe
##fried
bedømme
justice
jmod
bortgang
##deling
reskript
wissing
skaden
glædes
reeb
venners
læderstræde
188
forbliver
##aft
dække
tænkemaade
##iendomme
ubetydeligt
mogens
dørre
##igs
##leve
##uss
seild
betrukken
beng
toget
##baaden
##cass
##øyet
masker
gothersgade
tvil
tillagte
taller
nach
forpagtningen
forunder
afholdelse
paafaldende
opoff
studiistrædet
unger
solens
phili
##emod
stokke
brow
##hren
arab
frygtelige
imorgen
gad
rdlrs
havann
formu
kreatur
brah
ziir
elsker
tilstedeværende
aands
hvormeget
armen
tilføie
amalia
pallads
fane
naaede
vatter
skibsleilighed
matthias
disk
portioner
forsl
##ofte
pligtige
leopold
##marskal
voldsom
udrust
audients
befæste
speyle
##pes
compagnier
collegii
iforveien
palmer
ønskeligt
mundtlig
ussing
fatte
fiirk
tart
uddeelte
paataget
##oureer
jndsidder
catharine
staa
hjorth
madam
##ativ
eqvi
østerport
beskyldninger
wøl
##nat
prind
augustii
oprigtige
indgive
tilstrækkelige
afgjørelse
sogneforstander
doct
captain
udleveret
lyb
##adene
stiftets
lds
ophører
fjerne
194
terminer
kniv
orlogs
besynderlig
befolkning
ørum
##kaldet
portsmouth
rigtigt
hager
østlige
oxhovder
paarørende
tilføiede
jarl
corp
trondhjem
gronlandske
##kiste
underhandlingerne
kunster
forvisset
##yndte
loftsrum
yttring
melk
bruger
udgangne
##ungne
snees
##pa
pohl
nyeheder
natura
brændende
politiekammeret
ancien
olding
frel
##deløb
##lænd
##iteur
numer
gundel
grusom
nøiagtig
indsam
steeg
##heftet
bertelsen
kronprindsessegaden
indbragte
takkes
skaane
fli
koch
løber
pop
##torvet
skrækkelige
stændernes
frembringe
##messe
infanterie
tapperhed
ulovlig
muligen
steentøy
virksomme
andresen
detasch
##esses
tilstædeværende
engellænder
skovfoged
allerhøy
geværer
kæmner
virg
forbeholdes
lotteriets
##ilie
holbech
senest
domest
jomfr
skjønneste
rio
egebind
tie
##abet
storkors
kjøber
giæstgiver
subskribenterne
landsbye
esparter
orient
197
anordningerne
232
ubekjendt
tang
##aben
forøgede
226
udgaaet
hofs
fiine
benaadet
skibscapitain
længst
##støi
##vigen
##ppes
tingenes
hæft
lettelse
æbler
vedblev
189
schimmel
blich
##yden
allehaande
herimod
vacc
vesterbro
hoffmann
tilkiendt
opstanden
postvogn
thorup
tilsides
omfang
##oserne
uforand
nikola
enthusi
##tten
franc
blodige
##megj
kysterne
forefaldne
broders
merkur
##qvent
brav
troppe
maadeligt
##erem
##yres
skiørt
galease
fremsatte
##vag
beqvemmelighed
konstantinopel
myrdet
schleswig
aandelige
##inene
tilgaarden
tillod
erlæggelse
sik
anthon
prædike
stalde
høres
##cast
bryggerhuus
##meere
digte
wilhelmine
##odder
warde
solv
nævne
henlagte
ulkegaden
fortsættelsen
meerbemeldte
kiøkkener
søstre
nyekjøbing
stikke
tracteur
thur
forsigtighed
##agers
schack
declar
kniplinger
jndkomne
##ulde
auktionen
joachim
deelt
ungarn
##tu
215
jød
##rod
forhandlingerne
##lefeldt
arvepr
nicolaus
estrup
brugbar
luttich
##stømmer
due
moden
bondepige
##porten
ægtefæl
vaabenstilstand
tvinge
##skommissair
renten
catholske
frivillig
konsul
svig
forsamlingens
##don
overtage
given
slagne
farer
##viede
##tagelser
brudt
residence
originale
udviste
##sager
yndede
tvivler
generalerne
landevei
##indrede
vindues
franskmænd
beslutninger
kleinsmed
eeneste
dad
havte
optog
##agene
##plad
prindsens
storbrit
chirurgus
figur
leje
forskræ
##comptoir
##iche
##sburg
carlisterne
was
pletter
nordamerikanske
committeret
luther
ankers
armeer
handelshuset
skriftlige
raadhuusstræde
hambro
ydm
schier
brygge
##utz
robert
becker
tjenlige
angaae
skyts
rot
##kiendte
conditionerede
##broen
allerbeste
204
leverede
forandrede
##qvarteermester
bety
che
panteret
mast
grader
paulsen
uforsigt
192
221
næs
naturens
convention
##etøier
victor
##befalingsmand
214
skrig
garder
væd
merc
stein
##irer
værten
vestindisk
kolde
træl
jnstitu
jndbyggerne
helsingborg
indskrænke
spd
fallitboes
corf
contract
tømmermester
claudi
sago
mærkværdig
##deler
provindsialstænder
##ai
fortry
##istence
porcellains
sands
kancellie
sinds
postpapiir
literatur
##ivid
##ariat
kløverfrøe
skaber
klasser
##parcel
foreløbigen
liimfjorden
##uv
bey
wandsbeck
ses
##ønde
##eler
venskabelig
buenos
convent
koffar
elskte
woer
##lup
dra
tæller
udre
scho
tienlige
underrettede
afsky
station
##stæderne
##ettigede
##bunden
brude
forbrydelser
##vagten
christenbernikov
exc
ded
prægtige
tilflugt
betiene
##dele
jørgensens
beenklæder
overskud
prag
mærkelige
##øye
landbo
sank
officererne
##somm
antog
qvartaliter
ottende
##ulere
ellen
rent
##foren
middelmaad
##chester
##dels
##endrup
jesui
omkostning
foreskriver
foraarsagede
qvantiteter
opbragte
##dreven
generalst
brugelig
##telser
##gie
høitidelige
knippelsbroe
utræ
##ceer
sags
lærdom
##ors
270
accomm
indfinder
##planker
khavn
byde
erfarede
kiøkkentøi
boglader
##snit
bekymring
erkiendt
vidst
underretten
##iæ
##isc
##betien
mynster
sværd
brager
dragøe
forbundet
hensigtsmæss
forfatterens
##fiord
foranledigede
kanalen
bankens
rasmusen
##qval
forman
235
##skaberne
##othee
mærkelig
holme
##osse
moders
##pede
brandlidte
##ogen
bierge
##isberg
indt
statstidenden
anseete
hauch
rimeligviis
reys
discussion
sab
##ovede
bebu
memel
lyststed
publiceret
iber
##ruer
underviisnings
bielke
##odere
##10
forbunds
##parti
udbragte
storfyrst
billede
195
commande
##betalt
huuslige
gene
##horn
##daa
##ningens
##ariil
skueplads
aftal
forlængst
242
borre
geistlig
kongressen
frigi
##lemann
løg
agerland
deeltag
familien
handsker
frik
berette
flugt
legem
##bra
districter
yngste
tomm
hiemkomne
redu
keiserlig
##fferdt
pomm
escad
velvillie
hob
##chet
julius
forsøgt
herregaards
udstæde
rer
##esløse
formæling
søvn
troeskab
sophaer
hurra
udvalgt
sadt
##idende
bouteiller
ovenmelte
indrykkede
geistligheden
artilleriet
gjød
steden
fornødenhed
##ittr
møntergaden
expr
collin
etatens
##illen
schultz
##kjøn
att
rein
drengen
ecker
henry
redacteuren
opt
undergang
##upt
skjær
cavalleriet
etableret
seen
super
indskud
##kone
guult
bøhmen
møie
rosenkrantz
heldige
forholdsregel
##ument
candidatus
bittre
forskaff
##venner
adelgade
skiftecommissionen
tronhiems
gebeet
stemp
herrens
ømme
therm
##tim
adkomstbrevene
opfordrede
forr
mein
brock
mac
forekommende
gibset
##anne
herredskontoir
oprindelse
hændelse
##vinde
geographie
##ska
tilforordnede
voxne
modtoges
opbygte
##xe
reim
jndigo
thorn
bestyre
udsætter
throne
bevirke
##ligge
##værdie
217
apost
grand
ministerielle
228
vedholdende
conditioneret
lon
eene
##skræ
schlesvig
giorde
nærmer
diplomatiske
##audi
ophævede
talle
figurer
utal
maroc
exp
spørger
##zau
##ryd
hørfrøe
rah
odes
retmæssige
talede
##ahlen
forbemelte
##arbeid
##tænkende
##kud
ansk
213
berner
dreven
skydes
##stolen
##commiss
værtshuusholder
jtze
lib
243
indløbet
sicilien
jldsv
qvartals
udelukkende
nære
sengelig
216
##scher
døbte
anled
sammestæds
bortre
standset
##gam
opfindelse
menneskeer
menneskene
sværtegaden
##derer
##iro
##smændene
uordener
kjørte
sirts
landsoverretten
hverv
tilbudet
linnede
##sund
##haugen
ansættelse
opsp
secondlieutenant
greg
##holdenhed
forstrand
udbetalte
latinsk
matric
omendskiønt
uski
kaabber
vælges
##inget
sæk
caspar
madlav
brasil
anmeldelser
##depu
203
budget
nægtet
ædru
280
dro
fyn
skibsb
nationalbanken
##ablisse
##ois
frygtede
100de
stabell
kragh
medtage
rigsbanksedler
overhaand
øieblikkelig
vinduerne
##bygget
opførelse
souverain
høymesse
undvigelsen
anh
forsikre
##bierg
jørg
foræd
##lidet
##forretninger
udtalt
jndberetning
anbragte
munch
betrokne
tilbagelever
198
blegede
stervboer
ødelagte
foræring
dødelige
##hertugen
enighed
numere
correspondent
stadfæstelse
pedro
##stole
##olin
stænderforsamlingen
holdende
arrestantinden
vilkaarene
udd
undtagne
konget
pistol
##meubler
plakat
bundt
##schirurg
bemægtige
tougværk
grovt
fjorden
kjøbte
##eck
stras
udeblivelse
##olence
belt
afhentet
holmen
zir
oplyse
beholdning
kappe
allerunderdanigste
idelig
dend
anrettet
stuehuus
##wal
##hænd
##kni
direktion
anordningsmæssig
omhyggelig
sterk
claveer
rat
##kreat
styrte
jarlsberg
arrester
tilstille
deeltagende
boutiqve
barcellona
akk
tilstundende
##skudt
thronen
flaa
indrykkes
##ierede
##ians
##stederne
219
halvor
##beskri
asia
stakkels
##ielpe
udførelsen
##skol
##kjendte
træder
indstævnes
spræn
junta
##endi
gundelach
apothek
bevidst
sessionen
piastre
uhre
kancellieraad
sengeliggende
madlavning
videnskabernes
prætens
byggryn
senatet
jndkiørsel
lommet
virkninger
##geant
fordele
portneren
##fen
efternævnte
foreslog
true
##ydelse
##onte
##ederich
forsikkres
jntellig
##curator
##ringe
portens
##brun
capitel
felt
vidtløftig
forfulgte
indkjøb
anstrængelse
##vinge
erkjende
##dsel
forlader
øvelse
livsarvinger
forlegenhed
uan
stød
##vaar
rosenstand
##frygt
##agtede
afleveret
fior
indfri
udtræ
oprørerne
gunstig
vandkonsten
syssels
ladegaard
master
engelænder
ævret
indsatte
luerne
afdeelt
##kyndige
tilforladelig
byder
kiøbstæderne
sorgen
hiørne
commissionairer
##uris
rigsdag
##ments
total
trænger
knabrostræde
størrelser
strikke
trykkende
nederste
sqval
besiddelser
uundgaa
poet
usk
##heds
lovligen
model
torne
regnskabs
stephan
hæfte
stig
fabritius
høje
circ
stødt
##utteral
##haven
vinder
##oven
conseil
studie
##sholm
rotter
##fru
tryg
##ært
glemt
konfir
##maskine
hovedbygning
anførsel
hjertet
len
lune
hegelund
borgermester
sjeldne
ægyptiske
##øiel
##forb
laugs
taaler
##ika
450
nie
##ran
##auditeur
retour
##ørgsel
petersburg
maanedsviis
forpligtet
jægersborg
efterlever
havnene
fril
##akte
velgjørende
snor
1763
vige
væb
omtalt
bayonne
maaden
borgerskab
menneskers
indg
indkommet
##kaldes
hag
non
gierne
blotte
raadhuusstrædet
##inck
virket
iklædt
ryttere
##mb
arbeidsmand
handlet
rasmussens
afbrændt
aaen
underskrevet
rol
vaaningshuus
aanden
hoft
##blaa
befuldmægtiget
bremen
herredømme
sunds
##bibliothe
nøy
haabede
astr
##anstal
krak
vaab
adresser
ruller
##vognen
jean
efteraaret
aaringer
262
sqvalder
jnsdagen
##auer
latin
rasende
fuldstændige
##gs
underviisningen
giød
klæd
byrder
223
boldhuusgaden
kolon
nødvendigheden
krigsministeren
lotto
clar
324
lagener
nyeborg
ordinair
amalienborg
lommeuhr
enig
formanden
commandanten
glat
fuldkomment
##geligt
##mont
venskabelige
eftert
plante
hve
angivne
##ævner
kriger
udførligere
tilfalde
paastaaende
##antning
222
##mægtig
provstie
fyldt
confirmerede
sæby
bevilgede
hidsig
forløbne
landgilde
majestets
ypperlige
antræ
sengen
nathan
fiendtlig
fattet
tilfredsstillende
egebindingsværk
øinene
##ingerne
frataget
##vedkommende
columb
bull
kjøbstæd
grundmuuret
hiørring
jndstilling
paakiendelse
meninger
forsør
siellandske
##eløs
stænger
puncter
læsebog
##magende
giv
karper
forsvars
##stik
kanonskud
skatkammer
opli
##glas
bekræftet
##arisk
ubehagelige
bortdøde
ødelæggelse
taushed
foragt
##gtigt
snaregaden
##nøden
concur
forsøge
eyere
candidater
##obak
bespar
gammelm
poste
remisse
##lemager
aflagde
krigskib
virkeligen
særskilte
ahlefeldt
elendighed
gall
##utning
afsluttet
efterlader
departementet
##egi
endskiøndt
coursen
bliktøy
fordrede
spiseske
opmuntre
frakke
underskrift
lab
ankomsten
##ya
commanderende
##ødende
muse
##ionen
stiaalet
251
##løbet
schel
bekiendtgjørelse
viborger
hjerter
fas
understøttet
##orto
dagle
##gespil
juliane
stadfæste
325
##xøe
indtog
odessa
mob
##forord
amende
jnteresser
bagerovn
pommern
deelte
raffinade
1768
panthavere
sides
forbru
afgaaede
sindelag
osv
sørensens
hurtighed
skadelig
citantens
academiet
utilfreds
hyr
##ysi
fornyelse
eyeren
asien
forfærdigede
ling
brigger
245
færdigt
##armeen
##ria
##ævntes
neu
følte
rummeligt
religi
oprettelsen
emigr
eger
##stilstanden
bestandige
##gild
forfølge
##andsen
lovud
smal
lukkede
fornuftig
bekiendtgiørelses
forfald
overdrev
beholdt
forelægge
##ras
jernkakkel
registeret
kø
opp
##cours
katholske
hadersleb
stervboegaarden
verds
forauction
beroer
eleg
indhegnede
blu
nykiøbing
foss
tømmermand
moldau
##uur
betænkt
##ithe
gienstande
1767
tilslagen
udgift
legitim
1764
winding
wis
##orie
##aarn
bered
catalonien
herlighed
suhr
hull
anskuelse
mægtige
consistorial
fortjente
colonier
begravelses
##stændighed
forefaldet
ængst
##varende
professionen
besee
jeppe
skonnerten
torn
bertel
##kenes
##kister
kours
mec
##aards
persien
udgik
sh
mandens
bevilgning
drevne
##ty
##skrivter
almue
anklagede
huusgierning
nærsom
##vner
attraaer
##xicon
mestere
##arch
præstegaarden
conting
wølfferdt
cassel
dok
tøier
bjørn
formyndere
øvet
kiere
##væhr
længder
##oms
dannes
tilve
unød
##geraad
##airer
sun
barbe
tegninger
sirup
lysekr
accord
uægte
finmark
puder
fortsætter
forbindelser
landsbyer
signal
##psen
hovedbygningen
##stribet
##enburg
hyre
ikkuns
ualmindelig
tilføier
overbevise
støtte
bekommet
vanskelighed
stræb
princ
eider
jø
kutter
utrætt
##dragen
kiøbmagergaden
klokkes
las
sørget
##ttrup
møbleret
nogensomhelst
ayres
videnskabelighed
stilhed
knabrostrædet
tyre
kronen
accommodere
263
tunis
ara
udeblivende
plove
fjendtlige
jngeborg
condolence
slup
occon
gjentagne
liunge
unytt
provsten
##slund
##ches
229
hornbech
louise
pøbelen
##alitet
umiddelbar
larsbjørnsstræde
studs
forbudt
tilføiet
arist
jndb
##gesk
tænkte
skreven
##blods
afleveres
fængslet
vau
wolff
proklama
naturlig
##ilte
thaarup
ædelmodige
formuende
massen
hænge
barm
pohlen
eqvip
uvedkommende
dyne
antonistræde
træffes
indfrie
nødte
jndtog
landt
befundet
hævede
goldamme
opgang
citanterne
##velig
klin
##oule
hæves
##raader
cru
forstaaelse
flygte
transportskibe
handske
indlagte
retmæssig
tørrel
##kkert
udleveres
247
foregaaet
organist
##if
kronborg
tolder
kiøbsted
flindt
religionen
cardinal
##canske
##dalene
##bestyrelsen
nikolai
cancelliraad
beholder
##herrer
udfærdiget
tilhørt
cancellist
krum
udraab
formener
eckern
opvarte
brændsel
##cap
reh
pom
monte
klædekræmmer
tilbragt
domkirke
238
##derede
##ustrup
##ecorps
skjel
angik
##mør
##alder
jndk
tilskuere
fænd
##sæ
##assur
menneskes
##skiør
tiltales
afskaffet
løvstrædet
hyp
tref
bedrø
bundter
tilfredsstille
udstræ
elben
saug
casper
confect
tegnede
herredsskriver
dantzig
flyde
nationale
viss
##eget
opsigelse
##grad
helte
tobaksp
##edagen
supple
stierne
musiken
fugt
ovne
ovenfor
torvegade
pantsat
majoritet
dyrkning
##zow
##district
storherren
klit
tegltag
##alig
indvars
##ægtige
rosenørn
ydermeere
pudersukker
beregnes
huusgeraad
storthing
driver
forbedre
karakteer
wulf
gry
udkræ
vilhelm
slæ
herudi
følgerne
wilders
oxekiød
rudkiøbing
##alp
meierie
ligegyld
afgivne
admiralitetet
skuepladsen
skjænket
svende
canning
paludan
jtalienske
lommetør
vedvare
truende
muus
sørensdatter
kammere
østersøisk
jammer
prise
anbefalet
bruuns
umueligt
kolle
##ægge
1400
silde
bernstorff
gor
##aske
udnævnelse
theer
mærker
oppebie
qvarteermester
tripol
journaler
##nin
vindue
skieppen
opvække
schubo
mage
vinters
udsk
deelen
234
fler
udtalte
##leben
fryden
andrage
##duun
reimuth
##bad
##skammer
velind
indskrænket
krølhaar
iland
##aaber
stiil
kalle
specielle
##arti
herskabs
jama
thye
##neret
anon
amtsprovst
andensteds
hjørne
forholde
pret
udviser
##ahls
dons
##ædre
grækernes
paaskud
gaaede
##zz
indkaldt
##corpset
stivelse
landsdommer
begier
haardna
leon
##øies
kraftig
udvidelse
søde
korns
fortalte
apotheket
bredde
egypten
begave
sønnen
maynz
øvrighedens
huusleilighed
fremkaldt
nicolay
grønsal
hammerum
lykkeligt
40000
levin
ligemeget
##frit
fuldkomneste
##spunkt
##ligger
fornye
aasum
##klenborg
##jerne
alvise
overf
arsen
jndien
##løw
weidemann
vang
wen
##edre
bron
tegner
wr
lovgivende
præses
specific
##gtes
##borger
bogsamling
hierter
betragtet
schle
##præsident
betydenhed
michels
frideriks
pantebogen
taare
##lene
##ftighed
skovrider
fæstninger
hobro
befrie
thiers
kapere
afslaaet
tilbørlig
ahr
overlærer
##søge
debats
anbefalede
##fyrsten
daase
stryge
bancosedler
handelsbetjent
appellanten
##lion
##tegne
vandmølle
##ærværdige
courier
bevæget
fromme
indmu
præsterne
sanger
antvor
##iker
beltet
reparti
storehed
livregiment
saxkjøbing
jndsigt
##adel
meeste
belgi
garanti
kas
##qvarteret
syrien
fyrster
##icip
ophøiede
forskiellig
vises
hæftet
complette
enkemadame
##ussen
##tiv
fremlægge
##hof
233
kirkesanger
##hentede
rigsgj
##maan
netto
gangne
ægtefælle
tilbydes
reventlow
##vagt
markedet
reserver
livrente
westen
provisoriske
##bane
##ellerne
bret
##general
ein
mængden
herredstings
trund
hatt
skaaler
indheftet
egenhænd
carls
resolveret
##dragt
heftige
##ælder
opstillede
bivaanede
##børs
kjøge
meth
skill
##haupt
fartøiet
bæres
vitt
##megen
retskaffen
##fo
buchwald
##agier
afstem
elske
##tidig
sammensværgelse
##fterne
unde
repræ
østerrigsk
directionens
ansvarlig
lavendelstræde
fyrstend
##dahls
lugt
##usens
##rør
ligget
##huuse
yndest
cav
engellands
liebhavernes
##dals
reysende
laant
geistlighed
##estrup
magdalene
bere
tau
pederstrædet
compagniestrædet
them
kos
udstra
leiren
godtgjøre
afgjørende
stiftelser
ordin
congothee
kollegi
krigsfanger
biergede
affaires
udv
ordineret
##friheden
fredelige
forbyde
##ama
udm
grøde
magstræde
overleverede
bastholm
tetens
bordet
fuldstændigt
##lac
##astes
fahr
schiel
sandsynlighed
pladse
rigdom
besynderlige
opdager
adrian
gol
svin
fyldte
skonnert
261
9000
stati
oporto
##prog
uldent
transporter
enkekasse
trediedeel
##aul
udførlig
glemme
##onerede
extraordinaire
krager
aastrup
ii
##rild
paask
skjød
jøde
haug
svinds
samvittighed
cult
##agere
behandlede
mach
svov
##festen
jllum
valla
foresatte
stampe
##tidens
coch
sardinien
##ariilisten
løst
strenge
bayer
besvare
##holdelsen
kieler
fing
rømme
athen
sehest
steget
blodig
kiøbt
ligne
forvaltere
##trykte
mødt
##20
laursen
##yk
indgivne
##deeles
rolige
kokkegaden
##lerød
danner
foraarsage
øyne
stedf
stundom
blide
##klo
male
forglemt
aalborgske
gudme
høns
forsende
huusp
jstand
pensioner
##holdene
danziger
marscherede
gev
patron
udsigter
eiede
udskib
kiøl
tynd
keis
sjeldent
anch
sieldne
##iane
glo
forsvarede
##lsen
thu
##anier
nedgang
afgiv
rohde
sau
##andse
udhuus
værnep
skibsted
tilkjendegivet
udentvivl
munder
sogner
bentzon
kie
municip
uopsigelige
corfu
opdrag
bekiend
kirketiende
lsp
prindser
rødbye
postcontoirer
manglede
svagelighed
befriet
galthen
bortsel
politiets
##mern
lynilden
saakaldede
paatager
udbedes
##indsty
palle
colonial
mortificeret
oplæst
borgerskolen
grebet
wa
hampe
roer
smukkeste
fabricius
snu
sekretair
hyppige
forulykkede
1762
væsentlig
omstæn
spillet
bohn
gardiner
##ora
afseyle
ao
trufne
##egang
bullet
##yldig
##ømmes
høybro
##dieski
blegdam
medføre
##tenberg
foregivende
##dæ
##initi
kjæm
vanille
jndivid
tinghuus
upaatvivl
valencia
##umme
frugthauge
cassa
slaaer
efterleverske
boghvedegryn
wh
efterm
landvæsenet
sabel
##orum
stribede
tilskrevet
##nerup
fortre
scen
vært
##diken
restaur
forsikrede
##ystem
anlægges
madera
sirtser
##nderup
##roen
stegne
nationalgarden
##vox
dublin
##etten
dic
wed
bortløben
calen
##teligen
tienesten
høegh
langvarig
hinder
tapp
netheder
boehave
gesandtskab
fornærmelse
stabs
garnisoner
udstilling
søns
fjerding
##ivider
##ræk
ply
mosa
middelmaadig
##lyde
døl
##mangel
mani
foreslaae
carlsen
fortol
entled
christianshavns
detail
gaarder
billighed
mergel
solide
jdømte
boel
urter
plum
uophør
jnsurre
soe
bevidnelse
beslutte
strandstrædet
øvrigheds
pistoler
jødiske
gaaben
medal
plader
himmelen
##bebo
forben
friheden
behøvede
albrecht
commissionens
conferent
savnet
dyder
margaretha
##ja
indbyde
kate
hængt
tørreloft
benyttet
tilintetgjort
jahnsen
ubes
##pligt
gjensid
medborgeres
hassel
##ano
afmarsch
##alget
##tegnet
vandkunsten
dil
walløe
udrette
værksted
krydse
parterne
vink
tvivle
bourbon
udsted
oftest
##akter
jernbaand
penne
maribo
opløst
depesche
1300
skibsfart
##inav
steg
ballerup
shaw
cic
engbund
retsindige
holbeks
tienest
bure
forhin
##oser
organisation
menneskets
lydighed
##dræ
skolerne
##fars
mægling
samlingen
exister
trans
vægter
boli
halmtorvet
252
fruentim
høistsamme
meddeele
##stilfælde
fedder
made
brag
henret
amnest
bergs
tempel
opførelsen
beleiring
##banen
pleier
regimentsqvarteermester
##elset
hæv
nødlidende
dannebroge
martinique
espartero
anciennet
allarm
skille
boye
tegnebog
##ny
##foed
retterne
billigere
consuler
drew
mede
forholdes
##indighed
weyle
mariebo
rigsbankpenge
gaabense
##dsen
fanøe
lutter
##slet
divisions
forha
trundhiem
jndivider
erfaringer
##gter
efterstaaende
320
orgel
længden
##dalers
udøve
plantet
pynt
##avet
alph
berth
beordrede
##ibe
##kirk
forarbeidet
nørgaard
##ques
anmelder
ypperlig
##nens
##ismus
specie
sildigere
indvik
meldet
høiheder
nørager
tribun
skildring
didhen
pande
##inst
indberet
##ielder
##ettiget
##boutiken
frim
dragt
vover
landmaaler
samfund
sant
##enberg
kaabe
bestræbelse
1761
eyl
udøde
præsen
boutellier
carstensen
lager
udhuse
beretningen
huses
bøggild
tienden
##skilde
marschen
protok
##antiske
bortr
kroner
almind
baaret
rantz
forlode
avant
smid
forordn
##oli
amtsraadet
stormende
tilbyde
sammenligning
emploi
breg
##bonden
truer
fuldendt
gleerup
kiøbmændene
overtrædelse
##ax
##ikon
##ssen
qvier
gjend
##agerne
bry
tings
længsel
parlaments
tilføies
fødes
smertelige
fortunstræde
vikker
sammenkomst
indste
edike
forbittr
kornlo
chalse
halle
henvendt
finger
charge
##fect
dyrebare
forvol
vedtaget
harboe
aarige
broer
udgaaende
arbeidsvogn
rubler
straff
klokkeslet
##ostrup
##ova
congressen
lspd
##varius
ves
meubel
jane
##onsul
##tzer
fordeelagtigt
vertshuusholder
fremstille
skoemagermester
edel
uover
##abe
##bohe
vahrenes
ters
storme
##mit
stamp
fabriker
rosto
##brydelse
fiend
##lis
derforuden
blomst
jndrykkelse
afdeel
ney
##kjørsel
brugen
##peter
##ida
sigtet
forestillet
fiinhed
254
idetmindste
recru
tilkjendegives
hose
modific
bogstav
abor
##ims
sognets
bekræfte
interessere
savnes
jndtægten
bagt
anholdte
frakommen
anstrængelser
##arre
omkomne
prindsessen
vahr
kobbersmed
kuffer
##bemelte
aftægt
barselseng
kjole
ydermere
jordebogen
sevil
draget
kundgjort
assistence
smaat
understøtt
lauget
begravet
opløsning
autoritet
bonapartes
1760
jndustrie
synet
##øbe
seir
herlig
264
fattigvæsen
arriverede
oversatte
constituerede
##brændsel
ducater
antagelse
brækket
skuffer
malta
betroet
kaarde
##skatten
imel
alme
arbej
carstens
qvæ
##no
##pas
schumacher
qværne
##egr
efterlig
afvex
pantecreditorer
oplaget
østerrige
haandværkere
jligemaade
enk
moer
kjøbmands
finantsminister
trykkede
deriblant
stiftamtmanden
kegleb
##hlensch
bestride
grønsaltet
susp
schous
effendi
aflagte
magaziner
cattuner
##rou
stueetagen
straxen
ugunst
birketings
##hær
gudstien
mellemste
##igien
blicher
opraabe
tingstedet
stamme
rie
forretnings
saakaldet
salige
kæ
256
ligner
fremad
##tie
##mærke
brændehuus
myrdede
brænderie
nordvest
madsens
##læng
underrets
eiendomsret
actionens
oval
hansteen
underkast
abel
delin
oprørske
udbeder
koureer
medbragte
##stenen
indrykke
hoveds
matte
jndvend
skrædder
jus
kjøbet
jsenkræmmer
##præst
vedvarede
bøget
50000
husarer
stridende
indbringende
directeurerne
syltede
##skue
folgende
##feldts
nellemann
wig
gifte
##trolleur
jngenieur
##adet
oldermand
afsatte
dardan
brandforsikk
helene
theod
##brændeviin
grøns
engen
##adende
anstille
roser
neum
constantin
remonte
wallach
klasselotter
##lieut
schifter
jnteressenter
##edel
##egger
afbrudt
schol
velgaaende
alliance
erkiende
birker
anbydes
##læsning
syssel
afsjun
ræds
skygge
skede
fordob
ifjor
discipl
##kjer
afsende
erobring
christendom
uforandret
sib
siette
betre
skibsk
rigelig
fæstemand
contoirer
uvidende
astronom
pharm
takkel
tilsalg
annæ
tabeller
billard
guiz
paket
##salen
forestillede
stukket
rørt
##levet
republikens
jndleveringen
fortiet
øjeblik
vaude
forretningerne
gouvern
paalæg
##egning
opfordres
nedsættelse
oversvøm
gemyt
jndian
##kasserer
246
servietter
brevet
overfald
boden
fattigvæsens
gaz
vadmels
uri
##iddende
ords
canon
honor
takker
##kontoir
indløbe
sidesal
ledes
fyrværker
høitideligholdt
trækker
forvaring
wel
græsk
høiærværdighed
paastod
kugle
omgivet
ulykker
hannoverske
##enfor
opfundet
bemyndiget
##fond
##skrig
lexicon
stegen
strømpe
beskreven
forliist
taxten
gas
vovede
træng
opfordrer
brystsyge
##tøy
##gjæl
##strende
sprøi
olesen
##steene
rettere
sidehuset
ce
gymn
lindberg
persiske
folkemængde
retir
jacobsens
havar
aarer
vensyssel
##advocat
jndførelse
fremtid
tagvind
rebellerne
##castle
##dreng
##grunde
##aver
udlænd
herske
##vention
##yldige
tilbagel
##agtelse
distrikt
##odt
##kiske
ligefrem
gudstjeneste
nicol
paaankede
domesti
omhu
opkomst
224
anstal
anstillede
##forhold
##muur
palme
pec
frisere
##opol
beklager
##tidende
blande
tilbudt
jldsvaade
rav
tolden
jnstitution
tydeligt
axel
raadstueskriver
bevis
omt
straffet
udladelser
##go
fornyede
tromle
##cerede
##skums
befordret
sennep
fyensk
blichfeldt
nøieste
frembragt
##ørge
anseeligt
stiftsbogtrykkeriet
opkjøb
##lieb
bangs
forgj
##møllen
durchlauchtighed
mass
wold
myrde
publicums
excell
barbeer
lom
udsagn
studenterne
triumph
##ierer
stænderdepu
##prof
reed
fædre
fortep
henhøre
##kalk
jngers
##uls
prog
valentin
udlaan
tappre
pach
storhertugen
blinde
227
central
forstærke
magdalen
graver
britiske
ungdoms
hegn
usi
##adjutant
opmunt
velsignet
stutterie
correspondence
maalet
trofaste
forbindt
lettelig
misfornøielse
boens
entrepr
##reen
paaviser
kommando
##ordenen
panthaverne
slotspladsen
erlagt
lukket
vadsk
hornemann
fortjent
##dern
følgen
misk
##told
procur
helena
paabudne
tilsendte
mandler
steengier
ærlig
establisse
simpelt
brown
springvand
specul
stræbe
taber
hermann
klædning
bestyrer
avlsgaard
canoner
obligat
##urerne
opva
farverie
##uses
besp
finland
petersborger
jndholdet
maaltid
oppebær
byeting
bj
sme
sælgeren
ejusd
voc
strængeste
uven
##retter
indenfor
bekjendtgiøres
pederhvidt
domstol
lynge
rog
saaet
opbe
tidenden
jndustri
ugentlige
tienerkammer
høyre
farligt
grønlandske
berømmelse
ltr
mure
sadolin
album
personers
kirkegaarden
ugifte
hestestald
blaarlær
liebhaveres
forfulgt
enthusias
fremsat
ryd
tilveiebringelsen
anno
jbsen
stubbekjøbing
suffisant
schmidts
rasch
##sætningen
forestillingen
gifter
drø
skibsliste
overfaldet
parap
næse
dygtig
nationers
philosophiske
jhændehaveren
14000
cort
holstenske
ødelægge
lid
raads
baggesen
##iten
revisor
indtræffer
tallerkener
boul
færre
altonaer
siællandske
cre
vaage
##liv
unægt
239
politieret
uddeeling
##verks
udle
kiers
baag
bande
##sing
##schild
bæ
klever
tilværelse
gjæst
##antser
bygt
fødderne
##brede
##hedens
corresp
##obligationer
peberrod
storhertug
##hvil
afstaae
larsdatter
menigheden
friederich
tilstaaer
indsk
jordskj
stueetage
indleverede
nøgle
matriculeret
vri
##antede
finantserne
##ensburg
turin
efterlod
jndenlandsk
urigtig
indrømme
##ual
medio
strals
##lagen
compet
angreben
underst
jndtræ
bedækket
forbinde
remisser
##agender
brolæggerstræde
nøden
seminar
continuerer
##bens
##18
deyen
forelagte
lutken
upar
eftersp
væxt
urolige
umiddelbart
##avlen
aarstid
værre
siellandsk
sædeland
##hoppe
tilmelde
selveiergaardmand
mars
gruner
hecks
agre
klingberg
tyrkernes
udlevere
nelli
##istrator
##løbende
paabeg
amm
##folkene
##bat
##urendahl
##forløb
##deleshed
tilstanden
løvstræde
hæste
løkke
trag
bøder
##nitz
bentzen
gieder
værdien
gele
forar
noti
##utt
linien
tærende
constant
væger
forbrydere
hatting
##12
christianss
trofast
overlevere
##docum
##eger
jldebranden
sundby
anskaffe
demon
##fieldske
advoc
##villig
statsraadet
herres
beføiet
anciennetet
afsted
madrit
bagage
sac
##stager
gulvet
##arbei
charakteer
lorent
skiæn
ledigt
sultanens
mægtig
underofficerer
mot
andens
pandts
bankebyg
##ee
holberg
bekiendtgjør
delen
##ardt
paagreb
sammel
besked
misbru
##ose
chron
259
feg
##physi
schive
fortiente
##lars
skikke
tilveiebragt
##gangs
velbaarne
sikre
aus
udtagne
aarligt
trætte
veter
##cten
sander
legation
boesen
consumption
##plader
##jyl
finere
porter
##brændte
##leriet
##kloster
bergenske
##rettens
klok
##garns
jdag
nyegade
preussens
##betalte
quar
opvakt
perler
cornelius
jørgens
forvirring
##tienden
anbetroede
249
morder
regieringens
forhaabninger
stan
##kkene
ker
##zel
##chel
dekret
modtagen
sølvtøi
tyrol
##boghandler
entree
wær
##tningen
berettet
samfundet
##upper
fortalt
##møller
##bryde
øvelser
binds
istem
rørende
frues
100000
mikkelbryggers
cassens
jldebrændsel
piges
##nelses
forsiden
##ementer
udarbeide
hænger
tung
kjøbmændene
##spræ
peel
lotteriet
forstyrre
brende
østergaard
##doms
neutr
##igl
jndkjøb
fanget
##arest
mindet
nydelse
##lysning
sagog
hue
macul
grene
##illon
##citanten
udl
##stikker
punct
assistents
eensp
afhæng
skiød
commanden
##indens
hidrøre
siddende
##løshed
seilfærdige
adspredte
endtes
velfærd
dall
##stract
##bager
fattes
scenen
nec
aabner
gent
##eil
trane
kok
ugersdagen
diæ
gevæhr
##passerede
thorvaldsen
##inos
##ierre
rekru
ærøes
anstillet
undersøgt
sæden
belgrad
olsens
france
brummer
289
medli
seilbar
bernhard
bogstaverne
glasset
##øielighed
umyndig
batavia
nations
trone
bortry
blind
glatte
##regne
##okra
fak
##foreningen
##jec
tabende
tanken
nyem
tilstillede
rasede
bestandigt
legems
qvæsthuus
dagleier
##dinge
panelet
kundgjøres
levninger
mældes
forfærdiger
forski
christophersen
fornærmelige
tienstsøgende
##græ
elling
1100
kirkerne
udgiøre
ryberg
afvæb
##ommes
franco
contre
kraftige
stiger
deles
run
storvi
fact
friderichsborg
udstedte
lim
bestal
dræbe
underkastede
commune
steenstrup
uddeles
jernkakkelovne
buden
teglværk
støvring
neger
overstige
forklæde
lavendelstrædet
sagogryn
##laus
udgiven
klokke
##ureur
sergeant
træfning
dybeste
physiske
skuldre
skrædersyning
tiltraadt
##ultet
underhandle
veste
eiendele
##hes
statsp
flyve
vederhæ
smedemester
schlesien
##fag
##øller
##ydede
kjerlighed
stephen
dosin
gluckstadt
scham
mosk
udbreder
##kiendes
valgene
vaabenstilstanden
modtagelsen
godheds
##sternes
udgiv
godsets
gjældende
tes
##cas
hent
opdyr
heed
kathol
velgiører
forestiller
misbil
bryllup
hau
slanger
sverrigs
paaboende
statsgiel
forehavende
enkefru
##borgs
257
restancer
antagelige
##mord
hedevig
forefalde
instru
##umer
vinduet
anmeldelsen
udtagen
theil
tydsklands
oppositionen
blomstrende
mathiesen
##beder
veyr
bandholm
gjest
##ecretair
landmil
paavises
røst
##atten
##roet
amtstuen
##musik
gesandter
fædrenelandets
exerceer
østrup
eftertry
straaet
ørn
berømt
besvaret
forberørte
spadser
krab
regnskaber
voxen
betragter
tyverier
maculatur
hunger
astrup
##legges
mekan
begre
heide
luxem
fortreff
plymouth
##estrædet
dampskibe
kryb
feiltagelse
privatbreve
piem
boels
forskands
##sbes
deling
sandsynligt
flyttedagen
souvera
hempels
lidende
nætter
opbud
koldt
##anternes
sundt
##igjen
##ises
##lius
toldbetjent
##hængende
mandal
dronninglund
##sige
##inspe
alman
##mi
lovfor
lægen
psalme
##ppens
drager
standha
feddersen
dødsboet
kramvahre
degnen
forne
nyeligen
octroierede
set
##leer
##melder
modsætte
indhente
##gersen
##spise
sterv
svært
##kur
truet
indbudne
bagermester
##adeer
viine
bajon
##alog
##aser
veemod
arbeyds
hindring
oplær
gevinsterne
overflødigt
bedækning
proper
voigt
udtrykke
forbenævnte
tvær
##offer
graad
tofte
schiøn
naturligt
foretagelse
academiske
hafver
rieg
brink
prøvet
catechisation
nøgler
forpligtelser
tyveri
ancon
dous
udgifterne
forv
feed
angivelser
monarch
##yse
##essens
frok
qvistgaard
arbeiderne
aarvaa
ledet
stemplede
byefogden
##apirer
bange
##rap
afgiørelse
fortjeneste
contribution
cum
##aarig
underkiendelse
##eligere
udsty
farten
##ieres
tilsig
raske
skiepper
rettes
spørsmaal
hængte
##halm
chirurgiske
##siges
ophørte
##anstalter
##qvid
afhænde
skete
##best
myndighed
rosenborggaden
støder
moti
forbryder
miss
##velige
##frø
himlens
bladene
fjord
telegraph
##orth
pamp
kisten
kartoffel
kapitaler
cancelliets
weg
beeg
vic
brandassur
indbundne
huusholdnings
sevilla
jndfør
plov
gros
zeitung
henriette
faren
kbhvns
janeiro
gende
slum
friderichsberggaden
uskyldige
testammen
jøderne
forholdet
obligationen
ermeldte
udsøgte
vict
jndsig
##vigt
hvormange
blods
krarup
foræret
##ence
##atz
syltet
erkebisk
##arerne
afhandle
nedsættes
deichmann
junior
gude
##ikestræde
##deriet
##buske
billen
paagiel
paategning
nyested
248
rasmusdatter
skraas
sindet
liin
jule
bedrøv
anhang
dettes
##vnede
foruds
dollars
##dy
sølvbes
gers
slæde
lug
tilsynel
junker
hertz
guddomm
appel
##atol
vanskelige
##agens
ejer
tilfalder
væddeløb
muursvend
arrestere
##ember
gavnlig
bam
##indstyve
nels
manchester
weil
forefaldt
tænkt
267
borgerskabet
position
ginding
##angi
gjæster
##lauget
regierende
urolighederne
##inere
bilba
sachsiske
##kkedes
##falds
stykkeviis
verdslige
kne
##blommer
medlidenhed
nævner
munster
adler
##stemmende
mulkt
materier
##nyttige
devise
sagerne
faj
strandbred
samvittigheds
##holtz
sender
betroede
pæ
emailler
298
slægtninge
vaag
kilder
adressecontoirets
##orge
skum
utaal
##vaghed
fleeste
særskildt
finmarkske
##rin
halvanden
damerne
lægter
hagerup
indskibe
25000
besørger
schoubye
velsigne
udholde
obel
eegholm
repræsen
stralsund
landede
##aadede
##cour
aabnedes
##60
##teurer
##vard
bedømmelse
ydmyg
kall
##skrivelse
bakke
definiti
norgesgaden
nen
wille
##bak
##gelses
syes
hørtes
##parten
fide
maanedens
##skirke
afværge
forhenv
besørges
overauditeur
varenes
destineret
jndtil
traver
theehandler
forventende
berry
smug
##mennes
312
raf
##spost
udsalget
forfattere
tronen
hæren
ubil
##eur
forræ
##secretair
grøfter
kavallerie
##bræ
skikkelse
jnt
hammerslaget
øiens
gaardene
valgtes
almuesk
##umgaard
steene
indfly
staver
klipfisk
eskil
nedlagde
skiønneste
eft
krigsm
bagstuen
hæderlige
##ions
afbenyttelse
wesen
rødder
uenighed
siderne
fordrive
varmt
frar
hovedlande
bugt
overtaget
henstand
næringsbrug
eenstemmig
fro
stadig
reelleste
retsindig
døer
svi
arter
messina
udvide
##værdigheder
rahbek
##sminde
##ytten
christiansund
vaaning
nøye
levan
foden
nederlandske
frag
lector
nærved
universitetets
jydland
futteral
##sministeren
nede
rugbrød
ansøgt
barcelona
##30
eftermiddags
##clusive
creaturer
##vns
##olleborg
##forfatning
examinatus
hyld
atla
jsær
verten
udeblive
compagni
depe
lub
stiftelsens
søefarende
besynderligt
gan
regenten
præcl
jagttager
saxtor
byt
egt
tilskrives
herl
265
##alsk
forstue
##skere
gied
brøde
schanderborg
magistratens
skinker
##søes
behageligste
opstillet
##holmen
schar
knuth
municipal
##sul
schne
udstædes
landvæsenscommissair
stik
boesiddende
medtaget
hee
beskrive
tildraget
bydende
##kaldelse
antwer
forsynes
augusta
olsdatter
##cassator
smel
plade
borgervæb
mohr
abild
linnedsyening
kot
portor
##bestyrer
omegnens
christens
benyttes
klippet
fortviv
stoel
ynk
indbefattet
skandinav
andagt
jng
publikums
gyldendalske
figen
meening
bestræbe
fyrret
bodil
disciple
##edahl
sognedage
skjorter
marocco
##rar
committerede
tilsyneladende
røre
vagten
##11
##skifte
stærkeste
##etr
317
##ative
vognskuur
keiserinde
vindskib
justitien
salpeter
flyg
beskrevne
lægd
pasch
##40
##anders
##forval
vald
markeds
mare
##side
stemann
anmoder
dampskibs
andragender
jdee
oeconomie
##befaling
lemon
fliid
cli
##uels
##historien
reebslager
bænke
##cent
optagen
##bereder
ingefær
##værkerne
fortab
anklage
hartmann
jndkaldes
klippe
lue
natte
kongerige
vadske
pludseligt
pile
hellighed
tiente
kudske
uskyldig
##rift
tilstødende
fængslede
seylfærdige
trappehuus
lamper
rapport
##ersom
vandre
indtruffet
illuminerede
brolæggerstrædet
kah
##rund
erklæringer
vaer
holsteens
basel
begeist
christelig
exist
besørget
vater
##gart
##ular
snog
jordskyld
urtekramvare
haan
begravede
udløbet
bedækkede
batterie
artilleri
##jende
frederichsen
ufuld
grim
##fugle
hane
##rukket
poly
knutzen
tønders
boepæls
trøste
opnaaes
jægere
herredstingsdommen
##bestem
sølvmedaille
habil
##bent
##tons
330
##aster
saff
##kraft
##istisk
besigt
kiærlighed
halsb
aflægger
frelsers
dynevaar
sekret
##raf
forbuden
goth
tabel
attraaes
mandspersoner
pøbel
ubesk
forsøgte
##aller
nyttigt
grenadeer
utallige
sammested
samtlig
tredive
saft
krystal
##ienden
hovedqvarteret
fastlandet
jnsp
talenter
##yret
##indige
carga
honning
benævn
officin
##vorne
hingster
flamske
1757
##qverede
kongres
halvdeel
avise
kontra
##tegods
forandres
wir
##aum
murede
mariane
erhvervede
manifest
buhl
bredgade
methode
vahrene
##iskammer
trækkes
trængt
forespørgsel
dardanellerne
arendahl
forbeholden
tællel
fattede
fædrelands
cramer
agtværdige
pantsatte
auctionens
ventedes
ostindisk
conferenceraad
holbergs
arresten
hisset
karlen
kronens
patrou
storviz
wem
pola
##resch
##bakker
oldenborgske
##eskind
##fulgte
calais
##mt
annu
garner
meerskums
tildrog
lej
droge
adelen
straatag
nødes
##ærende
ædruelig
##redet
1766
hornbechs
meddelelser
forj
thiele
bruunt
sjællands
resolvere
storbritannien
##uthen
capitalen
klubben
##ato
skiøde
slap
capitainer
##egiment
hale
diurendahl
##regn
øiemeed
##blaae
barnets
opstod
skielskiør
vakte
christoph
##lemmer
justitiens
contingent
nyehavns
salair
indeholdes
haandværker
lægerne
guizot
chi
hønsehuus
berøvede
rast
læss
classen
##indet
##tide
krigsassessor
##onere
ankommer
##regning
ødelæggelser
subskribentere
forende
opv
skiøndt
hollænderne
revne
digteren
jslandsk
friheds
frygteligt
æske
sper
##bolig
##icat
fornøiet
sving
tørvemose
anner
efters
promp
##resse
ægteskabs
##bø
allerne
traadt
harve
bortfæst
soya
indsluttet
averteres
romer
##vandet
forhøielse
##malet
isærdeleshed
dunker
eftertanke
##ving
##agtes
##taxt
strækker
forstærket
266
wit
armod
mandat
borgers
soult
kongerig
ubeg
udsæden
gudstjenesten
paaskj
##tene
##flod
hyskenstræde
##ailles
##conf
hiertet
bekiendtgjøre
kapper
breed
mager
boeck
landsoverretspro
heede
suk
qvartalet
##gou
mueligen
markerne
fierdedeel
teglgaardstræde
talleyr
fortepiano
eenspænder
##delserne
311
tidsskrift
##anket
omkom
##fordring
##briske
opgave
##hns
fogden
kakkelovns
knytte
standsede
afbetale
indseer
vending
coldinghuus
departementer
tilbagere
circulaire
alstrup
leies
nødig
##ellerup
kuld
##stok
stiller
##farve
##esche
fortvivl
personen
adskillig
reisendes
kunstnere
carlistiske
sidstmeldte
bevillingen
birgitte
ceder
portraiter
tort
##ropperne
betænke
cou
##ationens
inclusive
muntre
legemet
##kornet
##0000
##deligen
tarvelig
rækker
stakitværk
akkor
##skam
##kkelser
touren
pensionist
kanonbaade
##ilia
antver
forgie
lauritzen
sey
trækningen
ægteviede
udløben
interessentere
huusleie
frysen
indlem
##drager
trol
##brune
finmarken
sov
##skendes
betids
hestemølle
venet
gottor
jndledning
overstiger
greenaae
conserv
opof
høikon
tilfulde
skjænke
age
rigsdagen
decision
tykt
sængeklæder
lybske
##bret
hiemmegj
omringet
postens
stadshaupt
skieppe
##bour
forlyst
erklæres
skoled
historier
lysestøber
medbringer
##antzer
##splan
dige
agur
pots
fasthed
steenberg
fruekirke
bernth
indski
##abelt
bucharest
##ladel
##phoff
evighed
tomt
convoy
høste
tredobbel
confisk
##hengt
træerne
kunder
##piger
tiir
ostende
undersaatters
niss
erholdte
##ægtet
gandil
landes
bjerre
smerter
herredsfogderie
borgeren
siellandsfars
knive
nordameric
videnskabelige
vaade
smeden
##aværende
##skelse
observere
aftry
##istrer
roug
1765
##agus
medvirkning
samtaler
commode
militær
##fuldmægtig
laurvigen
dod
inderligste
fadderne
snes
##pelse
##løn
##bne
##sts
sysler
sukkerhuus
galle
loll
velgiørende
pors
punsch
##kysten
hinds
##ux
uindskræn
mogensen
##mund
rekomm
barom
fiir
truds
##ribende
tilr
##phant
begiver
tilstaaede
linieskibet
foreslaaede
##chmann
nordens
fleer
kbhp
monsr
##cu
præpar
værktøi
handelshuus
forøgelse
mina
258
arbeides
udskift
##bus
##lægt
ulige
bekient
reglement
petter
##flyttetid
asseurance
jamaica
besti
adjut
preusserne
leiligheden
tjenestekarl
gemahl
##voxen
fou
gavne
jdet
krigere
videnskabers
beroe
laante
eiendommens
atl
tienestepige
raader
wang
##ala
recommendation
officielt
prydet
sølvm
afskaffelse
##vre
##bers
propr
##farer
frederikke
overordentligt
wesenberg
baggaard
frelseres
parth
løsning
tilbød
avertissementer
gjennemsnit
museum
##hammer
##eleer
udskiftet
forgieves
leder
ande
blank
drab
beleil
##ars
cathol
oxekjød
1717
sul
jung
raadsl
archiv
otter
indav
##betjente
rix
vindes
centner
springe
ublegede
paagaaende
tykkelse
hestes
ubestem
bevægede
vidtløftige
kanikestræde
tingstue
scene
spinder
ligt
upassende
slæb
##ativer
auktionsstedet
##rons
opgiver
søet
skoles
regnskabet
##stax
washing
##professionen
paalægges
publiqve
bugten
hævn
glædelige
forventede
##dieskibe
guer
døre
##ric
svine
heilmann
neutrale
indbetale
graabrødre
extraordinair
bilbao
##ario
arbeidede
fylde
uindløste
##igiennem
##ils
kiøbte
##boer
##rebs
hornum
udlægshaverens
##olden
##forslag
pid
##ject
forkyndte
seminarist
pille
##legi
##emid
regnet
##førde
##mond
uk
flin
lykken
løw
voxlys
approberede
nettelduger
memor
optagelse
straae
uende
diamanter
##orf
##rett
byggede
prindsreg
lauenborgske
dals
bert
nærliggende
tim
parlementet
##klædte
depos
drik
1759
ldso
bevises
omtales
laurbær
berøve
hyrekud
conjun
bagerne
provinc
##daase
sd
midnat
kornpriserne
kongehuset
bøsse
nedenstaaende
ejusdem
indestaaer
hester
flittig
redactionen
jnqvisition
velærværdige
stip
aftræ
offere
##parter
skibsfarten
1te
ancona
øiet
##christ
skrifte
beviisligheder
acta
##vands
fyrreb
refs
sicil
kortere
tved
anpart
##forest
seire
275
svoger
naboer
nordamerica
velbehag
tællelys
##ftelsen
##march
qvarte
##aves
sengkammer
jernpomp
henst
krands
newcastle
beskjæftiget
amendement
##nier
provision
parlement
betalings
##hæve
maar
harer
nørrejyl
##dedeel
##handlinger
beskyldning
russernes
##loft
renteskriver
fajance
ged
##anere
nyholm
pakhuset
udenrigs
engelænderne
forlægges
inddeelte
##urius
pairs
foruroligende
communication
aborrer
##mandens
directeuren
vraget
rinds
ankommende
laud
beskaffen
kræve
omvurderings
hiort
##gjor
forstyrret
##vægt
klogskab
entreprene
saxtorph
henligge
bryggerie
fortjenester
##tesp
tilstaaelse
befriede
stubbekiøbing
opreist
##budet
##atser
høf
beregne
philladel
opslaaet
pacha
døv
uskyld
skikkede
spænd
pohlske
medfør
truffen
vederhæftige
børgl
##smar
jepsen
proposition
leier
ebb
distrik
hierm
tilkjendt
godseier
frokost
gir
ken
redelighed
afhielpe
cantor
pitt
opretholde
fremmet
østergaden
opbyggelse
vacant
ophav
gjeld
forældres
vogte
udvikle
##anstalten
tienende
##ows
##halle
##æts
bøgerne
##gravet
##livet
kiendes
low
theoret
ugivt
aut
høien
283
registerings
perem
##genes
leiet
forbitt
particul
prindserne
mistænkte
brasen
##mater
##uk
stof
foranledige
altern
tilbringe
thorsen
overvære
willum
##angivne
søb
##berettigede
bagsiden
hinrich
jnstitutet
bundtmager
fers
ile
##kreds
##ørne
moderat
klosteret
musikalske
tilbere
godtgjort
##litz
##unition
herredernes
##queur
tier
lich
redelige
##jene
##tou
erindrer
eds
##pund
##esedler
arresthuus
silkestrømper
tagvinduer
##være
##ygtede
##aarden
268
skibes
bayerske
rigst
spads
præti
godsforvalter
wallachiet
##igjennem
kau
##immer
##phia
consistorialraad
dybde
tænk
foræringer
##amenter
bygges
indestaae
aabye
lovgivningen
westph
anerkjendt
jsaac
##gu
##pynt
puster
underofficeer
brillant
bags
posen
demonstra
repr
boghandel
jerntøi
skriben
formaaede
nøde
advare
skibstømmer
executions
walter
##æpper
##kamp
skildt
##baks
kruger
underrettes
kongeligt
trykket
adresseavisen
frabedes
boed
veltænkende
banker
bageren
wad
##nis
cher
spand
røgt
blæst
overgaaer
beher
forbie
kundgiøres
imp
mosaiske
##ragt
##kna
##ilet
frants
tiltager
tilbygning
topper
##renter
voldsomme
laden
##ura
betegnede
kobberkiedel
foreløbige
##urede
marqvis
kommitte
courerer
gaardsrom
ahl
fortr
forholder
##vendt
produkter
theologi
benyttede
kommissionen
fændrik
stier
guldmedaille
wein
fløiels
skienket
børglum
nag
saamegen
hurtige
hæver
forenes
ligeoverfor
keller
vart
mauer
dyrt
bremer
lottrup
bestemmelsen
catrine
cattun
indberettet
efterfølger
##beres
barb
##toge
laag
forefaldende
blucher
spiste
uformo
bekræftes
helbrede
jversens
naadigste
formindske
gierningsmanden
vaudeville
skovene
##isende
howitz
##emann
forhøiet
styrtet
opstaaet
##stofte
værnepligt
##reich
rettet
fornuftige
besvarede
##anderes
##maler
##kersvend
##vok
##rændsende
ledsager
evangeliske
beundring
breslau
276
proclamata
##direction
licitationsstedet
##demar
raadinde
ottes
##respo
##forretningen
colonne
døbe
##skoe
bestemthed
hornsyld
lovudkast
ligesaavel
forhindret
fjel
273
pigebarn
mødende
tilbages
fiskere
componeret
nørrebro
røvere
direktionen
forbittrelse
stammer
##iana
##attende
ubeskri
overeenstemmelse
veyer
anmer
læres
udvidet
##esserer
##felts
handskemager
pelt
##ængt
kroppen
pave
rommer
leyr
duer
færgestrædet
skjænd
styre
congres
guinea
udfinde
udnævnelser
bibelske
das
nørrebroe
begaaede
liebhaberes
simp
befalings
##dendeel
kløcker
##ng
jndtagelse
##bruger
senator
ons
lærte
kragerøe
daab
rye
##bels
fierdingen
tillu
skuespillerselskab
pandter
gyldne
hypothe
bureau
castanier
miguels
præsid
stuehuset
##ydningen
umaade
gulv
udførselen
franzoserne
øve
##ørgende
##høveder
agenter
dess
wid
keglebane
bommen
##raff
invi
portene
schwart
jnfanteri
schubothe
bedet
raadighed
lænker
comitee
kommun
natural
essen
anfald
##usion
offen
elskere
færøerne
formiddags
aabenbare
biskopper
ebbesen
##oll
lollandske
resultater
dristige
gouvernem
##bygmester
raun
betydeligste
nationalgar
mahom
uhret
pakkeposten
##befindende
enigheden
241
##tmann
##stry
hiembragte
lee
panthavernes
cubik
virgin
overdrages
kapel
birketing
varetægt
##vog
herskabet
slagen
midte
##taine
uaflade
forsikres
kamrene
spørgsmaale
grækenlands
##former
forblev
troppernes
legion
randrup
sydvest
allerhøistsammes
beboe
indk
lærd
stæd
ursin
opstaae
subskriptionen
##zeb
varighed
høiden
rotterdam
atlas
vill
velkommen
##kkers
magstrædet
stemt
##portion
cabinettet
uheldig
antwerpen
harp
foreen
hanhund
skjold
sirtses
##nær
##fre
overdragne
skatterne
omski
##prang
ridet
divisioner
monument
fælledskab
forekom
hemmel
dybts
##rød
##iels
frd
lovg
takkede
fattigvæsenets
##qvarter
##ologiske
hvet
maro
berygtede
ruug
bortselges
janitsch
sagte
omslag
##phan
lau
hæle
tøndern
thygesen
friedrich
concurs
lieutenanter
samuel
mistænkt
tænkende
fæstegaard
character
oppebæres
eich
##lægtede
forelæ
effe
orkan
##vilde
hovedvagten
##estedet
gavnlige
blæk
tons
proft
schn
nørlyng
afrika
uventede
##kkener
##list
fuldblods
bragtes
emanuel
hvel
##øbet
brodering
##punkt
recommenderes
kyndige
mathemati
magen
selges
svøm
stride
berliner
##buden
teglhengt
opbrændte
funder
forsømmelse
fremlægges
##løsning
miød
richter
borgerkrig
omkreds
sognede
mistænkelig
gabri
opbrændt
udsendte
sorø
rumme
audience
##ament
onsker
friherre
hæftig
udmærker
følges
statur
vinding
seildug
retfærdige
##lysende
forbrænd
bengalen
enthusiasme
##etz
vaskes
vægret
lykkeligviis
bekræfter
pakkepost
##22
anløb
bemægtigede
##ams
gaars
forestillingsdagen
sjællandske
ballastet
creditorers
klem
plur
indkalder
afdød
taleren
canada
kiøkkenhauge
tjenst
##marschal
dommeren
aspar
aber
nurn
ænder
##riv
qvarterer
##horst
format
banks
toldbodveien
cer
##ommens
overm
muld
##tsen
jris
høiheds
sinding
nægtede
messe
##ptet
holten
publico
uvillie
alteret
##using
christiani
sørgeligt
strømme
fartøy
cultur
##erier
dusin
postefterretninger
##erin
borttage
udlægger
mussel
##ribes
tusind
reformer
##anz
forbydes
fremmes
opsætte
annon
hylder
transporten
forsvunden
alphabet
affa
mauri
beskikke
embedsmands
erindringer
deeltagere
##født
##høv
tillægge
konster
landsfader
begyndere
60000
commissarierne
daværende
##vas
committeens
opbevar
iii
##agterne
beqvemmelig
smagfulde
criminal
##ykt
tilhørere
paquet
consumtion
##ilder
16000
forstaaes
ligesaalidet
pala
understøttede
betreffende
##vit
skier
hammel
minor
weich
eiendomsgaard
europæisk
archipel
appar
gierninger
forefundne
##raaden
hyphoff
besvarelse
drewsen
afhandles
behr
##ariol
wahl
##vien
udfordre
halling
charles
udslettes
gammelmønt
sjun
##meyer
##rigs
##ætning
hjælpe
##arving
belønninger
boulogne
beredt
##lynd
287
brevene
indskrænkede
##dentligen
wilson
stendrup
liqvid
farvet
stands
stridigheder
forelægges
uvidenhed
bolivar
amnestie
tilskud
##lebye
##chn
stolte
##gaver
tordenveir
practiske
##ulff
eventyr
uforsigtighed
lindre
forholdene
tidlige
parade
regnegaden
rudolph
smigrer
indestaaes
uangivne
##andens
adskill
theologisk
paagieldende
seigl
marstal
ankerto
begivenhederne
kaldt
grevskab
sammenhæng
skarpe
hertugdommet
jndskrænkning
detaschement
pens
kornbrændeviin
politiemester
bortdød
rigsgjeld
generaltold
indskibede
ders
synkende
forsvarer
raben
plud
formere
forstør
hemmelighed
##upgaard
kaster
brandassurance
afholdet
##øyede
øiensyn
kinch
##wich
ergangne
hovedgaardens
kjøbstæds
metter
##ndere
card
tæve
tumult
proven
seilfærdig
hosekræmmer
suspender
jordskjælv
##melserne
##beviser
slaaes
boder
kjør
fremtidige
delinqvent
vigtigere
birthe
nøgel
fægtninger
orienten
staterne
scheen
qvindekiøn
theodor
banen
anbefaling
køb
grundtaxt
omtaler
mayland
holt
kock
abdel
damastes
biering
##mærker
vægrede
fedevare
billedhugger
tienere
tornebuske
##bibliothek
##oet
mærkværdigt
ernære
##osition
opry
overste
mandkiøn
melod
almægtige
actu
##kaal
##byhr
jnfanten
fortabelse
udvendig
henvendte
rach
##kald
##skrivningen
standsning
halvtønder
##ae
##leret
spiger
værkets
raabe
livsfare
forstærkninger
magrethe
klædeskab
ron
synke
anordningen
ule
skaf
fryde
hofboghandler
roeligt
lukke
visit
bomber
collins
magnet
bonorum
herredsfogden
byefogedcontoir
kyl
helliggeiststrædet
døbt
undervises
refer
charlotten
java
kart
bierring
udmærke
justitiarius
sibbern
mant
vorden
raffineret
garantie
sidstes
almindeligen
theebohe
tverhuus
##oup
tidt
tolstrup
bæl
plage
jordebog
ferdinands
wald
##sv
##skninger
underholde
giensid
meublerer
prøven
elisabet
##bonde
matrik
baronesse
##raabe
oprindelige
udfærdige
sandsynlig
sognekaldet
øj
##fange
kjob
billes
afgiørende
slesvighol
##esserne
farvel
proklamation
besad
vildfar
tul
##het
passelig
gesandten
field
eqvipage
##uppen
##illa
nærer
##grave
commanderede
harden
korntiende
##ove
maaneden
hilse
neapolis
##anlæg
lauritz
bøndergodset
kæmpe
philladelphia
meden
gottsch
ungefær
gunstigt
rasp
rigeste
##amf
##konom
seletøier
udkommende
##limin
##iseres
kien
vanter
qvint
giftermaal
indskibet
##ierg
magde
foreningens
fortale
stiern
auctionsdagen
secher
taalmodighed
rostock
mom
paalagte
##ceres
jægercorps
find
fern
meyers
pakkielder
affaire
paalægge
stadt
remise
binde
##idere
##presse
udestaaende
##chiold
##skyldige
urigtige
londons
bugge
princi
trøster
1s
villige
stiaalne
ruiner
alvorligt
løvte
udbrudte
brændeviinsbrænderie
pigerne
iligemaade
##kkre
incl
straffen
menneskelig
reenlig
udspredt
jdeer
martiniqve
jolle
parag
##essing
bankhæ
syepige
##plig
proph
skjult
høistærede
betragtede
##inus
anledningen
nesten
klost
jordsk
seilere
knudsens
undskylde
eftertryk
nutidens
feire
stiftelses
elephant
sette
##forstand
##ummet
amerikansk
##ydes
velop
278
dygtighed
##maa
##ouse
##illo
reyser
talleyrand
##oper
text
bortleiet
##stændige
sukke
##jorder
afsluttede
taalelig
gjestgiver
dygtige
##høsten
ods
##crone
skou
jndp
##villige
290
averteret
forklaret
##kielderen
mæske
mende
##ichen
trukken
##mler
##etøy
nanqv
prætiosa
absen
vaaningshuset
paler
##vik
forbyder
##sec
bredder
hurrar
giort
barthol
indvarsles
prompte
zion
udhug
overgang
kjøbstaden
fremkalde
steff
strø
religionens
##oppen
arvingernes
opfost
malerie
uafhængig
##mil
##odens
forskrifter
##berts
hvilested
##icomm
blef
festlig
taxations
menes
335
monarken
paaanket
collegial
slagtermester
hørlærred
cathedralskole
princesse
dødes
klingen
chaus
indlysende
pds
##hopper
schwar
børnebørn
hospitalsforstander
francis
##æum
formil
dødsboe
##grunden
##kyndig
dytmarsken
##merede
##yet
slettere
##esteen
middelsom
opmærksomme
kanonerne
hugge
kongetiende
sivert
##imbriske
269
foretog
##feil
##comk
spiisning
dennegang
græven
olds
studiestræde
udviist
##ssede
323
omhænge
elephan
iført
naturhistorie
calender
nægt
##teligt
##70
afstra
selvstændighed
##cept
forskj
academies
modstandere
fu
kager
inspecteur
senat
velsmagende
hensigtsmæssige
##udser
tilintetgjøre
medsende
liberal
fenger
frasti
##blod
arverettighed
water
forring
hoch
professorer
versailles
uundgaaelig
lysekroner
storehedinge
forener
ulykken
veirliget
byefog
##bay
uefter
##usser
overskrift
foretager
##controlleur
comb
##færdighed
##aga
bliv
asparges
skabning
bevæbnet
##nel
##stilling
tjenest
fuglesk
indbetalt
kammerater
capitulation
uskiftet
curi
##forand
spændt
terra
provstinde
usle
kronprindsessen
udplynd
voxer
græsset
schytte
spidse
inventariilisten
befæstet
main
begræde
dosinet
hog
uben
##stedes
##usse
undvære
straahatte
secretariat
rekommend
sædvanligen
catalogus
bevirket
udfordrende
belønne
levemaade
naadige
tørvejord
medalje
fordet
affordre
hertugd
1756
eddike
fedt
indbringe
##lagdes
bcomk
befordres
##riber
tractater
alleslags
adeler
##fleth
deputer
dommere
rougsøe
8vo
vet
tiltaget
forsal
venlig
##iddere
skatten
recommenderet
jal
reglem
suur
hemmer
kulden
netteldugs
gies
reens
forfrem
##tisme
destom
slippe
tømme
anvise
indi
kloge
carsten
børnenes
admiralen
tvungen
##nødder
maadehold
viind
veltal
strandings
mistænkelige
jøden
reb
inform
hørgarn
fordums
søemagt
fangenskab
isted
omstyr
sødring
geel
bondens
strænghed
fortræffelige
generaladjutant
gevor
george
voxe
repræsentanterne
repareres
luttichau
høikongelige
ast
mandsk
broderet
frederichstad
stemte
tiltrædelse
forældrene
skiftesamlinger
occonomiske
udøvet
overlæg
rense
jordlodder
vagtmester
##tig
lovs
bassesen
kunsten
laf
tilsidesættelse
amund
grub
undskyld
vall
trøye
pantecreditorernes
##ili
hvilkens
meiner
toldsted
##hvor
nørres
allg
loftrum
qvalific
vedkommer
forsp
288
afskeds
toldkammeret
nytaarsgave
oranien
tjære
generalpostdirectionen
##skræfter
strasburg
førtes
troen
tilfaldt
aler
##erst
##akke
##ligelse
opfin
udvise
##ynge
lyne
venne
emil
antre
tranqve
heldigt
##agtighed
dybere
floder
forsvandt
##nævntes
##hunde
afsen
##ielp
annex
anec
afskedigede
thrane
falck
##qveur
vexles
##herrens
keisers
metternich
karlekammer
velbemeldte
accise
chirurgi
forretter
antverpen
washington
tilstod
forsvaret
parcellen
contribu
viv
##redie
folge
brædder
striden
ødelæggende
praktiske
hud
##marked
varmeste
rim
##bas
##wad
reele
statssecretair
##stoel
tienstlig
undersaattere
orientalske
##esløs
kierteminde
##kjedel
plakater
periode
adrianopel
##dings
dødelig
havanna
kotzeb
stevns
taage
viener
##berggaard
indhentet
tildeelt
dronningborg
1755
##edags
forklarede
snoghøi
##virket
jnser
venskabs
281
hidkommen
frontesp
##agtigt
friderik
uformu
wose
helle
publications
betaltes
##idag
overhoved
theem
contracter
beskje
uforsør
spillede
salic
polakker
griber
mechan
##æringen
skrøb
autoriteter
qvindelige
særegne
bepl
heinen
##videnskab
##ykker
##utrup
##ied
##eløse
enkemanden
strængt
jernpomperedskab
opløb
kornvahre
fjor
davids
##oren
##compagn
1758
dæmpet
skolelærere
holmestrand
dokumenter
varerne
##holts
velynder
qvarter
ubetinget
billeder
medicinæ
bekiendtere
##tige
##skin
ligiti
foretoges
vinge
posterne
vovet
skye
omme
valpladsen
friderica
sporon
districtet
ubleget
##ingel
bortfly
ungdommens
##etrolleborg
væn
##undes
lignede
lovstrid
dyrke
heinrich
##æft
hjor
theat
didrich
hop
tidspunkt
krave
##træe
gemytterne
aan
alg
ange
udspr
østerrigs
udtrykkelige
uhør
henneberg
magten
mundtlige
allerhøyst
schimmelmann
omstændelig
##uppe
##toc
værste
beteg
krigsskue
foraarsager
antvorskov
eylande
gjæring
ostens
hvilkensomhelst
hurraraab
forræder
tilskuerne
##staver
krigstien
##bene
indbringer
##indig
##estræde
hell
rimeligt
lidenskab
larsle
forraadnelses
pairskammer
forpl
sext
nedsab
cochrane
##sex
gaardfæster
aages
285
sødskendes
kannike
##gra
collegier
hamborgske
couleurt
jnventarii
frandsen
complot
##trængende
tve
amthuus
damme
fienderne
wivet
overbeviste
recogn
vaars
ydre
##kild
kommiss
spanier
scener
##leff
indvendige
trav
garnisonerende
fælde
##sum
##ckel
gientofte
##bedste
flygtet
braa
melke
hall
##spladsen
drægtighed
333
winter
##ago
##kommelse
imodtaget
jtzehoe
##ney
udsættelse
subsid
##rives
##ænker
##traad
##ængere
stolemager
ill
fortient
herret
kiol
godtgiørelse
##inetter
dandser
opgav
coffar
##talte
tysk
læsøe
regimenterne
adkomstdocum
debatterne
underskrifter
277
strække
administrator
helbredelse
hunden
##oug
despo
høiagtelse
fortrinligste
warberg
møblerede
brevpost
udelukkelse
sensation
tud
##æstede
##scrib
umuelig
westergaard
sætning
paschas
##lehn
resolutioner
uformuende
##blaar
jomfruer
neutralitet
##asserne
havnepriser
sydamerika
##dreier
liniet
ladte
søeborg
transpar
gravens
jslandske
hatten
nedstyr
manges
fastsættes
pudel
lovenes
overdrevne
tilforladelige
##klarerede
##mas
##vige
360
broderede
fordret
afhent
kreditorer
ligegyldighed
##støier
udvides
luthers
elias
##ella
krampe
verket
kiendelig
roses
erobr
engels
skiør
dødfødte
tranberg
volde
nysgier
undertrykke
overgav
eggers
abbed
foregivne
rind
##læger
huul
lethed
prints
##17
##eliggende
struer
##lieutn
kag
##fier
afbrudte
frugtbare
brogaden
champagne
tiltage
##agersvend
huusle
petitioner
omkostningers
streg
underskrive
krigsret
afsætte
beredskab
dyden
frydens
##gouverne
overgaae
huust
sognefogden
jnstructioner
augsburg
manufakt
malmøe
gensd
herluf
tranqvebar
uley
justitsr
grovsmed
##naal
##endelsen
dich
gund
usyn
##rø
##edron
bogtry
sandheder
mullers
rantzau
##gange
falken
sengestæder
passagererne
directions
308
theeske
jagttagelser
pommerske
tode
##dents
##betales
fiends
æskes
##dstrup
##valg
bankosedler
##sot
taarnet
##umpe
rummel
malermester
##isme
opsatte
himmelske
consumptions
##skeer
besaaet
timen
##ariatet
hertugens
marieboe
fornærmet
akademie
opvakte
##hat
##ædet
##16
klude
lærebog
##dotter
saison
##areres
operation
polakkerne
vandagen
thomsens
##baands
winde
##bøl
fangst
fratræ
udtrukne
stolthed
jblant
##eringen
##ismen
##spær
farves
lammekjød
tvede
frynd
##bond
##path
mane
meil
stervboerne
forestaaer
skibsbygger
prins
##villighed
duun
engene
##gem
nedst
forordningerne
##papir
forstaden
raser
møgel
blokke
magazinet
##ketter
forladte
foreviste
lærret
lynild
davidsen
narv
oft
##enæ
##igelser
indtraadte
proportion
grat
citron
forbeholdt
midlerne
høitids
udslettet
langvarige
anke
hornqvæg
brændes
porsgrund
paadømte
##tia
jnspecteuren
ministrenes
commissairer
protestantiske
peremtor
##iniske
##vigs
kandid
drey
stillinger
mylius
enkefrues
hang
forvaltning
hyrde
##kiøbings
boutique
continuation
londoner
folkemængden
##knive
uforsørgede
besaae
landinspecteur
##tran
commanderer
##veskind
religiøse
kontoiret
creditorernes
fjerdinger
regentskabet
kontant
næringsdri
algierske
zeuthen
passageer
wag
##æus
##itueret
betegnet
beslægtede
exe
carøe
prøverne
genever
marien
velgierninger
undtages
capitains
clausens
hytte
beregninger
##skrivninger
idømt
##ilende
tildeelte
polsk
jldens
producere
maskin
jndtægterne
272
ladegaards
##spersoner
worsøe
spænder
brandc
mors
viined
præmien
africa
##amin
prætor
##cep
jnsurg
afgrøden
ønskelig
##skee
procession
svalet
kiendetegn
graat
werner
æret
##hre
formeente
##prædiken
sommerværelser
commandere
tjenesten
bebrei
toner
##yesen
omfor
gjæld
##godser
anrettede
##meldt
residentz
tiltraadte
touge
corsar
steenkalk
skriverstuen
fangerne
topseng
rustninger
hofthe
mueligste
anvendelsen
mex
redak
oprøret
qvitteringer
anmodede
søllerød
grundsætning
ovenpaa
silkeborg
zirater
##ykket
christus
##mennesk
falsen
langtfra
terminen
tvunget
emancip
mourier
pludselige
##hin
##laug
301
ferr
stabelen
begges
##vidne
tugthuset
forkynde
detach
landske
langelands
##undeviis
brodersen
tome
bestalling
tilat
hellum
maane
øverst
schweitzer
hæl
##tør
gaardmænd
forposter
glæden
istandsat
krohn
krebs
dere
lybeck
stænders
lyngby
expeder
guddommelige
kande
riddere
sara
udloves
spirit
fleres
##ht
kjere
philosophie
hjulmand
iberegnet
##onville
##riks
bestaaet
##ome
herz
18000
arrang
fortvivlelse
arent
søefolk
gulvt
affattet
##buxer
udviklede
uheldige
pustervig
mollerup
oplags
heftighed
forbudne
##soet
hovedlandeveien
umeubler
varig
slæder
gravet
discipel
geme
forulykket
sognedegn
##york
udskrivning
##reden
morderen
fægtningen
hørlærreder
baar
finsen
universal
arbeidsvogne
oehlensch
chri
bragn
liidt
trier
aae
commandoen
galliz
gla
tjenestepige
##ouleme
nyboe
##forraad
uldene
ophøiet
prindsregenten
qvarteers
vug
eftermand
##reng
hardenberg
##gry
følt
horiz
respect
trompetergangen
gottschal
kjøberne
legge
chefer
sophiegaden
overblevne
agere
##skibes
raffinaderie
opspørge
fraskil
##ulle
##radet
micha
anbefalende
fæsteren
ment
##itus
toldkasserer
ladt
maskerade
##ronsaft
wens
##orne
hollands
##læggende
##officerer
anholt
marin
udgav
omvurdering
misforstaaelse
wends
##agryn
##skier
##sterer
##beviis
skikkeligt
potaske
tjente
tilhold
vognremiser
fabriqueur
sle
wilster
paastaaet
krukker
slemme
program
stadshauptmand
auc
grækere
skildre
##taske
farvande
bølgerne
agerdyrkningen
gab
strat
skiftecommiss
domin
birkeskriver
respek
indber
##urp
frabed
##avns
begaae
##schef
bekiendtgjores
forseelse
steengierder
sekretær
ziret
terp
ubekjendte
undvige
connell
pdt
##lid
skare
indbyder
skjulte
premien
videnskaberne
syltning
##nichsen
hyskenstrædet
tornebuskegaden
stage
halen
passagen
##slov
##ialier
human
kabinets
balletten
zach
modstander
reforme
vintersæd
abildgaard
##borgske
brod
koest
colonie
classelotteries
velklædt
østerriis
hialp
##richt
opfinder
##fade
##høe
##issel
skip
seminarium
velindrettet
waa
teil
traktat
velhavende
boger
angouleme
qvægs
gissel
effekter
udpantning
forviisning
opkommen
295
høitideligheden
stedfundne
kjøl
##airerne
nedb
udrustet
pandte
kalv
høivel
repræsentantere
conferents
pie
grube
279
matzen
frisindede
beboelsesleilighed
øresund
##kunst
udgivt
svømme
fortrinligt
inventarii
anstændige
terne
udvex
##forbed
neml
aabenbart
naboe
##krigskommissair
formelding
sene
ross
lægds
træevare
jndkomst
syer
langsomt
handlede
udruste
uberettiget
kummen
pind
star
forfatningen
gevinsten
mortens
befrielse
heglet
hay
forberede
blokade
##bourg
##sons
omvex
hengivne
drages
294
skilt
lollandsk
gielden
nedergade
christenbernikovstræde
eck
calmar
fornevnte
##orp
listerne
nyeboder
##husen
boutiquen
overflødige
##ards
dydens
nyeaar
schm
barnd
svarende
##tidige
offentlighed
avlede
perm
##bleven
fjender
regulaire
ringer
##sag
efterle
manthe
ditlev
melchi
politiem
skiftetid
sædvane
strømsøe
udrustes
##ischers
fich
itu
bryggergaarden
formenes
period
frysenborg
##sret
aren
preusiske
mannagryn
jstedet
##staa
##illi
306
proclamas
brunt
litt
utilbør
##pladse
ydes
befundne
pudder
saabye
overgivelse
grena
stalderom
konfirmeret
pod
##reisen
sidenius
menneskeven
divanet
enkedron
##elin
forhaanden
tripolis
opløse
heftigt
efterlyst
##hle
##dren
hændelser
tungt
tilbagelevering
øien
##inderne
staff
saalydende
friheder
ministerial
tidsalder
ifinde
upaatvivlelig
depecher
aander
roms
340
duel
portugals
daaser
memo
vahrer
##mble
vildet
thyr
herredsting
##følelse
langballe
skolegaden
forsvarligt
imode
republikan
vacante
misfornøiede
##oes
##førere
skribent
tønningen
ordener
plantage
suppleant
rørte
##ovis
brat
calc
mols
florenz
udrustede
departements
dæmpe
anerkjendelse
proced
grunder
slibe
salicath
landsmand
friderichshald
spørges
klipper
edder
mercurius
nette
##atel
fabriken
##lelæder
huuspant
duus
##forde
værelset
indes
tilfunden
morning
centrum
krige
##ndrup
førstningen
collet
318
afstemning
##num
tidlang
balling
550
naadig
ugrundede
##eskov
vacance
##entens
beredte
strande
forbedres
##staterne
facultet
wallis
vaskerhuus
##15
292
dispachen
antoniistræde
grammatik
##uta
kirch
eyer
comiteen
##eves
russel
munthe
drengebørn
kbhvnsp
udlevering
jstandsættelse
sulte
ulem
wich
##foer
##kkets
vii
udleverede
##hielp
texten
almindingen
##istent
tidsforløb
jørgensdatter
##skraft
capitainerne
læserne
udmærkelse
capudan
foranstaltede
tvangs
saal
schaarup
anmelderen
skjønhed
foustagier
dalsgaard
bortfalde
feyl
næsen
colonner
mønstre
æreslegi
schlegel
agurker
fryndser
##oeconom
spies
juvel
junge
stiftsavis
skoesp
bondekone
hielm
ridehoppe
##verts
villa
293
3500
sukkerraff
jagttagelse
kudsken
hensigtsmæssig
##mmere
fordringers
fregatskibet
##verden
skytte
lokal
##torium
skudte
castellet
##gjørelsen
bechmann
frederikshavns
mouri
tøm
froe
indkiøb
laxe
margret
erobre
velsignede
mildhed
##haars
alling
fremt
bedring
polic
navnkund
regimentets
lønne
rib
fierdendeel
fiskeriet
raffinerede
##person
propper
skarn
gavnligt
forgjeves
##øvr
defenfor
dristig
frydensberg
forøn
erindrede
ingens
##airo
vælger
muren
grøv
ræder
gottersgade
##senge
stervboestedet
glædeligt
fødeland
utilfredshed
lorentzen
##fec
##itæt
299
virkede
fjende
academiets
beregnede
jndfødte
faxøe
armeecorps
##rygter
udøvede
##ags
repet
klædte
lude
brix
tobakspinder
trem
æst
##sterets
##schen
patrioter
##felds
paagrib
underskrivt
overve
forson
laaget
kierulf
retninger
##abilis
seenere
##juris
begribe
##fangst
hæderlig
##dret
##chsen
##sses
tørke
gibs
overrakte
dale
##oy
omsætning
landsen
##acon
skeedte
suder
veiene
##pengene
byfogedcontoir
##kirkens
magdalena
tilbøielighed
tienstligst
overbragt
løgn
holger
anslag
kompagnie
gregers
indfriet
##14
##isis
forløst
tingene
tvergaden
wolf
tapet
eckernførde
bragnæs
##vie
##13
stade
jnfant
lutz
lommebog
afbenytte
boller
##bill
christenbernic
bulletin
bah
##eten
deris
politikammer
kbm
katechet
##hme
spore
aalborghuus
afvexlende
##tidet
##ikanske
benj
tillig
stoc
fragten
exped
klosters
fyrstelige
##scription
svaletønde
fuldført
syns
citronsaft
simmel
erkjendelse
##kreature
fremry
corporal
anmeldet
erstattet
##dør
##staten
spøg
næstfor
frugtsomm
kraftigste
ophævelsen
utilstræ
underdanigst
##mur
atten
inddrevet
sølvværdie
huu
betydeligen
sorgens
khvns
frelste
svigers
schæ
ophid
udbragtes
forauctioneres
nelson
##slef
##ado
regjeringer
##kaster
lykkeligen
brøst
tyrann
skudsmaale
militairet
orlogskibe
formodede
slav
1700
mønst
abonnenterne
##eser
epidem
##øjet
reene
erhverves
tvungne
lavt
nøiagtighed
manthey
piano
forrettes
##leri
lazar
##dømme
jsenkram
tjenester
##geret
##modninger
gangbar
##farvede
ulstrup
vante
pommersk
flamsk
##ækker
##issi
stiftede
nedbrydelse
mørkt
##bærende
øjebli
##delys
bux
servien
cavalier
edvard
pommerantzer
corender
##gartens
##qveret
kiøbmager
henfly
løfter
auctionscontoir
ærværdige
egetømmer
flensborger
forbedringshuusarbeide
jndsender
cubikf
##teligste
##fine
underhold
foregaae
dømmes
skuespilhuset
anviste
modsig
##ildning
qvæget
##bryster
udøvelse
fortunstrædet
dybtsørgende
bering
veninde
kroen
geheimeconf
smagfuldt
eenstemmigen
casses
tute
##itere
##pec
##ladelse
tilbøielig
laase
skienke
medgaaende
onske
ærinde
laar
##ærde
udry
christenbernikovstrædet
uvir
##tus
tilbagelevere
##videnskaber
tille
efterkomme
udsendt
projec
fremsætte
hertel
dorph
gjordes
vrede
##tønder
##anord
##stød
##omen
vedtog
elven
blege
toldvæsenet
biergene
##raadets
balt
##ther
##prykt
hoftidenden
rebeller
usandsyn
##kten
##25
reyst
##smann
maling
restance
##værdigste
smiths
spiiskammer
##chirurg
toldinspecteur
næppe
fordeelagtigste
forflyttet
##høy
##kanten
##sey
##rivelse
henrettede
wey
kundskabs
##magaz
pleye
allerbil
commit
inderlige
dyrehauge
urigtigt
gaaden
king
tidligt
størst
nørhald
lønning
befordrings
saxkiøbing
qvisten
##inten
svenstrup
fædern
fastsætte
fritages
##ancerne
udbyttet
##erende
schon
støbt
big
##dugs
qvindekjøn
kattun
frifunden
krigsskuepladsen
enkens
noter
##produ
roch
nabol
minerva
wulfsberg
##dringen
realer
kammerets
beskytter
forholdsmæssig
document
skorsteens
tobaksfabri
baumgartens
gigt
##agende
storve
##søg
lodden
tilfældig
slangerup
cele
tryl
##sblad
vognmands
statstiden
fiorden
toldbetient
ordbog
##arde
##etsomhelst
personligen
420
patriot
paalydende
vedkomme
##emand
lanng
sproget
landhuusholdings
ræt
##listen
selvmord
betientere
arrestanterne
tiltrædelsen
concerten
anskaffelse
markj
helm
brahetrolleborg
bryder
sond
contrab
aare
nybørs
brigantin
##beretninger
føiet
ist
##armer
##skoler
##regnes
kanonade
##orer
medfølger
reysen
brødet
dyrehaugen
efterlysning
##pers
afvig
hersteds
gjæs
grise
indviet
##ossa
oppebørsel
stunden
afgaaende
plankeverk
luxemburg
besværinger
væsenet
reedskab
slagte
sognefog
fasting
egeberg
ynde
justitsraadinde
##raadt
even
myl
lydelig
##attens
middagsmaal
seilet
brolæg
elen
subscribentere
##billede
##forte
##boelig
tilsvare
sedlerne
hospitalskirken
steentag
allerbilligste
afgjorte
holbeck
forsamle
##huses
møllersvend
##uelle
cohen
##ægtede
##værksted
nødder
practi
administrations
##aro
consol
jndbo
foreninger
skibsbygmester
vaanhuus
sarag
pauli
boelsmand
fakkel
overdrage
tiderne
beliggen
##tract
grønlund
interim
vaaninger
beroende
forkaste
##ktør
tilsende
tolk
##magle
kiøbstædernes
ottomanniske
kuffert
aachen
lampe
opbrudt
landst
brok
forestillende
vædde
##oti
bege
indgik
spal
formaaet
tiltroe
siele
jndgreb
geh
indeholdte
ufeil
africanske
jndvendinger
havets
harme
forskaan
markeder
pedros
hjemmehørende
povelsen
indmuuret
bortført
coburg
reto
##deeling
ribs
##klædning
diæt
katteg
##politi
jncassator
betroer
cancelliesecretair
klagen
phant
fortieneste
savnede
stigende
##iteret
tilden
spot
belle
brigskib
jesus
##fyrstelige
ufrie
##fug
##kasser
##indretning
##ængte
ungar
pibehoved
jnformator
##beskrivelse
##dernes
fradrag
haus
tilgrændsende
favnen
svovl
##bænk
tobakker
bjergede
dotter
advok
erfarenhed
generalforsamlingen
kassens
##reisende
vedtagne
##enschiold
##asseer
gudelige
anførere
poetiske
kannikestrædet
##veleer
##inker
forbrug
compli
batal
roeskild
gesandtere
##igerede
bosn
lystgaard
bomuldstøier
ubehagelig
archite
algreen
##astet
taftes
##poster
##garten
tombaks
glucks
##90
entr
334
scheels
østerriisøer
eid
ninger
formeret
erindret
kiøbende
sah
scha
rive
clo
konstitutionelle
prætension
statsgielden
lap
londonske
nationalitet
reber
politimesteren
guldbr
##bringelser
plyndret
wessel
296
##cal
##vide
huuslærer
svagt
terri
skriverp
retsdag
aarsagerne
retskaffenhed
domstolene
##dendes
##geren
vej
qvind
##inson
ærefrygt
advaret
kyndig
pyrenæ
##aris
tilbragte
herlow
revet
ultim
arne
generalkrigscommissair
formeener
sønderhald
benefice
mæskekar
sveistrup
brahes
bøgetræer
overle
levning
thun
##høft
gabriel
palermo
##cterne
##kiør
aarhundreder
moreau
haxt
bluh
bakken
forskjelligt
##bakken
jordeiendomme
fremstillede
opdragelses
##lan
##iken
juri
petresch
logementer
foreskrevet
##drive
jntelligen
langesund
fell
##ours
kosten
tilstrække
ubeskad
vinger
##isel
marsk
roed
##imar
ongefær
birketingsret
adkomstdocumenterne
processionen
hofbogtrykker
albanes
garanter
rigsbanken
boliger
barmhier
leire
situ
gemeen
halvparten
forliste
fremstillet
supplic
skjeppe
skibskapitain
viindruer
bogladen
##løses
koestald
##ted
##elyst
sengested
nationalforsamlingen
revolutionaire
ubegrib
##itu
tion
kiøkkenet
##ologie
udtaler
indd
parte
formeget
forelæste
fartøyer
650
belønnet
jtal
skjænkede
omgiven
dreiel
hæderstegn
væsentligste
bielæggerovne
##elskede
anfort
gesch
nørrejylland
sels
##læste
tienderne
middellandske
overrettens
skilsm
forfærdigelse
forpligtede
elig
up
overbringe
##merket
deeltaget
jacobi
brevvexling
uldall
dalmati
drama
magasiner
bedrøvelse
jnsurgent
giæs
laub
landsfor
##jægermester
nantes
##lets
##endeels
smalle
kjøbenhavnsk
willem
bjergene
øvrigheder
savner
vælgere
anhøre
##klæd
malkek
motto
bus
##unt
holbechs
parader
##fior
##aternes
gavm
greben
##maaned
heckscher
gig
jnder
acciden
lovmæssig
auctionsstederne
hæders
##plade
musel
skuespillet
revolutions
theologien
regentinden
jndførselen
##kostninger
rader
poulsens
portugisisk
nank
anviisninger
hvidberg
kjærlige
sigtende
##øster
parma
2400
regimen
rau
tilkiendte
chen
##spenge
gammeldags
hempelske
bibliotheket
berolige
##sprisen
erkebis
bohnum
schneider
fab
forkast
forsømt
##imir
##metofte
fredelig
oplevet
dagvognen
afgives
##istria
galant
efterladende
beklagede
propon
eftertrykkelig
##roes
##aca
##sigts
opdages
dimitteret
tiders
schwensen
tilveiebringes
baadsgaard
marchere
element
blikkens
bukke
frihedens
forseglede
dahls
strandbredden
mum
kandest
hvilende
##bruget
##klæring
udsælge
øieblikke
lith
1753
bomuldsgarn
uindbunden
nil
##gal
havdes
els
maaler
folio
##atorium
bagstue
antoges
vækker
æren
skiønhed
jnteressentskab
scholten
##hul
hungers
magtesløse
strikning
expeditions
fabriqveur
repartition
tildømt
##skasse
feh
kader
kredit
fortienester
henningsen
attent
døvst
##iterede
##tiender
anlagde
smor
duk
grati
betryggelse
peer
fremkaldte
spedelys
printz
##sindede
skjer
frisen
eftersee
##boerne
fremlagde
karudser
ondskab
jægerspriis
victoria
##ior
##pøl
##rector
hartk
##væver
jordbund
behørigen
punds
pletterede
befolkningen
flaades
bevaa
oxehoveder
fornemmeligen
informer
elephanten
idelige
##ching
spiseskeer
mecklenborg
existerer
forter
bagges
paska
forventninger
opdageren
jllumination
##cca
##unger
bourn
##ku
indtraadt
##øbt
pleiede
høier
studere
forklarer
assemble
simplere
orm
fæehuus
##afler
perfect
lieutnant
popul
##lander
bestandigen
vittor
nordamericanske
##pæle
frembragte
grum
305
##ernen
jndvaanernes
gaas
margarethe
upartisk
skilles
conventionen
tilraade
forhandles
anbringes
thing
##huusen
1754
dieb
ammeplads
forskandsninger
geelmu
marke
##antzen
##henseende
adskilt
lysegarn
brolagt
transportere
excesser
tommers
halvorsen
##edo
overværelser
formidd
ulf
landeiendomme
constitutionel
spurgt
apostol
prætensioner
##23
korrespo
snareste
utillade
silketøier
##gelighed
##dlr
##anie
##atnings
fortræn
bataillons
biefald
sylte
aagesen
##prisen
##cepter
syngespil
##lofter
stalden
teglgaardstrædet
arveprindsen
qviste
tis
##liger
rigensgade
forstod
commerceraad
mesterstykke
rangforord
munterhed
fold
høisk
træffer
##annelse
dannevirke
commerc
bragernæs
destomindre
storvez
overlader
##ængelig
auctor
304
befales
##aleer
dama
kjærlig
##æmpe
tilfalden
tilbagetog
pyram
bragernes
##onn
ordres
feede
equ
##bom
##enne
forres
pryg
hindret
velgiørere
hveden
notific
huer
pose
miile
fældet
dames
middelgade
##odborg
musk
monit
kathedral
besværlig
budgettet
tosc
udstædelse
opholds
hadersleben
skillings
##aturen
##estad
adlyde
297
huller
kattuner
allerhøyeste
parthie
aul
indstevnte
klages
##paaliggende
politimester
grevelige
ridehest
fortræffelig
sympath
ari
olmer
spanskrør
levetid
uvisse
mathematiske
kaff
paakommende
##umann
cob
logen
blodet
vaccin
falk
hovedkasse
brække
ottinger
længstlevende
frabedende
berede
seqve
hidkomne
vognmagergade
elect
egteskab
yngling
prætorius
øens
juveleer
statskassen
tredobbelt
indbemeldte
træet
forfatte
##stierne
##fordriv
hesselberg
##stisk
##urter
host
ligemaade
foreslaaer
efterkommere
rostok
uefterret
fam
max
##læs
fabriqven
pletteret
westind
indbefatter
yndling
gjeldende
philips
fiirkantet
tscher
##jæ
underholdende
##ogns
høyde
livr
pru
##verer
modstaae
fremsk
##command
##qvist
paafulgte
hohen
##ordre
fremfærd
##ogna
verit
krud
secondlieuten
declaration
maidag
maanen
##kjøbings
##raadte
police
oplyses
jndvaaner
348
artikkel
krydrede
birketræes
pern
ordentligt
1750
tunger
fredsunder
havannah
sqvaldergaarden
arbeidende
sørgespil
ordene
udspredte
beneficium
æble
menig
mandkjøn
modern
udførtes
skotske
bilæggerovne
reqvirenten
lassens
winds
blanke
stiv
hængende
pommerantser
eleverne
hytter
tilk
##ortel
oplever
christina
hartkornet
gregersen
##ellinge
cis
##trup
##sles
##hart
##kop
##ppo
syges
fuldmægtige
gemene
ubeskrivelig
harhoff
journalen
ædelt
fornærmelser
##sive
personale
constru
closter
pung
dende
forfrisk
##sættelsen
bryggergaard
##armee
allerbedste
modtoge
nich
pos
overveie
spre
##ssager
koffardieskibe
expresser
##ovet
høyere
bastrup
spilleborde
patienter
telt
sigter
##sper
raisonable
brønlund
hyrekudsk
rettede
kjøbm
hunderup
verona
clas
hjemsøgt
tørvehuus
betænkninger
indavlede
##ische
ell
kiøbmanden
thune
timelige
snig
ærke
colonierne
lp
ejende
vognremisser
saxild
forsvinde
trompet
avlingsredskaber
emer
##kurator
##ledet
stjer
##givenhed
nyhed
parlem
førstes
præg
explo
engelsted
kadet
majorinde
diet
##iørn
##iset
skiære
##ynter
##ægler
lovkynd
stiftbefalingsmand
sengekammer
sneen
vigants
pottemager
provisorisk
iberegnede
asch
indkommer
straaler
sønderlyng
monarki
##emidler
ringen
##ommere
postamtet
forskand
forestaaet
virker
afsond
boghandlerne
titul
stridskræfter
opførtes
raadstues
gjæstgivergaarden
##physicus
##ysning
ryst
##øvrighed
##clar
communen
gottingen
sieg
haveplads
unddrage
branddirecteur
tænkes
føiede
persons
380
fingre
##knapper
forhandle
reden
jomfruerne
procento
orlogskib
regelmæssig
anskaffet
svindsoet
udbede
##æggere
gavl
##aillen
skre
kongers
formænd
jordkielder
taft
jntervention
skrækkeligt
anholdelse
lykkens
##cat
##ottet
##selskabet
gjælder
moskau
arak
frans
274
embar
digtere
vederlag
foreslagne
besværlige
adsplit
rekommendationer
hove
##sveien
forfædre
krambod
borgemestere
uophørlig
##høns
##itser
aftener
##kelmann
kræver
udskiftede
keyserlige
jesuiterne
##obe
##olet
phill
skyldigst
søsters
afdeelinger
hertugdømmer
##ighederne
200000
molde
##alm
ask
pater
##itair
rbdl
minder
dæk
##kundskab
##ssag
navarra
drukne
opholdet
opsøge
huusarme
oran
kanonernes
overhof
##born
##konsul
afsættelse
herløw
##entved
##førende
acten
stænderdeputeret
melchior
##ønnelse
lygte
expl
kammerjomfrue
trapp
sammenro
snedkersvend
collecteurerne
directorium
efterlyses
deurs
##itut
optræde
seel
behandler
skolemester
coureren
moderate
mikkelsen
clemmen
leiesøgende
paaligger
provisioner
hovedparcel
indfunden
wiberg
jldløs
lier
elb
##geløn
minut
dronnings
nanne
##hiels
##pladser
indbetalte
bander
##ilæum
tienligt
regimentschirurg
bagergaarden
sorger
søgned
absenteret
gut
modsigelse
##shøi
fiendtlighederne
opfostrings
uder
##ærnet
generalgouverne
hedde
fordeelte
lemming
udbryde
##spørg
forbinder
##brændt
politiekammer
stifteforvalter
##doter
##lon
velfor
motion
neust
##astiske
subscrib
ødelagde
sangen
prænumeration
##askine
bring
betage
krigscommissair
blanding
bevaring
øresunds
visselig
paaskedag
tari
ureen
##navn
##apper
fralig
skaller
escadron
skaarup
vidtløft
mult
strider
virkeligt
opdagelser
huusmands
pavens
mortificationsdom
birkerød
afviist
beæret
storhed
jndløbet
stederne
kierlig
utrættelige
vittoria
cig
velcondition
occ
maanedlige
ærøe
gallerie
subscribenterne
##tømmer
gerhard
stykg
##voli
høisamme
begreber
krigerske
befatte
mishandlet
bekræftede
vindskibelighed
daaben
##roller
##atens
halds
sterboe
indehavende
##gardiner
##karle
krydser
soelberg
sati
hanherred
adm
750
daare
abrahamson
moniteur
kiæreste
bebudede
aager
ct
formeldte
forstæderne
fuldmægtigen
trudsler
gn
##møde
##olon
urne
blottet
indtræder
sessioner
forskiæl
dover
pærer
indgaaede
##urgt
office
sammenkomster
artium
prælimin
282
temmeligt
indsætte
matroserne
schiønning
røe
boston
landkort
sidstnævntes
vert
udstrakt
jngerslev
##mets
indanket
##irecteur
nytten
ordne
rummet
iagttages
eskadron
mæng
reich
reclam
kiøbesum
fremtidig
##kreaturer
##kle
##æren
liigt
##færds
genues
##rens
konfisk
plantede
munck
madratser
hulde
vattersoet
vartpenge
schade
hofraad
##loven
opfylder
jernbanen
##ester
##kande
almisse
candia
hengiven
practisk
godhedsfuld
jndsigter
oldsager
afski
aucti
##orger
##becks
seyld
##boegaden
bortfalder
bedrag
hensov
skylden
erkjender
##staxten
qvt
sygdoms
videnskabelig
contoi
stikkels
composition
bøye
letteligen
ufordeel
##drivelse
næsbye
udleies
gjæste
schall
syden
tidsfordriv
hp
æde
##umper
ther
onskes
midlertid
oeconomiske
##blaat
nad
##alens
havareret
hæst
##mode
forviist
stigen
##brandt
hækker
##sbøger
skyldende
oxet
ældgam
tilendebragte
hendrik
aftryk
iagttaget
betænker
eegholms
iværksat
##fjord
##faldes
velgjør
lettede
besættelse
batteriet
skydeselskab
vallak
unægtelig
kiede
tilsat
udryd
feldtmarskal
stephensen
indlægge
behandlingen
fjern
sehestedt
parker
menneskenes
læstes
magtpaaliggende
præstens
kancelliet
troesbe
##19
forfalden
forbedringshuset
oppebære
spiseskee
aftægtsmand
fremførte
##yttr
##iasen
ufornøden
##oedie
patriotisk
taffeluhr
anslaaet
accidentser
gil
kind
somme
286
fornemmer
##rav
##hede
tilhaande
overpræsident
spaad
maadelige
stueuhre
citantinden
herredet
mynst
gundersen
cordova
cul
hvergang
grundvold
formal
bekjendtgjor
obersten
speyl
vedt
plessen
sikkerheds
teglbrænder
vadsker
reimer
trygge
tiirsdagen
##selse
afde
envo
dey
forudsee
fallitbo
patte
indfalder
skift
compagnistrædet
ministeriets
barbariske
isteden
schilling
tidendes
assor
cataloget
concent
bombardement
must
uvæsen
##holter
forvandlet
agerdyrknings
lommetørklæder
vas
##order
bidstrup
##atum
##lateur
##aria
tamar
udklarerede
rime
oxen
pennen
udvandrede
marstrand
beviisligen
grovere
roeskildske
forrettet
donna
konstner
julie
unødig
reoler
undsl
rentekammerets
levetzau
leyes
godiche
##lette
blommer
##skilling
landeveie
forsikkringer
deputationen
huld
##ires
bedri
formeentligen
romaner
##klang
fornyelsen
##ritzlev
bytingsret
antegne
mahler
opbudsboes
gislum
haars
rigerne
commissaire
vægring
henrettelse
undskyldning
bestilte
##søster
øvrig
agers
renters
332
taknemmelig
forreste
bødkermester
usædvanlige
oiesyn
erne
lieutenanterne
indstrandet
øyeblik
nørresund
modvind
hindrede
##uts
schach
##haus
##komsten
lærdomme
busk
umulig
formindsket
ulovlige
tilber
stukne
afrik
##sefterretninger
maltha
diebitsch
domhuset
##ildhed
1752
rosted
anstalten
løkken
union
damsgaard
arrestant
forhøie
guldring
lets
##gle
hved
fiedler
qvæstede
sluttelig
franskmand
merinos
fordomme
secretaire
ebbeltoft
lommetørklæde
mandatarius
##anus
indladt
hvordan
##ssedler
skildrede
eiendeele
undvigelse
feldbereder
middagsmaaltid
ufeilbar
##act
glædede
hydr
iværksætte
bregentved
landvæsen
fries
lavdag
hoveri
ordrup
prædikede
lysebruun
nægtes
derind
indskibes
spæde
fiær
##mois
lerche
konsum
##tninger
##haab
beviste
##live
processen
skride
moes
trykning
schouboe
smittede
gouvernement
skiærpelse
employ
##siv
generals
hyg
##tings
##hjel
##dro
aarhus
##vendte
krigser
1747
forefalden
fornøyet
seminari
englændere
erkiendtlighed
##kassens
##jud
##skens
skibbrud
borgerligt
hyldest
uleylighed
indsættes
trop
separeres
løngang
fugls
recensen
##partiet
boelsted
vange
planens
antræffe
anonym
marqu
##bygt
weis
tømmersvend
rhinsk
silketøi
##yve
##yrede
mishag
gjentaget
fk
##fve
forlede
lew
319
ulti
helliggie
pludseligen
rytterie
romersk
##beens
folker
valnødder
sortebruun
sydost
##isationen
anstr
overfaldt
skolevæsenet
##trukken
capitul
pairskammeret
nass
##unna
klasses
andrup
##kjole
skolevidenskaber
consulat
anvender
damaskes
ugesk
gouvernementet
basse
##ota
gebet
milo
ministerne
givere
stemningen
##stykket
udfordrer
tilsigtede
udrettet
proviants
parterre
classelotterie
forberedelser
eden
##agh
##liau
##ægten
ladegaarden
forhøies
brøndum
slukket
hertugdommerne
skpn
anmærkning
baumgarten
authen
jil
##potter
skrivtlige
skiænket
overfor
skiult
accur
tienestekarl
præstegaards
stadigt
tilsvar
laugets
pude
keyserl
ldsoprykt
##fornøden
halvbroder
raserie
sælskab
##ologisk
krieger
carthagen
andal
##ordon
roskilde
fyrreplanker
oversvømmelse
udstrækning
afgivten
blikkenslager
hobe
statue
sandvigen
bologna
stader
pir
ubru
spind
ing
flinter
frontespids
ustem
##edes
beed
paasat
commanderes
otting
##aat
holsteinborg
jgien
ydet
paaber
##benævnte
volont
afhug
uvished
##geskov
uindskrænket
indqvar
##ppers
##inth
jnterims
femten
omendskjøndt
forslaaet
##arbeidelse
bekj
ligesaameget
326
rørbye
klingende
kjends
jnten
##skriften
børsenhalle
lehns
spadsere
##ull
ligning
schaff
##flid
pander
##otti
##saaes
skjæl
profes
trykkefriheden
ubestemt
afsættes
bestemmelserne
##klen
perp
hensigtsmæssigt
haxthausen
pharmac
bluhme
lt
stykkerne
bombe
slotsgaden
svække
dimensioner
helsingørs
spiisnings
krystalgaden
bøndergaarde
##arbeidede
legemer
holdne
ordsprog
##jener
##33
marthe
beundrings
hidrører
oder
lima
formaalet
foregik
undersøgelsen
gierder
overeenstemmende
##maskiner
ivrigste
trøier
##marker
annegaden
laveste
forventer
hjelm
opmærksomheden
godseiere
understøttelses
fideicomm
rixdaler
bortskyl
popp
leievaan
##seete
krakau
straaetag
udpasserede
megler
##dictionen
patroner
storbrittanien
fornemmeste
opsats
##mess
fall
##smaaden
egner
udrustning
eber
sup
##rust
skovs
sognes
hoveriet
takkelage
frands
udskrevne
bertr
parad
arvel
kofoed
hædre
pensions
helbredet
afsi
enh
skyer
conr
fornøielig
postkontoir
tjenligt
carolina
brødres
##oupe
hjornet
tsch
##inders
##vester
##kommes
regist
##spir
franken
pror
##mandler
##eskaber
steengjer
virkningen
studium
praktisk
frilodder
rummelhoff
saragossa
nom
##kisten
processes
bygger
resch
glor
skuffe
tønnesen
umisk
##beskrivelser
sølvbeslag
mam
pyn
skagens
##seret
exper
braun
udstaaet
corpser
##kob
tillagde
##ørv
indhold
mandahl
reisevogn
nøglen
ammunition
venetianske
næss
afgiften
apop
bechs
indstillet
dalmatien
##famil
forskrivning
##medelst
administrer
fløtte
standhaftighed
undergivne
betjene
søegaard
maii
##24
ligel
meener
##skription
raset
tyrk
forhindrede
bielegger
tydeligen
elendige
explosion
jel
mærkværdigheder
##hens
auf
forsømme
borgeres
trykningen
allieredes
prax
brasch
tutein
hade
skur
senn
control
schouw
udtør
lindenborg
gemeene
offre
smak
navig
klædnings
contor
reiz
corsi
anthor
seiler
jnflam
opsloe
naaer
##hjer
forhandlet
##agger
opo
boj
berger
undre
##ydnings
cabrer
kniplings
birgithe
fløyels
philipp
afhentelse
ingensinde
friere
nordisk
skilderiet
monitøren
##enti
indhø
mishandlede
avlsgaarden
bladets
gesandts
hypothek
##edr
kiedler
##anna
ols
skrivelser
gallizien
samledes
skaansel
abonnenter
velynderes
##ols
project
høyti
faderlige
indretningen
musikken
kapitel
staf
klap
afskaaret
gierningen
##sæd
foeres
voss
tommerup
marcussen
revisions
bedrøvelige
vedliggende
##houg
overdyne
jernplader
retourn
##cterede
##kelsen
adkomster
jour
etatsraadinde
algaden
haud
frembyder
kiøbstæden
alvorligste
gottlieb
jage
##elli
forstæder
maske
adresseavis
publicerede
flakke
mikkelsdags
usandhed
bortrømt
lovis
strang
karakter
uforander
overflade
forfal
endes
optræ
convers
##neman
fredrik
315
organiseret
skrivpapir
##pine
median
frod
regering
tranque
tvillinger
##føiede
toldforvalter
magts
tvivlsomt
churfyrsten
bierregaard
mahomed
drak
kirkestaten
katal
##ftigelse
udbetalingen
##strømmen
murat
cairo
doc
dona
avisens
oldenburg
voldsomt
bidrog
mindstbydende
##pens
##witsch
bei
deeltager
ramus
udlaane
luxus
##cau
##hid
##andi
indhentede
priisen
310
fryder
auditor
brasilianske
neckelmann
hallager
borgernes
##bard
rothschild
generalstab
tilveye
nyemodens
elev
schand
##kjælder
hæfter
hemmeligt
helliget
ziiret
statstidendens
kagen
##qværn
cha
avlingen
flyder
guineer
bekomne
##ærker
##angs
brend
janit
nørvang
##levad
contracitanten
##magersvend
skjønnes
arrange
##engt
henne
milling
afskaffe
dyrere
præmierne
epaul
halsbaand
geheimeconferentsraad
cod
delig
##drist
##vens
underjord
conrector
##ugler
291
specerier
##illelse
effec
##98
derud
overdreven
gjore
##utta
forlø
##øgerne
almeennyttige
aarvaagenhed
##hee
navnene
egenhændig
##75
##rug
##icke
draaber
pederstrup
plyndre
huden
hofjægermester
##oci
fæstningerne
duntz
sandelig
crone
frygten
patrouiller
ig
##lign
##lægten
kield
broug
adskilte
umagen
etatsr
##banco
##liges
torst
skadeligt
etatz
mørkebruun
satis
wass
lokke
vee
nept
opfunden
vægten
stræben
indsamlet
sud
meklenborg
sørgende
jordt
foranstaltes
høitideligheder
dølg
stikkelsbær
overfarten
gottenborg
rykker
kraftfulde
##stuer
##skreven
minutter
erfarne
kastrup
tiltro
vicec
kofod
forøvet
bivaanet
frugtesløse
ruder
lugtende
kølle
##masse
##ilds
frav
##rettighed
værne
udstædet
usædvanligt
silketør
kotzebue
havren
overmagt
##først
grundene
kiellerup
hæftede
slesvigs
rude
##smændenes
landstinget
sier
##mæle
frabeder
opgivende
##ieregiment
sevel
gaaen
transporteret
##jurisdiction
fode
sendelse
##pser
overrum
modne
fornøi
284
breden
philipsen
adskillelse
boeskab
behørigt
forsikkrende
conventen
udgivterne
wensyssel
mave
##arks
tyde
magasin
skandinaviske
dob
##itur
hou
##ocra
fæstet
uforstyr
laugdag
erkjendte
forsigtigheds
afbenyttes
communalbestyrelsen
benjamin
##stider
skarpt
udebliver
ofver
##timent
##egods
udstyr
livgarden
driv
mændene
rigsdalers
papeg
hiemmehørende
ging
betegne
laster
##byggede
datteren
##uerende
thorseng
opnaaede
smedde
plantning
##fro
støvet
##ustob
##iansk
selvsamme
sandberg
##ances
gur
pæl
tvet
##ffede
##taler
314
mindelig
kritik
bue
##igaard
marinen
tranquebar
alne
anbringe
skiulte
giørende
kiøbh
##bow
provence
##miske
udtil
holter
##aabte
alleneste
foregaaer
humble
##shug
tilkjendegav
bibelen
juntaen
nod
weder
##ostræde
375
##fartøier
præsidentens
strygning
thorvaldsens
indkommende
los
gulden
pølse
demonstration
lovgyldige
andagen
sege
##redse
bedær
ugentligen
bendt
handelshuse
dreiels
militære
sandheds
kurv
paatænkte
##stader
eiler
juledag
##bestigelse
underskov
græde
alvorligen
fland
##avlens
herligt
##ersel
hey
hestehandler
fortærede
delbanco
##algaden
beskie
gudum
##ollegiet
bispensgade
ottesen
behielp
tyvene
mælk
##war
colonien
harmonie
bekjendtgjores
hestetøi
bortforpagte
richard
affairer
svigermoder
transporteres
cogn
##anet
##mæssigt
westervig
bølger
##tro
begangne
opl
publici
hjertelig
spærret
##sholms
##slew
stjerne
marsel
##datters
bestemteste
mørket
italiensk
anony
##perne
erk
##isning
##rækket
pantegods
parlamentets
kogt
##rid
opdraget
dania
udbredet
##tschirurg
fruer
##lister
unders
slør
lyg
##isternes
deromkring
afsendes
christendommen
misforstaa
frelst
##ctere
bortkaldte
drømme
gulduhr
fortrinligen
pulver
smigrende
pels
##76
##vild
egentligen
trues
bismer
fødselen
communicationen
forunderlige
ferslew
lyster
generalcon
beboende
ankrede
##stractat
raadslaae
ihiels
holte
##gjel
glædelig
overleveres
ledsagedes
cec
pingel
bogens
lysthaverne
fæstningens
goldsch
atlaskes
staar
fres
dernest
nyerup
##læders
indfattet
liebenberg
354
galanterie
afleverede
forflyttelse
seyer
reede
uafhængige
maven
##berland
terr
##onerne
##aliteten
reguler
hak
sygehuus
ubehageligt
forbindelsen
rist
##skhed
anat
læk
##eskole
##ckes
lærling
cavaleer
cich
##deri
udsadt
tilsyne
befrygtede
hørlærreds
distance
bin
stahl
alton
halshug
befrygter
skyldes
klædedragt
theologie
gjødning
læssøe
udfærdigede
afta
næstfølgende
kapt
fattigdom
prøvede
haandværksvende
udstrakte
frakommet
overslaget
vanvitt
##ordenens
varetage
forskaffet
14ten
bygmester
##aters
stadfæster
rosenkilde
hilsen
jnserat
respektive
aun
vul
##rigske
udsæl
fortæret
formodentligen
overvinde
forvil
##eges
frembringer
##vileg
##asson
bøie
qvie
nordost
fastel
defens
lindegaard
pundeviis
##edæ
frugten
##vedlige
##tain
forkyndt
sluttedes
jntrig
dølgsmaal
##gtigste
viii
sidel
strømmede
anchersen
conjunct
##pat
kjø
jndvi
veye
##farne
haandarbeider
paastande
indstævnte
povel
##nene
opgangen
##beviisninger
helvet
pakboder
lindholm
voldsomheder
storthinget
haardnakket
ferslev
##bank
##uet
medmennes
##agtningen
reglementet
##assistent
##eskoe
confession
søndres
korthed
jordemoder
##esseret
fynsk
eies
polens
fiord
chartet
tillids
bortleye
gjemme
ceremonier
mantua
##tler
##nit
##uc
##wo
landsted
statsk
magistrats
udførlige
fjendens
sloge
ministers
papiirs
syngestykke
anerkjende
arabiske
omformelder
ryn
##bundne
frey
schumla
gluckstad
bevogtning
linds
udbye
prosa
seiren
prægtigt
lysthavere
provste
inderste
bevidner
sanction
infanter
tonde
iler
##qvin
forlænge
indvende
##cho
antændt
##officeer
##hjæl
stangjern
statholderen
skiftecommissarier
##udg
##væger
indbil
jndretningen
blæste
pich
##urger
falch
##proc
palmerston
hare
##krands
brevtaske
jndtrædelse
##ordnet
jordbær
hjemkomst
herforuden
tævehund
eeds
øm
##sang
##stog
bifaldet
tinghuset
lærredreng
cuba
principer
brougham
lænke
##26
trod
##klædet
takket
udtrykkeligen
fahret
studsgaard
gryder
cra
deter
floer
guadel
ærlige
opraabte
betryggende
jndskrænkninger
bæger
##artet
kanne
##vilkaar
confisc
overtro
bryllu
bevidsthed
sukkerraffina
forvex
anchi
opvartningsp
dommens
beskjeft
udk
##dagene
thon
ægtefolk
napoli
svigersøn
##pension
##edrag
##alem
brigskibet
baadsmand
castlere
##pølser
wissen
bleching
orme
ordenens
vandets
joniske
regentskab
vattersot
beredvillighed
kum
rath
##hlet
prove
spøl
lovbestem
osm
arret
direktor
rumpe
rømer
paalideligt
besværing
navarino
shawler
establissement
nanqviner
maas
lihme
hævne
##moderen
professorerne
restrup
sikkret
ondskabs
tilh
forsynets
promte
##iberg
fram
vandring
frederiksværk
værdigt
taffelet
mikkelbryggersgade
elem
ore
##inn
indlede
kjel
krøyer
priisdømte
guule
afskediges
andragendet
wegener
juels
##vante
foranførste
##cert
rødding
opstille
trondhiems
bab
censor
##buch
##hne
omvendt
overgangen
thal
##farts
bagerie
originalen
feltt
dalen
hoste
rettelse
##itiske
arvefæstegaard
gudstieneste
evner
##isler
indtager
jndskrift
fremtraadte
kopulerede
schierup
##øining
gienstanden
jsabel
##ropol
schmidten
foreenede
jmedens
taff
##cum
##jere
##yrer
muskat
handl
sing
##lio
overtale
pomper
commanderet
tilstædes
##ministeren
bournonville
##olde
melbye
laste
blanken
##planter
diff
søndergade
##øielige
grundlov
1849
hjøring
meddeel
anger
maaleb
ulfelts
beretningerne
sorterup
afsagde
brandforsikr
factum
rafn
walt
hoftidende
hule
længste
zimmer
##versen
##serende
meent
##sbog
conferencer
ligegyldig
gersdorff
wemmetofte
##gol
capers
bors
suhm
forsvarlige
oxholm
voxet
ærbødighed
nytaarsdag
blæse
landmandens
avanc
##andser
udvirke
landoeconom
laus
hospitalets
salted
laage
besværlighed
vacancer
evangelisk
skildp
thuesen
##kapitain
##vs
##ony
embedsmændene
zachari
lunden
taars
##uni
hevn
folkeret
uberegn
indberette
nærsomt
vestervig
ovenmældte
337
brystnaal
johnsens
sjællandsk
negere
##jomfru
indbefattede
beleirings
forfølgelse
udu
dragne
pakhuusskriver
papiret
addressecontoiret
##væl
##lerede
sønnichsen
flyvende
pinneberg
otterstrøm
stur
hvir
spundet
401
tilstilles
qvægtienden
adkomstbreve
archivarius
høiligen
##28
eftersees
hammond
frembringelser
belovede
schib
tilskyn
notarius
forædling
veltalenhed
##eel
kostbart
behøvedes
lerchen
fundat
slæbe
aqv
binder
vie
fordel
skads
indtre
byerne
pløen
haugefrøe
amtsprov
møis
jtaliensk
menneskelighed
haderslef
udviklet
frikiendt
abr
fave
##busch
paakiendt
##irup
overladte
juell
##smark
tørres
viborgs
ørken
sydlig
##ographiske
recruter
bagtal
simmelkiær
##app
afholder
velvedlige
halstør
troværdige
foed
hjemkommen
miils
lærerinde
hylde
oxehoved
larsbiørn
brædeskuur
araberne
carthagena
##ædike
##kap
giær
##essal
316
prøvelse
asyl
beqvemmeste
stumper
fung
ihenseende
lens
skiven
inten
flød
flint
assuerede
støvle
nødsfald
orlogskibet
jnstrumental
vundne
henstaaende
mangt
dyrket
maltgiør
bombardementet
theeskeer
pic
adsk
slagsmaal
endeligt
opmaa
kabell
portorico
besættes
thestrup
landdag
##schi
sprogs
underretterne
80000
slemt
prætention
generaltoldkammer
grubbe
##ucteur
##givere
sall
grønlands
misun
faderens
336
pillau
begravne
leyesøgende
bing
##pande
##kummer
erfaringen
gyldige
erstatningen
holstebro
##ignation
eiendommes
brask
stødende
wrads
paaanker
juan
##lye
307
tilbageblevne
modet
hensat
tiltræder
directoriet
aristokra
prophet
##strækning
undgaaet
jurisdictionen
farvergaden
seieren
skarpsk
apople
muligst
foster
antændte
ubehageligheder
kantrede
##forg
##stens
ens
brad
reven
modtag
synden
opfundne
agtværdig
heftede
dragonregiment
jnspekteur
diner
nærvær
bornemann
hospitaler
##peditionen
krop
overdaad
skiftebehandlingen
møgeltønder
##ged
henrettet
piemon
snese
piede
meddom
opkomne
##uttes
mangehaande
færøe
femmer
uroeligheder
ludvigsen
hindsted
celebr
ade
rings
##denne
stag
medtages
##lemaade
hædrede
besynderlighed
strenghed
odder
##rog
##rud
domkirkens
benæ
jepp
paagreben
jævn
kem
##geme
sire
siddet
skuespilhusets
udløbne
ostergade
ugunstige
hersket
##ariats
mangelen
klædehandler
##antsleren
indsaae
premierlieuten
sædekorn
fæstningsarbeide
bondrop
udenrigske
ceremonie
romm
beærede
##ørring
hoec
##lagens
rys
majestæters
protesteret
christendommens
##burger
diligen
opmuntret
edderduun
4to
æsker
##bag
træt
emilie
betænkelig
straffede
tvers
##ox
udgjort
##herende
lærrets
udflyttet
prædikestolen
bac
bunds
##lød
starup
troens
rouen
hofmester
halvsøster
silkebaand
maaltidet
leyligheder
fortuna
forenings
dagene
ferske
##maaltid
umiddelbare
maalestok
rar
##gartner
sørger
##quier
forhøiede
##skjør
beskrivelsen
hurtigere
bolværk
krabbe
sdl
##forandring
##riol
hakkelse
poes
serask
navneværdie
jnsurgenternes
debitors
##ykmager
piller
##hob
##kus
hvass
jnde
##kjold
typ
korskirke
attesterne
brandforsikkring
væst
##ober
##regaden
##lies
tredagen
kraftfuld
oxebryster
støbe
phantas
andalus
spilles
lob
bevilges
guit
skildrer
undersaatterne
arrag
sammensvorne
philosophgangen
elegant
##faren
posi
##ographie
fjendtlig
overbragte
reper
##icum
kirkevær
particip
322
brændeviinstøi
kaperen
berlinske
##hjul
manufacturvarer
bekiendtgjordt
##system
mærkværdigste
paadømt
silistria
langebroe
hjemmegj
cu
egede
overbord
bifalde
merket
sælgere
##bryder
ussel
sloges
testamentet
opvækker
conferentz
alternativ
##æiske
harald
sallighed
huuslig
##arierne
sogners
kirkestrædet
obrist
professoren
kunstens
flotille
##fecten
bænk
alde
herrem
kjoler
hidbragt
manufacturer
concurren
underkastes
hiemmegjort
blechingberg
bindes
lommen
sabler
indpa
##urgte
##ients
frederikshald
barns
væggene
##fyrste
batterierne
samleren
##quisition
omfattende
traktaten
befæstede
sabroe
avantgarde
algode
tilskriver
regim
sørges
avlen
##solgte
reyste
udødelige
begeistring
vaterland
hære
jtem
paadraget
indstævnet
gært
##rath
hvorvel
ulfeldt
jordbrug
phæn
nedsl
4500
brahe
propert
##aren
loddet
hugget
upasselighed
ewald
nærede
santa
bohe
flet
udgivelse
bondes
balles
betrokken
maskinen
bortfæstet
envoye
##eriet
##stænger
daup
##illerierne
kundgjørelse
tank
##chner
klaveer
##ikus
brændeskuur
svitzer
##smæssige
opsynsmand
fæstegaardmand
qvintin
pæle
##siger
##andiser
møllens
brækkede
bestyrtelse
rudera
opnaaelse
brittisk
professionist
corresponder
forurolige
riegels
landsoverretsprocurator
lutzhøft
##vern
velskab
barri
dyret
afreisen
forstandere
##edyr
##lein
menn
siber
beskrives
schleswighol
tvi
##arken
jacobs
flaadens
blodsudg
udholdt
opel
##holdelses
kramer
direkteur
akademiet
##spunct
frisch
detailler
konsten
menings
losse
##belt
blomsterfrøe
benævnelse
charlottenlund
##aconus
##oi
##olt
##dts
##ffner
##tegninger
kommissair
løgstør
erkebiskoppen
ric
##dis
##anernes
opstaaende
##tesse
musket
##vildt
kramp
fortære
høiesteretsdom
gregor
forelæsning
medskyldige
conde
betviv
lysning
vurderes
##anderup
høybroestrædet
kjæmpe
myg
##haaret
tilkiendes
##chou
##marke
skibrede
buck
graves
brillanter
beværtning
lichten
##yngede
##skovs
skabt
qvalt
leipziger
overrakt
##has
skiule
##holderen
urolighed
banksedler
ufrit
overgeneral
##ændtes
hiertes
elskværdige
kjøbesum
høiesteretsadvocat
smertelig
netteldug
corvetter
parlements
##nytte
vari
aargangen
maat
##utningen
styrede
steenfeldt
fjends
forglemme
olivarius
rømning
konvo
fremtræ
modens
hofferne
opfyldelsen
##præsidenten
##mlig
allet
samqvem
vares
##ikerne
##actier
arbeydet
maanedligen
temper
aftaget
indsigts
##angne
bran
topp
sukkerd
giødning
efterlevelse
##enden
sponne
flens
synges
aftenunder
hielper
trykpapir
underskreven
paatale
værks
##ændelse
skeed
manuskri
kreditorerne
michelbryggers
##relser
##ælling
prolog
bekiendtgjørelser
bonne
tilkjendes
kruuse
gjentage
munderings
legationsraad
hylding
##lange
##ping
overgaard
##ict
generalstaterne
postdag
271
pantal
lispundet
occup
##pi
forskrift
obligationerne
forsvundne
kamme
stutt
manus
pry
mandlige
henlægges
##versvend
373
delmen
calesche
usikker
hvetboe
opvartningspige
##gul
##omer
##anda
undergiven
briller
gotfried
virken
forudsætning
sengs
bidrager
fornærme
formindskelse
trykkefrihedens
skaffet
uddan
corunna
1751
vitterlig
nordenfieldske
jeppesen
lst
tod
##aarnet
danskes
johanna
##slunde
nordlig
carlsc
forfatters
børscours
svindsot
gaade
hentet
##aftes
forrenter
anarch
ples
gebyhr
ballum
redaction
lakerede
krybber
##eligst
beskrevet
borring
recommand
fløite
qvadratalen
guden
katte
kinder
ot
rømmet
spiser
##ideret
bibels
lægemidler
undertrykkelse
opmuntrede
##amtets
generalitets
bekommer
grundige
angav
afskaaren
assi
interessent
split
lex
betræde
jndh
price
##illinger
veirligt
begrave
realisation
landseneer
ror
handelstanden
soldaten
konstitutionen
nissens
berøre
##konomiske
stukken
gottfried
bølling
elleve
bedragerie
fynske
##opp
##alerne
bekjend
parties
oplysende
##ignan
uberettigede
søgsmaal
##mindre
##ieredskaber
uopsagt
bevaagenhed
kanten
lodse
##brecht
reenlighed
lofterne
schwartz
nurnberg
segeberg
skru
alsted
##usalem
disc
grundmur
anlægget
byggeplads
dumdrist
jesuiter
finantsministeren
spiritus
wede
##omhed
fros
krat
##procurator
brøndstrædet
##kostningerne
oversættelser
neptun
##iterne
tilplig
amtmænd
pengemangel
erhvervelse
kaperfører
jndførelsen
dj
darm
rak
sover
forstaa
weimar
afvende
udgivelsen
udstæd
dyrebar
stadfæstes
søemand
wraae
##foder
forto
forkastede
##arder
skok
grun
ordnet
berømmelige
sparekasse
gjensidige
328
benaadede
epist
fuldendte
nægter
salte
bild
drøm
kronet
lorck
unyttig
horizon
rup
anto
landgods
bordt
kierulff
veterinair
ærer
opsættes
høyl
mary
blød
fremkom
303
##plan
amsterd
hastige
høyesterets
ministeriums
erkjendtlighed
danneskjold
indviklet
drukken
zur
ligen
helligt
313
aftrykt
paagribelse
##iale
##kniv
##jecter
underviist
betjent
jndlæg
faldende
færgel
republiks
forkyndelses
anslaaer
beklæde
læseren
botan
##bid
##sender
næstpaa
eiers
secretairen
rørvig
tærske
marokk
suspenderet
eendeel
taab
##elet
hoe
kiøbenhavnsk
tivoli
##bell
sagernes
frederiksen
madras
brændeviinsbrænd
blaargarn
frederiksborggaden
##punct
dantziger
dupin
utrættelig
##ades
##døren
forklæder
derne
##ræs
hanne
naturhistor
forelæst
indsv
jordefærd
bogholderie
besværligheder
bærme
kasses
undtagelser
haandklæder
flekke
sædelighed
organisere
taknemmelige
indstillede
tilhest
hastrup
drøb
statspapirer
loh
græd
hædret
sværmer
kbhavns
borgerrepræsentanterne
manufaktur
lien
##kugle
##ward
lei
laqverede
fattighuus
dæks
grundeiendom
fiendtligt
fløiel
uundvær
øvede
grundforbed
tienestefolk
confirmand
genie
afslutning
kristne
afskyelige
hanse
park
gard
agerjord
fuldende
auktioner
aflevering
paaankes
flittige
translateur
##itten
broerne
ansøge
legater
circulation
taf
oplagte
##komsterne
rødby
skindbuxer
mislykket
##kyst
##støv
##tiener
frise
##ierget
udsvæ
forstaaet
forelagde
ivrige
naboeløs
reverents
kalleboderne
kosakker
afhængig
jntelligenz
##edende
##elskabet
naboen
ostenfeldt
æsthet
esch
mille
##held
standen
herskind
##tobak
##visende
procureur
##iserer
groth
##hielm
konsuler
formindskes
hansted
ins
##kalder
enevold
skjøde
lindring
lidenskaber
##snæs
graders
tomer
1746
waldemar
omringede
apostoliske
uvist
##cimbriske
##amager
##skudte
brak
arsenalet
testammente
gum
ifærd
##beds
holdning
lasten
jnscription
trudsel
sværdet
geographiske
kjøbstædernes
drøie
gangbare
talem
oberformynder
londonner
fabriqver
bolster
arbeidsheste
myndig
befries
expresse
udrydde
ever
##øve
stie
brændekielder
sædler
forsvarere
gaardeier
riberhuus
indflydelse
vivat
raadslag
læreren
politivennen
suppe
speculation
366
subskribere
angiveren
foredraget
ridetøi
liisberg
flensburg
##lyste
koppel
render
afslog
forordningens
flora
barth
forbigaaende
uegen
##edere
##skaal
##liisberg
overhør
coninck
nærmelse
##lesens
frimodighed
amtsavis
##ometret
efterføl
alleen
røverne
advarede
fuldmagter
zi
##ærte
##rader
slotte
##værnet
licen
##spor
langsom
mildere
##commanderende
##illetter
dronninglunds
modehandler
sorenskriverie
skadesløsholdelse
##cts
##99
søve
300000
henflyttet
velconditionerede
nexøe
undvær
gjordemoder
bornholmske
knaster
hjelpe
betimeligen
dede
##rækker
##øds
rek
kundgjorte
fregatte
medborger
tvistigheder
trommes
snit
formeent
need
##handlingerne
div
ruinerne
andrager
##fields
borgerrepræsentant
##æftet
##vst
velgierning
##attelse
bryghuus
##spect
tendents
frederichsborggaden
jsabella
fremføre
commite
tørrede
toges
rigtigheden
antræffes
aarstal
bortkaldt
kongerne
declam
353
##itze
violet
plyndrede
##dant
liighed
fordeelt
stoch
fiendtligheder
ænd
mous
viinædike
kjært
castrup
republikanske
testamenter
uefterrettelig
vember
##onia
herholdt
partiet
garverie
høistsammes
trukne
##ettrup
virkekreds
connosse
##zi
raaber
fjorten
semlin
stryges
døvstumme
ket
kass
luge
wie
##fæ
fordeling
##skel
frosten
betydnings
##ssal
anseeligste
afholdtes
betingelserne
violon
afgjøres
berettede
medlemmers
gudsfrygt
synderligt
##ørgelses
mislykkedes
koffardie
sqvaldergaden
klitgaard
rebslager
dreve
afsætningen
##holz
seent
sækker
paaskeflyttetid
propre
aarøe
betit
##ammeret
##havde
fædrene
statsgjæl
lemm
opbygge
ærøeskiøbing
provincial
opleveret
##pre
hvit
klagede
betjente
henlede
advent
opholdsteder
akademiske
krakmandler
achen
lorden
bruhn
mølleren
malaga
inderligen
betroes
kattegattet
##bønder
afkom
##ærter
##bevæg
portner
colleger
lærerige
opvartes
korpset
ufortr
løvenskjold
fontaine
ejeren
paadrage
extraderet
paastaaes
ranzau
tamarinder
usolgte
##varbe
dane
toppen
geert
stiftsbefalingsmand
##ueres
cathrineblommer
indstille
administrerende
eiet
##ittere
mans
than
amber
stikker
brevig
##kadet
tillavet
jerusalem
badens
sogneforstanderskabet
disciplin
##fineste
uhl
##ynger
hinandens
mørck
##husiske
pints
hofsorg
lovformelig
uskyldighed
wæ
##put
almuens
ihu
tilfaldne
skiller
medgaae
senget
hørboden
taarne
##madsens
uformodentlig
##akken
##ariel
indlades
vib
cham
andrea
postgaard
factor
allun
naturfor
##hænger
kaage
forhøret
archangel
satisfa
pint
opsættelse
anordne
rygterne
dynast
ermelte
omvende
regnen
schub
lovtale
træfang
frugtbringende
herregaarde
statsforfatning
politievennen
##inisteren
skarps
nerve
oppebørsels
quarantaine
advokat
køl
medvirke
##lik
indfaldende
oversl
betyder
godsers
dinesen
hjertelige
mosse
lispundviis
flygtninge
brystsvaghed
paraderede
regnede
afgav
livgarde
effect
embedsmænds
svækket
long
##ense
forærede
underholdt
pløie
##strands
sprogøe
hilset
beundre
##betiente
gazette
periodiske
##døde
##qvæ
trykfeil
benaad
##blom
indbudet
dyrene
jrlands
rescripter
fordærvelse
palladset
##cy
##æve
##isborg
vestph
##gades
ratificeret
lutherske
theoretiske
maneuv
klædningsstykker
jena
##avler
prydelse
lovforslag
mildt
kirkelige
authoriserede
burgos
skriverpult
kandestøber
##jus
##eli
omsp
indgives
opsig
oberster
hertuginde
dyrlæge
accordt
repræsentativer
tambour
forligelsescommissair
manuscri
udreder
##meste
##organ
hafte
##laan
jos
##øvelser
irlandske
sehested
bonder
##spande
compon
nordcimbriske
rosenvinge
svæver
##anstundende
svigerfader
provianter
adspredt
fordærvelige
renset
caff
doden
##brogaden
patriotisme
convenabel
hyppig
corvetten
meddomsmænd
mæss
sunder
uform
samtidig
##specter
almagt
haandtering
##pote
huusholdninger
recension
fængsler
gyldighed
jaget
rin
##olien
viint
chin
offentliggjøre
biør
sædegaard
confirmations
jakobsen
unyttige
prob
dans
mødre
buonapartes
filial
engellændere
gemahlinde
##gio
##forder
##ageret
toe
geb
undersøg
skipperne
kierligheds
lukkes
forordnet
##flaade
sortementerne
seminariet
##sædig
krigstienesten
aur
##sedler
##ares
jndkiøb
statsm
kierlige
beskrivelser
indviklede
byskriver
schagen
almues
hoftheatret
accurat
rigers
skarlagens
udrustninger
bagsværd
forvik
underhusets
spilde
fløie
flaader
kaldtes
forordnings
omhue
tienestsøgende
contreadmiral
kongerigets
tug
mail
##ianerne
enkepension
høystsamme
foregav
heftigste
tilbørlige
##qvetter
fyld
##jul
skyt
jndste
skibsefterretninger
skjorte
høitideligt
sprøite
willumsen
information
nassau
##amagertorv
forgaarden
nysn
haub
mejer
##ctur
kammers
hamborgs
rørlige
taxeret
concord
iværksættes
afsjungen
reensmagende
jkkun
messen
vunden
##etid
opdig
troende
halvøen
##minerede
egetræer
støtter
##queteer
waysen
reglemen
jtaliens
udlagde
##unster
##melde
##ølv
leieren
salve
henstaae
##ererne
sej
salv
allerfineste
fib
dydige
østlig
uvillige
atlasses
fraliggende
wissenberg
afhentede
##ogty
law
plyds
##hea
hartkorns
drengebarn
avlsforvalter
tusende
størrelsen
fuldbyrdet
albanien
passion
hafde
underkastelse
opofr
rold
##venden
plu
hertugerne
frankerede
væder
majoren
femmern
curasseer
lieutenanten
øllgaard
aqvav
faveur
tanger
giens
##ønnen
##ømmede
skiftejurisdiction
##smeds
##potte
affattede
##marschen
kattuns
bevaret
forend
regensburg
hentede
radet
grey
schiels
bortsælgende
indleveringen
remiser
forklaringer
entrere
stors
smaar
mindelighed
parterrel
uddele
grend
##ægges
portrum
banqve
pergam
tilkiendegiver
##itteen
##kirchen
opretholdelse
##ækhed
couverts
equip
hydra
jas
##røe
skodborg
beki
besadt
gjed
ladede
bogholderen
opbyggede
windinge
##bury
rathl
mathematik
mik
ubl
##mægler
##uli
##dæd
##ylet
##edl
##veres
paategnede
chap
huusmanden
generalfisk
tørring
##own
løben
##kin
##48
oppen
##givningen
kaner
lokum
ordrer
tydelige
auctionsforvalter
viinkielderen
jslands
ubeqvem
akkorderes
forrettede
sattes
338
landhuusholdning
paagrebne
deposito
mandsklæder
neustadt
tilladte
slange
henvise
tikiøb
høyædle
##slær
sammenkalde
fritagne
lampetter
hævde
##plø
afreg
uddrag
salu
eskildsen
onsild
angest
ærkeb
gærtner
zante
##edistri
mansk
fladt
kronning
bakker
bevillinger
kuling
expeditioner
brudg
ærøeskjøbing
##drenes
##landing
friberg
baiern
lemmerne
ædelmodig
brønde
paatænkt
themsen
modificationer
nysnævnte
##boen
coul
venus
24000
hurtigste
beklædte
efterrettelig
##fornødenheder
##ængelige
bless
##anniens
ligevægt
heger
deserteurer
tavle
særegen
ulfeldtsplads
vener
##uere
##jser
##rettelse
broget
faredag
beboeren
forpag
agerbrug
##gard
sirtz
fornuften
##godt
jndlevering
vocal
itide
øy
##gri
undertegne
345
hoffets
missionair
akt
æm
##røm
##qvil
omgi
spænde
veltil
hovedgaarde
tajo
kraver
vedligeholdes
hessiske
beroligende
oldingen
ovale
kiersgaard
klang
grasser
fornummet
pedermadsens
##spostens
forbrændt
storadmiral
rejer
sletten
majors
bondekarl
ild
befordrer
ups
##agie
syning
snæ
brandmuur
passerer
fædrenelands
frydendahl
kornlofter
emaillerede
praxis
##artede
lauren
##ops
##havre
##lenz
politiret
forklares
lybsk
##pligtige
##ugelige
##aud
##bevil
##middag
jndløsning
gientagne
landskabet
miles
opbudne
søndersl
advarer
erstattes
reparere
winthers
kuur
differen
##rona
udtrykker
havreg
undert
brædstrup
rabbek
badenske
harpix
mole
reqvis
fredriks
jublende
hønsehund
frimurer
hosskrift
pardon
gotgiøre
middagspise
licitationer
forseelser
##allet
deeles
steenkull
schiøtz
junghans
fehmern
##iin
herhid
##medet
storherrens
##kjende
pladslog
adelsmand
frøkenpige
slip
diderichsen
satisfaction
hab
##fle
##fatt
tyske
mageløs
paske
##magere
indskrænkes
mundingen
##avenius
indsluttede
anmerkninger
gundorph
ungarske
varna
lic
fornøiede
præstegaardens
sammensat
beskjæftigede
strasborg
immer
##ieret
bleeg
scher
farvede
tørst
præstere
kryder
balletmester
velsignelser
debitores
generalconsul
##rouller
spande
feirede
mislig
tjenestefolk
bolette
smitsom
beholdningen
retfærdiggjøre
bourg
stores
forbaus
haaret
fordrevne
##strakt
chaluppen
ligegyldigt
pandtsat
##iosa
##pan
underordnede
slagt
rbdr
kond
gammelamagertorv
tilkjøbt
tyrke
steenkister
uddeeles
tilmeldt
##isselem
qvindfolk
##svende
landskab
schin
commedie
anseende
hospitalerne
næmlig
beley
udnævnet
allerhøistbemeldte
beleiringen
hagemann
lofte
prim
neue
bekjendtgjørende
##qvemager
skræd
vinterens
skader
armene
anklaget
grusomme
huusleye
##nig
udstr
frakker
lidelse
##føreren
bagva
afslutte
subskriptions
grævskabet
##freund
næt
##36
##akel
eenhed
engle
eiermanden
indbeg
sælhunde
black
jrgens
winkel
beklageligt
musicalske
velindrettede
jnstitutioner
mikkelbryggersgaden
ulfeltsplads
formør
biørnsen
smagfuld
fugleskydning
brist
##ateur
##gor
udtaget
##vidende
##ustobak
jnse
slagterne
hiertelig
bernt
attraaede
##korpset
gudstienesten
scharling
skaaren
førelse
bob
[...]
